<unk>	0
<s>	0
</s>	0
,	-2.55786
.	-3.05903
▁ᎠᎴ	-3.31622
▁ᎾᏍᎩ	-3.74066
;	-3.84718
Ꮓ	-4.05314
▁ᎯᎠ	-4.39966
▁ᎨᏒ	-4.68686
▁	-4.80562
Ꭲ	-4.89638
▁ᎥᏝ	-5.1063
▁ᎨᏒᎢ	-5.16101
ᏰᏃ	-5.23493
Ꭹ	-5.28721
▁ᎨᏎᏍᏗ	-5.28804
▁ᎤᏁᎳᏅᎯ	-5.30177
▁ᏃᎴ	-5.4119
▁Ꭴ	-5.45626
?	-5.52935
▁Ꭰ	-5.54821
▁ᏴᏫ	-5.55308
Ꮙ	-5.61718
Ꮧ	-5.63864
Ꭿ	-5.71576
▁ᎩᎶ	-5.71996
▁ᎾᏍᏉ	-5.76115
▁ᎢᏳᏍᏗ	-5.79824
▁ᎾᎿ	-5.80365
▁ᎾᏍᎩᏯ	-5.81376
⁠	-5.81958
▁ᎠᏎᏃ	-5.83291
▁ᎠᏴ	-5.85235
Ꭽ	-5.90453
▁ᏱᎩ	-5.91159
▁Ꮎ	-5.91511
-	-5.94423
▁ᏥᎩ	-5.95378
▁ᏱᎰᏩ	-5.95494
▁ᎪᎱᏍᏗ	-5.95504
▁ᏂᎦᏛ	-5.97764
▁ᏂᎯ	-5.98595
▁ᎢᎦ	-5.98733
▁ᎤᎬᏫᏳᎯ	-6.01555
▁ᏥᏌ	-6.01613
▁ᏂᎨᏒᎾ	-6.01684
Ᏹ	-6.06306
▁“	-6.08896
Ꮎ	-6.12866
ᏍᎩᏂ	-6.13457
▁ᎣᏍᏛ	-6.19415
▁ᎯᎠᏃ	-6.20767
Ꮫ	-6.21213
ᏍᏗ	-6.24246
▁ᎤᏪᏥ	-6.27711
▁Ꮷ	-6.28756
▁Ꮧ	-6.29912
▁ᎢᏳᏃ	-6.30532
▁ᎾᏍᎩᏃ	-6.3392
▁ᏧᏪᏥ	-6.35733
▁ᎦᎶᏁᏛ	-6.37887
Ꮣ	-6.39913
▁ᏄᏪᏎᎢ	-6.39972
▁ᎿᏉ	-6.41639
▁ᎡᎶᎯ	-6.43029
▁ᏞᏍᏗ	-6.44255
▁Ꮵ	-6.45775
▁ᎠᏂ	-6.45949
▁ᎨᏍᏗ	-6.46123
▁ᎿᏉᏃ	-6.49223
▁ᎤᏲ	-6.52705
Ꭶ	-6.54782
▁ᎤᏛᏁ	-6.56094
▁Ꮳ	-6.57582
▁ᎤᏣᏘ	-6.58688
▁ᎠᏥᎸ	-6.62199
▁”	-6.62507
▁Ᏹ	-6.63871
▁Ꮪ	-6.6408
▁ᏫᎵᎻ	-6.67096
,”	-6.67636
▁ᎾᎯᏳ	-6.68578
▁ᏂᎦᎥ	-6.697
▁ᎬᏂᎨᏒ	-6.70793
▁ᎠᏍᎦᏯ	-6.71374
▁ᎦᎸᏉᏗᏳ	-6.72004
▁ᎬᏂᏳᏉ	-6.7291
▁ᏄᏍᏛ	-6.73154
Ꮒ	-6.74393
▁ᎦᏙ	-6.75281
▁ᎧᏃᎮᏛ	-6.7553
▁ᎡᎯ	-6.76416
▁ᎤᏩᏒ	-6.76984
▁ᎠᏁᎯ	-6.771
▁ᎦᎸᎳᏗ	-6.77388
Ꮕ	-6.79538
▁ᎠᏰᎵ	-6.79943
▁ᎠᏕᎸ	-6.82155
▁ᎨᏎᎢ	-6.82389
▁ᎤᏤᎵ	-6.84521
▁ᏌᏉ	-6.85456
▁ᏰᎵ	-6.8552
▁ᎤᏤᎵᎦ	-6.85829
Ꭸ	-6.86063
▁ᎠᎹ	-6.86229
▁ᎢᏴᏛ	-6.87514
Ꮈ	-6.87751
Ꮟ	-6.8778
▁ᎢᏣ	-6.87814
ᏗᏱ	-6.89202
▁ᎤᏂ	-6.90059
Ꮅ	-6.90448
▁Ꭲ	-6.93053
▁ᎾᏂᎥ	-6.93077
▁ᎣᏏᏳ	-6.93425
▁ᎠᏎ	-6.94001
Ᏻ	-6.9526
▁ᎦᏙᎯ	-6.95292
▁ᏔᎵ	-6.95955
▁ᎢᏏᎵ	-6.97274
▁[	-6.9825
Ꮄ	-6.98429
▁ᎤᏟ	-6.98982
▁ᎪᎯ	-6.99057
▁ᏗᎧᎿᏩᏛᏍᏗ	-6.99181
▁Ꭿ	-7.01727
▁ᎠᏓᏅᏙ	-7.02315
▁ᎣᏍᏓ	-7.02637
▁ᎠᏂᏍᎦᏯ	-7.04139
Ꮢ	-7.04167
▁Ꮣ	-7.04422
▁ᎨᏎ	-7.05301
▁ᎢᏥᏈᏱ	-7.08291
.”	-7.08948
▁ᏔᎵᏁ	-7.09714
▁ᎼᏏ	-7.11287
Ꮂ	-7.1274
ᏍᎪ	-7.13007
▁Ꭶ	-7.13453
▁ᎢᏳ	-7.14316
▁ᎨᏒᎩ	-7.15585
▁ᎬᏩ	-7.15664
▁⁠	-7.1628
▁ᎤᏍᏗ	-7.17733
▁ᎢᎬᏱ	-7.17776
▁ᏤᎦᏈ	-7.1809
▁ᏚᏳᎪᏛ	-7.18177
]	-7.20627
▁ᎤᏂᏣᏘ	-7.21187
▁ᎡᎳᏗ	-7.21219
▁Ᏻ	-7.22037
!	-7.22137
▁ᎡᏆᎭᎻ	-7.22737
▁ᎢᏳᎵᏍᏙᏗᏱ	-7.22811
▁ᎦᏙᏃ	-7.231
▁ᎠᏫ	-7.23169
:	-7.23708
ᎨᏍᏗ	-7.23854
▁ᎢᏗᏢ	-7.24215
ᏍᎩ	-7.24253
▁ᏩᎦ	-7.2448
Ꭰ	-7.25281
▁ᏇᎵᏲ	-7.26197
▁Ꮻ	-7.2663
▁ᏏᏆ	-7.27659
▁ᎠᎨᏴ	-7.28769
▁ᏲᎾ	-7.28818
Ꭼ	-7.30075
▁ᎤᎾ	-7.3023
▁ᏦᏩ	-7.30328
▁ᏌᎳᏓ	-7.31446
Ꭺ	-7.31614
▁ᎠᏏ	-7.31732
▁ᎾᎥ	-7.32934
!”	-7.32979
ᏙᏗ	-7.3314
▁ᏄᏪᏒᎩ	-7.33717
▁ᏅᎩ	-7.34234
?”	-7.34655
▁ᏄᏪᏎᎴᎢ	-7.35166
▁Ꮽ	-7.35914
▁ᏂᎦᏓ	-7.36894
▁ᏧᏓᎴᏅᏛ	-7.39096
▁ᏱᎨᏎᏍᏗ	-7.40378
▁ᏦᎢ	-7.40721
Ꮿ	-7.40786
▁ᎢᏥ	-7.42386
▁ᎤᏙᎯᏳᎯᏯ	-7.43817
▁ᏥᏌᏃ	-7.4423
▁ᏅᏯ	-7.44404
Ꮵ	-7.44546
Ꮑ	-7.4482
▁ᏂᏚᏪᏎᎴᎢ	-7.47019
▁Ꮿ	-7.47608
▁ᎦᏚ	-7.48369
▁ᏐᏈᎵ	-7.48714
▁ᏝᏍᎪ	-7.48734
▁ᎠᏂᏧᏏ	-7.49506
▁Ꮔ	-7.49578
▁ᏣᎬᏫᏳᎯ	-7.49986
▁ᎤᎬᏩᎵ	-7.5061
Ꮞ	-7.51043
▁ᏧᏤᎵ	-7.5107
▁Ꮒ	-7.52052
▁ᎦᎵᏉᎩ	-7.52437
▁ᏓᎶᏂᎨ	-7.52514
▁Ꭼ	-7.53165
▁ᎬᏩᏍᏓᏩᏗᏙᎯ	-7.53221
▁ᏄᏪᏎᎸᎩ	-7.53334
ᏍᎬ	-7.53574
▁ᎡᏍᎦ	-7.53964
▁ᎦᎪ	-7.54415
▁ᏂᎦᏗᏳ	-7.54559
▁ᎢᏧᎳᎭ	-7.56815
▁ᎬᏗ	-7.56907
▁ᏂᎪᎯᎸ	-7.56984
▁ᏰᎵᏉ	-7.57689
Ꭾ	-7.58284
▁ᎦᏓ	-7.58658
Ꮃ	-7.59086
▁Ꭸ	-7.59535
▁ᎠᏆ	-7.60261
▁ᎠᏓ	-7.60435
▁ᎤᏙᏓ	-7.61098
▁ᏚᏂ	-7.61212
▁ᏈᏓ	-7.61503
▁ᎣᏂ	-7.62183
▁ᏄᏪᏎᎴ	-7.62942
▁ᎤᏤᏍᏙ	-7.64378
▁Ꮥ	-7.65624
▁ᏥᎷᏏᎵᎻ	-7.66621
▁ᏂᏚᏪᏎᎸᎩ	-7.67417
▁ᎠᏏᏉ	-7.67519
▁ᏣᏂ	-7.6814
▁ᎦᏚᎲ	-7.68276
▁ᏅᏗᎦᎵᏍᏙᏗᎭ	-7.68938
▁ᎠᏂᎨᏴ	-7.69693
▁ᎬᏂ	-7.70186
▁ᎤᏅᏒ	-7.70708
▁ᎢᎩ	-7.71016
▁ᎪᏪᎵ	-7.71721
▁ᏉᎳ	-7.7272
▁ᏧᎾᏓᎴᏅᏛ	-7.72858
▁ᏱᎨᏎ	-7.73545
▁ᎢᏯᏂᏛ	-7.7372
▁ᎬᏂᏛ	-7.73884
▁ᎠᎩ	-7.74707
▁ᎡᏙᏓ	-7.75135
▁ᏄᎬᏫᏳᏒ	-7.75289
▁ᏂᎬᎾᏛ	-7.7538
Ꮨ	-7.75442
▁ᎢᎦᎢ	-7.76233
▁ᏍᎩ	-7.76361
▁ᎾᏍᎩᏯᎢ	-7.77079
▁ᏐᏉ	-7.77883
▁ᏣᎵ	-7.77901
▁Ꭱ	-7.78282
▁ᎪᎯᏳᏗ	-7.78916
ᏔᏅᎯ	-7.7916
▁ᎠᏂᏔᎵ	-7.79212
Ᏼ	-7.80296
▁ᎾᎥᏂ	-7.81124
▁ᎡᎳᏂ	-7.81157
Ꮀ	-7.81656
▁ᎤᎵᏂᎩᏛ	-7.82112
▁ᏄᎵᏍᏔᏁᎢ	-7.82564
▁ᎢᏴ	-7.82798
▁ᎤᏁᏨ	-7.83168
▁ᎤᏙᎯᏳᎯ	-7.83299
▁ᎼᏏᏃ	-7.83822
▁ᎤᏓᎵᎢ	-7.83977
▁ᏗᎦᎳᏫᎢᏍᏗᏱ	-7.84242
ᎸᎩ	-7.84243
▁ᏧᏂ	-7.8556
▁ᎢᎬᏱᏗᏢ	-7.86607
▁ᎤᏓᏙᎵᏍᏗ	-7.8661
▁ᎠᏣᏗ	-7.86641
▁ᏄᏂᏪᏎᎢ	-7.8665
▁ᏥᎪ	-7.87086
ᎸᎯ	-7.87238
ᎴᎢ	-7.87825
▁Ꭽ	-7.88149
ᏍᎨᏍᏗ	-7.88359
▁ᎢᎨᏎᏍᏗ	-7.88465
ᎮᏍᏗ	-7.88772
▁ᏗᎧᎿᏩᏗᏙᎯ	-7.9037
Ꭵ	-7.90533
▁Ꭷ	-7.90537
▁Ꮩ	-7.90717
▁ᎯᏍᎩ	-7.90865
▁ᏗᎦᎸᏫᏍᏓᏁᏗ	-7.91079
▁ᎠᏯ	-7.9124
▁ᎢᏧᎳ	-7.93008
▁ᎤᏛᏅ	-7.93298
▁ᎡᏏᎩ	-7.93634
▁ᎠᎾᎵᏅᏟ	-7.94259
▁ᏌᏌ	-7.94277
▁ᏗᏣ	-7.94349
▁ᎩᎦᎨ	-7.9526
▁ᎰᎻ	-7.96288
▁ᎦᎶᎯᏍᏗᏱ	-7.96384
▁ᏅᏩᏓᎴ	-7.96787
▁ᎭᏫᏂ	-7.97098
▁ᏑᎾᎴ	-7.97435
▁ᏧᎾ	-7.9772
▁ᎠᎵᏍᏓᏴᏗ	-7.98102
ᏔᏅ	-7.98115
▁ᏍᎩᎾᎾ	-7.98274
Ꮸ	-7.98696
▁ᏅᏙ	-7.99084
Ꮻ	-7.9924
▁ᏒᏃᏱ	-7.99367
▁ᎢᎬᏱᏱ	-7.99418
▁ᎢᎾᎨ	-8.00078
▁ᎬᏩᎦᏘᏯ	-8.00421
▁ᎤᏃᏕᎾ	-8.00423
▁ᎠᏧᏣ	-8.00424
▁ᎤᏩᏌ	-8.01417
▁ᏔᎳᏚ	-8.01485
Ꮲ	-8.0206
▁ᎤᏥ	-8.02316
▁ᎦᎸᎶᎢ	-8.03007
▁ᏱᎨᏎᎢ	-8.03549
▁Ꭳ	-8.04307
▁ᏧᎬᏩᎶᏗ	-8.0476
▁ᎩᎳ	-8.04903
▁ᎤᏓ	-8.05064
Ꮜ	-8.05177
▁ᎤᎾᏤᎵᎦ	-8.06194
ᏅᎯ	-8.06548
▁ᏚᏙᎥ	-8.06816
▁ᏚᎾ	-8.06908
Ꮳ	-8.07299
▁ᎢᏤ	-8.07436
▁ᎦᏲᏟ	-8.07997
▁ᏅᏩᏙᎯᏯᏛ	-8.08117
▁ᎠᏏᏴᏫ	-8.083
▁Ꭵ	-8.08671
ᏍᏛ	-8.08695
ᏉᏍᎩᏂ	-8.09014
▁ᎢᎸᎯᏳ	-8.09261
▁ᎢᏓᎵᏅᏟ	-8.09264
▁ᏧᎾᏁᎶᏗ	-8.09275
ᏍᎩᏂᏃᏅ	-8.10325
Ꮩ	-8.10344
▁ᏱᎨᏒᎾ	-8.10425
▁ᎤᏍᏆᏂᎪᏗ	-8.11567
▁ᎤᏚᎩ	-8.11758
▁ᏗᎦ	-8.13735
▁ᎠᏆᏤᎵ	-8.13864
▁ᎢᎪᎯᏛ	-8.14019
▁ᎠᎬᏱ	-8.14047
Ꮝ	-8.14584
▁ᎣᎩ	-8.1468
▁ᎠᏰᎸ	-8.14788
▁ᏄᎵᏍᏔᏅ	-8.1492
▁ᎡᏆ	-8.15062
▁ᎭᏫᏂᏗᏢ	-8.15221
▁ᎠᏇᏥ	-8.15223
Ꮥ	-8.15491
▁ᏧᏤᎵᎦ	-8.15698
▁ᎩᎳᏉ	-8.15946
▁ᏅᏓᏳᏓᎴᏅᎯ	-8.16453
▁ᏂᏨᏪᏎᎭ	-8.16463
▁ᏄᏂᏪᏒᎩ	-8.1652
▁ᎦᏓᎭ	-8.17022
▁ᎤᏇᏓᎵ	-8.1768
▁ᎦᏳᎳ	-8.17708
▁ᎤᎾᏓᏅᏘ	-8.17732
Ꮤ	-8.18634
ᏎᎢ	-8.187
▁ᎢᏳᏩᏂᏌᏛ	-8.18966
▁ᎢᏳᏰᏃ	-8.19202
▁ᎢᏐ	-8.19235
▁ᏥᏳ	-8.19857
▁ᏃᏗ	-8.20697
▁ᎢᎦᏛ	-8.21407
▁ᎤᏁᎳᎩ	-8.21562
▁ᎤᏕᎵᏛ	-8.21568
▁ᏧᏙᎢᏛ	-8.21578
▁ᏄᏪᏒ	-8.21639
▁ᏄᏍᏗ	-8.22595
▁ᎢᏯᎦᏴᎵ	-8.22862
▁ᏧᏍᏆᏴᏍᏗ	-8.22936
▁Ꮫ	-8.23136
▁ᎤᏛᏛᏁ	-8.23371
▁ᏗᎪᏢᏔᏅᎯ	-8.24207
▁ᏓᏂ	-8.2523
▁ᏍᏉ	-8.25435
▁ᎠᏁᎲ	-8.25762
ᏁᎢ	-8.25883
▁ᎦᎵᏦᏛ	-8.262
ᎮᎢ	-8.26418
▁ᏄᎵᏍᏔᏁ	-8.26851
▁Ꮹ	-8.26883
ᏍᏗᏱ	-8.26958
▁ᏄᏓᎴᏒ	-8.27058
ᎸᎢ	-8.27188
▁Ꮶ	-8.27297
▁ᎠᏁᎲᎢ	-8.27734
ᏒᎩ	-8.2813
▁ᎠᏍᏓᏯ	-8.28501
ᏅᎩ	-8.29123
▁ᎤᎾᏤᎵ	-8.29351
▁ᎢᏳᎵᏍᏙᏗ	-8.29513
▁ᎠᎾᏙᎴᎰᏍᎩ	-8.29716
▁ᎦᏁᎸ	-8.29793
▁ᏐᎢ	-8.29834
▁ᏦᎢᏁ	-8.30115
ᏙᏗᏱ	-8.3026
▁ᏃᏉ	-8.30975
▁ᎠᏍᎪᎯᏧᏈ	-8.31173
▁ᎡᎳᏆᏗ	-8.32618
▁ᏧᏅᏏᏓᏍᏗ	-8.32623
▁ᎩᎬ	-8.32657
ᎨᎢ	-8.3296
▁ᏄᎵᏍᏔᏅᎩ	-8.33184
ᎲᎢ	-8.33606
▁Ꮭ	-8.33924
▁ᏌᏩᏂ	-8.34061
▁ᎠᏂᏆᎵᏏ	-8.34062
▁ᏠᎨᏏ	-8.34081
▁ᎠᏲᎱᎯᏍᏗ	-8.34091
▁ᎠᏓᏁᎸ	-8.35063
▁ᎧᏅᏂᏍᎩ	-8.3514
▁ᎠᎦᏴᎵᎨ	-8.36432
▁ᎠᎺᏉᎯ	-8.37069
▁ᏄᏂᎬᏫᏳᏒ	-8.37074
▁ᏧᏕᏘᏴᏛ	-8.37075
▁ᎤᏂᏃᏕᎾ	-8.37078
▁ᏥᏳᎯ	-8.37081
▁ᎤᏁᎬ	-8.37221
▁ᎤᏒᎯ	-8.37537
▁Ꮟ	-8.3847
▁ᎤᏂᎬᏫᏳᎯ	-8.38646
▁ᎤᏃᎴ	-8.38721
ᎪᎢ	-8.39209
▁ᎢᎦᏤᎵ	-8.4006
▁ᎠᏙᎴᎰᏍᎩ	-8.40182
▁ᎠᏍᎪᎵ	-8.40228
▁ᏕᏥ	-8.40509
▁ᏗᏂᎧᎿᏩᏗᏙᎯ	-8.41758
▁ᏣᏄᏏ	-8.41792
▁ᏅᏩᎾᏓᎴ	-8.42564
▁ᏂᎯᏍᎩᏂ	-8.4262
▁ᎠᏍᎦᏂ	-8.42678
Ꮴ	-8.44062
▁ᎾᎿᏂ	-8.45018
ᎨᎶᎯ	-8.45652
▁ᎡᏣ	-8.46164
▁ᎤᏓᏅᏘ	-8.46626
▁ᏧᏂᏍᏆᏂᎪᏙᏗ	-8.46717
▁ᎥᎥ	-8.46731
Ꮆ	-8.47316
▁ᏗᏂᏲᎵ	-8.47541
▁ᏂᎬ	-8.47733
▁ᎤᏬᏰᏂ	-8.48379
▁ᎡᏆᎻ	-8.48389
▁ᎤᎵᏂᎩᏗᏳ	-8.48409
▁ᎡᏝᏪᎯ	-8.48516
▁ᏂᎬᏅ	-8.48749
▁ᎠᎦᏴᎵᎨᎢ	-8.49211
ᏁᎸ	-8.49993
▁ᎤᎵᏏᎩ	-8.50134
▁ᎪᎰᏍᏗ	-8.50136
ᎬᎢ	-8.50236
▁ᏨᏒ	-8.50255
▁ᎢᏨᏒ	-8.50278
Ꮖ	-8.50331
▁ᎡᏥ	-8.50974
▁ᎦᎸᎶ	-8.51141
▁ᎠᏲᎵ	-8.51297
▁ᏤᏥ	-8.51632
ᏍᏙᏗ	-8.51784
▁ᎦᎾᏝᎢ	-8.51877
▁ᏔᎵᏁᏃ	-8.51882
▁ᎠᏓᎨᏳᏗ	-8.51892
▁ᎨᎵᎵ	-8.51925
▁ᏥᎨᏒᎩ	-8.52283
▁ᏥᎨᏎᎢ	-8.52496
▁ᎨᏐᎢ	-8.52528
ᎠᏁᎶᎯ	-8.52547
Ꭴ	-8.52655
Ꭳ	-8.52763
▁ᏕᎦ	-8.53569
▁ᎢᏯᎩᏳᏍᏈᏛ	-8.53639
▁ᎭᎾ	-8.53781
▁ᎤᏁᎳᏅᎯᏃ	-8.53794
▁ᎢᏨ	-8.54007
ᏍᎦ	-8.54453
▁ᎠᏄᏬ	-8.5526
▁ᏗᏃᏪᎵᏍᎩ	-8.55453
▁ᎠᏍᎩᎾ	-8.55476
▁ᎤᏤᎵᎪᎯ	-8.55512
▁ᎤᏅᏏᏓᏍᏗ	-8.55525
▁ᏕᏫ	-8.55542
▁ᎢᏗ	-8.55661
Ꮷ	-8.55682
▁ᎦᏰᎪᎩ	-8.57326
ᏍᎬᎢ	-8.57331
▁ᎠᏂᏴᏫᏯ	-8.5735
▁ᎢᎪᎯᏓ	-8.57354
▁ᎠᎦᏔᎲᎢ	-8.57772
▁ᎭᏂ	-8.58154
▁ᎣᏓᎸ	-8.58455
▁Ꮨ	-8.58629
▁(	-8.59192
▁ᏗᏥ	-8.59312
Ꮘ	-8.59457
▁ᎦᎸᏉᏗ	-8.59531
Ꭱ	-8.59559
Ꭷ	-8.60589
ᎦᎵ	-8.60912
ᏒᎢ	-8.60957
▁ᏗᏆᏤᎵ	-8.60979
▁ᎤᏴᏍᏗ	-8.60989
▁ᎴᏆᏂ	-8.61115
▁ᎠᏃᎯᏳᎲᏍᎩ	-8.6112
▁ᏓᏆᎴᎳ	-8.61128
▁ᎤᏣᏔᏅᎯ	-8.61133
▁ᏥᏍᏕᏥ	-8.61141
▁ᎠᏰᎳᏍᏗ	-8.61161
▁ᎤᎬᏫᏳᏌᏕᎩ	-8.61179
▁ᎧᏁᏌᎢ	-8.61209
▁ᏄᏍᏕᏍᏗ	-8.61225
▁ᎨᏐ	-8.62387
ᏔᏅᎩ	-8.62563
Ꮹ	-8.62566
▁ᏄᏓᎴ	-8.6266
▁ᏣᏤᎵ	-8.62744
▁ᎪᎢ	-8.63015
▁ᎠᏛ	-8.63019
▁ᎧᏁᏍᎦ	-8.63078
▁ᎠᏂᏍᎩᎾ	-8.63082
▁ᏗᎦᏙᎵ	-8.63123
ᏍᎨᎢ	-8.63297
▁ᎠᎩᎾ	-8.63376
▁ᎨᎳᏍᏗᏱ	-8.63859
▁ᎤᏰᎸᏗ	-8.64153
▁ᎤᏛᎦᏅ	-8.64358
▁ᏫᏥ	-8.64844
▁ᎦᏚᎲᎢ	-8.65067
▁ᏗᏂᏲᏟ	-8.65076
▁ᎠᏌᎻᏓ	-8.65076
▁ᎨᏥᏅᏏᏛ	-8.65085
▁ᎺᎵ	-8.65121
▁ᎠᏗᎾ	-8.65153
▁ᏧᏁᏥ	-8.65173
▁ᎠᏂᏏᏴᏫᎭ	-8.65174
▁ᎤᏲᎱᏒ	-8.65483
▁ᎢᎦᏛᏃ	-8.6581
▁Ꮸ	-8.66003
▁ᎠᎾ	-8.66127
▁ᎤᏰᎸᏛ	-8.66385
▁ᏥᎨᏒ	-8.6674
▁ᎤᎪᎲ	-8.66797
▁ᎠᏥ	-8.66966
▁ᏗᏣᏤᎵ	-8.66981
▁ᎢᎸᎯᏢ	-8.67117
▁ᎦᏩᏒᎩ	-8.67117
▁ᏧᏂᏲᎱᏒᎯ	-8.67123
▁ᎢᏳᏕᏘᏴᏛ	-8.67127
▁ᎤᏕᏁᎴᎢ	-8.67146
▁ᎪᏢᏔᏅᎯ	-8.67184
▁ᎢᏯ	-8.67257
▁ᏑᏓᎵ	-8.67507
▁ᎠᏍᎪᎯ	-8.67528
▁ᎠᏎᏉ	-8.68053
ᏧᏈ	-8.68259
▁ᎢᏳᏍᎩᏂ	-8.6838
Ᏺ	-8.68604
▁ᏥᎨᏎ	-8.68627
▁ᎬᏅ	-8.68633
▁Ꮁ	-8.69169
▁ᏅᏓᎬᏩᏓᎴᏅᏛ	-8.69203
▁ᏣᏁᎳᏅᎯ	-8.69273
▁ᏂᎪᎯᎸᎢ	-8.69349
▁ᎢᏳᎾᏍᏗ	-8.69467
▁ᎠᎦᏙᎥᎯᏍᏗ	-8.69717
ᏍᎨ	-8.69852
▁ᎤᏒ	-8.69878
ᎬᎾ	-8.70018
ᏗᎦᎳᏫᎢᏍᏗᏱ	-8.70407
ᎲᎩ	-8.70461
▁ᎤᎾᏓᏡᎬ	-8.70637
▁ᎧᏁᎬ	-8.70662
▁Ᏼ	-8.70933
ᏍᎪᎢ	-8.70961
ᏔᏁᎢ	-8.71243
▁Ꮕ	-8.71324
▁ᏗᏓᏍᏚᏗᏱ	-8.71329
▁ᏃᏯ	-8.71381
▁ᏅᏲᎯ	-8.71393
ᏁᏗᏱ	-8.71405
▁ᏥᎦᏔᎭ	-8.71521
ᏍᏔᏅ	-8.71667
Ꮯ	-8.71793
o	-8.72016
▁ᏄᏪᏎ	-8.72519
▁ᏅᏗᎦᎵᏍᏙᏗᏍᎨ	-8.7254
ᎭᏩ	-8.72886
▁ᎨᏴ	-8.72971
▁ᏔᏕᏲᎲᏍᎩ	-8.73502
▁ᏆᎴᏗ	-8.7351
▁ᏗᏤᏥ	-8.73521
▁ᎥᏣᏱ	-8.73538
▁ᎤᎾᏤᎵᎪᎯ	-8.73542
▁ᏗᎾᏓᏅᏟ	-8.7366
▁ᎤᏐᏅ	-8.73849
▁ᎤᎵ	-8.74724
▁ᎤᏅᏗ	-8.74778
▁ᎤᎾᏛᎦᏅ	-8.74835
▁ᏂᎦ	-8.75015
ᏒᎯ	-8.75142
▁ᎠᎲ	-8.75174
▁ᎰᏩ	-8.75385
▁Ꮀ	-8.7549
▁ᏅᎦᏍᎪᎯ	-8.75726
▁ᎤᎵᎮᎵᏍᏗ	-8.7576
▁ᏗᏂ	-8.75776
▁ᎤᎴᏅᎮ	-8.75776
▁ᏅᏓᎦᎵᏍᏙᏗᏍᎬᎩ	-8.75786
▁ᎤᏲᎢᏳ	-8.75852
▁ᎠᎳᏂ	-8.75873
▁ᎬᏘ	-8.75877
▁ᏚᏬᎡᎢ	-8.75884
▁ᎡᎶᏛ	-8.75926
▁ᎤᏠᏱ	-8.75961
▁ᎠᏂᏯᏫᏍᎩ	-8.76116
ᏎᏍᏗ	-8.76215
Ᏸ	-8.76348
▁ᎤᏅ	-8.76449
▁ᏓᏔᎴᏒ	-8.76562
▁ᎠᏂᏐᎢ	-8.76724
▁ᎤᎷᏨ	-8.76845
▁ᎦᏁᎸᎢ	-8.76903
▁ᎦᎵᏦᏛᎢ	-8.76939
▁ᎤᏙᎯᏳ	-8.77022
▁-	-8.77098
ᏔᏁ	-8.77159
▁ᎤᎧᏛ	-8.77266
ᎾᏍᎩ	-8.77495
▁ᏌᏉᏉ	-8.77646
▁ᏗᏅᏃᏛ	-8.77722
▁ᏂᎯᏃ	-8.77782
▁ᎡᎺᏅ	-8.77998
▁ᎬᏩᏚᏫᏛ	-8.77998
▁ᎠᏂᏧᏣ	-8.78004
▁ᎩᎳᏈᏴ	-8.7801
▁ᎠᎬᏱᏣ	-8.78055
▁ᎭᏫᏂᏣ	-8.78066
▁ᎣᎯᏍᏙᏗ	-8.78071
▁ᎬᏔᏅᎯ	-8.78206
▁ᎾᏍᎩᏍᎩᏂ	-8.78226
Ꮠ	-8.78335
▁Ꭻ	-8.78646
▁ᎬᏂᎨ	-8.78784
▁ᎣᏂᏃ	-8.78876
▁ᎦᏍᎩᎸ	-8.79586
▁ᏂᏚᏪᏎᎴ	-8.79601
▁ᎤᏙᎴᎰᏒ	-8.79804
▁ᏥᏚ	-8.80253
▁ᎴᏥᎵ	-8.80334
▁ᎤᏣᎴᏍᏗ	-8.8034
▁ᏂᏣ	-8.80559
▁ᎦᎸᎳᏗᏢ	-8.80586
▁ᎭᏢ	-8.80698
▁Ꮴ	-8.81582
ᎨᎳᏍᏗᏱ	-8.81763
▁ᏓᎦ	-8.81967
▁ᏥᎨᏐ	-8.81968
▁ᏂᏥᎥ	-8.81984
▁ᏍᎩᏴ	-8.82128
▁ᎤᏓᏅᏙ	-8.82216
▁ᏱᎦ	-8.82239
▁ᏗᏄᏬ	-8.82503
▁ᏫᎾᏍᏛᎾ	-8.82703
▁ᏧᏒᎯᏛ	-8.82749
▁ᏎᎵ	-8.82829
▁ᎤᏁ	-8.82955
▁ᏤᎯ	-8.83143
▁ᏗᎬᏩ	-8.84239
▁ᏚᏏᎳᏛ	-8.84303
ᎬᎩ	-8.84373
▁ᎤᎾᏙᏓᏆᏍᎬ	-8.84377
▁ᎢᎸᏍᎩ	-8.84534
▁ᎢᏯᏂ	-8.84625
ᏁᎸᎯ	-8.84752
ᏍᏓ	-8.8485
▁ᏖᎸᎳᏗ	-8.85142
▁ᎦᎵᏦᏕ	-8.85147
▁ᎡᏉᏂ	-8.85162
▁ᎾᏂᏪᏍᎨᎢ	-8.8523
▁ᏔᎷᎩᏍᎩ	-8.85371
▁ᎠᏆᏤᎵᎦ	-8.85451
▁ᎡᎭ	-8.86203
▁ᏧᏗᏱ	-8.86519
▁ᎠᏋᏒ	-8.86635
▁ᎠᎦ	-8.87419
▁ᎨᎾᏂ	-8.87423
▁ᎭᏫᏯ	-8.87644
▁ᎤᏏᏙᎵ	-8.87659
▁ᎢᏳᏟᎶᏛ	-8.87665
▁ᏃᏈᏏ	-8.8768
▁ᏂᎬᏩᏪᏎᎴᎢ	-8.87691
▁ᏕᏣ	-8.87817
▁ᎪᏱᏁᎢ	-8.87859
▁ᎦᏚᏏ	-8.88078
▁ᏤᏍᏗ	-8.88311
▁ᎠᏂᎦᏔᎲ	-8.89054
ᎲᎾ	-8.89083
▁ᎤᏁᏤ	-8.89262
▁ᎢᎾᎨᎢ	-8.89434
ᏓᏁᏗ	-8.89853
▁ᏭᏕᎵᎬ	-8.90206
▁ᏗᏨᏍᏙᏗ	-8.90212
▁ᏑᎾᏓᏡᎩ	-8.90214
▁ᏧᏂᎸᏫᏍᏓᏁᎯ	-8.90286
▁ᎢᎾᏛ	-8.90305
ᏒᎾ	-8.90447
▁ᏅᏗᎦᎵᏍᏙᏗᏍᎨᏍᏗ	-8.90456
▁ᎫᏩ	-8.90491
▁Ꭺ	-8.90645
▁ᎦᏍᎩᎶ	-8.90734
▁ᏥᎨᏐᎢ	-8.91011
▁ᎠᏴᏃ	-8.91435
▁ᎡᎯᏍᏗ	-8.91812
▁ᏗᎫᎪᏙᏗ	-8.9189
▁ᎤᏪᎵᏎ	-8.91981
▁ᏄᎾᏍᏛ	-8.92082
ᏛᎾ	-8.92158
▁ᎤᏁᏤᎴ	-8.92278
▁ᎨᏥ	-8.9239
▁ᎣᎭᏁ	-8.9241
ᏗᏍᎬ	-8.9283
▁ᎬᏃᏛ	-8.92852
▁ᏗᎵᏍᏓᏴᏗᏱ	-8.92874
▁ᎠᏥᎸᏉᏗᏳ	-8.92925
▁ᎤᏙ	-8.9294
▁ᎤᏁᎳᏅᎯᏍᎩᏂ	-8.9296
▁ᏂᏚ	-8.93176
ᎴᏍᏗ	-8.93523
ᎯᏳ	-8.93594
ᎯᎠ	-8.93773
ᏗᏍᎩ	-8.93794
▁ᏂᎦᏪᏍᎬ	-8.94283
▁ᎡᎶ	-8.94747
▁ᎤᎵᏏᎬ	-8.94751
▁ᎤᏪᎷᏁ	-8.94784
▁ᏄᏛᏁᎴ	-8.94807
▁ᎬᏂᏳᏉᏃ	-8.94904
▁ᎠᏆᏓᏅᏙ	-8.95033
▁ᏥᏍᏆ	-8.95258
▁ᎢᏅ	-8.95343
▁ᎦᎵ	-8.95451
▁ᎤᏂᎷᏤ	-8.95481
▁ᏧᎾᏤᎵ	-8.95502
▁ᏂᎦᏪᎭ	-8.95578
▁ᎥᏞᏍᏗ	-8.95581
▁ᎠᎰᎵ	-8.95641
▁ᎠᎵ	-8.95845
▁ᎠᏎᏉᏉ	-8.96021
▁ᎣᎦ	-8.96205
Ꮇ	-8.96474
▁ᎤᎬᏫᏳ	-8.9664
▁ᎮᎾ	-8.96658
▁ᏗᎬ	-8.96817
ᏕᏍᏗ	-8.96832
▁ᏣᏥ	-8.96867
▁ᎡᎵ	-8.97022
▁ᎠᏰᎸᎢ	-8.97207
Ꮪ	-8.97251
▁ᏑᎾᎴᎢ	-8.97412
▁ᎠᏓᏅᏖᏍᎬ	-8.9756
Ꮔ	-8.97843
▁ᎨᏣ	-8.97851
▁ᎣᏥ	-8.97974
ᎰᎢ	-8.98085
▁ᎠᎵᏍᎪᎸᏙᏗ	-8.9811
▁ᏫᏚ	-8.98116
▁ᎤᏍᎪᎸ	-8.98181
▁ᏦᎠᏍᎪᎯ	-8.98319
▁ᏧᏆᎶᎦ	-8.98321
▁ᎩᎦ	-8.98324
▁ᎩᎶᏍᎩᏂ	-8.98338
▁ᏗᏂᎳᏫᎩ	-8.98355
▁ᎤᎩᎬ	-8.98376
▁Ꮤ	-8.98385
▁ᏧᎾᏤᎵᎦ	-8.98478
▁ᏣᏁᎭ	-8.98489
Ꮋ	-8.98744
▁ᎩᎦᎨᎢ	-8.98812
▁ᎤᏩᏒᏉ	-8.99214
ᏁᏢᏔᏅᏛ	-8.99749
▁ᏍᎩᎾ	-9.00005
▁ᏓᏳ	-9.00258
▁ᏅᏗᎦᎵᏍᏙᏗᏍᎬ	-9.0045
▁ᎢᏣᎵᏍᏓᏁᏗ	-9.00902
▁ᏩᎭᏯ	-9.01176
▁ᏗᎧᎸᎬ	-9.01177
▁ᏙᏱᏗᏢ	-9.01193
▁ᏣᎳᎩ	-9.0123
▁ᎡᎶᏗ	-9.01482
▁ᎤᏠᏱᏉ	-9.01653
▁ᎠᏙᎯ	-9.01804
Ꮺ	-9.01806
ᏙᎢᏳᏍᏗ	-9.0219
ᎯᏍᏗ	-9.02297
▁ᏱᏓ	-9.0233
▁ᎦᎶᎯᏍᏗ	-9.02442
▁ᎤᏣᏘᏂ	-9.03213
▁ᎤᏚᎵᏍᎬ	-9.03409
▁ᎤᎾᏓ	-9.03535
▁ᎢᏳᎾᎵᏍᏓᏁᏗ	-9.03886
▁ᎢᏳᎾᏛᏁᏗ	-9.0391
ᏁᎴ	-9.0411
▁ᎯᏍᎦᏍᎪᎯ	-9.04117
▁ᏂᏚᏳᎪᏛᎾ	-9.04118
▁ᏧᏬᏰᏂ	-9.04121
▁ᎠᏂᏲᏍᎩ	-9.04133
▁ᏣᏁᏢᏔᏅᎯ	-9.04146
▁ᏣᏙᏓ	-9.04169
▁ᎤᏂᏙᏓ	-9.04189
▁ᏩᏍᏛ	-9.04209
▁ᏱᏥᎦᏔᎭ	-9.04236
▁ᎬᏩᏂ	-9.04245
▁ᏥᎻ	-9.04379
▁ᎤᏍᏆᏂᎩᏗ	-9.04429
▁ᎶᏗ	-9.04577
▁ᎾᎥᏂᎨ	-9.0481
ᏍᏓᏯ	-9.04863
▁ᎤᎦᏔ	-9.05108
▁ᎤᎵᏍᏆᎸᏗ	-9.05341
▁ᎠᏂᏅ	-9.05705
ᏗᏍᎨᏍᏗ	-9.05818
▁ᎤᏐᏱ	-9.06073
▁ᎤᏩ	-9.0614
▁ᎬᎩ	-9.06258
▁ᎤᏪ	-9.06258
▁ᏱᏣ	-9.06564
▁ᎤᎵᏍᏓᏴᏗ	-9.06973
▁ᏕᎤ	-9.07063
▁ᎤᏪᏘ	-9.07112
▁ᏱᎦᎵᏍᏙᏓ	-9.07151
▁ᎵᎠ	-9.07152
▁ᎤᎵᏍᏈᏗ	-9.07155
▁ᎠᏥᏅᏏᏓᏍᏗ	-9.07158
▁ᏃᏊ	-9.07162
▁ᎢᏥᏍᎦᏯ	-9.07174
ᏔᏂ	-9.07229
▁ᎤᏁᎦ	-9.07306
▁ᏎᎦ	-9.0731
▁ᎤᎧᎵᏨᎯ	-9.07312
▁ᏧᏓᏏ	-9.07316
▁ᎠᎦᏔᎲ	-9.07356
▁ᎤᎾᏝᎢ	-9.07389
Ꮚ	-9.07503
▁Ᏺ	-9.07719
▁ᎤᏍᎪᏍ	-9.07813
ᏗᎭ	-9.07831
▁ᎢᏤᎲᎢ	-9.07943
--	-9.08479
ᏛᎢ	-9.08844
ᏁᏗ	-9.09068
▁ᎢᏤᎲ	-9.09095
▁ᎠᎹᏱ	-9.0923
▁ᏄᏪᏎᎸ	-9.09341
▁ᎠᏴᏍᎩᏂ	-9.09527
▁ᏓᎩ	-9.10018
▁ᎤᎷᏤ	-9.10183
▁ᎵᏇᎩ	-9.10272
▁ᏚᏅᏓᏒ	-9.10272
▁ᏒᎦᏔ	-9.10273
▁ᎤᎦᎾᏍᏛ	-9.1028
▁ᎦᎶᏇ	-9.10294
▁ᏏᏌ	-9.10339
▁ᏚᎾᏙᎥ	-9.10345
▁ᏥᏄᏍᏗ	-9.10361
▁ᎬᏙᏗ	-9.10436
▁ᎦᎸᎳᏗᏣ	-9.10592
ᎸᎭ	-9.1061
ᏍᏔᏁᎢ	-9.10738
Ꮭ	-9.11053
▁ᏧᏓ	-9.11606
ᏍᏘ	-9.1191
▁ᎡᎲ	-9.12644
▁ᏱᏚ	-9.12789
▁ᏡᎬ	-9.1288
▁ᏛᎦ	-9.13006
▁ᎢᏯᏛᏁᏗ	-9.13268
ᎯᏍᏗᏱ	-9.1335
▁ᏎᏓᏂ	-9.13499
▁ᏔᎴᎲᎦ	-9.135
▁ᏥᎪᏪᎳ	-9.13505
▁ᎠᏂᏳᏩᏁᎦ	-9.13506
▁ᏧᏓᏆᏙᎩ	-9.13511
▁ᎠᏂᏴᏫ	-9.13514
▁ᎢᎬᏁᎸᎯ	-9.13533
▁ᎦᏚᎢᏣ	-9.13537
▁ᏓᏥ	-9.13711
▁ᎤᏲᎱᏎᎢ	-9.13736
▁ᏭᎷᏤ	-9.13937
▁ᎢᏳᎵᏍᏓᏁᏗ	-9.14062
▁ᎠᏗᏔᏍᏗ	-9.14062
▁ᎬᏅᎢ	-9.14704
▁ᏄᎾ	-9.1512
Ꮦ	-9.15198
▁ᎨᎵ	-9.15349
ᏏᏴᏫᎭ	-9.15572
▁ᎤᏬᏢ	-9.15619
▁ᎤᏂᏍᎦᏅᏨ	-9.1573
▁ᏕᎯ	-9.16004
▁ᎤᏛᎦᏁ	-9.16064
▁ᏄᎵᏍᏔᏂᏙᎸ	-9.16071
▁ᎦᏰ	-9.16142
▁ᏈᎵᎩ	-9.16688
▁ᎨᎻᎵ	-9.16831
▁ᏧᎸᏫᏍᏓᏁᎯ	-9.16831
▁ᏅᏓᎦᎵᏍᏔᏂ	-9.16832
▁ᏔᎳᏍᎪᎯ	-9.16832
▁ᎢᏣᎵᏅᏟ	-9.16834
▁ᎦᏅᏍᏙᏗ	-9.16837
▁ᏕᏧᎬ	-9.1684
▁ᎤᎾᏓᏤᎵᏛ	-9.16842
▁ᎯᏅᏏᏓᏍᏗ	-9.1686
▁ᎢᏥᏙᏓ	-9.16862
▁ᏧᎾᏛᏐᏅᎯ	-9.16886
▁ᎢᏣᏛᏁᏗᏱ	-9.16916
▁ᎤᏕᏯᏙᏗ	-9.17286
▁ᏂᏗ	-9.17362
▁ᎦᏚᎢ	-9.17373
▁ᏙᏱ	-9.1774
▁ᎤᏂᎪᎲ	-9.18638
ᏙᎸᎢ	-9.18713
▁ᎤᎶᎩᎸ	-9.18864
▁ᎬᏗᏍᎬ	-9.19301
ᎣᏍᏓ	-9.19443
▁ᏂᎯᏰᏃ	-9.19609
▁ᎤᏛᎾ	-9.20153
▁ᏐᎣᏁᎳ	-9.20279
▁ᎠᏂᎨᏯ	-9.2028
▁ᎤᎩᏨᏛ	-9.20295
▁ᏥᏂᎬᏅ	-9.20303
▁ᎢᏯᏛᏁᎯ	-9.20306
▁ᎠᏕᎳ	-9.20313
▁ᎢᏨᎨᏳᎢ	-9.2032
▁ᏂᎦᎵᏍᏗᎭ	-9.20332
▁ᎦᎸᏉᏙᏗ	-9.20349
▁ᎤᎴᏂᏙᎴᎢ	-9.20372
▁ᎦᏁᎦ	-9.20381
▁ᏓᎾ	-9.20521
▁ᎢᏯᏍᏗ	-9.20621
▁ᏭᎶᏎᎢ	-9.20692
▁ᎡᎮᎢ	-9.2078
▁ᎾᎯᏳᏉ	-9.20892
▁ᎦᎵᏉᎩᏁ	-9.21026
▁ᎤᎷᏨᎩ	-9.21055
▁ᎤᎪᎮ	-9.21064
▁ᎤᏪᏅᏎ	-9.21284
▁ᏂᎦᎥᏉ	-9.21752
▁ᎤᏁᏤᎸ	-9.22427
▁ᎦᏬᏂᏍᎬ	-9.22564
ᎨᏳᎯᏳ	-9.2282
ᎠᏗᏔᏍᏗ	-9.22913
ᏗᎦᏅᏌᏗ	-9.22941
Ꮱ	-9.23119
▁ᏗᎨᏒ	-9.23344
ᎧᏔᎮᎢ	-9.23374
▁ᏂᎬᎾᏛᎢ	-9.23472
▁ᎤᎵᏍᏆᏗᏍᏗ	-9.23597
▁ᏧᏂᎾᏫ	-9.23642
▁ᎠᏂᏍᎦᎾ	-9.23752
▁ᎤᎾᏫ	-9.2386
▁ᏓᏆᎴᎷ	-9.2387
▁ᏅᎬᏩᏪᏎᎸᎩ	-9.2388
▁ᎢᏥᎦᏔᎭ	-9.23916
▁ᏏᏓᏁᎸᎯ	-9.23957
▁ᎠᏂᏃᎯᎵᏙᎯ	-9.23985
▁ᎠᏓᏁᎯ	-9.2399
▁ᎤᏟᎯᏳ	-9.23995
▁ᎦᏛᎦ	-9.24169
▁ᎠᏤᎯ	-9.24205
▁ᏤᎭ	-9.24484
▁ᎢᎬᏩ	-9.2455
▁ᎢᎦᏓ	-9.24784
▁ᎠᏂᎦᏔᎲᎢ	-9.24919
Ꮗ	-9.25085
ᏛᎩ	-9.25159
▁ᎦᏓᏁ	-9.25374
▁ᎠᏓᏅᏓᏗᏍᏗ	-9.25615
ᎲᎦ	-9.26038
▁ᎪᏪᎸ	-9.26357
▁ᏴᏫᏉ	-9.26368
▁ᏅᏩᏓᎴᏃ	-9.26406
▁ᏥᏓ	-9.26453
▁ᎠᏂᏬᏂᏍᎬ	-9.268
▁ᏄᏩᏁᎴ	-9.2685
▁ᏂᎦᎵᏍᏗᏍᎬ	-9.27025
▁ᎠᏠᏁᏗ	-9.27555
▁ᏓᎿᏩ	-9.27555
▁ᏅᏓᏳᎶᏒᎯ	-9.27562
▁ᎧᏃᎯᏰᎩ	-9.27564
▁ᎡᏉᎯᏳ	-9.27565
▁ᎠᎦᏘᏏᏗᏢ	-9.27578
▁ᏧᏳᎪᏗ	-9.2759
▁ᏗᏰᎸᎯ	-9.27605
▁ᎤᏔᎳᏬᎯᏍᏗ	-9.27627
▁ᎦᎷᏨᎭ	-9.2764
▁ᎾᏍᎩᏯᏉ	-9.27661
▁ᏅᏃᎯ	-9.27729
▁ᎠᎹᏟ	-9.27736
▁ᎠᏆᏛᏅ	-9.27833
▁ᎤᏂᏲ	-9.27994
▁ᎤᎾᎵ	-9.28157
▁ᎪᏪᎸᎢ	-9.28392
▁ᏧᏂᏍᏗ	-9.28394
▁ᎤᏁᏨᎩ	-9.29713
▁ᏄᏛᏁᎸ	-9.29915
▁ᎦᏙᎨ	-9.29997
---	-9.30298
▁ᏄᏍᏕ	-9.30498
▁ᎤᏕᏘᏴᏌᏗᏒ	-9.30618
▁ᏕᎤᏙᎥ	-9.30651
▁ᏓᏳᏓᎴᏅ	-9.30664
▁ᎠᏍᏛ	-9.30806
▁ᎦᏙᎬ	-9.30919
ᏅᏏᏛ	-9.3129
▁ᏗᏏᏓᎵ	-9.31401
▁ᎣᏣᎵᏅᏟ	-9.31401
▁ᏤᎩᏏᏂ	-9.31402
▁ᏆᏂᏆ	-9.31403
▁ᎯᎸᎢᏴ	-9.31404
▁ᎢᏓᏓᏅᏟ	-9.31408
▁ᎨᏥᎸᏉᏗ	-9.3141
▁ᏗᎨᎦᏁᎶᏗ	-9.31412
▁ᎠᏈᎻᎴᎩ	-9.3142
▁ᏗᏇᏥ	-9.3142
▁ᎤᎦᎵᏍᏗ	-9.31425
▁ᏩᎶᏏ	-9.31462
▁ᎬᏩᏕᏁᎴᎢ	-9.31502
▁ᎾᎩᏪᏎᎸᎩ	-9.31511
▁ᏕᏣᏓᏅᏛᎢ	-9.31593
▁ᎠᏓᏫ	-9.31594
▁ᏦᏰᏂ	-9.3166
▁ᏧᏩ	-9.31845
▁ᎠᏂᎪᎢ	-9.31936
▁ᎪᏍᏓ	-9.32008
ᏱᎩ	-9.3201
▁ᏧᎬ	-9.32978
▁ᎯᎪ	-9.33071
▁ᎪᏪᎵᎯ	-9.33148
▁ᎪᎳ	-9.33162
▁ᎠᏯᏙ	-9.33273
”	-9.33312
ᏍᎪᎯ	-9.33469
ᏁᎭ	-9.34144
▁ᏚᎴᏅ	-9.3419
ᎢᏍᏗᏱ	-9.34216
▁ᎦᎸ	-9.34467
▁ᏕᏣᏙᎥ	-9.34624
▁ᎾᏃ	-9.34655
ᏙᎯ	-9.34741
▁ᎢᏣᏤᎵ	-9.35299
▁ᏘᏅᏏᏓᏍᏗ	-9.35408
▁ᏄᏂᎬᏫᏳᏌᏕᎩ	-9.35414
▁ᎥᏓᎵ	-9.3542
▁ᎢᎳᏯ	-9.35429
▁ᎤᎾᎵᏍᏕᎸᏙᏗ	-9.35439
▁ᏗᏘᏂᏙᎯ	-9.35466
▁ᏐᎳ	-9.35486
▁ᎠᏁᏙᎯ	-9.35487
▁ᏎᎦᏨ	-9.35603
▁ᎤᏩᏒᎯᏳ	-9.35605
▁ᏗᎨ	-9.35636
▁ᏗᏣᏤᎵᎦ	-9.35705
▁ᎤᏙᎯᏳᏒ	-9.35745
▁ᎤᏕᏅᎯ	-9.35783
ᏨᎩ	-9.35818
▁ᎠᏍᏓᏱ	-9.35934
▁ᎬᏗᏍᎩ	-9.3594
▁ᎠᎦᏗ	-9.36022
▁ᏭᏂ	-9.36796
▁Ꮑ	-9.36853
▁ᎠᏂᏓ	-9.36942
ᎧᏂ	-9.36995
ᏛᏁᏗ	-9.36998
▁ᎣᏓᎸᎢ	-9.37018
ᎦᏅᎯᏛ	-9.37034
ᎢᏳᏍᏗ	-9.37122
e	-9.38243
▁ᎠᎵᏍᏚᎶ	-9.38409
▁ᎥᎩ	-9.38582
ᎩᏍᏗ	-9.38601
ᏌᏛ	-9.38715
▁ᎠᏥᎸᏱ	-9.38936
▁ᏱᏥ	-9.39026
▁ᏄᏩᏁᎸ	-9.39183
ᏅᏒ	-9.39186
▁ᏙᏛ	-9.39235
▁ᎤᎶᏐᏅ	-9.393
▁ᎠᎦᏴᎵ	-9.3949
▁ᎠᎧᎵᎢ	-9.39501
▁ᎠᏰᏙᎳᏛᏗ	-9.3954
▁ᏩᏏᏓᏂ	-9.39567
▁ᏓᏏᎳᏛ	-9.39569
▁ᏚᏬᏢᏔᏅᎩ	-9.39581
▁ᏗᏓᏅᏙ	-9.39594
▁ᎠᎨᏳᏣ	-9.39615
▁ᏱᏄᏍᏗ	-9.39622
▁ᏗᎨᏫ	-9.39626
▁ᏧᏂᎸᏫᏍᏓᏁᏗᏱ	-9.39663
▁ᎠᎹᏰᎵ	-9.39684
▁ᎤᏍᎦᏃᎵ	-9.39695
▁ᏥᏁᎬᎢ	-9.3994
▁ᏂᏥ	-9.4004
▁ᎠᏤ	-9.40044
▁ᎤᏲᎱᏒᎯ	-9.40307
▁ᎨᏂ	-9.40338
▁ᎪᎩ	-9.40422
▁ᎢᎬ	-9.40475
▁ᎫᏢᏗ	-9.40504
ᎠᏂᎳᏍᏓᎸ	-9.4066
ᏍᏙ	-9.40683
ᎯᏍᏙᏗ	-9.40713
ᏍᎬᎾ	-9.40959
▁ᏗᎩ	-9.41016
▁ᎧᏁᎬᎢ	-9.41061
▁Ꮡ	-9.41321
▁ᏚᏁᏤᎴ	-9.41335
▁ᏗᎦᎸᏉᏗ	-9.414
▁ᎾᏂᎥᏉ	-9.42057
▁ᎠᎲᎢ	-9.42222
ᏅᎢ	-9.42309
▁ᏚᏙᎥᎢ	-9.4242
ᎨᏒ	-9.42579
▁ᎠᏦᏴ	-9.43158
▁ᏗᏓᎴᏂᏍᎬ	-9.43163
▁ᎤᏬᎸ	-9.43416
t	-9.43429
▁ᎣᏏ	-9.43439
▁ᏗᎦᎫᏍᏛᏗ	-9.43676
▁ᏍᏈᏍᏓ	-9.43915
▁ᎠᏍᏆᎨᏂ	-9.43916
▁ᎵᏫ	-9.43919
▁ᎨᏥᏅᏏᏓᏍᏗ	-9.43922
▁ᎧᏂᎩᏓ	-9.43945
▁ᎦᏬᏂᏍᎩ	-9.43947
▁ᏚᏬᏢᏅᎩ	-9.4395
▁ᎢᎩᏙᏓ	-9.43952
▁ᎾᏍᎦᏅᎾ	-9.43959
▁ᎤᏗᎴᎩ	-9.43961
▁ᎧᏃᎮᏍᎩ	-9.43961
▁ᏍᏔᏯ	-9.44002
▁ᎦᎶᏙᏗ	-9.44014
▁ᎤᎾᏁᎳᎩ	-9.44036
▁ᎤᏅᏌ	-9.44053
▁ᎠᏢᏗᏱ	-9.44066
Ꮼ	-9.44067
▁ᎢᏳᏍᏗᏉ	-9.4412
ᏕᎢ	-9.44144
▁ᎠᏲᎩ	-9.44173
▁ᎤᏓᏅᏘᏳ	-9.44204
▁ᎤᏂᏥ	-9.44209
▁ᎤᏅᏟ	-9.44235
▁ᏱᏗᏥ	-9.44282
▁ᏂᏓ	-9.44497
ᏒᎭ	-9.44522
▁ᎦᎶ	-9.44526
▁ᎤᎵᏍᏗ	-9.44595
▁ᎦᏅᎯᏛ	-9.44843
▁ᏕᎨ	-9.45011
▁ᎡᎲᎢ	-9.45231
▁ᏥᏕ	-9.45393
▁ᎤᏓᏅᏖ	-9.45955
▁ᎠᏍᎦᎾ	-9.46054
▁ᏅᏓ	-9.4628
▁ᏱᏗ	-9.46344
▁ᏓᎬ	-9.46846
▁ᎠᏔᎴᏒ	-9.47157
ᎠᎴ	-9.47166
▁ᏦᎩ	-9.47421
▁ᏫᏣ	-9.47463
▁ᏓᏓᎿᏩᏍᏛ	-9.47652
▁ᎤᏂᏣᏖ	-9.47668
▁ᏂᏚᎩᏨᏂᏒ	-9.47677
ᏚᎵᏍᎬᎾ	-9.47687
▁ᏓᏆᏙᎥ	-9.47696
▁ᎢᎦᎦᏛ	-9.4781
▁Ꭹ	-9.48201
▁ᏗᎧᏃᏗ	-9.4826
▁ᏧᎸᏫᏍᏓᏁᏗ	-9.48286
▁ᏩᏚᎵᏏ	-9.48461
▁ᎦᎷᏯᏍᏗ	-9.48463
▁ᎪᏍᏚ	-9.48465
▁ᏧᏯᏖᎾ	-9.48466
▁ᏧᏃᏰᏂ	-9.4847
▁ᏓᎦᎷᏥ	-9.48481
ᎴᎯᏐᏗ	-9.48483
▁ᏅᏛᎩᏅᏏᏛ	-9.48484
▁ᏂᎦᏪᏍᎨᎢ	-9.48484
▁ᏧᏂᏢᎩ	-9.48498
▁ᏗᏂᎦᏙᎵ	-9.48501
▁ᎾᏎᎵᏗ	-9.48503
▁ᎠᎩᏅᏏᏙᎯ	-9.48507
▁ᎯᎸᎯᏳ	-9.48529
▁ᎬᏂᏗᏳ	-9.48534
▁ᎠᏂᎩᏏ	-9.48536
▁ᎤᏍᏆᎸᎲ	-9.48554
▁ᏗᎧᏃᏗᏱ	-9.48691
▁ᎠᎩᏏ	-9.488
▁ᎤᏂᎷᏨᎩ	-9.48876
▁ᎭᎾᎾ	-9.49038
▁ᎤᏥᎸᎢ	-9.49172
▁ᎠᎼ	-9.49263
▁ᎢᎦᏘ	-9.4937
ᏁᎯ	-9.49531
▁ᏭᎷᏤᎢ	-9.49585
ᏤᎢ	-9.49681
ᏍᏉ	-9.49701
▁ᎢᎬᏁᏗ	-9.49806
ᎠᏋᏌ	-9.49826
ᎦᏔᎲᎾ	-9.49942
▁ᏩᏯ	-9.5001
ᏍᎬᎩ	-9.50328
ᎡᎵ	-9.50527
ᏅᎾ	-9.50654
ᏍᎦᏅᎢᏍᏗ	-9.50825
▁Ꭾ	-9.50832
ᎩᏎ	-9.51871
▁ᎤᏲᎢ	-9.51943
▁ᎤᏍᎦᏅᏨ	-9.52099
▁ᎢᏤᎾ	-9.5217
ᏤᏍᏗ	-9.52248
▁ᎠᎴᏬ	-9.52365
▁ᎦᏛᎬ	-9.52413
▁ᎦᎳᎨᏴ	-9.52428
▁ᏕᎦᏚᎲ	-9.52434
▁ᏗᎩᎦᏴᎵᎨ	-9.52442
▁ᏂᏣᏛᏁᎸ	-9.52445
▁ᏚᏂᎸᏫᏍᏓᏁᎲ	-9.52468
ᎲᏏ	-9.52471
▁ᎦᏓᏅᏖᏍᎬ	-9.52489
▁ᏚᎾᏓᏅᏛ	-9.52503
▁ᎤᏕᏅ	-9.52536
▁ᏥᏣ	-9.52563
▁ᎠᎪ	-9.52624
ᏰᎵ	-9.52691
▁ᎦᏄᎸ	-9.52741
▁ᏇᏂ	-9.52997
▁ᏥᎦ	-9.53046
▁ᎤᎾᎵᏍᏓᏴᏗ	-9.53099
▁ᎢᏥᏈ	-9.53187
c	-9.53189
▁ᏗᎾ	-9.53197
▁ᎢᏳᏩᎫᏗ	-9.53223
▁ᏒᎧᏔ	-9.53223
▁ᎢᏳᏓᎴᎩ	-9.53223
▁ᏄᏃᎯᏳᏒᎾ	-9.53223
▁ᎢᏥᏡᏱ	-9.53223
▁ᎦᎵᏆᏍᎪᎯ	-9.53223
▁ᏚᏙᎡᎢ	-9.53226
▁ᏙᎴᏛ	-9.53231
▁ᏫᏥᎢᎦ	-9.53231
▁ᏎᎷ	-9.53232
▁ᎠᏂᏣᎳᎩ	-9.53234
▁ᎢᏤᏯᏔᎮᏍᏗ	-9.53238
▁ᎤᏍᎦᏎᏗ	-9.53238
▁ᎢᏌᏯ	-9.53239
▁ᎢᏗᎦᏔᎭ	-9.53251
▁ᏅᏓᏳᎵᏍᏙᏔᏅᎩ	-9.53259
▁ᏄᎬᏫᏳᏌᏕᎩ	-9.53268
▁ᎢᏨᏲᏎᎭ	-9.53278
▁ᏗᎹᏗ	-9.53285
▁ᎠᏂᎪᏕᏍᎩ	-9.53289
▁ᎤᎯᏐᏗ	-9.53296
▁ᏧᏙᏓᏆᏓ	-9.53322
▁ᎠᏏᎾᏌᏂ	-9.5336
ᎵᎦ	-9.53374
▁ᎾᏂᎥᎢ	-9.53383
▁ᎠᎫᏴᏙᏗ	-9.53437
▁ᏗᎦᎪᏗᏱ	-9.53465
▁ᎦᎾᏰᎯᏍᏗ	-9.53467
▁ᎤᎾᏄᎪᏫᏒᎯ	-9.53533
▁ᎤᎾᏫᏱ	-9.53539
ᏁᎳᏅᎯ	-9.53577
▁ᎠᏆᏛᎦᏅᎩ	-9.53584
▁ᏗᏦᏢᏗ	-9.53684
▁ᎦᏬᏂᎯᏍᏗ	-9.53705
▁ᏁᎳ	-9.53721
▁ᏭᏴᎴᎢ	-9.53761
▁ᏩᏍᏗ	-9.53933
▁ᏉᎳᏃ	-9.53999
▁ᎠᏗᎭ	-9.54107
▁ᏧᏪ	-9.54117
▁ᏂᏕ	-9.54182
▁ᎤᏪᎿᎢ	-9.54315
▁ᏴᎩ	-9.54431
ᏍᏆ	-9.54455
▁ᏗᏦ	-9.54534
,]	-9.54568
▁ᏫᎦ	-9.54628
▁ᎢᏤᎯ	-9.54689
▁ᏅᏛ	-9.55366
▁ᏄᏍᏛᎢ	-9.55576
▁ᎡᏘ	-9.56002
ᏗᏍᎪ	-9.56669
ᏂᏏ	-9.56764
ᎡᎢ	-9.57038
ᎦᏘ	-9.57159
ᏕᎾ	-9.57273
▁ᏚᎪᎮ	-9.57283
▁ᏅᏗᎦᎵᏍᏙᏗᏍᎪ	-9.57315
ᎤᏁᎳᏅᎯ	-9.57379
▁ᎠᏂᏃᎮᏍᎬ	-9.57421
▁ᏧᏪᏅᏒ	-9.57423
▁ᎤᏃᏴᎬ	-9.57466
▁ᏓᏓᏁᎸ	-9.57492
▁ᎦᏥ	-9.57495
▁ᎯᏯ	-9.57882
ᎲᏍᎩ	-9.57893
ᎾᏝᎢ	-9.57952
ᎶᎯ	-9.57965
ᏁᎳ	-9.5797
ᏛᎬᎦ	-9.58092
▁ᎡᏉᏗ	-9.58096
▁ᎤᏂᏬᏂᎯᏍᏗ	-9.58132
▁Cr	-9.58222
▁ᎢᏳᎾᏛᎿᏕᎩ	-9.58223
▁ᏍᎦᏚᎩ	-9.58223
▁ᏂᏥᏪᎭ	-9.58223
▁ᏎᎩᎵ	-9.58224
▁ᏧᏓᏕᏒᏛ	-9.58229
▁ᏗᏂᎭᏄᎸᎯ	-9.5823
▁ᎡᏈᏌ	-9.58232
▁ᏔᎷᏣ	-9.58232
▁ᎠᏦᎭᏴ	-9.58236
▁ᎠᎩᎵᏯ	-9.58243
▁ᏌᎪᏂᎨ	-9.58248
▁ᎢᎳᎪ	-9.58253
▁ᏍᎩᏃᎲᏏ	-9.58253
▁ᏗᎪᏪᎵᏍᎩ	-9.5826
▁ᎤᏩᏙᎯᏴᏓ	-9.58261
▁ᎢᏳᏓᎴᏅᏛ	-9.58262
▁ᎤᏂᎬᏫᏳᏌᏕᎩ	-9.58263
▁ᎢᏳᏩᏂᏐᏗᏱ	-9.58265
▁ᎢᏳᏩᏁᏗᏱ	-9.58274
▁ᏙᏰ	-9.58307
▁ᎤᏰᎯ	-9.58309
▁ᎤᏬᏗᎨ	-9.58347
▁ᏒᎮᏱᏣ	-9.58383
▁ᎢᎬᏁᎯ	-9.58386
▁ᏓᏯᎢ	-9.58397
)	-9.5854
ᏙᎩ	-9.58663
▁ᎧᎸᎢ	-9.58703
▁ᏚᎸᏫᏍᏓᏁᎲᎢ	-9.58732
▁Ꮖ	-9.58754
ᏁᎴᎢ	-9.59011
▁ᏚᎾᏓᏅᏛᎢ	-9.59031
▁ᎾᏍᎩᏉ	-9.59125
▁ᎤᎾᎵᎢ	-9.59262
ᏔᏅᎭ	-9.59535
ᏑᏴᎾ	-9.59634
▁ᏄᏛᏁᎴᎢ	-9.59657
▁ᎦᎸᎳᏗᏳ	-9.59857
▁ᎡᏓ	-9.59866
▁ᎤᎾᏓᏡᎬᎢ	-9.60031
▁ᏣᏤᎵᎦ	-9.60121
▁ᎨᎦ	-9.60497
▁ᎪᎯᏓ	-9.60516
ᏁᎸᎩ	-9.60739
ᏁᎲ	-9.6078
▁ᏂᎦᏗ	-9.608
▁ᏴᎦ	-9.60853
▁ᎤᏓᏅᏖᏗ	-9.61048
▁ᏯᏆ	-9.61301
▁ᏗᎧᎿᏩᏛᏍᏗᏱ	-9.61314
▁ᏱᏂ	-9.61339
▁ᏗᎦᏓ	-9.61524
ᎦᏔᎭ	-9.61884
▁ᎯᎸ	-9.62027
▁ᎾᏍᎩᏴ	-9.62092
▁ᎾᏂ	-9.62327
▁ᎦᏃᎸᎥᏍᎬ	-9.62521
▁ᎧᎳᏩᏗᏒ	-9.62654
▁ᏗᎦᏚᎲ	-9.62696
▁ᎢᏦᎯᏳᏒ	-9.62714
▁ᎠᏤᎵᏍᏛ	-9.62718
ᏥᏌ	-9.62741
ᎢᏍᏗ	-9.62766
▁ᎨᎳ	-9.63063
▁ᏭᎶᏒ	-9.63072
▁ᎠᏆᏚᎵ	-9.63116
▁ᎠᏃ	-9.63138
▁ᎦᏁᏌᎢ	-9.63193
ᏍᏔᏂ	-9.63203
▁ᎤᏅᏒᏉ	-9.63207
▁ᎦᎨ	-9.63275
▁ᏙᎯ	-9.63286
▁ᏭᎾ	-9.63409
▁ᏍᏆ	-9.63417
▁ᏨᏗᏓᎴᎲᏍᎦ	-9.63486
▁ᏧᏕᏘᏴᏓ	-9.63488
▁ᏗᏟᎶᏍᏔᏅᎯ	-9.63489
▁ᏗᏖᎵᏙ	-9.63494
▁ᎤᎪᏏᏓ	-9.635
▁ᏦᏓᏂ	-9.635
▁ᎠᏂᏫᏅ	-9.63501
▁ᏱᏅᏗᎦᎵᏍᏙᏗᎭ	-9.63508
▁ᎢᏳᎾᎵᏍᏙᏗᏱ	-9.63518
▁ᎤᎦᎾᏍᏓ	-9.63526
▁ᏧᎪᎳ	-9.63535
▁ᎢᏯᎾᏛᏁᎯ	-9.63535
▁ᎬᏩᏟᏍᏗ	-9.63552
ᏁᎵ	-9.63563
▁ᎠᏥᏍᏛ	-9.63569
▁ᎪᎯᏗᏳ	-9.6358
▁ᎠᎵᏍᏕᎸᏙᏗ	-9.63655
▁ᎤᏚᎵᏍᎨᏍᏗ	-9.63656
▁ᏧᏍᏗ	-9.63662
▁ᏣᏁᎳ	-9.63709
▁ᎤᏚᎸᏗ	-9.63722
▁ᎢᏣᏤᎵᎦ	-9.63733
▁ᎢᎦᎦᏘ	-9.63761
ᎪᎯ	-9.63898
▁ᏗᏆᏤᎵᎦ	-9.63902
▁ᎡᎵᏍᏗ	-9.64326
▁ᏱᎬ	-9.64338
ᏛᎦ	-9.64374
ᏉᏃ	-9.64808
▁ᏧᏓᏃ	-9.6484
ᏕᎵ	-9.64923
▁ᏙᏓ	-9.65157
▁ᎤᏂᏣᏔ	-9.65188
▁ᎣᏂᏱ	-9.65213
ᎪᏗ	-9.65505
▁ᎯᎠᏍᎩᏂ	-9.65544
▁ᏗᏆ	-9.65573
ᏁᎮᏍᏗ	-9.65698
▁ᏃᏥ	-9.65723
ᎭᏂ	-9.65812
▁ᏱᏨ	-9.66223
▁ᎠᏓᏁᎸᎢ	-9.66244
▁ᏄᏪᏒᎢ	-9.66618
▁ᏄᎵᏍᏔᏅᎢ	-9.66829
▁ᏯᎩ	-9.67122
▁ᏞᎦ	-9.6738
▁ᎾᎾᏛᏁᎲ	-9.67398
▁ᎬᏩᎾ	-9.67583
ᎷᎦ	-9.67609
▁ᏚᎳᏍᎬ	-9.68076
▁ᎤᏁᏨᎢ	-9.68109
▁ᏫᏓ	-9.68154
▁ᎤᎨᏓᎵᏴ	-9.6821
▁ᎤᏅᏏᏴ	-9.6821
▁ᏭᏯᏅᎮ	-9.68217
ᎩᎶ	-9.68226
▁ᎠᎾᎢᏒ	-9.68259
▁ᎤᏂᎷᏨ	-9.68281
▁ᏕᎭᎷᎨ	-9.68325
▁ᎦᏅᏅ	-9.68343
▁ᏕᎩ	-9.68497
▁ᏭᎷᏨ	-9.68547
▁ᏧᎾᏍᏗ	-9.68605
▁ᏓᏣ	-9.68686
▁ᎤᏒᎢ	-9.6869
▁ᏗᏥᎾᏫ	-9.68804
▁ᏐᏓᎻ	-9.68804
ᏌᎳᏓ	-9.68899
▁ᎤᎷᎯᏍᏗ	-9.68982
▁ᎤᏂᏴᏍᏗ	-9.69029
▁ᎠᎦᏘᏏ	-9.69038
▁Perry	-9.69041
▁ᏧᎦᎾᏮ	-9.69042
ᏚᏓᎴᏍᏙᏗ	-9.69042
▁ᎥᏳᎩ	-9.69044
▁ᏗᎪ	-9.69054
▁ᎠᎵᏍᏔᏴᏗ	-9.69055
▁ᎤᎩᏨᏓ	-9.69057
▁ᎧᏂᎩᏛ	-9.69062
▁ᏗᏕᏲᏗ	-9.6907
▁ᎤᎾᏰᎯᏍᏗ	-9.69071
▁ᎤᏫᏯ	-9.69071
▁ᎤᏂᎩᎬ	-9.69072
▁ᎤᏬᏢᏔᏅᎩ	-9.69074
▁ᏧᎾᎩᎸᏗ	-9.69075
▁ᏗᏓᏘᏂᏙᎯ	-9.69079
▁ᎤᏁᎫᏥᏛ	-9.6908
▁ᎠᏆᏁᎳᏅᎯ	-9.69099
▁ᎠᎵᏍᎪᎸᏔᏅᎯ	-9.69107
▁ᏳᏚᎵᏍᎨ	-9.69121
▁ᎠᏍᏚᏗ	-9.69129
▁ᎨᎵᏍᎬ	-9.6916
▁ᏂᏗᎥ	-9.69176
▁ᏚᏓᏘᎾᎥᎢ	-9.69279
▁ᎤᏂᏍᏆᏂᎪᏎᎢ	-9.69283
▁ᎢᏳᎾᏛᏁᏗᏱ	-9.69504
▁ᎤᏍᏆᏂᎪᏗᏳ	-9.69599
▁ᏓᏆ	-9.69675
▁ᎣᏏᏉ	-9.69801
▁ᏄᏛᏁᎸᎩ	-9.6981
▁ᎤᎿ	-9.70125
ᏍᏔ	-9.70205
▁ᏗᎨᏒᎢ	-9.7026
▁Ᏸ	-9.70328
▁ᎤᎾᎵᎪ	-9.70413
▁ᎠᏫᏅ	-9.70599
ᏍᏕᎸᏗ	-9.7062
▁ᏂᎦᏪᏍᎬᎢ	-9.70637
ᎵᏍᏙᏗ	-9.70733
▁ᎠᎩᏍᏗ	-9.70788
ᎴᏂ	-9.70989
ᎡᎯ	-9.7112
▁ᎢᏧ	-9.71285
ᎡᏗᏱ	-9.71416
▁ᏅᎩᏁ	-9.71502
ᎵᏍᏗ	-9.71568
▁ᏁᎰ	-9.71583
▁ᎾᎥᎢ	-9.71687
▁ᏳᎾ	-9.71702
▁ᎤᏁᏨᎯ	-9.71754
n	-9.71823
▁ᎠᏏᏴᏫᏃ	-9.72076
▁ᏣᎾ	-9.72153
▁ᏫᎬᏩ	-9.72219
▁ᏚᏳᎪᏛᎢ	-9.72476
▁ᎢᏳᎢ	-9.72812
ᏗᏍᎨᎢ	-9.73023
▁ᎤᏥᎸ	-9.73311
Ꮰ	-9.73357
ᎶᏛ	-9.73378
▁ᎤᏪᎵᎯᏍᏗ	-9.73495
▁ᎤᏕᏁᎸ	-9.73637
▁ᎠᏰᏙᎳᏛ	-9.73643
▁ᎡᏙᎲ	-9.73667
▁ᎠᎾᏓ	-9.73916
ᏗᏳ	-9.74014
▁ᎤᏓᏂᎵᎨ	-9.74049
▁ᎡᏗ	-9.74057
▁ᎤᎵᏁᏨ	-9.74111
▁ᏕᏡᎬ	-9.74174
▁ᏓᏁᏩᏗᏒ	-9.74176
▁ᏕᎨᏌᏗᏒ	-9.742
▁ᎤᏓᏅᏖᎴ	-9.7427
▁ᎠᏆᏚᎵᏍᎬ	-9.74323
▁ᎤᏓᏴᏍᏗ	-9.74718
▁ᎷᏈᏂ	-9.74924
▁ᏗᏂᎵᎠᏅᎯᏛ	-9.74924
▁ᎢᏈᎬᎢ	-9.74924
▁ᎹᏏᏙᏂ	-9.74928
▁ᏞᎩᏳ	-9.74931
▁ᎠᎾᏓᏅᏟ	-9.74932
▁ᎬᏔᏂᏓᏍᏗ	-9.74938
▁ᎠᎪᏄ	-9.7494
▁ᏌᎺᎵᏱ	-9.74945
▁ᎠᏙᎳᏅᏍᏗ	-9.74946
▁ᎩᏟ	-9.74957
▁ᏗᎦᏅᏙᏗ	-9.7496
▁ᎠᏫᏄᏣ	-9.74962
▁ᎠᏟᎶᏍᏗ	-9.74976
▁ᎢᏳᏪᏅᏍᏗ	-9.7498
▁ᎢᏨᏗᏍᎨᏍᏗ	-9.74982
▁ᏧᏍᏆᏅᎾ	-9.74988
▁ᎡᏏᏱ	-9.75013
▁ᎤᏬᏚᎯ	-9.75021
▁ᎤᏬᏚᎯᏳ	-9.75029
▁ᎠᏥᎾᏝᎢ	-9.7503
▁ᎤᎶᏒᏍᏗ	-9.75033
▁ᏧᏓᎴᏅᏓ	-9.75064
▁ᎠᏓᎯ	-9.75072
▁ᏎᎳᏱ	-9.75114
▁ᎤᏂᏴᏍᏗᏱ	-9.75207
▁ᏔᎵᏧᏈ	-9.75208
ᎤᏅ	-9.75364
▁ᎣᏁ	-9.75377
▁ᏚᏯ	-9.75397
ᎶᏗ	-9.75408
▁ᏤᎮᎢ	-9.7543
▁ᎠᏁᎮᎢ	-9.75513
▁ᏚᎴᏁᎢ	-9.75679
▁ᏰᎭ	-9.75705
▁ᎠᏁᎭ	-9.75796
▁ᏐᎢᏱ	-9.75909
▁ᏱᏗᏣ	-9.76045
ᏨᎯ	-9.76137
▁ᎢᏳᎾ	-9.7621
▁ᏓᏨ	-9.76556
▁ᎦᏍᎩᎸᎢ	-9.76887
▁ᎠᏥᎸᏉᏗ	-9.7689
ᏍᏊ	-9.77341
▁ᎠᎬ	-9.77607
ᏍᏗᏍᎬ	-9.77632
▁ᎤᎨᏳᎯ	-9.77729
▁ᎢᏓ	-9.77947
▁ᏙᎯᏱ	-9.77952
▁ᎤᏬᎵ	-9.77973
▁ᎠᏎᎩ	-9.78315
▁ᎠᏜ	-9.78387
▁ᏚᎴᏁ	-9.78445
ᏛᏗ	-9.78518
▁ᎤᏁᏅᏎ	-9.78532
▁ᏓᎾᏓ	-9.78724
a	-9.7886
▁ᎤᎸ	-9.78872
ᏠᎾᏍᏗ	-9.78886
▁ᏗᏗ	-9.79149
ᎸᏉᏙᏗ	-9.79199
ᏛᎭ	-9.79421
ᎸᏉᏗᏳ	-9.79569
▁ᏅᏓᏳ	-9.79755
▁ᎠᏂᏙᎾᎥ	-9.79794
ᏛᎯ	-9.79797
ᏅᏒᎩ	-9.79878
▁ᏔᎵᎭ	-9.79979
▁ᏄᏂ	-9.80101
▁ᏗᏣᏓᏅᏙ	-9.80162
ᎠᏯ	-9.80258
▁ᎬᏆ	-9.80304
▁ᏗᏓ	-9.80319
▁ᏨᏍᎩᏃ	-9.80373
▁ᎤᏰᏤ	-9.80374
▁ᎠᏆᎧᏛ	-9.80384
▁ᏓᏠᎯᏍᏛ	-9.80421
▁ᎠᏁᏙᎲ	-9.80424
▁ᎠᎾᏛ	-9.8044
▁ᏭᎶᏎ	-9.80443
▁ᎤᏓᏅᏎ	-9.80582
▁ᏕᎦᎶᏗ	-9.80859
▁ᏏᎩᎻ	-9.8088
▁ᎠᏥᎦᏘᏗᏍᏗ	-9.80907
▁ᎤᏓᏅ	-9.80942
▁ᎤᏍᎪᎵ	-9.8099
▁ᎪᏪᎳ	-9.81028
▁ᎤᏕᎰᎯᏍᏗ	-9.81072
▁ᎢᏳᏛᏁᏗ	-9.81099
ᎾᏏ	-9.81145
y	-9.81163
▁ᎤᏓᎵ	-9.81174
▁ᎦᎷᏯᏍᏘ	-9.81174
▁ᎬᏩᏍᏓᏩᏛᏎᎢ	-9.81174
▁ᎢᏏᎺᎵ	-9.81174
▁ᎤᎵᏗᏨ	-9.81174
ett	-9.81174
▁ᏅᏓᏳᏂᎶᏒᎯ	-9.81175
▁ᏑᎾᏙᏓᏆᏍᏗ	-9.81176
▁ᎢᏯᏅᏙ	-9.81177
▁ᏗᎬᏔᏂᏓᏍᏗ	-9.81177
▁ᎢᎦᏪᏍᏗ	-9.81179
▁ᏂᎬᏩᏪᏎᎸᎩ	-9.81179
▁ᏗᏰᏙᎳᏛᏗ	-9.81182
▁ᎠᏖᎵᏙ	-9.81182
▁ᎭᏩᏧ	-9.81187
▁ᏚᏘᏅᏎ	-9.81191
▁ᎤᎴᏂᏙᎸ	-9.81198
▁ᏕᎹᏍᎦ	-9.81206
▁ᎠᏂᎨᎾᏂ	-9.81206
▁ᏗᏍᏓᏓᏅᏟ	-9.81206
▁ᎠᏫᏒᏗᏱ	-9.81207
▁ᎦᏂᎦᏔ	-9.81209
▁ᏣᏓᎵᎢ	-9.81227
▁ᎠᏂᎦᏓᎭ	-9.81238
▁ᏌᎾᏱ	-9.81241
▁ᏥᏚᏙᎥ	-9.81242
▁ᎤᏁᎵᏤᎢ	-9.8125
▁ᎤᎾᏁᎳᏅᎯ	-9.81263
▁ᎠᎪᏙᏗ	-9.81267
▁ᏙᏱᏨ	-9.81272
▁ᎤᎾᏠᎾᏍᏗ	-9.8128
▁ᏗᏦᏢᏙᏗ	-9.81281
▁ᎤᎾᏰᎯᏍᏗᏳ	-9.81283
▁ᏎᎻ	-9.81297
▁ᎤᏏᏩ	-9.81357
▁ᎤᏬᏚᏨ	-9.81371
▁ᏁᎲᎾ	-9.81381
▁ᎮᎦ	-9.81382
▁ᏂᎦᎵᏍᏓ	-9.81407
▁ᏱᏂᎦᎵᏍᏓ	-9.8141
▁ᎠᎩᏰᎸᎭ	-9.81423
▁ᏫᏗ	-9.81425
▁ᎤᏂᎯᏍᏗᏱ	-9.81431
ᎢᏳ	-9.81439
ᏩᏛᎲ	-9.81443
▁ᎠᏍᎪᎯᏁ	-9.81454
▁ᎤᏟᏍᏓ	-9.81467
▁ᎢᎬᏓ	-9.81471
▁ᎤᎷᎯᏍᏗᏱ	-9.81481
▁ᎾᏂᏪᏍᎬᎩ	-9.81487
▁ᏈᎳ	-9.81492
▁ᎢᎬᏒ	-9.81662
▁ᏗᏂᏅᏌᏗ	-9.81667
▁ᎠᎱᏍᏕ	-9.81667
▁ᎠᏁᎩ	-9.81788
ᎨᏳᏎᏍᏗ	-9.8182
▁ᎢᎨ	-9.81843
▁ᎢᎾ	-9.81857
▁ᏄᎾᏛᏅᎢ	-9.81884
▁ᏓᏁᏩᏗᏒᎢ	-9.81982
▁ᏕᎭᎷᎨᎢ	-9.82032
ᏐᎢ	-9.82136
▁ᏙᎩ	-9.82303
▁ᎦᏂ	-9.8253
▁ᏣᏉ	-9.82722
▁ᏕᎦᏛ	-9.82834
ᏃᎮᎭ	-9.82893
▁ᎨᏴᎢ	-9.8343
ᏩᏛᏗ	-9.83582
ᎥᏍᎬ	-9.83618
ᎥᎢ	-9.83692
Ꮡ	-9.83712
ᎪᎵᏰᏍᎩ	-9.83753
ᎳᏅᎯ	-9.83755
▁ᎠᎩᎵᏲᎢᏍᏗ	-9.84037
▁ᎠᏙ	-9.84104
▁ᎯᎳ	-9.84151
▁ᎤᏂᏁ	-9.8422
▁ᏗᏤ	-9.84571
▁ᎤᏂᏠᏱ	-9.84649
,)	-9.8475
ᏉᏰᏃ	-9.85001
▁ᏕᏣᏓ	-9.85232
▁ᎤᎾᏙᎴᎰᏒ	-9.85277
▁ᎤᏇᏓᎸ	-9.85554
ᎦᏛ	-9.85946
▁ᎦᏥᏯ	-9.86178
ᎡᎭ	-9.86182
ᏅᏟ	-9.86464
▁ᏧᎾᏓ	-9.86486
▁ᏔᎵᏁᎢ	-9.86488
ᎸᎾ	-9.86498
▁ᏚᎸᏫᏍᏓᏁᎸ	-9.8655
▁ᏯᎾ	-9.8655
Ꮏ	-9.86586
▁ᏧᏅ	-9.86602
▁ᎦᏁᎲ	-9.86659
▁ᎤᏴ	-9.86773
ᎵᏱ	-9.86819
▁ᏁᎳᎩ	-9.86837
▁ᎤᏚᎵᏍᎨ	-9.86883
ᏛᏅ	-9.87073
▁ᏕᏥᎸᏫᏍᏓᏁᎲ	-9.87079
▁ᏭᏴᎴ	-9.87114
ᏯᏖᏅ	-9.87154
▁ᏙᏓᎸ	-9.87181
ᎵᏍᏆᏗᏍᎩ	-9.87187
▁ᏄᎾᏛᏅ	-9.8719
▁ᎡᎮ	-9.87236
▁ᏗᏁᎲ	-9.87351
ᎲᏍᎬ	-9.87419
▁ᏅᏗᎦᎵᏍᏙᏗ	-9.87451
Ꮁ	-9.87559
▁ᎤᏁᎸ	-9.87566
▁ᎤᏛᏁᎢ	-9.87633
ᏯᏅᏛ	-9.87743
▁ᎤᏛ	-9.87812
▁ᎠᎾᏓᎾᏏᏂᏙᎯ	-9.8784
▁ᏯᎦᏔᎮ	-9.87841
▁ᎠᎵᏰᎾ	-9.87842
▁ᎡᎩ	-9.87842
▁ᎦᏣᏄᎳ	-9.87843
▁ᎠᏨᏍᏙᏗ	-9.87845
▁ᏧᎦᏒᏍᏗ	-9.87848
▁ᎢᎬᏩᎵᏍᏙᏗ	-9.87856
▁ᎠᏒᎬ	-9.87859
▁ᎢᏣᎵᏍᏙᏗᏱ	-9.87861
▁ᏗᏥᏲᎵ	-9.87866
▁ᏗᏂᏏᏗ	-9.87867
▁ᎠᏤᎷᎩ	-9.8787
▁ᏥᏄᏪᏎᎢ	-9.8787
▁ᎠᏂᎩᎷᏫ	-9.87878
▁ᏧᎳᏏᏕᏂ	-9.87885
▁ᏫᎦᎷᎩ	-9.87908
▁ᏥᏍᏚ	-9.87913
▁ᎤᎾᎳᏅᎯ	-9.87927
▁ᏗᏂᏰᎸ	-9.87927
▁ᏄᎾᏓᎴᏒ	-9.87934
▁ᎫᎫ	-9.87948
ᎵᏰᎢᎶᎯᏍᏗ	-9.88028
▁ᎤᏲᎱᎯᏍᏗᏱ	-9.8804
▁ᎤᎵᏍᎨᏛ	-9.88048
▁ᏏᏲ	-9.88069
▁ᎭᏫᏂᏨ	-9.88076
▁ᎧᏃᎮᏗ	-9.88104
▁ᎢᏳᏍᏘ	-9.88105
▁ᎠᎾᏓᏅᏖᏍᎬ	-9.88115
▁ᏚᎾᏓ	-9.88116
▁ᎫᎴ	-9.88126
▁ᎤᏂᏣᏛᎩ	-9.8818
▁ᏭᏂᎶᏎᎢ	-9.88182
▁ᏗᎩᏏ	-9.88192
ᎦᏙᏃ	-9.88196
▁ᎠᏆᏚᎵᎭ	-9.88209
▁ᎠᎪᏩᏛᏗ	-9.88209
▁ᏂᎪᎯᎸᎾᏉ	-9.8827
▁ᎤᏲᏨ	-9.8829
▁ᏥᎨᏳᎢ	-9.8831
▁ᏱᎨᏐᎢ	-9.88344
▁ᏙᎦ	-9.88381
ᏴᏫ	-9.88385
▁ᏂᎦᎵᏍᏙᏗ	-9.88507
▁ᎨᎵᎠ	-9.88522
▁ᎡᎮᏍᏗ	-9.88551
▁ᏚᎸᏫᏍᏓᏁᎸᎢ	-9.88609
ᎳᎻ	-9.88611
▁ᎠᏁ	-9.88643
▁ᎠᏁᏙᎲᎢ	-9.88657
▁ᎢᎦᏤᎵᎦ	-9.88668
▁ᎡᏙᎲᎢ	-9.8874
▁ᎪᎨ	-9.88753
▁ᏗᏁᎲᎢ	-9.88774
▁ᎤᏓᏅᏅ	-9.88872
▁ᎠᏓᏁᏗ	-9.89087
▁ᎡᎾ	-9.89201
▁ᎠᏗ	-9.89238
▁Ꮠ	-9.89335
▁ᏥᏥ	-9.89438
▁ᏂᏙᏓᏳ	-9.8977
▁ᏂᎪᎯᎸᎾ	-9.89817
▁ᎤᏂᎷᏤᎢ	-9.89999
▁ᏂᏥᎥᎢ	-9.90038
ᎦᏗᏓ	-9.90243
▁ᏍᎩᏯ	-9.90367
▁ᎠᏂᏐ	-9.90525
▁ᎠᏋᏒᏉ	-9.90863
▁ᏣᏚ	-9.90866
▁Ꮜ	-9.90898
▁ᏴᎬ	-9.90964
▁ᏤᏣ	-9.91053
;]	-9.91213
ᏧᏈᏍᏗ	-9.91224
ᎲᏍᎨᏍᏗ	-9.91756
▁ᎪᎯᏍᎩᏂ	-9.91886
ᏢᏙᏗ	-9.92028
ᏙᎴᎰᎯᏍᏗ	-9.92145
ᎳᏗ	-9.92395
▁ᏕᎬᏩ	-9.93561
ᏂᎸ	-9.93622
▁ᏚᏪ	-9.93729
Ꮉ	-9.93905
▁ᏧᎾᏄᏬ	-9.93924
▁Ꮞ	-9.94043
▁ᏎᎳ	-9.94108
ᎦᎶᏁᏛ	-9.9412
▁ᎠᏆᏛᎦᏅ	-9.94148
▁ᎡᎳᏪ	-9.94169
▁ᏓᏫᏒ	-9.94242
ᎵᏍᎦᏍᏙᏛ	-9.94285
▁ᎢᏳᏪ	-9.94378
▁ᏭᏂᎷᏨ	-9.94469
ᏩᎬᏘ	-9.94573
▁ᏚᏁᎴ	-9.94581
▁ᏄᏛᏅ	-9.94639
▁ᎡᏝᏪ	-9.94694
▁ᏗᎧᏃᎩᏍᏗ	-9.94732
▁ᎤᏓᏅᏛ	-9.94761
▁ᎠᏛᎪᏗ	-9.94812
▁ᎠᏗᏆᎸᏕᏲ	-9.94983
▁ᎬᏍᎦᎢᏍᏓᎩ	-9.94983
▁ᏂᎦᏅᎯᏎᏍᏗ	-9.94983
▁ᎠᏂᏌᏚᏏ	-9.94983
▁ᏄᏜᏏᏛᏒᎾ	-9.94983
▁ᏌᏯᏂ	-9.94983
▁ᎤᎵᎪᎲᏍᏗ	-9.94983
▁ᏗᏁᎶᏙᏗ	-9.94983
▁ᏧᏃᏑᎶᏨᎯ	-9.94984
▁ᏥᏔᎦ	-9.94985
▁ᎤᎶᏒᏍᏔᏅᎯ	-9.94986
▁ᏧᎾᏦᎯᏍᏗ	-9.9499
▁ᎢᏨᏔᏲᏎᎭ	-9.9499
▁ᏧᎾᎳᏏᏕᏂ	-9.94992
▁ᎳᏏᎳ	-9.94993
▁ᎢᏳᏓᎨᏛ	-9.94995
▁ᎢᏣᏓᏙᎵᏍᏗᏍᎨᏍᏗ	-9.95
▁ᎾᏛᏁᎮᏍᏗ	-9.95002
▁ᎢᎩᏍᏕᎵᏍᎩ	-9.95003
▁ᎤᏚᏫᏛ	-9.95004
▁ᏫᏂᎦᎵᏍᏓ	-9.95005
▁ᏫᏄᏒᎸ	-9.95006
▁ᎣᎦᏁᎳᏅᎯ	-9.95015
▁ᎣᏌᏂ	-9.95015
▁ᎤᏴᏣ	-9.95016
▁ᎤᎾᎴᏅᎮ	-9.95019
▁ᎦᏰᏌᏗ	-9.95021
▁ᏤᏈ	-9.95024
▁ᎠᎦᏘᏯ	-9.95034
▁ᎠᏂᎦᏔᎿᎢ	-9.95037
▁ᎬᎪᏩᏛᏗ	-9.95038
▁ᏗᏯᏖᎾ	-9.95045
▁ᎠᎵᎮᎵᏍᏗ	-9.95046
▁ᎢᎦᏪᏛ	-9.95047
▁ᎤᎵᏑᏫᏓ	-9.95068
▁ᎤᎦᏃᏩ	-9.95113
▁ᏧᎾᏓᎵᎢ	-9.95128
ᏛᏳᎨᏗ	-9.95185
▁ᎢᏳᏅᏁᏗᏱ	-9.95189
▁ᎢᎾᏓ	-9.95222
ᎭᏗ	-9.9523
▁ᎪᎨᏱ	-9.95231
▁ᎤᏬᏢᏅᎯ	-9.95236
▁ᎤᎴᏫᏍᏔᏅ	-9.95243
ᏔᏲᏎᎴ	-9.95256
▁ᎠᏓᏅᏖᏗ	-9.95266
▁ᏣᏁᎮᎢ	-9.95293
▁ᎢᏍᏗ	-9.95319
▁ᏧᎸᏫᏍᏓᏁᏗᏱ	-9.95355
▁ᏗᎦᎵᎠᏅᎯᏛ	-9.95417
▁ᏄᎾᏛᏁᎸᎩ	-9.9543
▁ᏚᏳᎪᏗ	-9.95455
▁ᎤᎾᏄᎪᏫᏎᎢ	-9.95541
▁ᎠᏥᎸᎠᏁᎶᎯ	-9.95558
▁ᎤᏔᎷᎩᏍᎩ	-9.95601
▁ᎬᏩᏛᏛᏁ	-9.95652
▁ᏭᎶᏒᎩ	-9.95695
▁ᎠᎦᏔᎭ	-9.95735
▁ᎤᎵᏍᎨ	-9.95778
▁ᏧᎵᎢ	-9.95817
▁ᎾᎥᏂᏳ	-9.95827
▁ᎠᏓᏰᏍ	-9.9583
▁ᏓᏠᎯᏍᏛᎢ	-9.95869
▁ᏕᎨᏌᏗᏒᎢ	-9.95916
▁ᏚᎸᏫᏍᏓᏁᎲ	-9.95923
▁ᎤᏂᎵ	-9.95953
▁ᎭᏓᏅᏖᏍᎬ	-9.96062
▁ᏍᎪᎯ	-9.96157
ᏌᏘ	-9.96192
ᏗᏍᎨ	-9.96225
▁ᎤᏁᏤᎸᎩ	-9.96247
▁ᎧᏁᎢᏍᏗ	-9.96249
an	-9.9635
▁ᏑᏓᎵᏁ	-9.9637
▁ᎤᏣᏛ	-9.9639
▁ᏳᏂ	-9.96516
▁ᏙᏳ	-9.96552
ᎦᏘᏍᏙᏗ	-9.9656
▁ᏗᎨᏥ	-9.96662
▁ᏥᏯ	-9.96739
▁ᎬᏗᏍᎬᎢ	-9.9687
ᎵᏏ	-9.97021
ᏃᎯᏎᎸ	-9.9709
▁ᏗᏣᏓ	-9.9722
▁ᎤᎴᏅ	-9.97261
▁ᎠᏰᎸᏗ	-9.97451
▁ᏳᏩ	-9.97555
▁ᏚᏅ	-9.97562
ᎵᏍᏔᏅ	-9.97674
▁ᎣᏣ	-9.97694
▁ᎤᏰᎸᏛᎢ	-9.97785
ᏍᏔᏅᎩ	-9.97797
ᏣᏘ	-9.97827
.]	-9.98066
▁ᎤᏲᏉ	-9.98341
▁ᎤᏕ	-9.9835
ᏁᏥ	-9.98354
▁ᏤᎩ	-9.98501
Ꭻ	-9.98895
▁ᎪᎯᏛ	-9.99029
▁ᎠᏓᏅᏙᏍᎩᏂ	-9.99204
▁ᎤᏬ	-9.99224
ᎯᎭ	-9.99267
ᏟᏍᏗ	-9.99283
▁ᎯᎦᏔᎭ	-9.99425
▁ᏍᎩᏃ	-9.99449
▁---	-9.99635
▁Ꮼ	-9.99743
▁ᏱᎨ	-9.99769
ᏂᏗᏳ	-9.99848
▁ᏙᏓᎦ	-9.99851
▁ᎤᎫᏴᏗ	-9.99893
▁ᎢᏅᎯ	-10.0005
▁ᏑᎾᎴᏃ	-10.0035
▁ᏩᏁ	-10.0059
▁ᏥᏅᏏᏓᏍᏗ	-10.0075
▁ᏄᏍᏛᎾ	-10.008
▁ᏧᎵ	-10.0098
▁ᎤᎪ	-10.0101
▁ᏛᎾ	-10.0122
▁ᏗᎬᏩᏂ	-10.0152
▁Ꮲ	-10.0159
ᏁᎲᎢ	-10.0161
▁ᎠᏁᏙᎮ	-10.0166
▁ᏓᏅᏅ	-10.0176
▁ᏕᎨᏴ	-10.018
ᎪᏩᏛᏗ	-10.0183
▁ᏚᎾᏓᏡᏩᏗᏒ	-10.0192
▁ᎾᏑᏴ	-10.0192
▁ᎯᏆ	-10.0192
▁ᏅᏃ	-10.0211
▁ᎤᏄᎪᏨ	-10.0216
▁ᏚᎪᎲ	-10.0226
▁ᎦᏅᎬ	-10.0227
▁ᎤᏪᏙᎸ	-10.0235
▁ᏥᎬ	-10.0245
▁ᎤᏪᏅᏍᏗ	-10.0252
▁ᎠᏒᎨ	-10.0255
▁ᎠᎩᎾᏫ	-10.0256
▁ᎤᏲᎱᎯᏍᏗ	-10.0257
ᏄᎮᏛ	-10.0267
▁ᏅᏬᏘ	-10.0268
▁ᏑᏓᎴᎩ	-10.0268
▁ᎦᏃᏍᎩᏍᎩ	-10.0268
▁ᏀᎾ	-10.0268
▁ᏍᏏᏉᏯ	-10.0268
▁ᏗᏂᎨᏫ	-10.0268
▁ᏗᎦᏙᏌᏗᏍᏗᏱ	-10.0268
▁ᏌᏙᏂ	-10.0268
▁ᏧᎾᏦᏴᏍᏗ	-10.0268
▁ᎮᎳᏂ	-10.0268
▁ᏗᎪᏒᏔᏅ	-10.0268
▁ᎾᎦᎥ	-10.0268
▁ᎨᏣᏍᎦᎩ	-10.0268
▁ᎠᏉᏰᏂ	-10.0268
▁ᎦᏚᎢᏗᏢ	-10.0268
▁ᏇᏍᏓ	-10.0269
▁ᏗᏂᎰᎵ	-10.0269
▁ᏍᏗᏫ	-10.0269
▁ᏌᏊ	-10.0269
▁ᏚᏑᎬ	-10.0269
▁ᎤᎧᏲᏛᎯ	-10.0269
▁ᏁᏂᏏ	-10.0269
▁ᎨᎦᏑᏰᏛ	-10.0269
▁ᎠᏂᎦᏔᎾᎢ	-10.027
▁ᏚᎦᏒᏍᏛ	-10.027
▁ᏗᏍᏆᎾᎳᏗᏍᏗ	-10.027
▁ᏄᏍᏗᏓᏅ	-10.027
▁ᏗᎳᏑᎶ	-10.027
▁ᎢᏳᏓᏅᎯᏓ	-10.027
▁ᎠᏇ	-10.027
▁ᎬᎩᏍᎦᎩ	-10.0271
▁ᎣᏥᎦᏔᎭ	-10.0271
▁ᎤᏕᎶᎰᏎ	-10.0271
▁ᏩᏛᎬᎦ	-10.0272
▁ᎢᏥᏯᏫᏍᎨᏍᏗ	-10.0273
▁ᎣᎭᏂ	-10.0273
▁ᎠᏂᎩᏏᏙᎯ	-10.0273
▁ᎨᏆᏂ	-10.0273
ᎪᏣᎴᏛ	-10.0274
▁ᎠᏂᎦᏔᎯ	-10.0274
▁ᏗᏥᎶᏍᏔᏅ	-10.0274
▁ᎤᏓᏅᏖᎸ	-10.0275
▁ᎢᏥᏅᏟ	-10.0275
▁ᎠᏍᎦᏰᎬᏍᏔ	-10.0277
▁ᏥᎮᎾ	-10.0277
▁ᏫᎶᎯ	-10.0279
▁ᎤᏙᎴᎰᏎ	-10.028
▁ᎤᏤ	-10.0283
▁ᎤᏪᎷᏅᎩ	-10.0283
▁ᏄᏕᏘᏴᎮᎢ	-10.0283
▁ᏓᏳᎶᏒ	-10.0284
▁ᏂᎦᏚ	-10.0286
▁ᏚᎧᎾᏁ	-10.0292
▁ᎤᏛᏐᏅᎯ	-10.0295
▁ᎤᏁᎷᏁᎢ	-10.0295
▁ᎢᏥᏍᎦᏅᏨᎢ	-10.0296
▁ᎪᏢᏅᎯ	-10.03
▁ᎤᎵᏍᏕᎸᏙᏗ	-10.03
▁ᎤᏓᏅᏒᎩ	-10.0301
▁ᏯᏂ	-10.0305
▁ᎠᏧᏏ	-10.0306
ᎠᏎᏃ	-10.0308
▁ᏕᎦᎶᏗᎯ	-10.0309
▁ᎠᎩᎪᎲᎩ	-10.031
▁ᎤᏓᏔᏅᎯ	-10.0311
▁ᏓᏓ	-10.0312
▁ᏓᎧᏅᎢ	-10.0314
▁ᎬᏩᎷᏤᎸᎩ	-10.0317
▁ᎪᏢᏒᎢ	-10.0321
▁ᎡᎳᏗᏣ	-10.0321
▁ᎢᏧᏩᏁ	-10.0323
▁ᎤᏄᎪᏤ	-10.0323
ᏗᏍᎪᎢ	-10.0327
▁ᎡᏙᎯ	-10.0331
▁ᎠᏥᎸᎨᎶᎯ	-10.0334
▁ᏓᎬᎾ	-10.0336
▁ᎠᏁᎳ	-10.034
ᎶᎢ	-10.0341
▁ᎨᎾᏂᏱ	-10.0341
▁ᏚᎾᏓᏡᏩᏗᏒᎢ	-10.0346
Ꮾ	-10.0347
▁ᎤᏂᏍᎦᏅᏨᎯ	-10.0351
ᏌᏂ	-10.0355
▁ᎤᎾᏓᏑᏴ	-10.0357
▁ᎪᏣᎴᏛ	-10.0358
▁ᎮᏗ	-10.0359
▁ᎤᏍᏘᏰᎬ	-10.0361
▁ᏥᎪᎨ	-10.0368
▁ᎤᏁᎳᏅᎯᏱ	-10.0373
▁ᏣᏂᏃ	-10.0376
ᏖᎸᏗ	-10.0378
ᏙᏓ	-10.0387
ᎿᎨ	-10.0388
▁ᏚᏂᎸᏫᏍᏓᏁᎲᎢ	-10.0394
▁ᎠᏔᎴᏒᎢ	-10.04
ᏓᏥ	-10.0402
ᎸᏗ	-10.0417
▁ᏂᎦᏪᏍᎬᎩ	-10.0421
ᎵᏓᏍᏗ	-10.0427
ᏕᎩ	-10.0436
▁ᏱᎦᎩ	-10.0437
▁ᎤᎪᎮᎢ	-10.0442
▁ᏡᎬᎢ	-10.0455
▁ᎤᎴ	-10.0531
▁ᎤᏣ	-10.0547
▁ᏙᏗ	-10.055
▁ᎠᏍᎦ	-10.0561
▁ᎤᏲᎱᏒᎢ	-10.0569
▁ᎡᎳ	-10.0575
▁ᏓᏰ	-10.0586
▁Ꮋ	-10.0617
;)	-10.0617
ᏴᏓ	-10.0636
ᎵᏍᎪᎸᏓᏁᎸᎯ	-10.0645
▁ᎠᏂᏂ	-10.0656
▁ᏥᏓᏂ	-10.0664
▁ᎤᏩᏛᏗ	-10.0673
ᏚᎦ	-10.0698
▁ᏥᏴ	-10.0702
ᎴᎭ	-10.0708
ᏣᏓ	-10.0725
ᎷᏥᏏ	-10.0745
ᏖᏍᏗ	-10.0748
▁ᎤᏄᏬ	-10.0751
▁ᎤᏂᏁᏨ	-10.0752
ᎥᎾ	-10.0755
▁ᎦᎾ	-10.0761
ᏓᏑᏯ	-10.0789
ᏅᏎ	-10.0843
ᏓᏂᎸᏨᎯ	-10.0848
▁ᎢᏍ	-10.0877
ᏗᏣ	-10.0877
▁ᏱᎬᏩ	-10.0885
▁ᎤᏦ	-10.0888
▁ᎦᏁ	-10.0891
▁ᏏᎻᏯᏂ	-10.091
▁ᎪᎯᏳᏗᏍᎩ	-10.0915
ᏤᎵ	-10.0915
ᏎᎸ	-10.0919
▁ᎠᎯᏗ	-10.093
ᏁᎶᏗ	-10.0943
▁ᎣᎦᏤᎵ	-10.0944
▁ᎦᏛ	-10.0944
▁ᏂᎬᏁ	-10.0954
ᏒᏅ	-10.0959
▁ᎧᏃᎮᏍᎬ	-10.097
▁ᏄᎾᏛᏁᎸ	-10.0973
▁ᎠᏍᏓ	-10.0993
▁ᎠᏅᏗᏍᎬ	-10.1017
▁ᎤᏜᏅᏛ	-10.1018
▁ᎤᎿᏥ	-10.1019
▁ᏫᏚᏯᏅᎮ	-10.1027
▁ᎪᏱᏁ	-10.1028
▁ᎠᏨᏯ	-10.1035
▁ᎠᏂᏁᎬ	-10.104
▁ᎤᎾᏚᎵᏍᎬ	-10.1047
▁ᎤᏂᎩᏎ	-10.1049
ᎥᎯᏍᏗ	-10.105
▁ᏚᎸᏌᏛ	-10.1051
▁ᎠᏇᎵᏒ	-10.1052
▁ᏂᏚᏩᏁᎸ	-10.1053
▁ᎤᏪᏅᏒ	-10.1056
ᎬᎭᎷᏴ	-10.1056
▁ᏥᏁᎬ	-10.1059
ᎸᏌᏛ	-10.106
▁ᎠᏴᏫᏯ	-10.1061
▁ᎢᏨᏯ	-10.1068
▁ᏱᏥᎦᏔ	-10.107
ᎶᏒ	-10.1074
▁ᏫᎬ	-10.1076
▁ᎢᏯᏆᏛᏁᏗ	-10.1078
▁ᏂᏨᏁᎸ	-10.108
▁ᎤᏁᏓᏍᏗ	-10.108
▁ᏗᎦᎪᏗ	-10.1083
▁ᎠᏁᎵᏍᎨ	-10.1087
▁ᎡᎳᏂᎬ	-10.1092
▁ᎤᏩᏛᎲ	-10.1099
▁ᎤᎵᏬᏨ	-10.1101
▁ᎠᏂᏩᏥᏂ	-10.1101
▁ᎦᎳᎱᏂ	-10.1101
▁ᏕᎦᎳᏫᎥ	-10.1101
▁ᏧᏓᎿᏩᏛ	-10.1101
▁ᎢᏆᎶᏂ	-10.1101
▁ᎾᎪᏔᏅᎾ	-10.1101
▁ᏚᎾᎧᏛ	-10.1101
▁ᏗᏂᏬᏂᏍᎩ	-10.1101
▁ᏣᏔᎦ	-10.1101
▁ᎤᏙᎴᎰᎯᏍᏗᏱ	-10.1101
▁ᏚᏃᏢᏔᏅᎩ	-10.1101
▁ᎢᏕᎯ	-10.1101
▁ᏄᏓᎵᏓᏍᏛᎾ	-10.1101
▁ᏗᎨᏥᎤᏍᏕᏎᎸᎯ	-10.1101
▁ᏅᏓᎦᎵᏍᏙᏓ	-10.1101
▁ᏗᏂᏍᎪᎵ	-10.1101
▁ᏂᎦᎵᏍᏔᏂᏙᎲ	-10.1102
▁ᎦᏂᏓᏛ	-10.1102
▁ᏍᎪᏯ	-10.1102
▁ᏧᏆᎶᎬ	-10.1102
▁ᏂᏣᏛᏁᎮᏍᏗ	-10.1102
▁ᎾᎵᏍᏆᏗᏍᎬᎾ	-10.1102
▁ᎢᏥᏰᎸᏎᏍᏗ	-10.1102
▁ᎢᏣᏅᏖᏍᏗ	-10.1102
▁ᎤᏬᏑᎶᏨᎯ	-10.1103
▁ᎥᎩᏅᏏᏛ	-10.1103
▁ᎠᏂᏃᏍᎩᏍᎩ	-10.1103
▁ᏗᏓᏬᏍᎩ	-10.1103
▁ᏓᎬᏩ	-10.1104
▁ᎢᏳᏕᏘᏴᏓ	-10.1104
▁ᎢᏧᎳᏗᏢ	-10.1104
▁ᎯᏍᎦᏯ	-10.1104
▁ᎢᏥᎦᏔᎮᏍᏗ	-10.1104
▁ᎡᏂᏗ	-10.1104
▁ᏂᏚᎾᏓᏪᏎᎴᎢ	-10.1105
▁ᎠᏌᏅᏙᏗ	-10.1105
▁ᏗᏑᏢᏛ	-10.1105
▁ᎣᏂᏗᏢ	-10.1105
▁ᏅᏓᎦᎵᏍᏙᏔᏂ	-10.1105
▁ᎠᎵᏥᏙᎲᏍᎩ	-10.1105
▁ᎢᏯᏍᏘ	-10.1106
▁ᎡᏈᎵ	-10.1106
▁ᎢᏥᎦᏙᎥᎯᏍᏗᏱ	-10.1106
▁ᏧᎾᎵᏂᎩᏛ	-10.1107
▁ᎠᎦᏯᎷᏗ	-10.1107
▁ᎠᏥᎤᏍᏕᏎᎸᎯ	-10.1107
▁ᎪᎯᏳᎲᏍᎩ	-10.1107
▁ᏂᎬᏪᏎᎭ	-10.1108
▁ᏣᏓᏅᏙ	-10.1109
▁ᏧᏍᎪᎵ	-10.111
▁ᎦᎾᏍᏓ	-10.111
▁ᏂᎦᎵᏍᏔᏅᎭ	-10.1112
▁ᏅᏧᎵᏍᏙᏔᏅ	-10.1113
▁ᏍᎩᏙᎵᎩ	-10.1116
▁ᎤᏕᎵᏒ	-10.1116
▁ᎢᏳᎵᏍᏔᏅᎯ	-10.1118
▁ᎤᎵᏍᏗᏳ	-10.112
▁ᏧᏂᎳᏫᎢᏍᏗᏱ	-10.1121
▁ᎢᏕᎾ	-10.1121
▁ᏓᏓᏏ	-10.1122
▁ᎠᎦᏔᎿᎢ	-10.1122
▁ᏚᏠᏱᎴᎢ	-10.1122
▁ᎠᏆᎵᏏ	-10.1122
▁ᎤᏍᏆᏛ	-10.1124
▁ᎢᏯᏆᏛᏁᏗᏱ	-10.1124
▁ᎢᏓᎵ	-10.1126
▁ᎹᏗ	-10.113
▁ᎤᏪᏗᏱ	-10.1133
▁ᎨᎥᎢ	-10.1137
▁ᎤᏟᏂᎩᏓ	-10.1138
ᎷᏤᏗᏱ	-10.1138
▁ᎤᏂᎩᏒᎩ	-10.1142
▁ᏘᎵ	-10.1148
▁ᎡᏘᏴ	-10.1149
▁ᎤᎾᏛᏁᎢ	-10.115
▁ᎤᏩᏅ	-10.1152
▁ᎹᎩ	-10.1152
▁ᏂᏚᏩᏁᎸᎩ	-10.1154
▁ᏄᎾᏍᏗ	-10.1157
▁ᏧᏂᎾᏫᏱ	-10.1157
▁ᏫᏚᏂ	-10.1159
▁ᏧᏓᏅᏛᎢ	-10.1162
▁ᎬᏩᎪᎲ	-10.1167
▁ᏭᏂᎷᏤᎢ	-10.1174
▁ᎨᏙᎲ	-10.1174
▁ᎨᏂᏗ	-10.118
▁ᏂᏙ	-10.1182
ᏢᏗ	-10.1188
ᏃᏁᎸᎩ	-10.1202
ᏓᏡᎬ	-10.1209
▁ᎠᏆᎵ	-10.121
▁ᏂᏫ	-10.1214
▁Ꮘ	-10.1221
▁ᏯᏆᏚᎵ	-10.1222
▁ᎤᏣᏖ	-10.1228
▁ᎭᎵ	-10.1233
▁ᏱᎰ	-10.1237
▁ᎯᎸᎯ	-10.1239
▁ᎦᏛᎬᎢ	-10.124
ᏁᏍᎨ	-10.1242
ᏓᏅ	-10.1254
▁ᎤᎪᎲᎯ	-10.1255
▁ᎤᏁᎢᏍᏗ	-10.1258
▁ᏄᏛᏁᎸᎢ	-10.1275
ᏙᎥ	-10.1275
▁ᎤᎭᎨ	-10.1276
ᎡᏍᏗ	-10.1276
▁ᎨᏓᎵ	-10.1283
ᏃᎲᏏ	-10.1289
▁ᎤᏩᎨᏫ	-10.129
ᏙᎵᏍᏗ	-10.1297
ᏍᏆᏂᎪᏗ	-10.1298
ᎫᏴᏙᏗ	-10.1299
ᏪᏨᎯ	-10.1324
▁ᎤᎴᏅᎲ	-10.1331
▁ᏧᏪᏘ	-10.1335
▁ᎤᏯ	-10.1353
▁ᏗᎬᏙᏗ	-10.1363
ᏅᎭ	-10.1386
▁ᎠᎩᎭ	-10.1405
▁ᎯᎾ	-10.1419
▁ᎠᎦᏛ	-10.144
ᏩᏛᎮ	-10.1444
ᏓᏏ	-10.1456
▁ᏓᏥᏯ	-10.147
▁ᎤᏔᏅ	-10.1481
ᎠᏯᏗ	-10.1488
ᏂᏒ	-10.1491
▁ᎤᏙᏓᏃ	-10.1494
ᏅᏏᏙᎯ	-10.1497
ᏍᏕᏍᏗ	-10.1523
▁ᎤᏛᏅᎩ	-10.1587
▁ᎨᎶᎯ	-10.1606
▁ᏭᏂᎷᏤ	-10.1625
ᏁᎸᏔᏅ	-10.1643
▁ᏄᏓ	-10.1669
▁ᏂᏣᏛᏅᎢ	-10.1706
ᎤᏙᎯᏳ	-10.171
ᏧᏏ	-10.1724
ᏓᏁᎸ	-10.1743
ᏙᎵ	-10.1743
ᏴᎭ	-10.1747
ᎥᏝ	-10.177
ᏓᏅᎦᎸᏛ	-10.1775
ᏐᏅ	-10.1789
▁ᎠᏂᏁ	-10.1803
ᎩᏍᎨᏍᏗ	-10.1848
▁ᎠᏍᎦᏅᏨ	-10.1852
ᏓᎶᏂᎨ	-10.1865
▁ᎾᏆᏛᏁᎸ	-10.1877
ᏔᎷᎩᏍᎩ	-10.1879
ᎨᎳᏍᏗ	-10.1882
ᏚᎵ	-10.1887
▁ᎠᎩᏁᏨ	-10.1894
▁ᎠᏓᏅᏖᏍᎨ	-10.1909
▁ᎡᎵᏍᎨ	-10.1913
▁ᏫᎦᏅᏅ	-10.1916
▁ᎠᏂᏨᏯ	-10.1918
▁ᎤᎩᏨᏅ	-10.1921
▁ᎠᏓᏯ	-10.1921
▁ᎤᎵᏂᎬᎬ	-10.1922
▁ᏕᎦᏅᏅ	-10.1922
▁ᏗᏤᎲ	-10.1925
▁ᎥᏓᎸ	-10.1926
ᎢᏳᎾᏍᏗ	-10.1927
▁ᎤᏂᏃᎮᎸ	-10.1928
▁ᏣᎧᏛ	-10.1931
▁ᎦᏰᏌᏛ	-10.1931
▁ᎬᏩᎷᏤᎴ	-10.1932
▁ᏗᏓᏁᎸ	-10.1938
▁ᏂᏣᏛᏅ	-10.1941
ᎩᎯ	-10.1942
▁ᎤᏰᎸᏁ	-10.1943
ᏎᏗ	-10.1946
▁ᎤᎿᎥ	-10.1946
▁ᏗᏥᏰᎸ	-10.1956
▁ᏥᏙᎬ	-10.1957
▁ᏫᏚᏯᏅᎲ	-10.1959
ᏍᏗᏍᎨᏍᏗ	-10.1961
ᏅᏓ	-10.1963
▁ᎠᏍᏚᎲ	-10.1965
▁ᎬᏩᎷᏤᎸ	-10.1972
▁ᏂᎪ	-10.1972
▁ᎠᏂᏃᎯᎵᏙ	-10.1984
▁ᏗᏄᎪᏗᏍᎩ	-10.1986
▁ᎢᎬᏩᏁᏗ	-10.1986
▁ᎠᏥᎢᏍᏗ	-10.1987
▁ᎠᏁᎵᏍᎬ	-10.1994
▁ᏚᏅᏎ	-10.2002
▁ᏱᏙ	-10.2002
ᏔᏅᎢ	-10.2004
▁ᎠᏰᎲ	-10.2005
▁Chap	-10.201
▁ᎡᎩᎵᏈ	-10.201
▁ᎢᏗᏍᏓᏓᎳ	-10.201
▁ᎢᏯᎬᏁᎸᎯ	-10.201
▁ᏂᏓᎪᏔᏅᎾ	-10.201
▁ᏌᏬᏚ	-10.201
▁ᎠᏂᏈᎵᏍᏗ	-10.201
▁ᏌᏱᎳ	-10.201
▁ᎠᏰᎳᏍᏘ	-10.201
▁ᏚᎧᏔᏍᏔᏁᎢ	-10.201
▁ᏣᎦᏟᎶᏍᏔᏅᎯ	-10.201
▁ᏥᏍᎪᏴ	-10.201
▁ᏅᏓᎦᏥᏴᏁᎵ	-10.201
▁ᏧᏓᏕᏍᏗᏱ	-10.201
▁ᎮᎼ	-10.201
▁ᎠᏗᏒᏍᏗ	-10.201
▁ᎤᏲᏍᏛᏉ	-10.201
▁ᎠᏕᏒᎲᏍᎩ	-10.2011
▁ᎢᏆᎻ	-10.2011
▁ᏗᏥᎦᏙᎵ	-10.2011
▁ᏧᎾᏓᏅᏙ	-10.2011
▁ᎤᏂᏁᎫᏥᏛ	-10.2012
▁ᏥᏂᏣᏛᏅ	-10.2012
▁ᎤᎳᎨᏯᏛᏤᎢ	-10.2012
▁ᎤᎩᏓᏟᏅᏯ	-10.2012
▁ᎢᏳᏛᏁᎸᎯ	-10.2012
▁ᏌᏚ	-10.2012
▁ᎠᎹᏳᎸᏓ	-10.2013
▁ᏱᏥᏍᎦᎢᎮᏍᏗ	-10.2013
▁ᎠᎩᎬᏫᏳᎯ	-10.2013
▁ᏣᏤᎵᎪᎯ	-10.2013
▁ᏏᎵᏱ	-10.2014
▁ᎤᏍᏚᎢᏒ	-10.2014
▁ᎦᎫᏍᏛᏗ	-10.2014
▁ᏤᏙᎲ	-10.2014
▁ᎤᏣᏔ	-10.2015
▁ᏇᏕᎵ	-10.2015
▁ᏭᎷᏣ	-10.2016
▁ᏗᎨᏥᎾᏌᎢ	-10.2016
▁ᎧᏁᏍᎪ	-10.2016
▁ᎠᏂᏃᎮᏍᎩ	-10.2016
▁ᏥᏲᏎᎸ	-10.2016
▁ᎠᏉᎳ	-10.2016
▁ᎠᎦᏔᎾᎢ	-10.2017
▁ᎤᎾᏗᏍᎦᎶᏗ	-10.2017
▁ᏓᎬᏔᏂ	-10.2017
▁ᎣᎩᏙᏓ	-10.2018
▁ᎬᏩᏍᏓᏩᏛᏒᎩ	-10.2018
▁ᏗᎦᏅᏍᎨᏂ	-10.2018
▁ᎬᎵᏍᏆᏗᏍᎩ	-10.2019
▁ᏗᎬᏩᎸᏌᏛ	-10.2019
▁ᏓᎨᏏ	-10.2019
▁ᎢᏳᏩᏁᎯ	-10.2019
▁ᏥᏥᎦᏔᎭ	-10.2019
▁ᎠᎵᏍᎪᎸᏓᏁᏗ	-10.2019
▁ᏚᏃᎡᎢ	-10.202
▁ᏯᎦᏔᎭ	-10.202
▁ᎠᏂᏅᎢ	-10.2022
▁ᎠᏃᏍᏛ	-10.2022
▁ᎾᏥᎾᏝᎥᎾ	-10.2022
▁ᎤᏁᏢᏔᏅᎯ	-10.2022
ᎬᏫᏳᏒ	-10.2023
▁ᏦᎳᏂ	-10.2024
▁ᏧᏂᎦᏴᎵᎨ	-10.2025
▁ᏭᎶᎯᏍᏗᏱ	-10.2026
▁ᏳᏩᏁᎦ	-10.2026
▁ᎢᏣᏠᎾᏍᏗ	-10.2026
▁ᎪᏪᎳᏅᎯ	-10.2028
▁ᏦᏈ	-10.203
▁ᎬᏂᎨᏒᎢᏳ	-10.2032
▁ᏦᎳ	-10.2032
▁ᏥᏂᎦᏪᎭ	-10.2033
ᎦᏅᎯᏓ	-10.2035
▁ᎠᏥᏃᎮᏍᎬᎢ	-10.2037
▁ᎾᎨ	-10.2041
▁ᏂᎦᏅᎯᏒᎩ	-10.2042
▁ᏧᏁᎬ	-10.2042
▁ᏂᏚᏍᏛ	-10.2046
ᎸᏉᏗ	-10.2048
▁ᎤᏬᏢᏅᎩ	-10.2053
▁ᎤᏢᎩ	-10.2053
▁ᎢᏳᏩ	-10.2056
▁ᏕᏍᎩ	-10.2057
▁ᎤᏅᏏᏙᎯ	-10.2058
▁ᎡᏉᏗᏱ	-10.2058
▁ᎤᏓᏅᏖᎸᎯ	-10.2059
▁ᎤᏕᏁᎸᎯ	-10.2066
ᎾᏰᏍᎬᎾ	-10.2066
▁ᎡᎳᏗᏢ	-10.2079
▁ᏓᏂᏁᎸᎢ	-10.208
▁ᎠᎢᏒᎢ	-10.2083
ᏑᏰᏛ	-10.2087
▁ᎬᏂᏳ	-10.2093
▁ᎤᏍᎦᏅᏨᎯ	-10.2093
ᏏᏗᏒ	-10.2096
ᎨᏳᏗ	-10.2099
▁ᎦᏅᎯᏓ	-10.21
▁ᏧᏬᏚᎯ	-10.2101
ᏳᎯ	-10.2104
▁ᎤᎿᎥᎢ	-10.2112
▁ᎠᎩᏍᏗᏱ	-10.2113
▁ᎨᎳᏍᏗ	-10.2115
▁ᎤᏄᏢ	-10.2121
ᏓᎵ	-10.2123
▁ᏤᏆ	-10.2126
▁ᏕᏡᎬᎢ	-10.2136
ᏗᏍᎬᎢ	-10.2149
▁ᎤᎾᏛᎦᏅᎯ	-10.2159
▁ᎤᎾᏛ	-10.2162
▁ᎾᏆ	-10.2168
▁ᏥᎨ	-10.2169
▁ᏕᏂ	-10.2175
▁ᏫᏍᎩ	-10.2178
ᏁᏃ	-10.2187
ᎡᎸᎯ	-10.2191
▁ᎠᎩᏰᎸ	-10.2193
▁ᎠᏆᏓᏅᏙᎩ	-10.2196
▁ᎦᏙᎬᎩ	-10.22
ᏄᎪᏫᏒᎩ	-10.2202
ᏙᏢᏅ	-10.2212
ᏰᎯ	-10.2214
▁ᎾᏛᏁᎲ	-10.2218
▁ᏂᎬᏁᎲ	-10.2218
ᏙᏓᏆᏓ	-10.2221
ᏕᎶᎰᎯᏍᏗ	-10.2229
▁ᎤᏂᏍᎦᏅᏨᎢ	-10.2232
ᏔᏅᎾ	-10.2234
▁ᎤᎷᏤᎢ	-10.2249
▁ᏚᎦ	-10.2251
▁ᎤᏚ	-10.2254
ᏅᏗ	-10.2263
▁ᏅᏗᎦᎵᏍᏙᏗᏍᎬᎢ	-10.2268
▁ᏕᎬ	-10.2273
▁ᎤᏯᏅ	-10.2277
ᏂᏓᏍᏗᏱ	-10.2285
▁ᎠᎭ	-10.2296
ᎴᏅ	-10.2296
ᏔᏲᏏ	-10.2302
▁ᎠᏒᎩ	-10.2315
▁ᎢᏒ	-10.232
▁ᎬᏯ	-10.2321
ᏤᎸ	-10.2333
ᏦᏢᏗ	-10.2337
▁ᏦᎯᏳᏒ	-10.2339
ᏁᏤᎴ	-10.2344
id	-10.2348
ᎦᏙ	-10.2348
▁ᏗᏨ	-10.2352
ᏍᏔᏁ	-10.2366
▁ᎠᎩᎪᎲ	-10.2371
▁ᎤᏂᎲ	-10.2374
ᏙᎴᎰᏏ	-10.2417
▁ᎭᏩ	-10.244
ᎵᏏᏱ	-10.2444
▁ᎦᏲᎵ	-10.2459
▁ᏥᏙ	-10.2468
ᏍᏔᏅᎯ	-10.2484
ᎩᎳ	-10.2493
ᏉᏗ	-10.2493
l	-10.2494
▁ᎢᏥᏰᎸ	-10.2497
ᎧᎵᎢ	-10.2497
ᏌᏁ	-10.25
ᏂᎩᏛ	-10.2515
▁ᎠᏂᏫᎾ	-10.254
ᏲᎯᏍᏗ	-10.2598
▁ᎠᏰ	-10.2606
ᎵᏍᏔᏁ	-10.2613
ᏅᏓᏓ	-10.2614
▁ᎢᏏᎵᏱ	-10.2614
▁ᏫᎩ	-10.2615
ᏁᏤᏗ	-10.2649
ᎪᎵᏰᏗ	-10.2655
▁ᎠᎾᎵ	-10.2655
ᏛᏂ	-10.2661
ᏄᎦ	-10.2701
ᎶᏨ	-10.2703
ᎩᏓ	-10.2705
ᏒᏃ	-10.2705
▁ᏥᏄ	-10.2709
▁ᎯᏍᎩᏁ	-10.2712
▁ᎠᎢᏒ	-10.2714
▁ᎠᎦᏔ	-10.2722
▁Ꮗ	-10.2723
▁ᏂᎨ	-10.2743
ᏁᏤᎸᎯ	-10.2749
▁ᎠᏋ	-10.2752
ᏥᏲᏏ	-10.2759
▁ᏚᎾᎴᏁ	-10.2783
▁ᎯᎦᏘᏏ	-10.2801
▁ᎭᎻ	-10.2801
ᏕᏅ	-10.2813
ᎬᎿ	-10.282
ᎪᏩᏘᎭ	-10.2829
ᏗᏢ	-10.2829
ᏬᏂᎯᏍᏗ	-10.2867
▁ᏚᎧᎿᏅ	-10.2867
▁ᎤᏂᏣᏛ	-10.2873
▁ᎣᎩᎾ	-10.2887
▁ᎠᏔᎴᎦᏒ	-10.2914
▁ᎾᎩ	-10.2914
▁ᎤᏃᏁᎴ	-10.2916
▁ᎤᏂᎷᏤᏗ	-10.2923
▁ᏕᎦᏚᏩᏗᏒ	-10.2927
ᎾᏄᎪᏫᏏ	-10.2928
▁ᏧᏩᎫᏔᏅᏒ	-10.293
▁ᏓᏕᏲᎲᏍᎬ	-10.2934
▁ᏱᎨᏐ	-10.2937
▁ᏚᏬᎡ	-10.2943
▁ᎠᎦᏍᎦᏂ	-10.2944
▁ᎠᏚᎢᏍᏛ	-10.2946
▁ᎤᏰᎸᏅ	-10.2947
▁ᎦᎸᏉ	-10.2948
▁ᎠᏓᏙᎵᏍᏗ	-10.295
▁ᏓᏂᏁᎸ	-10.2951
ᏃᎮᏍᎬᎢ	-10.2955
▁ᎤᎦᏔᎲᏒ	-10.2959
▁ᎣᎵᏩ	-10.2965
▁ᎤᎷᏤᎴ	-10.2972
▁ᎤᏬᏚ	-10.2973
▁ᏤᎮ	-10.2975
▁ᏕᎪᏪᎸ	-10.2976
▁ᎤᏛᏐᏅ	-10.2977
ᏲᎯᏍᏔᏅ	-10.2985
▁ᎦᎴᏂ	-10.2995
ᏯᏅᎲ	-10.3001
▁ᎦᏁᏥ	-10.3004
ᏓᎴᏅᏛ	-10.3006
▁ᎤᏅᏎ	-10.3007
ᎰᎲᏍᏗ	-10.301
▁ᎡᏂᎾᏯ	-10.301
▁ᎢᏍᎦᎳᏗ	-10.301
▁ᎥᏘᎣᎩ	-10.301
▁ᎦᏌᏆᎸ	-10.301
▁ᏑᏓᎳᏍᎪᎯ	-10.301
▁ᏗᎫᏓᎸᏗᏱ	-10.301
▁ᏤᎦᎳᏯ	-10.301
▁ᎡᎹᏂᏓ	-10.301
▁ᏧᏯᏖᏃᎯ	-10.301
▁ᏧᏙᏓᏋᏓ	-10.301
▁ᏯᏃᎩᏳ	-10.301
▁ᎤᏯᏖᏃᎯ	-10.301
▁ᏫᏚᎧᎿᏁ	-10.301
▁ᏗᏍᏆᎨᏂ	-10.301
▁ᎢᏤᎳᏗᏙᎮᏍᏗ	-10.301
▁ᎬᏉᏎᎰ	-10.301
▁ᏕᎨᏥᏰᎸᏔᏅᎩ	-10.301
▁ᎤᎾᏢᏉᏗ	-10.301
▁ᎻᎾᏌ	-10.3011
▁ᏂᏣᏪᏒ	-10.3011
▁ᎢᏳᏩᏂᏌᏅᎯ	-10.3011
▁ᏑᎾᏓᎴᎩ	-10.3011
▁ᎦᎶᎯᏍᏗᏳᎶᏗ	-10.3011
▁ᎡᏥᎸᏉᏓ	-10.3011
▁ᎤᏂᏃᎮᎴ	-10.3011
▁ᏅᏓᏳᎵᏍᏙᏗᏱ	-10.3011
▁ᎨᏣᏍᏓᏩᏗᏙᎯ	-10.3011
▁ᏗᎧᎾᏩᏛᏍᏗ	-10.3011
▁ᎠᎦᎵᏍᎬ	-10.3011
▁ᏄᎵᏍᏔᎾ	-10.3011
▁ᏍᎩᏄᏍᏛ	-10.3012
▁ᎢᏲᏍᏛ	-10.3012
▁ᎦᏌᎾᎵ	-10.3012
▁ᏅᏓᎬᏁᎵ	-10.3012
▁ᏱᏅᎦᎵᏍᏓ	-10.3012
▁ᎪᏌᏂ	-10.3012
▁ᎢᏳᏩᏂᎸ	-10.3012
▁ᎠᏂᏈᎷ	-10.3013
▁ᎤᎵᏍᏔᏴᏗ	-10.3013
▁ᎤᏰᎸᎮ	-10.3013
▁ᏑᏕᏘᏴᏛ	-10.3014
▁ᏄᎾᎵᏍᏔᏁ	-10.3014
▁ᏭᏴᎸ	-10.3014
▁ᏗᏓᎴᎲᏍᎦ	-10.3015
▁ᎯᎨᏴ	-10.3015
▁ᎢᏳᏛᎿᏕᎩ	-10.3015
▁ᎢᎧᏁᏨᎯ	-10.3015
▁ᏗᏓᏂᏐᏗᏱ	-10.3016
▁ᏓᏓᎶᏂ	-10.3016
▁ᏫᏨᎷᏤᏗᏱ	-10.3016
ᏍᎦᎢᎲᎾ	-10.3016
ᎸᏉᏕᏍᏗ	-10.3016
▁ᎤᏂᎷᎯᏍᏗᏱ	-10.3017
▁ᎤᎵᏠᏯᏍᏕᏍᏗ	-10.3018
▁ᎠᏂᏦᎢ	-10.3018
▁ᏛᏍᏆᎸᎯ	-10.3018
▁ᎭᎴ	-10.3018
▁ᎢᏣᎵᏍᏕᎸᏙᏗ	-10.3019
▁ᎢᏣᏛᎦᏅᎯ	-10.302
▁ᏗᎦᎴᏂ	-10.302
▁ᎤᏂᎩᏍᏗ	-10.3021
▁ᎠᏙᎴᎰᎯᏍᏙᏗ	-10.3021
▁ᎤᏛᎪᏗᏱ	-10.3021
▁ᎢᏳᏩᏁᎸᎯ	-10.3022
▁ᎠᎩᏅᏏᏛ	-10.3022
▁ᏭᏂᎶᎯᏍᏗᏱ	-10.3022
▁ᎤᏪᎵᏍᏗ	-10.3022
▁ᎤᏓᏙᎵᏍᏓᏁᎴᎢ	-10.3022
▁ᎢᏣᏓᏡᎬ	-10.3023
▁ᎾᏂᎦᏔᎲᎾ	-10.3023
▁ᏩᎩ	-10.3024
▁ᎤᏁᎷᏅᎩ	-10.3024
▁ᎧᏃᎮᏓ	-10.3024
▁ᎤᏁᏍᏓᎳ	-10.3024
▁ᎤᏓᏙᎵᏣᏘᏳ	-10.3025
▁ᏦᏓᎸ	-10.3025
▁ᎤᏪᏙᎵᏍᏗ	-10.3026
▁ᎬᏩᏔᏲᏎᎴ	-10.3027
▁ᎢᎨᎬᏁᏗ	-10.3028
▁ᏙᏓᏳ	-10.3029
▁ᎾᎩᏪᏒᎩ	-10.303
▁ᏂᎦᎵᏍᏗᏍᎨᏍᏗ	-10.303
▁ᎤᏂᏇᏓᎸᎢ	-10.3031
▁ᎪᏢᏅ	-10.3033
▁ᎠᎦᏍᎬ	-10.3034
▁ᏥᏍᏆᏯ	-10.3034
▁ᎤᏂᏁᎫ	-10.3037
▁ᏗᎦᎶᏗ	-10.3038
ᎦᏴᎵᎨ	-10.3042
▁ᏙᎩᎾ	-10.3044
▁ᎤᎾᏕᏅᎯ	-10.3047
▁ᎤᏂᏃᎮᎸᎯ	-10.3048
▁ᏂᎬᏁᎭ	-10.305
▁ᏴᎨᏥ	-10.3051
▁ᎤᎵᏬᏨᎯ	-10.3051
▁ᎦᏁᎳ	-10.3051
▁ᎠᏂᏁᎵ	-10.3053
▁ᏚᏂᏅᏎ	-10.3054
▁ᏚᏁᏤᎸᎩ	-10.3055
▁ᏙᏧᎾᏓᏅᏛᎢ	-10.3055
▁ᎢᏳᏛᏁᏗᏱ	-10.3057
▁ᎤᏪᏅᏍᏗᏱ	-10.3058
▁ᎤᏓᎴᏅᏛ	-10.306
▁ᎤᏓᏑᏯ	-10.3061
▁ᎤᏰᎸᎯ	-10.3061
▁ᏤᎲᎩ	-10.3063
▁ᎤᎾᎵᏍᏓᏴᏗᏱ	-10.3064
▁ᏄᎾᏛᏁᎴᎢ	-10.3064
▁ᎠᏆᏓᏅᏛ	-10.3065
▁ᏫᏚᏯᏅᎲᎩ	-10.3069
▁ᎣᎬᏒ	-10.3071
▁ᎾᎦᏔᎲᎾ	-10.3074
ᎦᏔᎯ	-10.3074
▁ᎤᏪᏅᏒᎩ	-10.3077
▁ᏚᏌᎳᏓᏁ	-10.3078
▁ᎤᏪᏙᎸᎩ	-10.3079
▁ᎾᏂᏪᏍᎬᎢ	-10.308
▁ᏩᎾ	-10.3081
▁ᎠᏥᎸᎨᎳᏍᏗᏱ	-10.3083
▁ᏓᏕᏲᎲᏍᎬᎢ	-10.3087
▁ᎨᎦᎫᏴᎡ	-10.3088
▁ᏧᏒᎯ	-10.3091
▁ᎧᏅᏑᎸ	-10.3094
▁ᎢᎾᎩ	-10.3097
▁ᎤᏄᎪᏨᎩ	-10.3098
ᏏᏅᏓ	-10.3102
▁ᎠᏎᏍᎩᏂᏃᏅ	-10.3102
▁ᎤᏰᎸᏁᎢ	-10.3103
▁ᎠᏨᏯᎢ	-10.3104
▁ᎤᏂᏰ	-10.3108
ᏓᏂ	-10.3121
▁ᏕᎳ	-10.3121
ᏄᎪᏩ	-10.3141
▁ᎤᏂᏰᎸᏁ	-10.3143
ᏅᏃ	-10.3144
▁ᎠᏫᏍᎩ	-10.315
▁ᎧᎪ	-10.3152
▁ᎠᏤᎵᏍᏛᎢ	-10.3161
ᎨᏛ	-10.3201
▁ᎤᏥᎸᏒ	-10.3201
▁ᏧᏙ	-10.3206
ᏍᏛᎾ	-10.3214
ᏁᎸᎾ	-10.3217
▁ᏱᏚᏂ	-10.3222
▁ᏄᏩᏁᎴᎢ	-10.3229
ᏅᏍᏗᏱ	-10.3234
▁ᎦᏬᏂᏍᎬᎢ	-10.3237
▁ᎤᎶᎩᎸᎢ	-10.3245
ᏓᏱᎵ	-10.3259
▁ᎣᎬ	-10.3261
ᎦᏓᏁ	-10.3271
▁ᎾᏋᏁᎸ	-10.3277
▁ᏗᎦᏅᏌᏗ	-10.3281
▁ᏕᎪ	-10.3289
ᏆᎵ	-10.3292
ᏲᎯ	-10.3293
▁ᏗᎪᏪᎶᏗ	-10.3296
▁ᎤᎴᏁ	-10.3298
▁ᏧᏬ	-10.3302
▁ᎠᏉ	-10.3307
▁ᎦᏰᏥ	-10.3309
ᏁᎮ	-10.3311
▁ᏕᎭ	-10.3333
▁ᏱᏏ	-10.3334
ᎢᏴ	-10.3354
ᏅᏏᏓᏍᏗ	-10.3363
▁ᎤᎧᏛᎢ	-10.3369
ᎰᎵ	-10.3389
ᏍᏓᏴ	-10.3397
ᎦᏔᎰ	-10.3404
▁ᎤᎲᎢ	-10.3424
▁ᏂᏕᎬᏁ	-10.3431
ᎡᎸᎩ	-10.3465
ᏣᏛᏁᎯ	-10.3467
ᏏᏆ	-10.3474
▁ᎠᏲ	-10.3475
▁ᎩᎶᎢ	-10.3482
ᏫᏍᏗ	-10.3492
ᏂᏌᏁ	-10.3494
ᏓᎳ	-10.3497
ᏛᏙᏗ	-10.3514
ᎾᎥ	-10.3516
ᏁᏆ	-10.3518
▁ᎦᏃ	-10.3528
▁ᏄᎵᏍᏔᏁᎮ	-10.353
▁ᏱᏙᎦ	-10.3541
ᏤᎵᎦ	-10.3541
ᏍᏆᏙᏅ	-10.3543
▁ᏰᎵᏍᎨ	-10.3545
ᎠᏈ	-10.3556
▁ᎢᎯ	-10.3561
▁ᎣᎩᏂ	-10.3572
ᏥᎪᏩᏛ	-10.3576
▁ᎢᏣᏓᏅᏘ	-10.3577
▁ᎢᎬᏁ	-10.3616
ᎦᏐᎯ	-10.3618
ᏗᏏ	-10.3621
ᎵᏯ	-10.3628
ᏁᎮᎢ	-10.364
ᏙᎮᏍᏗ	-10.3642
▁ᎩᎳᎯ	-10.366
ᎵᎪ	-10.3662
ᎸᏉᏙᏗᏱ	-10.367
ᎾᏄᎪᏨᎯ	-10.368
▁ᎡᏥᏁᏗ	-10.3689
▁ᎤᎲ	-10.369
ᎷᏣ	-10.3695
▁ᎤᎾᏛᎦᏁ	-10.37
▁ᎦᏅ	-10.37
ᎯᏫ	-10.3709
▁ᎢᎳ	-10.3723
ᏍᏓᏩᏗᏙᎯ	-10.3726
ᎪᎵᏰᎡ	-10.373
ᏍᎦᎩ	-10.3745
▁Ꮾ	-10.3751
▁ᎤᎶᏒ	-10.3752
▁ᎤᏲᎱᏎ	-10.3761
▁Ꮉ	-10.3762
▁ᎤᎶ	-10.3768
ᏰᏂ	-10.3778
ᏙᎸ	-10.3792
ᏅᏓᏗᏍᏙᏗ	-10.381
▁ᏲᎩ	-10.3811
▁ᏥᎾ	-10.383
ᏗᏒ	-10.384
▁ᏗᎾᏓ	-10.3841
ᎦᏔ	-10.3842
ᏍᏔᏱ	-10.3863
▁ᎠᏂᏐᎢᏃ	-10.3879
▁ᏥᏂᎦᏪ	-10.3894
▁ᏄᏪ	-10.3898
▁ᎠᏓᏅᏖᎵᏙ	-10.392
▁ᏥᏂ	-10.393
▁ᎾᎿᏉ	-10.394
ᎨᏂ	-10.3947
▁ᏫᏓᏂ	-10.3949
ᎩᎡᎸ	-10.3964
▁ᎠᏍᎪᎯᏃ	-10.3966
ᎠᏎ	-10.3966
▁ᏄᏂᏪᏒ	-10.3987
ᏍᏕ	-10.3988
ᎡᎴᎢ	-10.3989
▁ᎪᏢᏒ	-10.3991
▁ᏱᏗᎦ	-10.3995
ᏰᎭ	-10.3999
▁ᎾᎬᏁᎸ	-10.4
▁ᎾᏂᏪᏍᎬ	-10.4003
ᏠᏱ	-10.4006
▁ᏥᏁᎸ	-10.4007
▁ᏣᏓ	-10.4008
▁ᎠᏕ	-10.4016
▁ᏂᎦᎵᏍᏗᏍᎨ	-10.4019
ᏎᎴ	-10.402
ᏗᏂᏅᏌᏗ	-10.4024
▁ᎣᏓᏅᏛ	-10.4026
ᎭᏕᏬ	-10.4027
▁ᎤᏲᎯᏍᏔᏁ	-10.4031
ᎨᎵᎠ	-10.4035
ᎪᎱᏍᏗ	-10.4036
ᎠᏕᎸ	-10.4038
ᎧᎵᏨᎯ	-10.4044
ᏗᎦᏘᏯ	-10.4046
ᎠᎩᎾ	-10.4046
▁ᎯᏰᎸ	-10.405
▁ᎡᏙᎮ	-10.405
▁ᏧᏓᏅᏛ	-10.4051
▁ᏕᎤᎴᏔᏅ	-10.4052
▁ᏚᏂᎸᏫᏍᏓᏁᎸ	-10.4055
▁ᏧᎾᎴᎯᏐ	-10.407
▁ᎤᏁᎦᎸ	-10.4072
ᏠᎠᏏ	-10.4073
▁ᎠᏓᏁᏣᏍᏚᎶ	-10.4073
ᎶᏐᏅ	-10.4091
▁ᎤᎾᎵᎮᎵᏤ	-10.4092
▁ᎢᏙᎻ	-10.4094
ᎵᏍᏗᏱ	-10.4095
▁ᏏᏓᏁᎸ	-10.4097
▁ᏅᏲ	-10.4097
▁ᏧᏂᎳᏫᎢᏍᏗ	-10.4098
▁ᎠᏥᏍᏕᎸᏗ	-10.4099
▁ᎠᏲᎱᏒ	-10.4102
▁ᏣᎾᏫ	-10.4104
▁ᎤᎾᏕᏅ	-10.4108
▁ᏱᏓᏂ	-10.411
ᎶᎯᏍᏗᏱ	-10.4115
ᏍᏕᎸᎯ	-10.4116
ᎥᎩ	-10.4117
ᏲᎢᏴ	-10.4118
▁ᏗᎪᏪᎵ	-10.4119
ᎭᏄᎸᎯ	-10.412
rs	-10.412
▁Philadelphia	-10.4121
▁ᎠᏓᏪᎳᎩᏍᎩ	-10.4121
▁ᏐᎵᎹᏅ	-10.4121
▁ᏕᏦᎯᏳᏎᏍᏗ	-10.4121
▁ᏚᏍᏆᎸᏔᏁ	-10.4121
▁ᏱᏄᎵᏍᏔᎾ	-10.4121
▁ᏆᎳᏆ	-10.4121
▁ᏗᎦᏒᏍᏔᏅ	-10.4121
▁ᎢᏦᎯᏳᎯ	-10.4121
▁ᏇᏚᎡᎵ	-10.4121
▁ᎤᏣᎴᏓ	-10.4121
▁ᏗᎾᏕᏲᎲᏍᎩ	-10.4121
▁ᎧᏂᎵᏯ	-10.4121
▁ᏗᏇᏅᏒ	-10.4121
▁ᏧᎴᎯᏌᏅᎯ	-10.4121
▁ᏧᏴᏨ	-10.4121
▁ᎤᏬᏓᎸ	-10.4121
▁ᏚᎧᎿᏁ	-10.4121
▁ᏓᏳᏂᎶᏒ	-10.4121
▁ᎠᏚᎸᏗ	-10.4121
▁ᎡᏅᏍᏗ	-10.4121
▁ᎤᏓᏅᎵᏰᎥ	-10.4122
▁ᎢᏗᏅᏁ	-10.4122
▁ᏱᏣᏓᏅᏖᏗᏍᎨᏍᏗ	-10.4122
▁ᎢᏥᏆᎵᏏ	-10.4122
▁ᎬᏩᏠᏯᏍᏗ	-10.4122
▁ᎢᏧᎾᏓᎳ	-10.4122
▁ᏗᏥᎸᏫᏍᏓᏁᏗᏱ	-10.4122
▁ᏗᎦᎸᏫᏍᏓᏁᎸᎯ	-10.4122
▁ᎤᏓᏑᏱ	-10.4122
▁ᏚᏛᏛᏁ	-10.4122
▁ᎨᏅᎢᏍᏗ	-10.4122
▁ᎡᏣᏂᎵ	-10.4122
▁ᏕᎪᏪᎵᏍᎬ	-10.4122
▁ᏗᏛᏓᏅᎯ	-10.4122
▁ᏗᎨᏥᎾᏝᎢ	-10.4123
▁ᎤᏒᎯᏰᏱ	-10.4123
▁ᎦᏓᎷᏯᏛ	-10.4123
▁ᎠᎾᏛᎩᏍᎩ	-10.4123
▁ᏗᎬᎪᏩᏛᏗ	-10.4123
▁ᎠᎩᎷᏥᎸ	-10.4123
▁ᏱᎪᎵᎦ	-10.4124
▁ᎠᏂᎴᏴᏍᎩ	-10.4124
▁ᎠᏍᏆᏚᎸ	-10.4124
▁ᎠᎵᎮᎵᎬ	-10.4124
▁ᎤᏂᎪᎮ	-10.4124
▁ᏥᏕᎦ	-10.4124
▁ᏧᏓᎴᏅᎲ	-10.4124
▁ᎤᎾᏓᏓᏍᎬ	-10.4125
▁ᏂᏣᏛᎦ	-10.4125
▁ᎬᏩᏲᎱᎯᏍᏗ	-10.4125
▁ᎾᏯᏛᎡᏍᏗ	-10.4125
▁ᎠᏄᎦᎸ	-10.4125
▁ᎦᏣᏃᏍ	-10.4125
▁ᎧᏴᏐᎵ	-10.4125
▁ᏚᏃᏢᏅᎩ	-10.4125
▁ᏗᎪᏑᎴᏗᏱ	-10.4125
▁ᏧᏴᏢ	-10.4125
▁ᎤᏓᎴᏨ	-10.4126
▁ᏧᎴᏔᏅᎯ	-10.4126
▁ᎤᏄᎪᎢᏍᏗ	-10.4126
▁ᏥᎣᎵ	-10.4126
▁ᎠᏓᏍᏓᏩᏗᏙᎯ	-10.4127
▁ᎬᏆᏛᏁᏗᏱ	-10.4127
▁ᏂᏥᎦᏔᎲᎾ	-10.4127
▁ᏀᎢᏳ	-10.4127
▁ᎥᏥᎪᎥᎩ	-10.4127
ᎳᏏᏕᎾ	-10.4127
▁ᎤᎾᎵᏗᎩᏛ	-10.4128
▁ᎤᏬᏪᎳᏅᎯ	-10.4128
▁ᏚᎷᏫᏍᏔᏁᎲ	-10.4129
▁ᎢᏧᏕᏘᏴᏛ	-10.4129
▁ᎠᎹᎴᎩ	-10.4129
▁ᎤᏗᏔᎲ	-10.4129
▁ᏔᎸᏗ	-10.4129
▁ᎢᎩᏅᏟ	-10.4129
ᏛᏅᎢᏍᏙᏗᏱ	-10.413
▁ᏍᎩᎾᏝᎢ	-10.4131
▁ᎤᎬᏫᏳᏎᏍᏗ	-10.4131
▁ᎦᏅᏙᏗ	-10.4131
▁ᏧᎾᏄᏩᎢ	-10.4131
▁ᏄᏩᏅ	-10.4132
▁ᎾᏁᎲᎾ	-10.4133
▁ᎤᏂᏰᎸᏒᎩ	-10.4133
▁ᎤᏕᏁᎢ	-10.4133
▁ᎢᏳᏓᎵᎭ	-10.4135
▁ᎠᎩᏰᎸᎲ	-10.4135
▁ᎤᎧᎭᏛ	-10.4135
ᏍᏆᏂᎪᏙᏗᏱ	-10.4136
▁ᏭᏂᏴᎴᎢ	-10.4136
▁ᏩᎩᎷᏨ	-10.4139
▁ᎤᎴᏫᏍᏔᏁ	-10.4139
ᏥᎯᏍᏗ	-10.4139
▁ᎠᎵᏥᏙᎲᏍᎨ	-10.414
▁ᎡᏙᎭ	-10.4141
▁ᎤᎾᏗᏅᏗ	-10.4141
▁ᎤᏬᎯᏳ	-10.4141
▁ᎤᏌᎳᏓᏅ	-10.4144
▁ᎨᏥᏁᎸᎯ	-10.4144
ᏲᎯᏎᎸᎩ	-10.4145
▁ᎥᎩᏙᏉ	-10.4145
▁ᎠᏟᏍᏛᎢ	-10.4147
▁ᏭᏂᎶᏒᎩ	-10.4149
▁ᎤᏪᎧᏅᎩ	-10.4149
▁ᏅᏓᎬ	-10.4149
▁ᏗᏂᎦᏘᏯ	-10.415
▁ᎤᏅᏙᏗᏱ	-10.4151
▁ᎤᏕᏗᏱ	-10.4152
▁ᎾᏍᎦᎢᎲᎾ	-10.4153
▁ᏄᏂᏪᏎᎸᎩ	-10.4154
▁ᎾᏂᎡᎢ	-10.4155
▁ᏧᏬᎸ	-10.4156
▁ᎤᎵᏏᏂ	-10.4156
▁ᎢᏗᎦᏪᏍ	-10.4158
▁ᎠᎧᎵᏬᎯ	-10.4158
▁ᎤᏨᏉᏗ	-10.4159
▁ᎤᏪᏁᎢ	-10.4164
▁ᏗᏟᏍᏗ	-10.4164
▁ᏗᎦᎵᏍᏙᏗᎭ	-10.4165
▁ᎤᎪᏩᏛᏗ	-10.4166
▁ᎤᏔᎾ	-10.4167
ᎾᏄᎪᎢᏍᏗ	-10.4167
▁ᏐᏓᎻᏱ	-10.417
▁ᎢᎩᏁᎸᎯ	-10.417
▁ᏧᏁᎳ	-10.4172
ᏗᏍᎪᏂᎯ	-10.4173
▁ᏓᏳᏓᎴᏅᏓ	-10.418
ᏏᏁ	-10.4181
▁ᏯᎩᎭ	-10.4182
ᏁᎬ	-10.4182
▁ᎢᎦᏁᎳᏅᎯ	-10.419
▁ᎢᏯᎬᏁᏗ	-10.4191
▁ᎤᏯᏅᎯ	-10.4193
▁ᎦᏁᏌᎢᎯ	-10.4196
▁ᏚᏂᎸᏫᏍᏓᏁᎸᎢ	-10.4199
▁ᏗᏐᎢ	-10.42
▁ᎡᏙᎮᎢ	-10.4201
▁ᎭᎾᏂ	-10.4202
▁ᏥᎨᏥ	-10.4204
▁ᎤᎾᏛᎦᏁᎢ	-10.4206
▁ᏓᏈ	-10.4209
▁ᎤᏩᏛᎮᎢ	-10.4209
▁ᏗᏍᎩ	-10.4212
▁ᏍᎩᎨᏳ	-10.4212
▁ᎧᎸ	-10.422
▁ᏭᎷᏨᎩ	-10.4229
▁ᎤᏯᎢ	-10.423
▁ᎡᎵᏍᎨᎢ	-10.4232
ᎡᏗ	-10.4232
▁ᎤᏎᎵᏔᏅ	-10.4234
▁ᎠᏒᎭ	-10.4236
▁ᎥᎵ	-10.4239
ᎭᏲᎲ	-10.4239
ᎳᏁᎢ	-10.4242
▁ᎤᏓᏅᏖᎸᎢ	-10.4244
on	-10.4246
▁ᏕᏥᎸᏫᏍᏓᏁᎲᎢ	-10.4255
▁ᎬᏙᏗᏱ	-10.4258
ᎪᎵᏯ	-10.4262
ᏓᏍᏗ	-10.4262
▁ᎤᏃᎮᎴ	-10.4262
▁ᎤᏓᏅᏛᎢ	-10.4263
▁ᏇᎵᏥ	-10.4264
▁ᎤᏓᏅᏎᎢ	-10.427
▁ᏚᏁᎴᎢ	-10.4281
ᏫᏒ	-10.4281
▁ᎾᎾᏛᏁᎲᎢ	-10.4284
▁ᏗᎬᏗ	-10.4284
▁ᎢᏦᎯᏳᏒᎢ	-10.4294
▁ᎦᏓᏅᏖᏍᎬᎢ	-10.431
▁ᎢᏦ	-10.4313
▁ᎤᏲᎴ	-10.4313
ᏁᎰᎢ	-10.4318
ᎦᏨ	-10.4318
▁ᏦᎾ	-10.4321
▁ᎠᏍᎦᎾᎢ	-10.4323
▁ᎠᏁᎰ	-10.4324
▁ᏚᏁᏤᎴᎢ	-10.4336
▁ᎡᎲᎩ	-10.4339
▁ᎤᏢ	-10.434
▁ᎡᎵᎩ	-10.4343
▁ᏌᎵ	-10.4352
▁ᏧᎴ	-10.4358
ᎿᎢ	-10.4361
ᏍᏛᏱ	-10.4363
▁ᎤᏅᏅ	-10.4372
ᏲᎰᏎᎸ	-10.4382
▁ᎤᏪᏅᏎᎢ	-10.4385
▁ᏧᎾᏄᎪᏫᏎᏗ	-10.4388
▁ᎠᏍᏛᎢ	-10.4397
▁ᏅᏓᏳᎾᎵᏍᎪᎸᏔ	-10.4401
▁ᎤᏩᏂ	-10.4408
ᏍᎪᏃ	-10.4409
▁ᏗᎬᏩᏓᏂᎸᎢᏍ	-10.4414
▁ᎩᎵ	-10.4432
▁ᎪᏍᏔ	-10.4434
▁ᎤᎪᎲᎩ	-10.4448
▁ᎠᏓᏅᏖᏍᎬᎢ	-10.445
▁ᎤᎾᏄᎪᏫᏒ	-10.4455
▁ᏗᏂᏩᎾᎦᎳ	-10.4459
▁ᎤᏪᎷᏁᎢ	-10.446
▁ᎢᏣᏓ	-10.448
ᏳᎵ	-10.4487
▁ᏛᏂ	-10.4494
▁ᎢᏯᏂᎢ	-10.4494
▁ᎤᎾᏙᏓᏆᏍᎬᎢ	-10.4496
▁ᎦᏨ	-10.4509
▁ᎤᏂᎬ	-10.4512
▁ᏗᏂᏃ	-10.4533
ᎴᏅᎯ	-10.4544
▁ᏅᏗᎦᎵᏍᏙᏗᏍᎨᎢ	-10.4548
ᏙᎢ	-10.4549
▁ᎠᏆᏓᏅᏖᏗ	-10.4555
▁ᎦᏚᏱ	-10.457
ᏓᏁᏟᏴᏛ	-10.4582
▁ᎤᎩᎸ	-10.4585
ᎱᏍᏗ	-10.4589
ᎲᏍᎦ	-10.4592
ᏎᎭ	-10.4597
▁ᎤᏂᏩᏛᏗ	-10.4611
ᏂᏫ	-10.4615
▁ᏚᏙ	-10.4617
▁ᏫᏚᎾ	-10.4621
ᎳᏏ	-10.4628
▁ᏙᏘ	-10.4629
▁Ꮮ	-10.4659
▁ᎠᏫᎾ	-10.4675
ᎦᏯ	-10.4675
ᏍᏆᏂᎪᏕᏍᏗ	-10.4678
▁ᎬᏗᎭ	-10.468
ᏁᏤᎵ	-10.4681
ᏂᏯ	-10.4683
▁ᏦᎦ	-10.4687
▁ᏣᏁ	-10.4696
ᏢᏅ	-10.47
▁ᎤᎾᏄᎪᏫᏎ	-10.4726
▁ᏗᏨᏂᏗ	-10.4726
ᏏᏳ	-10.4732
ᏥᏩᏛᎲ	-10.475
▁ᏂᎦᎵᏍᏙᏗᏍᎨ	-10.4751
▁ᎦᏅᎨ	-10.4757
▁ᎤᎵᎮᎵᏤ	-10.4757
ᏟᎶᏍᏙᏗ	-10.4769
▁ᏚᏁᎸ	-10.477
ᎵᏍᎬ	-10.4779
▁ᎠᎦᏕ	-10.478
▁ᎤᎬ	-10.4782
ᎾᏄᎪᏫᏒᎯ	-10.4785
▁ᏗᎨᏣ	-10.479
▁ᎧᏁᏉ	-10.4793
▁ᏧᏂᎵ	-10.4794
ᏗᏍᎬᎾ	-10.4804
ᎵᏍᏕᎸᏙᏗ	-10.4804
▁ᎢᏥᎩᏍᏗ	-10.4816
ᏴᎵ	-10.4837
▁ᎠᏋᎭ	-10.4839
▁ᎠᎦᏘᏰ	-10.4841
▁ᎤᏁᎴ	-10.4851
▁ᏛᎩ	-10.4879
ᎤᏅᏓᏕ	-10.4881
ᏍᏕᎵᎭ	-10.4889
▁ᎥᏍᎩ	-10.4891
▁ᎡᏣᎫᏴ	-10.4901
▁ᎤᏥᏃ	-10.4909
ᎦᏙᎥᎯᏍᏗᏱ	-10.4911
▁ᎾᎦᏛ	-10.4913
ᎩᏍᎪ	-10.4914
▁Ꮏ	-10.4923
ᏎᎸᎩ	-10.4944
ᏯᎠ	-10.4957
▁ᏄᏅ	-10.4962
ᎨᏍᏗᏗ	-10.4971
▁ᎤᏂᎸᏉᏗ	-10.4977
▁ᎢᏥᎲ	-10.499
▁ᎠᏲᎱᏍ	-10.4999
▁ᏂᎯᏍᎪ	-10.5014
▁ᎡᎳᏪᏱ	-10.5022
ᎢᏍᏔᏂ	-10.5029
▁ᏂᎬᏩ	-10.5034
ᏚᎬ	-10.5053
ᏁᏍᏗ	-10.5073
ᏦᏅ	-10.5093
▁ᏱᏫ	-10.5105
▁ᎤᎧᏔ	-10.5108
▁ᏣᎩ	-10.5111
ᏂᎬᎦ	-10.5117
▁ᎤᏂᏗ	-10.5117
▁ᏣᏆ	-10.5117
ᏁᏟᏴᏍᏗ	-10.5126
ᎬᏫᏳᎯ	-10.5133
ᏇᏓᎵ	-10.5145
ᏲᎪ	-10.5161
▁ᎦᏗ	-10.5162
▁ᎠᏗᏍᎬ	-10.5167
ᎷᏨ	-10.5174
▁ᏁᎵᏍᎬ	-10.5178
▁ᎣᏍᏗ	-10.5193
ᎪᏩᏛ	-10.5194
ᏎᎸᎯ	-10.5201
h	-10.5204
ᎴᏅᏛ	-10.5208
ᎥᎦ	-10.5213
ᏰᏌᏛ	-10.5229
▁ᎤᏬᏂᏒ	-10.5234
▁ᏂᏚᏪᏎᎸ	-10.5241
▁ᎾᏍ	-10.5268
▁ᎠᏲᏟ	-10.5269
▁ᏓᎵᏍᏗᎳᏁᎬ	-10.5275
▁ᏗᎦᏅᏬ	-10.5285
r	-10.5285
▁ᎤᏁᎵᏎ	-10.5285
▁ᎤᏬᎴ	-10.5285
ᏔᎾ	-10.5286
ᏥᎨᏳᎢ	-10.5286
▁ᎧᎸᎬ	-10.5286
▁ᎢᏕᎲ	-10.5289
▁ᏓᏂᎳᏫᎥ	-10.5291
▁ᏗᏥᎦᏴᎵᎨ	-10.5291
▁ᏓᏟᎶᏍᏛ	-10.5292
▁ᎤᏗᏛᎮ	-10.5293
▁ᎤᏚᎢᏍᏔᏅ	-10.5294
▁ᎢᎩᏍᎦᏅᏨ	-10.5294
▁ᎤᏬᏎᎴ	-10.5294
▁ᎤᏍᏓᎦᎸ	-10.5295
ᎠᎹ	-10.5297
▁ᎠᏂᏙᎾᎡ	-10.5299
▁ᎯᎠᏉ	-10.5299
▁ᏚᎴᎯᏌᏅ	-10.5302
▁ᎤᏪᎧᏁᎴ	-10.5304
ᏘᏰ	-10.5309
▁ᎠᏂᎦᏴᎵᎨ	-10.5309
▁ᏓᏂᎧᏅ	-10.5311
▁ᏧᎦᏴᎵᎨ	-10.5313
▁ᎤᏂᎦᏙᎥᏒ	-10.5314
ᎵᏬᏨ	-10.5316
ᎤᏍᏆᏂᎩᏗ	-10.5318
ᏂᎦᏓ	-10.5318
ᎬᏫᏳᏌᏕᎩ	-10.5318
.)	-10.5323
▁ᏚᏁᏤᎸ	-10.5329
ᎧᎵᏬᎯ	-10.533
▁ᎢᏣᏚᎵ	-10.5331
▁ᎤᏂᎩᏒ	-10.5334
▁ᎤᏂᏴ	-10.5334
ᏟᏂᎩᏓ	-10.5337
▁ᎠᏁᎮ	-10.5337
▁ᎤᏂᏍᏆᏂᎪᏙᏗ	-10.5348
▁ᎪᎹᎵ	-10.5348
▁ᏚᎷᏫᏍᏔᏁ	-10.5349
▁ᎢᏥᏍᏆᏂᎪᏙᏗ	-10.5352
▁ᎢᏳᏅᏁᏗ	-10.5356
▁ᎤᎾᏅᏗ	-10.5357
ᏔᏲᏎᎸᎩ	-10.5358
ᎴᎯᏌᏅ	-10.5358
▁ᎨᏥᏁᏗ	-10.5358
▁ᏣᎨ	-10.5359
▁ᎤᏩᏛᎮ	-10.536
▁ᎤᎾᏅᏅ	-10.5363
ᎥᏍᎨᏍᏗ	-10.5368
ᏴᏐᎵ	-10.5368
ᎾᏓᎴᎩ	-10.537
▁ᎢᎠ	-10.5371
▁ᎡᏉᏄᎶᏗ	-10.5371
▁ᎤᎭᎸᏂᎯ	-10.5371
▁ᎤᏂᏚᏯᏍᏗ	-10.5371
▁ᎤᏓᏏᏂᏕᎾ	-10.5371
▁ᎤᏪᏲᏓᏛ	-10.5371
▁ᏅᏓᎬᏴᏁᎵ	-10.5371
▁ᏈᏯᏏᏆ	-10.5371
▁ᏕᎨᎦᏨᏍᏗᏍᎬ	-10.5371
▁ᏗᎾᏙᏂᏍᎩ	-10.5371
▁ᏦᎩᎸᏫᏍᏓᏁᎯ	-10.5371
ᎦᏌᏯᏍᏕᏍᏗ	-10.5371
▁ᎢᏰᏆ	-10.5371
▁ᎦᎵᏦᏙᏙᏗ	-10.5371
▁ᏆᎻᏆᏂ	-10.5371
▁ᏚᏩᏂᎦᏢ	-10.5371
▁ᎠᏣᏪᏐᎸᏍᏙᏗᏱ	-10.5371
▁ᎯᎧᏅᎭ	-10.5371
▁ᏧᏣᏲᏍ	-10.5371
▁ᎯᎦᏙᎵ	-10.5371
▁ᎠᎵᎮᎵᎨ	-10.5371
▁ᎤᏓᏛᏛᏁ	-10.5371
▁ᏂᏚᎾᏓᏪᏎᎸᎩ	-10.5371
▁ᏧᎦᏃᏮ	-10.5371
▁ᏫᏂᎦᎵᏍᏙᏓ	-10.5371
▁ᏗᏉᏰᏂ	-10.5371
▁ᏗᎾᏓᏂᏱᏍᎩ	-10.5371
▁ᎾᏂᎳᏍᏓᎸ	-10.5371
▁ᏗᎦᏃᏣᏟ	-10.5371
▁ᏧᏙᎢᏓ	-10.5371
▁ᏗᏆᎳᏏᏕᏂ	-10.5371
▁ᏄᏬᎯᏳᏒᎾ	-10.5371
▁ᏅᏓᎪᎯᏥ	-10.5371
▁ᏅᏃᎱᎶᏗ	-10.5371
ᏍᎦᎣᏅ	-10.5372
▁ᏅᏩᏙᎯ	-10.5372
▁ᎤᏬᏞ	-10.5372
▁ᎤᏪᏚᎲ	-10.5372
▁ᏧᏩᏂᎦᏝᏅ	-10.5372
▁ᎦᏣᏄᎸ	-10.5372
▁ᏕᏥᏲᎵᎸᎭ	-10.5372
▁ᎬᏩᏕᏁᎸᎯ	-10.5372
▁ᏌᎶᎵ	-10.5372
▁ᎤᏂᎬᎥᏍᎩ	-10.5372
▁ᎪᏒᏔᏅ	-10.5372
▁ᎤᏂᎸᏉᏔᏁ	-10.5372
▁ᏱᏄᎵᏍᏔᏅ	-10.5372
▁ᎲᏗᏍᎨᏍᏗ	-10.5372
▁ᎰᏪᎸᎦ	-10.5372
▁ᏧᏓᏘᎾᎢ	-10.5373
▁ᏗᎧᏁᎢᏍᏗ	-10.5373
▁ᎪᏢᏗ	-10.5373
▁ᎥᎩᏅᏟ	-10.5373
▁ᎤᎾᏓᏑᏰᏛ	-10.5373
▁ᎢᏨᏍᏗᏰᏗᎭ	-10.5373
▁ᎦᏯᎴᏍᏗ	-10.5373
▁ᎢᎬᏪᏅᏛ	-10.5373
▁ᎠᏓᏍᏓᏴᏗ	-10.5373
▁ᏕᎪᏢᏩᏗᏒ	-10.5373
▁ᏧᏃᏩ	-10.5373
▁ᏅᏓᏳᏓᎴᏅᏛ	-10.5374
▁ᏂᏚᏅᏏᏴ	-10.5374
▁ᏗᎩᏅᏒ	-10.5374
▁ᏄᏂᎲᎾ	-10.5374
▁ᏗᏁᏙᎲ	-10.5374
▁ᎠᏂᎾᏁᏍᎬ	-10.5374
▁ᏄᏠᎾᏍᏛᎾ	-10.5375
▁ᎤᏢᏉᏗ	-10.5375
▁ᏌᏈ	-10.5375
▁ᏚᎦᏌᏛ	-10.5375
▁ᎠᏆᎵᏍᏓᏴᏗ	-10.5376
▁ᎠᏓᏠᏍᏗ	-10.5376
▁ᎠᎹᏳᎶᏗ	-10.5376
▁ᎢᏥᏪᏍᏗᏱ	-10.5376
▁ᎤᏂᏑᎸᏓ	-10.5376
▁ᎡᏣᎸᏉᏗᏳ	-10.5376
▁ᎬᏩᏓᏍᏕᎸᏗ	-10.5377
▁ᏫᎨᏥᏲᎵᎭ	-10.5377
ᏅᎪᏤ	-10.5377
▁ᎠᏂᏙᎾᎢ	-10.5377
▁ᏙᏗᏣᏓᏅᏛᎢ	-10.5377
▁ᎠᏁᏢᏔᏅᎯ	-10.5377
▁ᎬᏁᏍᏗ	-10.5378
▁ᏓᎭᏃᏫ	-10.5378
▁ᏚᏦᎯᏍᏛ	-10.5378
▁ᎤᏘᏴᎯ	-10.5378
▁ᎡᏃᏱ	-10.5378
▁ᎠᎾᏓᏙᎵᏍᏓᏁᎯ	-10.5378
ᎿᏕᎩ	-10.5379
▁ᎠᏯᏖᎾ	-10.5379
▁ᏧᏙᏓᏆᏛ	-10.5379
▁ᏫᎦᎶᎯᏍᏗ	-10.538
▁ᎠᏆᏓᎵᎢ	-10.538
▁ᎠᎬᎭᎸᏛ	-10.538
▁ᎠᏓᏪᎳᎩᏍᎬ	-10.538
▁ᎤᎶᎯᏍᏗ	-10.538
▁ᎯᏬᏂᏍᎬ	-10.538
▁ᎢᎧᏁᎢᏍᏗ	-10.538
▁ᎦᏆᏘ	-10.538
▁ᎤᏃᏍᏛ	-10.538
▁ᎤᏍᏗᎩᏛ	-10.538
▁ᎤᏂᎵᏦᏩᏛ	-10.5381
▁ᎤᎩᎵᏲᏨ	-10.5381
▁ᏥᏅᏗᎦᎵᏍᏙᏗᎭ	-10.5381
▁ᏓᎬᏁᎵ	-10.5381
▁ᏱᏍᎦᎢᎮᏍᏗ	-10.5381
▁ᎤᎾᏛᏁᎸᏗ	-10.5382
▁ᎤᏂᏍᏆᏂᎪᏒᎩ	-10.5382
ᎦᏃᎱᎩᏍᎬ	-10.5382
▁ᎤᏰᎸᏎ	-10.5383
▁ᏗᏓᏬᏍᏗ	-10.5385
▁ᎬᏩᏃᏁᎴ	-10.5385
▁ᎠᎪᏎᎮᏍᏗ	-10.5385
▁ᎦᎵᎡᎵᎦ	-10.5385
▁ᎹᎾ	-10.5385
ᎳᎩᏒ	-10.5387
▁ᎢᎪᎯ	-10.5387
▁ᏳᏫ	-10.5387
▁ᎠᏂᏯᎢ	-10.5387
▁ᏕᎬᏗᏍᎬ	-10.5388
▁ᎤᏛᏅᎢᏍᏔᏁ	-10.5389
▁ᎢᏥᏁᏍᏗ	-10.5389
▁ᎮᏂᎵ	-10.539
▁ᎠᏓᏰᎨᏍᏗ	-10.5391
▁ᎠᏴᏤᏂ	-10.5391
▁ᎠᎦᎸᏓ	-10.5392
▁ᎠᎪᏔᏅᎯ	-10.5392
▁ᎤᏃᎯᏳᏗᏱ	-10.5392
▁ᎠᏥᏅᏏᏛ	-10.5392
▁ᏧᎾᏄᎪᏫᏒᎯ	-10.5393
▁ᏳᏚᎵ	-10.5393
▁ᎩᎾᎵᎢ	-10.5394
▁ᎭᏂᏣ	-10.5394
ᏃᎴ	-10.5395
▁ᏕᎧᏁᏤ	-10.5396
▁ᏮᏛ	-10.5396
ᎲᏍᎬᎾ	-10.5397
ᏛᏁᎲ	-10.5397
▁ᎠᏂᎯᏗ	-10.5399
▁ᎤᎾᎦᏙᏍᏕᎢ	-10.5399
▁ᏯᏗᎭ	-10.54
▁ᎧᏃᎩᏍᏗ	-10.5401
▁ᏄᎾᎵᏍᏓᏁᎸ	-10.5401
▁ᎤᎾᏕᏗᏱ	-10.5402
ᏓᏴᎳᏛ	-10.5403
▁ᎠᏲᏙᏗ	-10.5403
▁ᏗᎵᏍᎪᎸᏓᏁᎸᎯ	-10.5403
▁ᎠᏥᎳ	-10.5404
▁ᎠᏇᏅᏍᏗ	-10.5405
▁ᎤᏂᏩᏛᎮ	-10.5405
▁ᏥᏍᎪᎵ	-10.5409
ᏓᏅᏖᏗ	-10.5409
ᏰᎢᎵᏓᏍᏗ	-10.5409
▁ᏕᏥᏁᎸ	-10.5411
▁ᎤᏂᏁᎬ	-10.5413
▁ᎤᏂᎩᏍᏗᏱ	-10.5414
▁ᏙᏥ	-10.5416
▁ᏬᎩᎷᏨᎩ	-10.5417
▁ᎤᏗᏗᏢ	-10.5417
▁ᎤᏡᏗᏍᎩ	-10.5418
▁ᎠᎬᏗᏍᎬᎢ	-10.5419
▁ᎡᎮᎾ	-10.542
▁ᎧᏫ	-10.5421
▁ᎠᏓᎴᏂᏍᎬ	-10.5424
ᏓᏁᎮ	-10.5425
▁ᎠᏂᎩᏍᎬ	-10.5425
▁ᏧᏁᏤᎢ	-10.5426
▁ᎤᏪᏅᎩ	-10.5426
ᏲᎾ	-10.5426
ᎤᏲ	-10.5426
▁ᎦᏟᎮ	-10.5427
▁ᏗᏥᎾᏫᏱ	-10.5427
▁ᎠᎪᎵᏰᏗ	-10.5427
▁Ꮺ	-10.5431
▁ᎤᏰᎸᎭ	-10.5436
ᏯᏔᎮᏍᏗ	-10.5437
▁ᏗᎧᏂᎨ	-10.5437
▁ᏓᏍᏛᎢ	-10.5438
▁ᎤᏌᎯᎸᎢ	-10.5439
ᏯᏅ	-10.5441
▁ᏗᏁᎯ	-10.5441
▁ᏕᏣᎧ	-10.5442
▁ᏄᏛᏅᎢ	-10.5442
▁ᏎᏉ	-10.5443
▁ᎠᏥᏛᏙᏗ	-10.5443
▁ᎾᏆᏍᏛ	-10.5445
▁ᏓᏆᎧᎾᏅ	-10.5447
ᏍᏛᎢ	-10.5447
▁ᎠᎴᏂᏍᎩ	-10.5448
▁ᎠᏯᎥ	-10.5451
▁ᎢᎩᏍᎦᏅᏨᎢ	-10.5452
▁ᎤᏂᏁᏨᎩ	-10.5456
▁ᎤᎾᏓᏅᏎ	-10.5457
▁ᎦᏓᏍᎬᎢ	-10.5457
▁ᎮᏓ	-10.5458
▁ᎤᎴᏅᎩ	-10.5468
▁ᏓᏤᎸ	-10.5476
▁ᏙᏯ	-10.5479
▁ᎦᏁᏟᏴᏍᏗ	-10.5486
▁ᏚᏩᏛᎮ	-10.5492
▁ᎦᏄᎸᏒ	-10.5493
▁ᏗᎪᏢ	-10.5495
ᏂᏍᏙᏗ	-10.5498
▁ᏅᎵᏌᎵᏉ	-10.5498
▁ᎤᏂᎩᏎᎢ	-10.5502
▁ᎣᏒ	-10.5512
▁ᎬᎨᏳᎢ	-10.552
▁ᎤᏂᎪᎲᎯ	-10.5524
▁ᏏᎳ	-10.5524
▁ᏣᏚᎵᏍᎬ	-10.5527
▁ᏮᏓ	-10.5532
ᏐᏉ	-10.5533
ᎠᏆ	-10.5535
▁ᎤᏩᏔᏅ	-10.5537
ᏕᏯᏙᏔᏅᎩ	-10.5538
▁ᎠᏍᏘ	-10.5546
▁ᎤᏍᏉᏟ	-10.5546
▁ᏗᎦᏅ	-10.5549
▁ᎠᎵᏍᏆᏗᏍ	-10.5552
ᏃᎮᎸ	-10.5552
ᏔᏂᏓ	-10.5554
ᏥᎶᏏ	-10.5555
▁ᎤᏁᎳ	-10.5556
ᎥᏏ	-10.5558
▁ᎦᏅᏅᎢ	-10.5559
▁ᎪᏪᎸᎩ	-10.556
▁ᎦᎬᏩ	-10.5564
▁ᎤᏁᏒ	-10.557
▁ᎤᎦᏃ	-10.5572
▁ᏨᏗ	-10.5585
▁ᏓᎶᏂᎨᎢ	-10.5587
▁ᎡᎦ	-10.5594
▁ᏄᏓᎴᎯ	-10.5606
▁ᎠᎦᏙ	-10.5606
▁ᎡᏍᎦᏂ	-10.561
▁ᎤᏬᎸᎢ	-10.5613
ᎧᏏ	-10.5617
▁ᎠᏂᏲ	-10.5627
ᏙᎳ	-10.5633
▁ᎤᏭ	-10.5634
ᎪᎲ	-10.5638
ᏦᏩᏛ	-10.5652
▁ᎠᏂᏍᎦᎾᎢ	-10.5661
ᎸᏉᏛᎾ	-10.5661
▁ᎠᏓᏙᎵᏍᏙᏗ	-10.5662
▁ᏄᏍᏕᎢ	-10.5663
ᎯᏳᎲᏍᎦ	-10.5666
▁ᎮᎯ	-10.567
ᎡᎵᏍᏗ	-10.5672
▁ᏅᏗ	-10.5673
▁ᎤᏁᏤᎸᎢ	-10.5679
▁ᏄᎵᏍᏔᏂᏙᎸᎢ	-10.5682
▁ᎤᎦᏛ	-10.5685
▁ᏚᏬ	-10.5698
ᏍᎦᏃᎳ	-10.5698
ᎯᏯ	-10.5698
▁ᏅᏩᏍᏛ	-10.57
▁ᎥᏣ	-10.5701
▁ᏲᏥ	-10.5706
ᎬᎾᎨ	-10.5707
▁ᎵᏏ	-10.5707
ᎵᎹ	-10.5715
▁ᎤᎾᏛᎦᏅᎩ	-10.5716
ᎧᏅ	-10.5717
▁ᎲᎦ	-10.5721
ᏍᏙᏗᏱ	-10.5727
▁ᏕᏅ	-10.5727
▁ᎤᏍᎪ	-10.5731
▁ᎧᎵ	-10.5733
ᎩᏍᏗᏱ	-10.5734
▁...	-10.574
▁ᏱᎾ	-10.5744
▁ᎢᏥᎩ	-10.5748
ss	-10.5751
ᎾᏉ	-10.5766
ᏦᏰᏂ	-10.5775
▁ᎤᏩᏁ	-10.5777
ᏯᏅᎲᎩ	-10.5794
▁ᎯᏁᎸ	-10.5798
s	-10.5799
Ꮮ	-10.5808
▁ᎢᏣᏟᏂᎬᏁ	-10.581
▁ᎠᏂᏔᎵᎭ	-10.5822
▁ᏥᎪᎥ	-10.5842
ᏙᎵᏨ	-10.5848
▁ᏣᏛ	-10.5855
ᎴᏃ	-10.5858
▁ᎬᏩᏍᏓᏩᏗ	-10.5867
▁ᎤᎵᏍᏚᎢ	-10.587
▁ᎤᏗᏔᏍᏗ	-10.5874
▁ᎾᏕᏘᏴ	-10.5876
ᏓᏅᏖᎴ	-10.5877
▁ᏗᎲ	-10.5885
ᏬᏂᏍᎬ	-10.5893
ᏥᏃᎮᏍᎩ	-10.5896
ᏰᎸᎭ	-10.5905
▁ᏙᏉ	-10.5906
ᏕᏗ	-10.5908
ᏩᏛ	-10.5911
▁ᎤᏂᎷᏤᎸ	-10.592
▁ᏱᏕ	-10.5921
ᏘᏃᎮᎸᎩ	-10.5952
▁ᏓᏲ	-10.5953
ᏦᏢᏙᏗ	-10.5956
▁ᎠᏌ	-10.5975
ᏰᎸᎲ	-10.5979
▁ᎠᎩᏰᎸᏅ	-10.5979
ᏍᏚᎢᏒ	-10.599
ᏰᎸᏗ	-10.6
▁ᎨᎩ	-10.601
ᎶᏏ	-10.6032
▁ᎢᏣᎵᎮᎵ	-10.6033
ᏏᎾᏌᏂ	-10.6035
▁ᏑᎾᎴᏉ	-10.6042
▁ᏥᏁ	-10.6057
▁ᏓᏂᎸ	-10.607
▁ᏍᎦ	-10.6074
▁ᎤᏪᏅᏎᏃ	-10.6078
ᏣᎵᏍᏙ	-10.6086
▁ᏗᎫ	-10.6087
ᎦᏘᏴ	-10.6108
▁ᎤᏁᏅ	-10.611
▁ᎠᏁᎶᎯ	-10.6118
▁ᎬᏩᎪᏩᏛ	-10.6119
▁ᎬᎾ	-10.6121
ᏍᏔᏅᎭ	-10.6129
▁ᏧᏄᏬ	-10.6131
▁ᎠᎦᏔᎮ	-10.6138
▁ᏕᎦᏅ	-10.614
ᎯᏓ	-10.6146
▁ᏚᏃ	-10.6155
▁ᎤᏂᏅ	-10.6158
ᎷᏤᎸ	-10.6167
ᏁᏎᎢ	-10.6167
▁ᏱᏂᎬ	-10.6176
▁ᏚᏂᏲ	-10.6182
▁ᏗᎩᎦ	-10.6198
ᏕᎬ	-10.6213
ᎾᏄᎪᏩ	-10.6221
ᏁᎸᎭ	-10.6221
ᎳᏕ	-10.6222
ᏍᏖ	-10.6226
ᏛᏁᎵ	-10.6228
▁ᎤᎦ	-10.6233
▁ᎤᏂᎶᏒ	-10.6283
▁ᏗᎩᏲᎯ	-10.6296
ᏏᎳ	-10.6298
ᎤᏍᏗ	-10.6298
ᏣᎵ	-10.6309
Ꮽ	-10.631
Ꮶ	-10.6317
▁ᎯᏍᎩᎦᏚ	-10.6332
ᏣᏅᎩ	-10.6341
ᏙᎬ	-10.6342
▁ᏱᏍᎩ	-10.635
▁ᎤᏰ	-10.6356
ᏅᏓᏗᏍᏗ	-10.6363
ᏛᏔᏂ	-10.638
▁ᎤᏍᏆᏂᎪᏙᏗ	-10.6391
▁ᎠᏓᏅ	-10.6398
▁ᎤᏩᏒᏍᎩᏂ	-10.6404
▁ᏫᏨᏲᏪᎳ	-10.6409
▁ᎦᏂᏏ	-10.6419
▁ᏄᏬ	-10.6421
▁ᎾᏓ	-10.6428
▁ᏂᏨ	-10.643
ᏲᏍᏔᏂ	-10.6432
▁ᏓᎨᏣ	-10.6435
▁ᎤᎾᏕ	-10.6444
ᏢᎢ	-10.6445
Ꮛ	-10.6454
▁ᏂᎦᎥᎩ	-10.6466
ᎾᏄᎪᏫᏎᎸ	-10.6468
▁ᏚᏂᎧᎵ	-10.6468
ᎢᏍᏙᏗ	-10.648
▁Ꮝ	-10.6499
ᏩᏒ	-10.6501
▁ᏈᎵ	-10.6504
▁ᎢᏍᏓ	-10.6517
ᏉᏍᎪ	-10.6517
ᏠᏍᏗ	-10.6521
ᎵᏙᎴ	-10.6524
▁ᏕᏨ	-10.6547
ᏍᏓᏱ	-10.6549
▁ᏥᏚᏂ	-10.6554
ᏘᏃᎸ	-10.6557
ᏥᎪᏩᏛᏗᏱ	-10.6559
ᏇᏅ	-10.6563
ᎯᎯ	-10.6566
ᏆᏏ	-10.657
ᏴᏗ	-10.6573
ᎸᏛ	-10.6582
▁ᎤᎭ	-10.6584
ᏁᏨ	-10.6587
▁ᎤᎾᎩᎸ	-10.6595
ᎲᏎ	-10.66
ᏨᏗ	-10.6621
ᏍᏗᏍᎩ	-10.663
ᎪᏛ	-10.6634
▁ᎤᏍᏗᏉ	-10.6637
▁ᎢᏥᏠ	-10.6649
▁ᎬᏩᏓ	-10.6656
ᎴᎣ	-10.6658
▁ᎤᏃᎮᎸ	-10.6662
ᏂᏗ	-10.6662
ᏍᏆᏂᎪᏔᏂ	-10.6686
ᏍᏚ	-10.6686
▁ᎤᎵᎮᎵᏨ	-10.6687
ᏬᎥ	-10.6695
▁ᏂᏣᏛᏁᎲ	-10.6696
▁ᎤᏂᏙ	-10.6702
d	-10.6702
▁ᏚᎾᏄᎪᏫᏎᎴ	-10.6706
▁ᎦᎦᎶ	-10.671
▁ᏓᏂᏙᎨ	-10.6712
▁ᏙᏓᏆᏍᎬ	-10.6713
ᏧᏍᏆᏴᏍᏗ	-10.6713
ᏗᎦᎵᎠᏅᎯᏛ	-10.6715
▁ᏤᎲ	-10.6716
▁ᏕᎦᎶᎨᏒ	-10.6716
▁ᏗᏧ	-10.6717
ᏑᎾᎴ	-10.6718
ᎦᎸᎳᏗ	-10.672
▁ᎤᏦᏱᎴ	-10.6721
▁ᏭᏂᎶᏎ	-10.6724
▁ᎤᏌᎯᎸ	-10.6726
▁ᏕᏣᏓᏅᏛ	-10.6726
▁ᎧᏁᏌ	-10.6728
▁ᎠᏍᏆᎵᏍᎬ	-10.6729
▁ᎤᏓᏑᏴ	-10.673
▁ᎤᎾᏄᎪᏫᏎᎴ	-10.6731
▁ᏙᏓᎬ	-10.6733
ᎳᏁ	-10.6734
▁ᏄᎾᏛᏁᎴ	-10.6734
ᎤᏙᎯᏳᎯ	-10.6736
▁ᎠᏂᏍᎦᎢᎲ	-10.6737
ᎢᎦ	-10.6738
ᏔᏲᏍᏗ	-10.674
▁ᎤᏂᏴᎮ	-10.674
▁ᏂᎨᏎ	-10.6741
▁ᎤᏪᏴ	-10.6741
▁ᏧᎵᏏ	-10.6742
ᏓᎴᏂᏍᎬ	-10.6742
ᏍᏈᏯ	-10.6743
▁ᎠᎫ	-10.6747
▁ᏬᎩᎷᏨ	-10.6747
▁ᏂᎦᏅᎯᏒ	-10.6749
▁ᎦᎢᏒ	-10.6754
▁ᎡᎵᏍᎬ	-10.6756
▁ᎾᏯᏛᎥ	-10.6757
ᎬᏁᎵ	-10.6757
ᏠᏨ	-10.6761
▁ᏕᎦᎧᎲ	-10.6762
ᏓᏂᎸᎢᏍᏗ	-10.6765
▁ᎤᏁᏝᏅ	-10.6765
ᎦᎸ	-10.6766
▁ᏓᎩᎸᏫᏍᏓᏁᎲ	-10.6767
▁ᏚᏩᏂᎦᎸ	-10.6768
▁ᎤᏁᎢᏍᏔᏅ	-10.677
ᎸᏫᏍᏓᏁᏗ	-10.6771
▁ᏧᏭᎪᏙᏗ	-10.6773
▁ᎤᎾᏂᎩᏒ	-10.6777
ᎦᎵᎷᎨᏍᏗ	-10.6782
▁ᎥᏞ	-10.6784
▁ᏂᎦᏛᏁᎲ	-10.6784
▁ᎪᎵᏍᏗ	-10.6791
ᏲᎦ	-10.6792
ᎦᏘᏕᎯ	-10.6793
▁ᏧᏂᎸᏫᏍᏓᏁᏗ	-10.6795
▁ᎠᏩᎾᎦᎳ	-10.6798
▁ᏥᎦᏘᏏ	-10.6799
▁ᎠᎵᏏᎾᎯᏍᏔᏅᎯ	-10.68
▁ᎠᏂᏰᎪᎩ	-10.68
▁ᎠᏲᏓᏌᎲ	-10.68
▁ᎤᎾᏗᏍᎦᏟ	-10.68
▁ᎤᏩᎭᏂᎴ	-10.68
▁ᏂᎩᏪᏎᎸᎭ	-10.68
▁ᏅᏧᏓᎴᏅᎲᎾ	-10.68
▁ᏅᏛᏆᏓᎴᏅᎯ	-10.68
▁ᏗᏦᏪᎵᏍᎩ	-10.68
▁ᎠᏐᎥᏍᏙᏗ	-10.68
▁ᏏᎵᏆ	-10.68
▁ᏣᏓᏲᏁᎸᎩ	-10.68
▁ᎠᎾᏓᏍᎦᎶᎩ	-10.68
▁ᎦᏅᏃᏩ	-10.68
▁ᏅᏥᏪᏎᎸᎩ	-10.68
▁ᎤᏚᏓᎴᏛ	-10.68
▁ᎠᏓᏪᎯ	-10.68
▁ᏄᎾᏓᎡᏍᏗ	-10.68
▁ᎤᏪᏐᏅᏴ	-10.68
▁ᏦᏑᏫ	-10.68
▁ᎤᏛᎴᎮ	-10.68
▁ᎤᎿᎷᏒᎩ	-10.68
▁ᎢᏣᏛᏓᏍᏓ	-10.68
▁ᎢᎳᎩᏳ	-10.68
▁ᎠᎪᏕᏍᎩ	-10.68
▁ᏧᏁᎿᎢ	-10.68
▁ᎠᏍᎩᏓᏍᎬ	-10.68
▁ᏤᏆᎳᏂ	-10.68
▁ᏧᏁᎵᏁ	-10.68
▁ᎤᎵᏏᏂᏕᏅ	-10.68
▁ᎨᎴᏏᏱ	-10.68
▁ᎤᎵᏲᏗ	-10.68
▁ᏗᎧᏃᎩᏍᏙᏗ	-10.68
▁ᎢᎪᏪᎳ	-10.68
▁ᏕᏥᏃᎩᏍᎨᏍᏗ	-10.68
▁ᎾᎨᎢᏴ	-10.68
▁ᎠᎾᏓᏍᏓᏩᏗᏙᎯ	-10.68
▁ᎤᏂᎩᎵᏲᎢᏍᏗ	-10.6801
▁ᏓᏲᏤᏏ	-10.6801
▁ᏔᏘᏄᎦ	-10.6801
▁ᎠᎾᎵᏍᏕᎵᏍᎩ	-10.6801
▁ᏱᏂᎬᏁᎭ	-10.6801
▁ᎠᏓᏅᏖᏍᎪ	-10.6801
▁ᏂᎩᏪᏏ	-10.6801
▁ᏚᎨᏓᎵᏴ	-10.6801
▁ᎠᎾᏓᏤᎵ	-10.6801
▁ᎠᏦᎳᏅ	-10.6801
▁ᏕᏥᎧᎿᏩᏗᏙᎮᏍᏗ	-10.6801
▁ᏚᏍᏓᎦᎸ	-10.6801
▁ᏱᏤᎵᎯᏍᎨᏍᏗ	-10.6801
▁ᎤᏁᏉᏨ	-10.6801
▁ᏗᎦᎶᏔᏅ	-10.6801
▁ᏚᎭᏄᏮ	-10.6801
▁ᏧᎾᎬᏩᎶᏗ	-10.6801
▁ᎤᏭᏢᏔᏅᎩ	-10.6801
ᏘᏯᏍᏓᏁ	-10.6801
▁ᏗᎾᎢᏒ	-10.6801
▁ᏕᎪᏪᎴᏍᏗ	-10.6801
▁ᏫᏗᎶᎯ	-10.6802
▁ᏓᎦᏛᏁᎵ	-10.6802
▁ᏄᏪᎲᎾ	-10.6802
▁ᎢᏦᎯᏳᏗᏱ	-10.6802
▁ᎤᏛᎦᏍᏕ	-10.6802
▁ᏓᏱᎾ	-10.6802
▁ᎮᎵᎠ	-10.6802
▁ᎠᏓᏲᏁᎮᏍᏗ	-10.6803
▁ᎨᏥᏍᏕᎸᏗ	-10.6803
▁ᎡᏥᏅᏏᏓᏍᏗ	-10.6803
▁ᎢᎬᏛᏁᏗ	-10.6803
▁ᎣᎦᏚᎵᎭ	-10.6803
▁ᎤᏍᏆ	-10.6803
▁ᏥᏚᏳᎪᏗ	-10.6803
▁ᏧᏂᎶᎸᏗ	-10.6803
▁ᎠᎫᏩᏌ	-10.6803
▁ᎦᏂᎩᎸ	-10.6803
▁ᎢᏯᏥᎸᏉᏗ	-10.6804
▁ᎤᎬᎥᏍᎩ	-10.6804
▁ᏰᏙᎭ	-10.6804
▁ᎠᏂᎪᎲᎭ	-10.6804
▁ᎠᏰᏟ	-10.6804
▁ᎿᏛᎦ	-10.6804
▁ᎬᏬᎯᏳᏅᎩ	-10.6804
▁ᏧᏂᏁᏟᏴᏍᏗ	-10.6805
▁ᏣᎦᏨᏍ	-10.6805
▁ᎤᎴᏴᏒ	-10.6805
▁ᎠᏍᏕᏯᏓ	-10.6805
▁ᎲᏓ	-10.6805
▁ᎢᏳᏪᏎᎸᎯ	-10.6805
▁ᏍᎩᏍᏓᏩᏚᎦ	-10.6805
▁ᏓᎭᏏ	-10.6805
▁ᎤᏂᎪᏩᏛᏗᏱ	-10.6805
▁ᎯᎸᏉᏓ	-10.6805
▁ᏣᏙᎳᏅᏍᏗ	-10.6806
▁ᎤᏕᎶᎰᏒ	-10.6806
▁ᎭᏓᏅᎾ	-10.6806
▁ᏗᎫᎪᏗᏍᎩ	-10.6806
▁ᎤᎶᏗᏢ	-10.6806
▁ᏂᏴᏁᎸ	-10.6806
▁ᏂᏣᏛᎿᏕᎬᎢ	-10.6806
▁ᏗᎪᏢᏅᎯ	-10.6807
▁ᏑᏓᎵᏍᎪᎯ	-10.6807
▁ᎠᏍᎩᏗᏍᎨᎢ	-10.6807
▁ᎢᏣᏚᎵᏍᎨᏍᏗ	-10.6807
▁ᎢᎩᏁᎸ	-10.6807
▁ᏚᏯᏪᎨ	-10.6807
▁ᎢᏥᏯᎡᏍᏗ	-10.6807
▁ᏍᏈᏍᏔ	-10.6808
▁ᏗᏣᎧᏅᎦ	-10.6808
▁ᏫᏥᎷᏨᎭ	-10.6808
▁ᎢᏣᎵᎮᎵᎨᏍᏗ	-10.6808
▁ᎨᏥᏅᏒᎯ	-10.6809
▁ᏥᏣᏛᎩᎭ	-10.6809
▁ᏇᏗᏂᏱ	-10.6809
▁ᏗᎩᎸᏫᏍᏓᏁᏗᏱ	-10.6809
▁ᎡᏥᏯᏅᏛ	-10.6809
▁ᎶᎻ	-10.6809
▁ᎠᏠᏗᏱ	-10.681
▁ᏎᏘ	-10.681
▁ᏧᎳᏍᎩ	-10.681
▁ᎤᎾᏛᏅᎩ	-10.681
▁ᏧᎷᏫᏍᏔᏁᏗ	-10.6811
▁ᎠᏂᎦᏲᏟ	-10.6811
▁ᏗᏣᏓᎴᏅᏛ	-10.6811
▁ᏈᎵᏏ	-10.6812
▁ᏍᎪᏁ	-10.6812
▁ᎠᎩᎵᎨᏂ	-10.6812
▁ᎠᏂᏴᎩ	-10.6813
▁ᎤᎾᏓᏙᎵᏍᏓᏁᎸᎩ	-10.6813
▁ᎦᏃᏙᏗᏱ	-10.6814
▁ᎤᏁᎯ	-10.6814
▁ᎪᎯᎢᏴ	-10.6815
▁ᎢᎦᎵᏍᏙᏗᏱ	-10.6816
▁ᏚᏃᎸ	-10.6817
▁ᎢᏨᏃᎮᎮᎸ	-10.6817
▁ᏂᏨᎦ	-10.6818
▁ᎪᎰᏍ	-10.6819
▁ᎢᎦᎦᏓ	-10.6819
▁ᎤᏓᏙᎵᏣᏛ	-10.682
▁ᎠᏨᏍᏛ	-10.6821
▁ᎹᎦ	-10.6821
▁ᏄᏩᏁᎰ	-10.6822
▁ᏓᎾᏕᏲᎲᏍᎬ	-10.6822
▁ᎤᎦᏔᏔᏅᎯ	-10.6822
▁ᎤᏃᎯᏳᏅᎯ	-10.6824
▁ᎠᏓᏁᏣᏍᏚᎶᎩᎯ	-10.6824
ᎡᎸ	-10.6826
▁ᎠᏍᎫᏕᏍᏗᏱ	-10.6826
▁ᎤᏰᏨ	-10.6827
▁ᏯᏂᎦᏔᎮ	-10.6827
▁ᏥᏁᎦ	-10.6828
▁ᎤᏛᏒᎯ	-10.6828
▁ᎢᏍᏕᎾ	-10.6828
▁ᏗᏘᏲᎯ	-10.6828
▁ᏃᎩᏪᏎᎸ	-10.683
▁ᎠᎦᏔᎯᏳ	-10.683
▁ᎤᏓᏴᏎᎢ	-10.683
ᏰᎸ	-10.6831
▁ᎬᏩᏛᏗ	-10.6832
▁ᏥᏙᎦ	-10.6832
▁ᎤᎾᏕᏗ	-10.6832
▁ᎤᏪᎧᏁᎢ	-10.6832
▁ᏧᏓᎴ	-10.6833
▁ᏓᎧᏅ	-10.6834
▁ᏥᎪᏩᏘᏍᎬ	-10.6834
▁ᎤᏁᏉᏨᎯ	-10.6835
▁ᎤᎾᏄᎪᎢᏍᏗ	-10.6835
▁ᎩᎳᎯᏳ	-10.6835
▁ᎪᏪᎴ	-10.6836
▁ᏇᎵᎩ	-10.6836
▁ᎤᏃᎯᏳᏅᎩ	-10.6837
▁ᏓᏨᏁᎵ	-10.6837
▁ᏗᎦᏥ	-10.684
▁ᎤᎪᏩᏛᏗᏱ	-10.684
▁ᎨᎵᏍᎩ	-10.684
▁ᏥᏯᎵᎡᎵᏤ	-10.6841
ᏁᏉᏥ	-10.6841
▁ᎡᏓᏍᏗ	-10.6842
▁ᎤᎾᏛᎪᏗᏱ	-10.6842
▁ᎤᏪᏍᎩᎸᎢ	-10.6842
▁ᏫᏥᎦᏛᎢ	-10.6842
▁ᎤᏂᎾᏫ	-10.6843
▁ᏧᏓᎵᎢ	-10.6844
▁ᎤᎩᏒᎩ	-10.6844
▁ᎠᏂᏃᎮᎭ	-10.6844
▁ᏂᏚᏩᏁᎴᎢ	-10.6844
▁ᎤᏍᏆᏂᎪᏛ	-10.6845
▁ᎻᎳ	-10.6851
▁ᎢᎦᎵᎢ	-10.6852
▁ᎾᏯᏛᎥᎩ	-10.6853
▁ᎤᏓᏙᎵᏍᏔᏁᎢ	-10.6854
▁ᏗᎾᏓᎪᎾᏗᏍᎬᎢ	-10.6854
▁ᎠᎾᏓᎪᎾᏗᏍᎬᎢ	-10.6855
ᏍᎦᏎᏗ	-10.6855
▁ᎤᎾᏂᎩᏒᎩ	-10.6855
▁ᎦᏓᏙᎵᏍᏗᏍᎬᎢ	-10.6856
▁ᎢᎪ	-10.6857
▁ᎢᏳᏒᎯ	-10.6859
▁ᎠᎦᏍᎩ	-10.6859
▁ᎤᏬᏢᏅ	-10.6862
▁ᏥᏰᎸᎢ	-10.6863
ᏅᏬᏗᏱ	-10.6863
▁ᎣᎵᏩᏲ	-10.6866
ᏓᏛᏍᎩ	-10.6866
▁ᎤᎾᏂᎩᏎᎢ	-10.6868
▁ᎤᎾᏓᏅᏖᎴ	-10.6868
▁ᎤᏩᏔᏅᎩ	-10.6869
▁ᎤᏇᏓᎵᏉ	-10.687
▁ᎤᏂᏣᏖᏍᏗ	-10.6871
▁ᎠᏆᏣ	-10.6871
▁ᎤᎩᏎᎢ	-10.6876
▁ᏚᏩᏂᎦᎸᎢ	-10.6879
▁ᎤᏦᏱᎴᎢ	-10.6879
▁ᎤᎵᏍᏆᏛ	-10.6879
▁ᎠᎢᏒᎩ	-10.6883
▁ᎤᎾᏓᏅᏖᎸ	-10.6884
▁ᎦᏯᎸ	-10.6884
ᏓᏂᎸᎩ	-10.6884
▁ᏥᏄᏍᏕ	-10.6887
▁ᏣᏗᎭ	-10.6893
▁ᎤᏍᎪᏒ	-10.6894
▁ᎤᏗᏛᎮᎢ	-10.6895
ᏰᏛ	-10.6896
▁ᎢᏣᏓᏅᏖᏍᎬ	-10.6898
▁ᎤᏲᎢᏴ	-10.69
▁ᏭᏂᎷᏨᎩ	-10.6911
ᏔᎵ	-10.6916
▁ᏝᎨ	-10.6917
ᏗᏂᏍᎪᏂᎯ	-10.6918
▁ᏫᎦᎷᎬ	-10.6918
▁ᎠᏓᎯᎯ	-10.6918
▁ᎤᏁᏍᏔ	-10.6927
▁ᎠᎩᏁᏨᎢ	-10.6928
ᏚᎢᏍᏓᏁᎴ	-10.693
▁ᏧᏁᎦ	-10.6931
▁ᏍᎩᏍᏕᎸ	-10.6931
▁ᎫᎦ	-10.6931
▁ᎢᏗᎬᏁ	-10.6936
ᏃᎯᏎᎴ	-10.6938
▁ᏫᏚᏯᏅᎮᎢ	-10.694
▁ᎢᏨᏗᏍᎬ	-10.6946
▁ᎤᏄᎪᏤᎢ	-10.6947
▁ᎢᏔ	-10.6947
▁ᏗᏐᏴ	-10.6947
▁ᏂᏕᎬᏁᎲ	-10.6951
▁ᎤᏅᏎᎢ	-10.6952
▁ᎠᏁᎮᏍᏗ	-10.6953
ᏯᎥᎢ	-10.6953
▁ᏪᏣ	-10.6956
▁ᎯᎦᏔᎲ	-10.6956
ᏔᏁᏍᏗ	-10.6959
ᏛᏁᏗᏱ	-10.696
ᏞᏍᏗ	-10.6961
▁ᎭᏗ	-10.6964
▁ᏧᏁᏗᏱ	-10.6964
ᎦᏛᎦ	-10.6964
▁ᎤᏬᏨ	-10.6966
▁ᎤᎪᎵᏰᎥ	-10.6966
▁ᎤᎷᏤᎴᎢ	-10.6969
▁ᏗᎬᏩᎾ	-10.6973
▁ᎤᏩᏔᏁ	-10.6974
▁ᎡᎾᎢ	-10.6975
▁ᎤᏁᏍᎩᎸ	-10.6977
ᏓᏁᎯ	-10.6982
▁ᎤᏬᏂᏎ	-10.6982
ᎳᏅᎩ	-10.6987
▁ᏚᏙᏍᏛ	-10.6988
▁ᎤᎾᏛᏁ	-10.699
▁ᏄᏩᏁᎸᎩ	-10.6996
ᏍᏗᏍᎨᎢ	-10.6999
ᏟᏌᏂ	-10.7008
ᎨᏎᎢ	-10.7011
▁ᎠᎾᎵᎮᎵᎨ	-10.7011
▁ᎤᎪᏗ	-10.7011
ᎵᏍᏓᏴᎲᏍᎦ	-10.7012
ᏅᎦ	-10.7022
ᏏᏐᏗ	-10.7024
▁ᏙᏓᎨ	-10.7025
▁ᏂᏥᏪᏎᎸ	-10.7028
▁ᏧᏁᏤᎴ	-10.703
▁ᎤᏤᎸ	-10.7033
ᎫᏩ	-10.7039
▁ᎤᏂᎪᎲᎩ	-10.7045
▁ᏗᎬᎩ	-10.7045
▁ᏓᎬᎩ	-10.7046
▁ᏗᎩᎦᏴᎵᎨᎢ	-10.7051
▁ᏥᏗ	-10.7051
ᏖᎵ	-10.7058
ᎵᏍᎪᎸᏓᏁᏗᏱ	-10.7062
▁ᏂᏚᎩᏨᏂᏒᎢ	-10.7063
ᏄᎪᏫᏏ	-10.7064
▁ᎤᏁᏅᏍᏗ	-10.707
ᏙᎲᎢ	-10.707
ᏢᎾᏁᏗ	-10.7072
▁ᏧᎾᏦ	-10.7075
▁ᎠᏦᏴᎢ	-10.7076
▁ᎤᏍᎦᏅᏨᎢ	-10.7078
ᏅᏗᏍᎨᏍᏗ	-10.7081
▁ᏕᎬᏩᏂ	-10.7082
ᎲᏍᎪᎢ	-10.7084
▁ᎪᎦ	-10.7089
▁ᏃᏳ	-10.7092
▁ᏱᏓᎩ	-10.7098
▁ᏕᏣᏙᎥᎢ	-10.7101
ᏇᎵ	-10.7104
▁ᎤᏓᏅᏙᎩ	-10.7106
ᏒᏗ	-10.7106
ᏪᏎᏗ	-10.7106
ᏰᎲ	-10.7107
▁ᏗᏍᏆ	-10.7114
ᏏᎳᏛᏗ	-10.7122
ᏳᏍᏗ	-10.7125
▁ᏣᎪ	-10.7125
ᏣᏗ	-10.7128
ᏏᏩ	-10.713
▁ᏃᎩ	-10.713
▁ᎤᏍᏓᏱᏕ	-10.7132
▁ᏦᏥ	-10.7133
▁ᎤᎵᏍᏆᏕ	-10.7133
ᏟᏯ	-10.7143
ᎳᏚ	-10.7144
▁ᎤᎧᎵᎸ	-10.7145
ᏨᎾ	-10.7149
ᎩᏍᎬ	-10.7157
ᏓᏁᎮᏍᏗ	-10.7157
ᎬᏂᎨ	-10.7158
▁ᎤᏙᎯᏳᎭ	-10.716
▁ᎠᏂᏁᎸ	-10.7161
ᎧᏁᎸ	-10.7164
▁ᏗᏛ	-10.7165
ᎪᏅ	-10.7167
ᏌᎳᏓᏁ	-10.717
▁ᏗᎨᎦ	-10.717
▁ᏂᎬᏁᎸ	-10.7173
ᎦᏔᎲ	-10.718
ᏂᏌᏂ	-10.7202
▁ᎠᏉᏢ	-10.7202
▁ᎠᏃᎵ	-10.7204
ᏅᎦᎸᏛ	-10.7206
▁ᏄᏪᏎᎸᎢ	-10.7211
ᎪᎵᏂᏗ	-10.7218
▁ᎤᏓᏅᏒ	-10.7219
ᏏᏗ	-10.7226
▁ᎤᏍᏆᎸ	-10.7232
▁ᎤᎧᎵ	-10.7239
ᎦᏙᎥᏎ	-10.7243
▁ᎤᏁᏅᏎᏃ	-10.7266
ᏍᎦᎢᎮᏍᏗ	-10.7271
ᏧᏂᏲᎯᏍᏗᏱ	-10.7274
ᏕᎦ	-10.7276
▁ᎠᏰᎵᏒ	-10.7279
ᎯᎲᎢ	-10.7279
▁ᎤᏃᏴᎵ	-10.728
▁ᎤᏁᏤᎢ	-10.7282
▁ᎤᏙᎯ	-10.7285
▁ᏃᏒ	-10.7285
▁ᎬᏒ	-10.7286
▁ᏳᎪ	-10.7286
ᏲᏏ	-10.729
▁ᏚᎸ	-10.7292
ᎤᏩᏂᎦᎸ	-10.7305
▁ᎤᏁᏤᎴᎢ	-10.7307
ᏂᏙᎸ	-10.7308
▁ᎤᏙᏳ	-10.7311
▁ᏓᏔᎴᏒᎢ	-10.7342
▁ᎾᏂᎥᎩ	-10.7345
▁ᏦᏏ	-10.7347
▁ᎠᏂᎸᏉᏗᏍᎨ	-10.735
▁ᎤᏅᏁ	-10.7354
▁ᏦᏒ	-10.7392
▁ᏙᏓᏣ	-10.7392
▁ᎡᏍᏗ	-10.7408
ᏡᏗᏍᎩ	-10.7409
▁ᏤᎳᏗ	-10.7417
▁ᎠᎹᏂ	-10.742
ᎵᏍᏓᏴᏗ	-10.743
▁ᎦᏲᎦ	-10.7433
▁ᏲᎦ	-10.7435
ᏁᎢᏍᏓᏁᏗ	-10.7436
▁ᎤᎳ	-10.744
▁ᎠᎫᏴᏗ	-10.7457
ᎳᏛ	-10.7458
▁ᎤᏂᏏᏗ	-10.7461
ᏁᏅ	-10.7462
ᏤᎭ	-10.7466
▁ᏚᏁᏤᎴᏃ	-10.7472
▁ᏥᏕᏣ	-10.748
▁ᎢᎬᏱᏱᏉ	-10.7486
▁ᏓᎦᏥ	-10.7492
ᎬᏅ	-10.7495
ᏍᏓᏩᏕᎩ	-10.7499
▁ᎨᎢ	-10.7507
ᏘᏍᏗᏍᎩ	-10.7507
▁ᎠᎩᏍᎦᏅᏨ	-10.7507
▁ᎠᏥᏁᎸ	-10.7508
ᏴᎵᎸ	-10.7516
ᎧᎯᏯᏍᏗ	-10.7517
▁ᏱᏥᏰᎸ	-10.752
ᎦᏚ	-10.752
▁ᎦᎾᏄᎪ	-10.7528
ᏥᏧᏣ	-10.753
▁ᎤᏂᏴᎸ	-10.7543
ᏢᏅᎯ	-10.755
ᏲᎭ	-10.7561
ᏗᏍᏔᏁ	-10.7567
▁ᏥᏳᎪ	-10.7567
ᏗᏯ	-10.7568
ᏍᏓᏁ	-10.7576
ᏂᏆᏘᎯ	-10.7588
ᏗᏔᏍᎬ	-10.76
▁ᏩᏴ	-10.7608
▁ᏗᎧ	-10.7612
▁ᏂᏛ	-10.7626
ᎵᎢ	-10.7626
ᏄᎵ	-10.7634
ᏍᏆᎵ	-10.7643
▁ᎠᎾᏗᏍᎨ	-10.766
▁ᎪᏛ	-10.7662
▁ᎤᏂᏄᎪᏨ	-10.767
ᏂᏴ	-10.7686
ᏪᏎᎴᎢ	-10.7692
▁ᎤᏣᏅ	-10.7693
▁ᎢᏳᏂ	-10.7701
▁ᏥᎦᏔ	-10.7708
...”	-10.7709
ᏫᏎᎴᎢ	-10.7713
ᎶᏓ	-10.7726
ᏍᎦᏰᎬᏍᏓ	-10.773
▁ᎠᏩᏛ	-10.7738
ᏓᏱ	-10.7743
ᏍᏕᎵᏍᎬ	-10.7745
ᏁᏟᏴ	-10.7748
▁ᏂᎦᎥᎢ	-10.7751
▁ᎢᎤ	-10.7752
▁ᎤᏪᏰ	-10.7765
▁ᎤᎵᏍᏆᎸᏗᏃ	-10.7778
ᏓᏎᎪᎩᏍ	-10.7784
ᎸᏉᏗᏍᎩ	-10.779
ᎩᏒ	-10.7796
ᏛᏃᎯ	-10.7798
▁ᏚᏳ	-10.7799
▁ᎾᎯᏳᎢ	-10.7804
▁ᏕᎨᏥ	-10.7811
ᏲᏍᏗᏍᎬ	-10.7812
ᏡᏗᏍᎬᎢ	-10.7821
ᏫᏛ	-10.7824
▁ᏚᏲᏎ	-10.7829
ᏘᎾᏫᏛᎲᎩ	-10.7844
▁ᏱᎨᏣ	-10.7847
ᏍᏗᏍᎬᎢ	-10.7854
ᏍᏕᎵᏍᎩ	-10.786
ᏳᎳ	-10.788
ᏗᏍᏗᏍᎩ	-10.7885
▁ᎠᎨ	-10.7889
▁ᎤᎵᏍᏆ	-10.7898
ᏅᎪᎢᏍᏗ	-10.79
al	-10.7908
ᏂᏙᎯ	-10.7912
ᏰᎸᎯ	-10.7913
ᎦᎳ	-10.7917
▁ᏯᏓᏅᏖ	-10.792
ᏑᏰᏒ	-10.7922
▁ᎠᎵᏰᎢᎵ	-10.7928
▁ᎦᏯ	-10.7934
ᎡᎰᎢ	-10.7937
ᏢᏗᏱ	-10.7941
ᏴᏍᏗ	-10.7949
ᎵᏳ	-10.7949
▁ᏭᏩ	-10.7951
▁ᏕᎫ	-10.7952
▁ᎢᏨᏲᏪᎳ	-10.7953
ᏂᎩᏍᎬ	-10.7954
▁ᎩᏯ	-10.7956
ᏥᏍᎦᏯ	-10.7972
▁ᏓᏳᏂ	-10.7975
ᏅᏛ	-10.7987
▁ᎠᏍᏆᏂᎪᏙᏗ	-10.7991
▁ᏄᏍᏛᎩ	-10.7991
ᏍᎩᎸ	-10.8
ᏍᏓᏩᏛᏒᎩ	-10.8005
ᏓᏑᏰᏍᏗ	-10.8008
ᏛᏅᎢᏍᏓ	-10.8011
ᏍᏓᏩᏗᏒ	-10.8015
▁ᏥᏂᎬ	-10.8016
▁ᏔᏯ	-10.8019
ᏓᎵᏓᏍᏗ	-10.8024
▁ᏚᏭ	-10.8029
ᎤᏍᏓᎦᏴᎯᏓ	-10.8037
ᏥᏁᎸ	-10.8037
▁ᎦᎬ	-10.8043
ᏲᏒᎩ	-10.8044
▁ᎢᏗᎦᏘ	-10.8046
▁ᏚᏁ	-10.8046
▁ᎨᏍᏗᏗ	-10.805
▁ᎢᏳᏍᎩᏂᏃ	-10.8064
ᏲᎵ	-10.8076
ᎦᏁᎶᏗ	-10.8077
ᎳᏓ	-10.8088
ᎳᏂ	-10.8092
▁ᎥᎩᎸᏉ	-10.8095
▁ᎤᎵᏰ	-10.8103
ᎷᎯᏍᏗ	-10.8107
ᏍᎦᏨᎯ	-10.8118
ᎦᏘᏓ	-10.8122
ᏓᏙᎵᏍᏗᏍᎬ	-10.8123
ᏘᏃᎯᏍᏗᏱ	-10.8124
ᏂᎪᎲ	-10.8132
▁ᎢᏍᏛ	-10.8149
▁ᎬᏰᎸ	-10.815
▁ᏅᏓᎬᏩ	-10.8156
▁ᎠᏢ	-10.8156
ᎧᏁ	-10.8163
ᏙᎮ	-10.8183
▁ᎤᏂᏍᏆᏂᎪᏎ	-10.8194
▁ᏗᏣᏁᎶ	-10.8196
▁ᎤᎷ	-10.8202
ᏓᏂᎸᏤᎢ	-10.8208
▁ᏗᏍᏚ	-10.8208
▁ᏳᏬᎯᏳ	-10.8237
ᏉᏂ	-10.8239
ᎶᎯᏍᏗ	-10.8241
ᏓᎩᏍᎨ	-10.8245
ᏩᏕᎬ	-10.8254
Ꮌ	-10.8266
ᎸᏓ	-10.8266
ᎦᏅᎦ	-10.8267
▁ᏣᎦ	-10.8271
▁ᎠᏂᎦ	-10.8274
▁ᏄᏂᏪᏎ	-10.828
▁ᏧᏁᏨ	-10.8288
ᏪᏎᎸᎩ	-10.8291
ᎿᎥᎢ	-10.8293
▁ᎤᎸᏉᏗ	-10.8299
ᏪᎶᏗ	-10.83
▁ᎧᏃᎮ	-10.8301
ᏢᏛ	-10.8306
▁ᎦᏟ	-10.8307
ᏦᏁ	-10.8307
ᏍᏕᎸᏗᏱ	-10.8319
▁ᎤᏍᎦ	-10.8319
ᏓᏬᏍᏗ	-10.832
▁ᎤᏁᎷᎬ	-10.8326
ᏁᎲᎩ	-10.8328
▁ᏧᎳᏑᎶ	-10.8333
▁ᏙᏧ	-10.8342
ᎯᏍᏔᏂ	-10.8343
▁ᏕᎦᏄᎪᏫᏍ	-10.8355
ᎢᎦᎸᏉᏗ	-10.8357
ᎪᎵᏰᎥᎯ	-10.8358
▁ᎥᏥ	-10.8359
ᏍᎦᏃᎵ	-10.8366
▁ᎬᏩᎾᏕ	-10.8367
▁ᎢᎩᏰᎸ	-10.8368
▁ᏕᎦᏄᎪᎬ	-10.837
▁ᏕᎦᎳᏅᏛ	-10.8372
▁ᎤᏍᏆᏂᎪᏎ	-10.8373
▁ᎠᏐᏴ	-10.8373
ᏗᎦᏛᎯ	-10.8374
▁ᎣᎦᏛᎦᏅ	-10.8375
▁ᎠᏓᏪᎵᎩᏍᎬ	-10.8379
▁ᏚᏲ	-10.838
ᏫᎵᎻ	-10.8383
ᏄᏓᎴ	-10.8383
▁ᎠᎩᏇᏓᎸ	-10.8384
▁ᏂᎦᎵᏍᏗᏍᎪ	-10.8385
▁ᏕᎦᏍᎩᎸ	-10.8386
▁ᎢᏣᏓᏙᎵᏍᏗᏍᎬ	-10.8386
▁ᎤᎵᏰᏔᏁ	-10.8388
▁ᏱᎨᏥ	-10.8389
▁ᏙᏧᎾᏓᏅᏛ	-10.839
▁ᏱᏥᎦᏔᎮ	-10.8392
▁ᏧᏁ	-10.8394
▁ᏄᏂᏪᏎᎴ	-10.8394
▁ᎢᏣᎵᎮᎵᎬ	-10.8394
▁ᎤᎾᏂᎩᏎ	-10.8394
▁ᏚᏓᏘᎾᎥ	-10.8396
▁ᎤᎶᎨᏒ	-10.8396
▁ᏯᏛᏅ	-10.8397
▁ᏱᏄᏍᏕ	-10.8401
▁ᎤᏬᎯᏳᏒ	-10.8403
ᎰᏩ	-10.8406
▁ᎤᏄᏩᎥ	-10.8406
▁ᏈᎬ	-10.8412
ᏅᎵ	-10.8412
▁ᏕᎦᏬᏁᏗᏍᎬ	-10.8412
▁ᎾᎩᏪᏎᎸ	-10.8417
ᎪᎲᏍᏙᏗ	-10.8417
ᎣᏏ	-10.8419
▁ᏭᏯᏅᎲ	-10.8419
▁ᎠᎩᏩᏛᎲ	-10.842
▁ᏄᏅᏁᎸ	-10.8421
▁ᏄᏛᏁ	-10.8423
▁ᎤᎵᏦᏛ	-10.8426
ᎵᏙᎯ	-10.8426
▁ᎥᎩᏙ	-10.8427
ᏰᎳᏍᏗ	-10.8427
▁ᎢᎫᏩ	-10.8432
ᏬᏗᎨ	-10.8436
▁ᎠᏂᎪᏩᏘᏍᎬ	-10.8436
▁ᏇᏓᏁᎳᎻ	-10.844
▁ᎠᏓᎨᏗ	-10.8441
▁ᏧᏂᎧᎿᏩᏛᏍᏗ	-10.8441
ᎪᎵᏰ	-10.8442
▁ᎠᏍᎫᏕᏍᏗ	-10.8442
▁ᏫᏗᎦ	-10.8442
ᎤᎷᏨ	-10.8444
▁ᎤᏬᎯᏳᏅ	-10.8444
▁ᏂᏕᎦᏪᏎᎲ	-10.8444
▁ᏗᎫᏍᏙᏍᏗ	-10.8444
ᏒᏆᎶᏍᏗ	-10.8445
▁ᏗᎨᎫᎪᏓᏁᏗ	-10.8447
▁ᎤᏪᏓᏍᏗ	-10.8448
ᏲᎱᎯᏎᎸᎯ	-10.8448
▁ᏤᏅᏍᏗ	-10.8449
▁ᎠᏥᏁᏗ	-10.8451
▁ᏭᎷᏤᎴ	-10.8453
▁ᎾᏏ	-10.8456
▁ᎤᎾᏛᎪᏗ	-10.8457
▁ᎠᏇᏓᏍᏗ	-10.8457
▁ᎠᏂᎾᏰᏍᎩ	-10.8466
▁ᎠᏂᏥᏊᏏ	-10.8466
▁ᎢᎨᎬᏁᎸᎯ	-10.8466
▁ᎢᎵᎡᏌ	-10.8466
▁ᎤᏍᏔᏲᏒ	-10.8466
▁ᎤᏖᎸᎳᏛ	-10.8466
▁ᎥᏆᎸᎢᏛ	-10.8466
▁ᎫᏫᏍᎫᏫ	-10.8466
▁ᎬᏬᎯᏳᎲᏍᎩ	-10.8466
▁ᎰᏢᏔᏅᎭ	-10.8466
▁ᎴᎣᏗᏏᏯ	-10.8466
▁ᎻᏚᏏᎳ	-10.8466
▁ᏂᏦᎵᎬᎾ	-10.8466
▁ᏇᏣᎵᎵ	-10.8466
▁ᏍᎪᏂᏗᏢ	-10.8466
▁ᏓᏇᎪᏔᏅ	-10.8466
▁ᏗᎾᏙᎴᏆᏍᎩ	-10.8466
▁ᏗᏓᎴᏅᏗᏍᎩ	-10.8466
▁ᏥᏈᎣᏂ	-10.8466
▁ᏧᏂᏦᏯᏍᏗ	-10.8466
▁ᎤᏂᎵᏅᏨᎯ	-10.8466
▁ᏗᎬᏩᎩᏨᏗ	-10.8466
▁ᏭᏕᎵᏤ	-10.8466
▁ᏓᏗᎶᏂ	-10.8466
▁ᏧᎾᏗᎩᏓ	-10.8466
▁ᎢᏯᏛᏁᎵᏓᏍᏗ	-10.8466
▁ᏗᏥᎨᏫ	-10.8466
▁ᏦᏍᏓᏓᏅᏟ	-10.8466
▁ᏥᏂᏨᏪᏎᎸᎩ	-10.8466
▁ᎤᏪᏯᎸᏤᎢ	-10.8466
▁ᎠᎵᏏᎾᎯᏍᏙᏗ	-10.8466
▁ᎠᏆᏗᏔᏍᏗ	-10.8466
▁ᎠᎾᎵᏖᎸᎲᏍᎩ	-10.8466
▁ᎢᎬᏆᏛᏁᏗ	-10.8466
▁ᎤᎵᏍᏛᏧᏁ	-10.8466
ᏫᏂᏗᏢ	-10.8466
▁ᏅᏓᏰ	-10.8466
▁ᏗᎨᏘᏂᏓᏍᏗ	-10.8466
▁ᎠᏟᎶᎥ	-10.8466
▁ᎹᎺᎵ	-10.8466
▁ᎠᏂᎶᏍᎩ	-10.8466
▁ᏧᎬᏩᎳᏅᎯ	-10.8466
▁ᏭᏕᎵᏨ	-10.8466
▁ᎤᏦᎠᏎᏗ	-10.8467
▁ᎪᎯᏳᎲᏍᎨᏍᏗ	-10.8467
▁ᎤᎵᏃᎯᏴᎯ	-10.8467
▁ᎤᎦᏛᎾᏨᎯ	-10.8467
▁ᏣᎦᏑᎲᎢ	-10.8467
▁ᎠᎪᎲᏍᏔᏅᎯ	-10.8467
▁ᏆᏏᎹ	-10.8467
▁ᏚᏄᎪᏫᏒ	-10.8467
▁ᎢᏥᏁᎫ	-10.8467
▁ᎢᎪᏂᏯ	-10.8467
▁ᏓᏲᏣᏛᏁᎵ	-10.8467
▁ᏕᏥᏂᏴᏎᏍᏗ	-10.8467
▁ᎠᏁᎸᏗᏍᎨᎢ	-10.8467
▁ᏖᎹ	-10.8467
▁ᎬᏲᏎᎭ	-10.8467
▁ᏅᏓᏳᎾᏓᎴᏅᎯ	-10.8467
▁ᏗᎩᏲᎱᏒᎯ	-10.8467
▁ᏧᏃᏚᎯ	-10.8467
▁ᎾᏂᏍᎦᏅᎾ	-10.8467
▁ᏕᎦᏅᏙᎬ	-10.8467
▁ᏱᏥᎪᎵᏰᎣ	-10.8467
▁ᎦᏗᎨᏂ	-10.8467
ᏙᎴᏋ	-10.8467
▁ᎠᏂᎪᏗᏳ	-10.8467
▁ᎾᏃᎯᏳᎲᏍᎬᎾ	-10.8467
▁ᏧᏈᏯ	-10.8467
▁ᏩᎩᎷᏣ	-10.8467
ᎩᏏᏕᎩ	-10.8467
▁ᎬᏩᏕᏱᏛ	-10.8467
▁ᎢᏥᏇᏓᎸ	-10.8467
▁ᏄᎾᏛᏁᎵᏙᎸ	-10.8467
▁ᎤᎦᏃᏮ	-10.8467
▁ᎠᏙᎴᎰᏒᎯ	-10.8467
▁ᏓᏓᏛᏂ	-10.8467
▁ᏳᏲᎱᏒ	-10.8467
▁ᏗᎬᏩᏂᏰᎯ	-10.8467
▁ᏗᏂᏃᎨᏂ	-10.8467
▁ᎦᎶᏣᏗ	-10.8467
▁ᎢᏳᎾᏓᎳ	-10.8467
▁ᏗᏂᏐᎯ	-10.8467
▁ᏁᏆᎸ	-10.8467
▁ᏘᎦᏙᎵ	-10.8467
▁ᎤᏆᏛᎩ	-10.8467
▁ᎤᏴᎵᎴ	-10.8467
▁ᎢᎬᎾᏕᏅ	-10.8468
▁ᏚᏪᎧᏅᎩ	-10.8468
▁ᏫᏥᏲᎵᎦ	-10.8468
▁ᎶᏩᏂ	-10.8468
▁ᎦᎵᏆᏚ	-10.8468
▁ᎠᏂᎱᏣ	-10.8468
▁ᏚᏭᏢᏔᏅᎩ	-10.8468
▁ᎠᏆᏟᏂᎬᏁᎸ	-10.8468
ᏌᎳᏛᎦ	-10.8468
▁ᏧᎾᎪᏅᏍᏓᎵ	-10.8468
▁ᎥᏃᏥ	-10.8468
▁ᏧᏬᏢᏅᎯ	-10.8468
▁ᏗᎦᎾᏌᎢ	-10.8468
▁ᏧᎵᎬᏩᏟ	-10.8468
▁ᎢᏯᏓᏛᏁᎯ	-10.8468
▁ᏓᎩᏯᏪᎦ	-10.8468
▁ᏐᏁᎳ	-10.8468
ᏐᎭᏛ	-10.8469
▁ᏗᏟᏍᏙᏗ	-10.8469
▁ᎭᏛᏓᏍᏓ	-10.8469
▁ᎠᏂᏃᎮᏍᎨ	-10.8469
▁ᎤᎾᏚᎵᏍᎩ	-10.8469
▁ᏗᏣᎴᎲᎦ	-10.8469
▁ᏓᎦᏥᏁᎵ	-10.8469
▁ᎢᏯᏆᎵᏍᏙᏗᏱ	-10.8469
▁ᎪᎢᏳᎲᏍᎦ	-10.8469
▁ᏅᏁᎸᎭ	-10.8469
▁ᏗᎩᏴᏫ	-10.8469
▁ᎦᏥᏯᏁᎳᏅᎯ	-10.8469
▁ᏥᏍᎦᎢᎲ	-10.8469
▁ᏅᏓᏳᏅᏏᏛ	-10.8469
▁ᎱᎷᏣ	-10.8469
▁ᏕᎦᏰᏌᏛ	-10.8469
▁ᎤᎾᏙᎴᎰᎯᏍᏙᏗ	-10.8469
▁Ꮇ	-10.847
▁ᏓᏓᏂᎸᎨᏍᏗ	-10.847
▁ᎡᏥᏲᎵᎸᎭ	-10.847
▁ᎠᎬᏓᎨᏂ	-10.847
▁ᏄᏓᏑᏴᎾ	-10.847
▁ᎤᏃᎯᏳᎯ	-10.847
▁ᏅᏓᏍᏆ	-10.8471
▁ᎠᎾᏓᎭᏲᎯ	-10.8471
▁ᏕᏅᏙᎥ	-10.8471
▁ᏗᏥᎸᏫᏍᏓᏁᎯ	-10.8471
▁ᎠᏂᎡᎼᎵ	-10.8471
▁ᎤᏂᏆᏘᏍᏗ	-10.8471
▁ᎠᏆᏕᎶᎰᏒ	-10.8471
▁ᎢᏥᎨᏴ	-10.8471
▁ᎤᎸᏉᏔᏁ	-10.8472
▁ᎠᏆᏛᏅᎢᏍᏗ	-10.8472
ᏡᏔᏂ	-10.8472
▁ᎢᏧᏖ	-10.8472
▁ᏗᏣᎳᏏ	-10.8472
▁ᏗᎭᎾᏬ	-10.8472
ᏲᎵᏍᏗᏱ	-10.8472
▁ᏬᏤ	-10.8472
▁ᏫᏂᏪᏏ	-10.8472
▁ᏚᏄᏌᏛ	-10.8472
▁ᏗᎦᎪᏙᏗ	-10.8473
▁ᏦᎨᏥ	-10.8473
▁ᎤᏓᏑᏰᏛ	-10.8473
▁ᎯᏍᎪᎵ	-10.8473
▁ᎪᏒᏅ	-10.8473
ᏓᎴᏒ	-10.8474
▁ᏓᏂᏴᎬᎢ	-10.8474
▁ᏣᏓᎸᎩ	-10.8474
▁ᏥᎦᏚᎭ	-10.8474
▁ᏓᏂᏴᎨᏍᏗ	-10.8474
▁ᎤᎧ	-10.8474
▁ᎬᏔᏲᏎᎭ	-10.8474
▁ᎤᏙᎳᏅᏍᏗ	-10.8474
▁ᏓᏂᏄᏙᎬᎢ	-10.8474
▁ᏚᏚᏓᏛᎢ	-10.8474
▁ᎠᏄᏬᎩᎯ	-10.8475
▁ᎠᎨᏯ	-10.8475
▁ᎤᏬᏒᏅ	-10.8475
▁ᎢᏤᏅᏍᏗᏱ	-10.8475
▁ᏚᏕᏲᏁ	-10.8475
▁ᏗᏣᎳᏏᏕᏂ	-10.8475
▁ᎡᏈᎳ	-10.8475
▁ᏓᏥᏁᎵ	-10.8475
▁ᏤᎵᎪ	-10.8475
▁ᏭᎩᎶᏫᏎ	-10.8476
▁ᏭᎳᎩᏒ	-10.8476
▁ᎠᏂᎩᎾ	-10.8476
▁ᏙᎳᏧᎦ	-10.8476
▁ᏚᏬᏁᏔᏅᎩ	-10.8476
▁ᎢᏨᏲᏪᎳᏁᎭ	-10.8476
▁ᏧᏲᎯᏍᏗᏱ	-10.8476
▁ᎤᎵᏦᎯᏛ	-10.8476
▁ᏧᎸᏫᏍᏓᏁᎸᎯ	-10.8476
ᏍᎦᎢᏍᏗ	-10.8476
▁ᏇᎵᏏ	-10.8476
▁ᏅᏛᏛᏁᎵ	-10.8477
▁ᏕᎯᎧᏅ	-10.8477
▁ᎤᏅᏪ	-10.8477
▁ᏗᎦᏁᎲ	-10.8478
▁ᏧᏬᏪᎳᏅ	-10.8478
▁ᏚᏘᏃᎮᎴᎢ	-10.8478
▁ᏫᏄᏪᏎᎢ	-10.8478
▁ᏣᏔᎳᏬᎯᏍᏗ	-10.8478
▁ᎢᏯᏓᏅᏖᏗ	-10.8478
▁ᎬᏯᎵᎡᎵᏤ	-10.8478
▁ᏚᏏᏔᏛ	-10.8479
▁ᎠᏈᎷ	-10.8479
▁ᎠᏌᎳᏙᏗ	-10.8479
ᏂᎴ	-10.8479
▁ᎢᏥᏁᏨ	-10.8479
▁ᏂᏥᏪᏍᎬ	-10.848
▁ᏧᎧᎭᏲ	-10.848
ᏄᏍᏗ	-10.8481
▁ᎧᏁᏍᎬ	-10.8481
▁ᎤᎵᏨᏓᏆᏓ	-10.8481
▁ᏣᏍᏆ	-10.8481
▁ᏓᎧᏁ	-10.8481
▁ᎴᎻᎩ	-10.8481
▁ᎢᏤᎵᎭ	-10.8482
▁ᏧᎾᏁᎳᏅᎯ	-10.8482
▁ᎢᏨᏁᏗ	-10.8482
▁ᎠᏁᏙᎭ	-10.8482
▁ᎠᏆᏓᏅᏖᏛ	-10.8482
▁ᎢᏣᎵᏍᏓᏴᏗᏱ	-10.8482
▁ᏣᏓᏅᏛᎢ	-10.8482
▁ᎠᏆᏛᏁᏗᏱ	-10.8482
▁ᎤᏬᏪᎳᏅᎩ	-10.8482
▁ᎤᏲᎱᏎᎮᏍᏗ	-10.8482
▁ᏑᏓᎵᏧᏈ	-10.8483
▁ᎠᏓᎬᎿ	-10.8483
▁ᎡᏍᎦᏂᏳ	-10.8483
▁ᎠᎦᏙᎵ	-10.8483
-“	-10.8483
▁ᎦᏰᎵᏍᏗ	-10.8483
▁ᎠᏂᏍᎦᏰᎬᏍᏓ	-10.8485
▁ᎠᏂᎦᏘᏯ	-10.8485
▁ᎤᏃᏪᎳᏅ	-10.8485
▁ᎠᏫᏌᏅ	-10.8486
▁ᎠᏤᏍᏙᎩᎯ	-10.8486
▁ᎤᏛᎦᎾ	-10.8486
▁ᎦᎪᎵᏍᏗ	-10.8486
▁ᎠᎺ	-10.8486
▁ᏗᏥᎧᎿᏩᏛᏍᏗᏱ	-10.8486
▁ᏚᏭᎪᏔᏅ	-10.8486
▁ᎤᏬᎳ	-10.8487
▁ᏚᏪᏴ	-10.8487
▁ᎤᏁᏅᏒᎩ	-10.8488
▁ᏓᎾᏠᏱᎲ	-10.8488
▁ᏳᏪᎭ	-10.8488
▁ᎤᏩᏂᎦᎸᎢ	-10.8488
▁ᎤᎾᏄᎪᏥᎸ	-10.8488
▁ᏱᏥᏏᎾ	-10.8489
▁ᎤᏂᎾᎥ	-10.8489
▁ᎤᏍᏆᏂᎪᏔᏁᎢ	-10.8489
▁ᎤᏂᏍᎦᎴᎢ	-10.849
▁ᎠᏋᏔᏅᎯ	-10.849
▁ᎤᏪᏙᎴᎢ	-10.849
▁ᎦᏃᎯᎵᏙ	-10.849
▁ᎢᏳᏩᎬᏗ	-10.849
▁ᎦᎬᏩᏐᏢ	-10.849
▁ᏗᎫᏍᏙᏍᏗᏱ	-10.8491
▁ᎭᏟᏂᎬᏁ	-10.8492
▁ᎢᏣᏛᏁᏗ	-10.8492
▁ᎤᏂᏁᏉᏤ	-10.8493
▁ᎾᏥᏪᏎᎴᎢ	-10.8493
▁ᎢᏳᏪᏍᏗ	-10.8493
▁ᎤᎦᎹ	-10.8493
▁ᎤᏂᏃᎮᏗᏱ	-10.8494
▁ᏧᎾᏛᎾ	-10.8494
ᏥᎤᏍᏕᏎᎸᎾ	-10.8494
▁ᎬᏩᏍᎦᎩ	-10.8495
▁ᏂᏨᏁᎲ	-10.8495
▁ᏱᏅᎦ	-10.8495
▁ᎾᏥᎤᏍᏕᏎᎸᎾ	-10.8495
ᎩᎾᏝᎢ	-10.8496
▁ᏱᏂᎦᎩ	-10.8497
▁ᏗᏥᏁᏟᏴ	-10.8498
▁ᎤᏕᏔᏅᎯ	-10.8498
▁ᎤᏛᏅᏗᎦᎳᏫᎢᏍᏗᏱ	-10.85
ᏩᏛᎲᏍᏗᏱ	-10.85
▁ᎤᎵᏍᎪᎸᏔᏅᎯ	-10.85
ᏁᏉᏣᏘ	-10.85
▁ᏤᏣᎧᏃᏗ	-10.85
▁ᏓᎪ	-10.85
▁ᎤᏂᏚᎲᎢ	-10.8503
▁ᎢᏨᏙᏗᏱ	-10.8504
▁ᎠᎩᎷᏤᎸᎩ	-10.8504
▁ᏥᏄᏍᏛ	-10.8504
▁ᏣᎾᏫᏱ	-10.8504
▁ᎤᎾᏅᏗᏱ	-10.8505
▁ᎢᏥᏁᏗ	-10.8505
▁ᏥᎬᏩ	-10.8505
▁ᎢᏣᏁᎳᏅᎯ	-10.8507
ᎵᏖᎸᏂᏍᏗ	-10.8507
▁ᎤᏂᏰᎸᎯ	-10.8507
▁ᏭᏓᏒᏍᏔᏁ	-10.8508
▁ᏭᏓᎪᎾᏛᏛ	-10.8508
▁ᎦᏁᏥᏱ	-10.8509
▁ᎤᏴᎸᎩ	-10.8509
▁ᎤᏁᏝᏅᎯ	-10.8509
▁ᎤᎦᏔᎲᏎ	-10.851
▁ᏍᎦᏰᎬᏍᏔ	-10.851
▁ᎤᏦᏍᏗ	-10.8511
▁ᎠᏍᏕᎵᏍᎩ	-10.8511
▁ᎱᏂᎷᏤ	-10.8512
▁ᎡᏥᏁᎸᎯ	-10.8512
▁ᎯᏄᎪᎢ	-10.8512
▁ᏚᏃᏁᎴ	-10.8514
▁ᎠᏂᎩᎦᎨ	-10.8514
▁ᎣᎨᏅᏒ	-10.8515
▁ᏗᎪᏩᏛᏗ	-10.8515
▁ᏂᎨᏥᏪᏎᎸ	-10.8515
▁ᏧᎾᏍᏗᎦ	-10.8517
▁ᏩᎦᏛᎢ	-10.8519
▁ᎤᎾᏄᎪᏫᏍᏗᏱ	-10.8521
▁ᎤᎾᏓᏟᏌᏅ	-10.8521
▁ᎤᎩᎵ	-10.8521
▁ᎤᏔᏪᏙᏁᎢ	-10.8522
▁ᎤᏍᏕᎸᏗᏱ	-10.8524
▁ᎠᎳᏑᎶ	-10.8524
▁ᎢᏓᏙᎴᎰᎯᏍᏗ	-10.8525
ᏂᏬᏂᎯᏍᏗ	-10.8525
▁ᎠᎦᏅᎩ	-10.8525
ᏘᏁᏒᎭ	-10.8526
▁ᎤᏅᏙᏗ	-10.8526
▁ᎤᏍᏚᏁ	-10.8528
▁ᏌᎻ	-10.8529
▁ᎠᎩᎪᏩᏛᏗᏱ	-10.8529
▁ᎠᏩᏛᏗ	-10.8529
ᏬᏁᏔᏁ	-10.8531
▁ᏕᎦᎧᎲᎩ	-10.8531
▁ᎠᎾᏗᏍᎬ	-10.8531
▁ᏧᏪᏥᏛᎯ	-10.8532
▁ᎹᎵ	-10.8532
▁ᎢᎾᏏ	-10.8533
▁ᎤᏂᏴᏗ	-10.8533
▁ᎤᏍᎦᏤ	-10.8533
▁ᎤᏬᏢᏁᎢ	-10.8533
▁ᏧᏓᎴᏁᎢ	-10.8535
ᎴᏁᎯ	-10.8537
▁ᎦᏁᎮᎢ	-10.8538
▁ᎤᏍᏓᏩᏗᏙᎯ	-10.854
▁Ꮌ	-10.854
▁ᏓᏥᏂ	-10.854
▁ᏥᏅᎵ	-10.8541
▁ᏓᏍᏛ	-10.8541
ᏎᏗᏱ	-10.8541
▁ᎢᎨᏣᏛᏁᏗ	-10.8542
▁ᎢᏣᎴᏂᏙᎲ	-10.8543
▁ᏕᎠ	-10.8547
▁ᎦᏆᎵ	-10.8548
▁ᎤᎵᏰᏔᏁᎢ	-10.8548
▁ᎠᎩᏃᎮᎸ	-10.8549
▁ᎤᏄᏬᏍᏗ	-10.8549
ᎧᎸ	-10.8552
▁ᎤᏂᎾ	-10.8552
ᏍᏗᏰᏗᎭ	-10.8552
▁ᎤᎾᎴᏅᎲ	-10.8558
▁ᏕᎪᏪᎸᎩ	-10.8559
▁ᏭᏴᎸᎩ	-10.8561
▁ᏂᏣᏛᏁᎲᎢ	-10.8564
▁ᎣᎩᎾᎵᎪ	-10.8566
▁ᏗᎦᎫᏍᏛᏗᏱ	-10.8567
▁ᎤᎶᎨᏒᎢ	-10.8569
▁ᏧᎦ	-10.857
▁ᎠᏫᏒᎯ	-10.8572
▁ᎤᏰᎬ	-10.8572
▁ᎤᏬᏢᏅᎢ	-10.8573
▁ᏭᎷᏤᎴᎢ	-10.8574
▁ᏧᏃᎸ	-10.8574
▁ᏩᎩᎦ	-10.8575
ᏥᏁᎢᏍᏗᎭ	-10.8575
▁ᎤᏍᏓᎦᎸᎢ	-10.8576
▁ᏓᏟᎶᏍᏛᎢ	-10.8576
▁ᎦᎵᎷᎨᏍᏗ	-10.8579
▁ᎠᏇᎵᏒᎩ	-10.8579
ᏕᎪᎢ	-10.8581
▁ᎧᏃᎮᏍᎬᎩ	-10.8581
ill	-10.8582
▁ᏂᏗᎨ	-10.8583
▁ᎯᏴ	-10.8583
▁ᏥᏂᎨᎬᏁ	-10.8584
▁ᏱᏍᏛ	-10.8585
▁ᎤᏬᎭ	-10.8586
▁ᎤᏂᏴᎮᎢ	-10.8589
▁ᎤᏬᏎᎴᎢ	-10.8592
▁ᏦᎨ	-10.8593
▁ᎤᏄᎸ	-10.8595
ᎵᏓᏍᏔᏅ	-10.8598
ᏩᏔ	-10.86
ᏢᏂ	-10.86
▁ᏎᎳᎩ	-10.86
▁ᎦᏲᏟᎨ	-10.8603
ᏕᎶᎰᏌ	-10.8605
▁ᏧᏩᎫᏔᏅᏒᎢ	-10.8605
ᎶᎸᏗ	-10.8605
ᏓᏅᎡᎮᏍᏗ	-10.8608
▁ᎤᎾᏙᎴᎰᏒᎩ	-10.8612
ᎠᎩᏏᏙᎯ	-10.8613
▁ᎭᏕᏬ	-10.8614
▁ᎬᏩᎦ	-10.8615
▁ᎯᏌ	-10.8616
ᏯᏪᎢᏍᏗ	-10.8617
ᏘᏱ	-10.8619
▁ᏣᎧᏛᎢ	-10.862
▁ᏚᏂᎪᎲ	-10.862
▁ᎾᏆᏛᏁᎸᎢ	-10.8621
ᎵᏎᎲ	-10.8621
ᏛᏛᎾ	-10.8624
▁ᎬᏩᎷᏤᎴᎢ	-10.8626
▁ᎡᏙᎲᎩ	-10.8632
▁ᎠᏥᎾ	-10.8636
▁ᎨᏙᎲᎢ	-10.8637
ᎦᎶᎨᏒ	-10.8638
▁ᎠᏂᏁᎬᎢ	-10.8639
▁ᎾᏛᏁᎲᎢ	-10.864
▁ᎦᎵᏦᏙᏗ	-10.8641
▁ᏤᏏ	-10.8642
▁ᎦᏁᎯ	-10.8646
ᎳᏗᏍᎬ	-10.8648
ᏚᎵᏍᎪ	-10.8649
▁ᏏᎦ	-10.8654
▁ᎢᏌ	-10.8656
ᏚᏓᎴᏍᏗᏱ	-10.8657
▁ᏯᎩᏰᎸ	-10.866
▁ᎤᏪᎭ	-10.866
▁ᎾᏛᎦ	-10.866
▁ᎢᏥᎲᎢ	-10.8661
▁ᏓᏫᏒᎢ	-10.8667
▁ᏧᎾᏗᏔᏍᏗ	-10.8668
ᎵᏍᎪᎸᏙᏗ	-10.8671
▁ᎢᏢ	-10.8673
▁ᏣᏍᎦᏅᏨ	-10.8673
▁ᎠᎩᎲ	-10.8678
▁ᎠᎢᏎ	-10.8679
ᏙᎡᏍᏗ	-10.868
▁ᎡᎳᏂᎬᎢ	-10.8682
ᏍᏚᏟᏍᏗ	-10.8683
▁ᎤᏂᎯ	-10.8684
▁ᏚᎷᎬ	-10.8684
ᎩᏳᏍᏈᏛ	-10.8684
▁ᏙᏓᎸᎢ	-10.8689
ha	-10.8693
▁ᎤᏄᏪ	-10.8697
▁ᏕᎨᏒ	-10.8702
▁ᏕᎯᏁᎸ	-10.8706
▁ᏥᎩᎵᏲᎬ	-10.8718
▁ᎤᏚᎸᎲ	-10.8722
▁ᎠᎾᎢᏒᎢ	-10.8723
▁ᎠᎦᎵᏍᎪᎸᏓᏁᎸ	-10.8729
▁ᏁᏣ	-10.8732
▁ᏄᎳ	-10.8733
ᏌᏛᏗ	-10.8734
▁ᏗᏍᎩᎧᏁ	-10.8736
▁ᎤᏁᎳᏅ	-10.8738
ᏱᏆ	-10.8739
ᎵᏍᏗᏍᎩ	-10.874
▁ᏥᎳ	-10.8741
▁ᎠᏣ	-10.8746
ᎧᎾ	-10.8746
▁ᏗᏟ	-10.8746
▁ᎤᏕᎸ	-10.8746
▁ᏓᏓᏁᎸᎢ	-10.8755
▁ᏙᎤ	-10.8756
▁ᏅᎩᏃ	-10.876
▁ᏂᎩ	-10.8761
▁ᎤᎷᏨᎯ	-10.8764
▁ᎡᏏ	-10.8766
ᏴᎮᎢ	-10.8767
▁ᎦᎳᎨᏴᎢ	-10.8767
▁ᏕᎦᏚᎲᎢ	-10.8767
▁ᏂᏣᏛᏁᎸᎢ	-10.8768
ᏌᏛᎥᏍᎩ	-10.8768
ᏫᏍᎩ	-10.877
▁ᏓᏆᏙᎥᎢ	-10.8783
▁ᎢᏥᏍᏆ	-10.8786
ᏓᎴᎾᏍᏗ	-10.8789
ᏬᎭ	-10.879
▁ᎵᏍᏗ	-10.8792
▁ᎩᏓ	-10.8792
▁ᎤᏓᏅᏖᎢ	-10.8794
▁ᎭᏗᏔ	-10.8797
▁ᎤᏃᏢᏅ	-10.8801
▁ᏂᏣᏍᏛ	-10.8804
ᏂᏲᏏᏍᎩ	-10.8809
▁ᎦᎸᏍᏗ	-10.8811
▁ᎬᏩᏛᏛ	-10.8812
ᎵᏦᏩᏛ	-10.882
ᎤᏣ	-10.8839
▁ᏔᎵᏍᎪ	-10.8843
▁ᎠᏍᎩ	-10.8844
▁ᏃᎦ	-10.8844
ᏓᎾᏫᏛᎮ	-10.8845
▁ᏥᏂᎦ	-10.8845
ᏏᎳᏛ	-10.8847
▁ᎤᏓᎨᏳ	-10.8855
▁ᎤᏕᎵ	-10.8856
▁ᎠᏂᏬᏂᏍᎬᎢ	-10.8857
▁ᏣᎬ	-10.8873
▁ᏏᏆᏏ	-10.8875
ᏏᏂ	-10.8883
▁ᏇᎳ	-10.8885
▁ᎠᏑ	-10.8886
ᏙᎴ	-10.8896
▁ᏱᏣᏓᏅᏖ	-10.8898
▁ᎠᎾᏛᎩᏍᎨ	-10.8899
▁ᎠᎵᏍᏓᏴᏗᏱ	-10.8901
▁ᏥᏫ	-10.8903
▁ᎤᏛᎦᏁᎢ	-10.8904
ᏂᏍᏆᏂᎪ	-10.8908
▁ᎢᏆ	-10.891
ᎸᏍᏗᏱ	-10.8915
ᏛᏁᎲᎢ	-10.8919
ᎾᏄᎪᏫᏍᎨᏍᏗ	-10.8926
ᎵᏱᎶᎯᏍᏗ	-10.8929
▁ᎦᏳ	-10.8929
▁ᎠᏏᎾ	-10.8931
ᎵᎭ	-10.8939
▁ᏕᏗ	-10.8946
▁ᏥᏰᎸ	-10.8948
ᎯᏗᏳ	-10.8962
ᏙᎵᎩ	-10.8962
▁ᏂᏚᏓᎴ	-10.8968
▁ᏄᏅᏁ	-10.8977
▁ᏃᏉᏗ	-10.898
▁ᎤᎶᏎ	-10.8981
ᏗᏅᏓ	-10.8991
ᏰᎵᏉ	-10.8991
ᎩᏯ	-10.8991
ᏏᏏ	-10.8991
ᏓᏅᏖᏙᏗ	-10.8994
ᎵᏍᎪᎸᏓᏏ	-10.8996
▁ᎨᏍ	-10.9
ᏯᎡᏍᏗ	-10.9004
ᏝᎡ	-10.9008
▁ᏱᏂᏣᏛᏁ	-10.9017
▁ᏚᏂᎸ	-10.9022
ᏯᏔᏬ	-10.9024
▁ᎢᏥᎷᏤᎸ	-10.903
ᏏᏔᏛ	-10.9031
ᏅᏁᎮᏍᏗ	-10.9033
▁ᎢᏍᏕ	-10.9038
▁ᏳᏰᎸ	-10.9038
▁ᎠᎾᏓᏙᎵᏍᏗᏍᎨ	-10.9038
▁ᏱᏅ	-10.9042
▁ᏥᎦᏔᎲ	-10.9047
ᎦᏍᎪ	-10.9057
ᏟᏂᎬᎬ	-10.9061
ᏍᏗᎭ	-10.907
▁ᎠᏍᏆᏂᎪᏗᏍᎨ	-10.9091
▁ᎢᎸ	-10.911
▁ᏂᎬᏁᎮ	-10.9113
ᎷᏤ	-10.9113
ᎰᎸ	-10.9114
▁ᎤᎩᏒ	-10.9115
▁ᎤᏭᏢ	-10.9133
▁ᎤᏂᎬᏫᏳ	-10.9138
▁ᏍᎩᏰᎸᏗ	-10.9159
▁ᏧᏲᎯᏎᏗ	-10.9164
▁ᏭᏍᏗ	-10.9168
ᏗᎦᏅᎯᏛ	-10.9169
▁ᏍᎩᏳ	-10.9186
▁ᏣᎵᏍᎪᎸᏙᏗ	-10.9188
ᏰᎵᏎ	-10.9189
▁ᎣᏍ	-10.9191
ᏛᏅᎩ	-10.9196
▁ᎡᏙ	-10.9198
▁ᎠᏆᏓ	-10.9203
▁ᏧᏁᏤ	-10.9211
ᏅᏍᏓᏕᎸᎩ	-10.9215
ᎵᏍᏓᏏ	-10.9231
ᎵᏍᎦᏍᏙᏗ	-10.9232
ᏂᎲ	-10.9239
▁ᎢᎡ	-10.9248
ᏁᏤᎸ	-10.9252
▁ᎾᏥ	-10.9252
▁ᎠᏁᎲᎩ	-10.9257
▁ᎾᏛᏁᎰ	-10.9265
ᎾᏗ	-10.9267
▁ᎠᏂᏤ	-10.927
ᏥᎾᏄᎪᏫᏏ	-10.9272
ᏘᏃᎦ	-10.9287
▁ᎤᏍᏆᎸᎯᏗ	-10.9295
▁ᎤᏆ	-10.9296
▁ᏰᎵᎦ	-10.9309
▁ᎠᎪᎢ	-10.9324
ᏤᎴ	-10.9327
▁Ꮢ	-10.933
ᏚᏃᏴᎬ	-10.9338
ᏓᏁᎸᎯ	-10.9338
ᎬᏓ	-10.9345
▁ᎢᏥᎭ	-10.9352
ᏒᎲᏍᏗ	-10.9357
ᏐᏁ	-10.9358
▁ᎪᏢ	-10.9365
▁ᎣᏤ	-10.9366
▁ᎠᏓᏲᏁ	-10.9367
▁ᎢᏗᎦ	-10.9375
ᏐᏗ	-10.9382
▁ᎠᏫᏃ	-10.9393
▁ᏣᏁᎩ	-10.9397
ᎳᏗᏍᏗ	-10.94
▁ᏦᎢᎭ	-10.9416
ᏓᏎᎪᎩ	-10.9419
ᏲᎯᏎᏗᏱ	-10.9425
▁ᎾᏯ	-10.9429
ᏓᏬᎯᎳ	-10.943
ᏙᏂ	-10.9445
ᏍᏗᏍᎨ	-10.945
ᏩᏗᏒᎢ	-10.9455
▁ᏚᏓ	-10.9476
▁ᎤᎵᏏᏅ	-10.9478
▁ᎤᎵᎢ	-10.9487
▁ᏆᎾ	-10.9491
ᏢᏅᎩ	-10.9497
ᎯᎮᏍᏗ	-10.9503
ᎪᎦ	-10.9504
ᎨᎯᏓᏍᏗ	-10.9511
ᎮᎾ	-10.9514
ᎩᎵ	-10.9523
ᎩᎨᏳᎯᏳ	-10.9527
ᏥᎦᏔᎲᎾ	-10.9528
▁ᏫᏱ	-10.9531
ᎪᎩ	-10.9532
ᏍᏇᏚ	-10.9534
ᎲᏍᎨᎢ	-10.9536
ᏓᏁᏗᏱ	-10.9546
▁ᏓᏌ	-10.9549
▁ᎢᏲ	-10.9562
ᎾᏔ	-10.9566
ᎦᏕ	-10.9583
ᎾᏛᎦ	-10.9587
▁ᏙᏣ	-10.9592
ᏤᏗ	-10.9593
ᏌᏕ	-10.9594
ᎵᏓᏍᏗᏱ	-10.9598
ᏴᏔᏁᎢ	-10.9612
ᏍᏕᎾ	-10.9612
▁ᎢᏥᏍᏆᏂᎪ	-10.9625
▁ᎤᏪᏅ	-10.9628
ᎳᎩᏍᏗ	-10.9634
ᏥᎦᏔᎭ	-10.9639
▁ᏰᏣ	-10.964
ᏛᏁᎭ	-10.9641
▁ᏣᏓᏰ	-10.9642
▁ᎠᏂᏉ	-10.9643
▁ᎯᏃ	-10.9649
▁ᎦᏘ	-10.9651
▁ᏂᏚᏅ	-10.9656
▁ᏱᏣᏓ	-10.967
▁ᏓᎾᎵ	-10.9673
ᏰᎸᏍᎬ	-10.9673
ᏦᎯ	-10.9677
ᏁᎰ	-10.968
ᎸᏅᎯ	-10.9682
ᏌᏅ	-10.9691
ᏧᎬ	-10.9694
▁ᎠᎾᏘ	-10.9703
ᏅᏔ	-10.9711
ᏘᏅᏒᎩ	-10.9719
ᏤᎷᎯᏒ	-10.9726
ᏡᎬ	-10.9734
▁ᎠᏏᏴᏫᏉ	-10.9739
ᎩᏏ	-10.9742
ᏛᏁ	-10.9745
▁ᎦᎶᏁᏛᏰᏃ	-10.9748
▁ᏥᏕᏥ	-10.9755
▁ᎬᎾᏬ	-10.976
▁ᏱᏙᎩ	-10.9764
ᏅᏤᎢ	-10.9766
ᎪᎳ	-10.977
▁ᎤᏪᏯ	-10.9777
ᏰᏍᏗ	-10.9784
▁ᏗᏍᏓ	-10.9786
ᎦᏬᏂᎯᏍᏗ	-10.9786
ᏕᏅᎯ	-10.979
ᎵᏍᎪᎸᏙᏗᏱ	-10.9795
ᏬᎢ	-10.9798
ᏛᏂᏏ	-10.9827
ᎦᏎᏍᏕᏍᏗ	-10.9829
ᏍᏗᏉ	-10.9834
ᏬᏣ	-10.9839
ᏎᎮᏍᏗ	-10.9842
ᏍᏆᏂᎩᏗ	-10.9842
ᏑᏫᏓ	-10.9848
ᏂᏴᏛ	-10.9853
▁ᏚᏂᏍᏚ	-10.9855
▁ᎠᏚᎢᏍ	-10.9857
▁ᏂᎦᏪ	-10.986
ᏁᎳᎩ	-10.9879
▁ᎠᎵᏥᏙ	-10.9892
ᏕᎰ	-10.9893
ᎪᏩᏘᏍᎬᎾ	-10.9895
▁ᏥᏅ	-10.9895
ᎧᏯ	-10.99
ᎻᏂ	-10.9912
▁ᎤᏰᎸ	-10.9913
▁ᎩᏂ	-10.9919
▁ᎠᏂᏧᏏᏃ	-10.9923
▁ᏳᏓ	-10.9928
ᏯᏙ	-10.9937
ᏄᎪ	-10.9944
▁ᎤᏩᏗ	-10.9948
▁ᏂᏯ	-10.9952
▁ᎦᎵᏦ	-10.9954
▁ᏥᏍ	-10.9958
ᏙᎭ	-10.9963
ᏍᎦᎳᏁᎸ	-10.9965
ᏤᎦᏈᏃ	-10.9968
ᎦᏅᏓᏗᏍᏙᏗ	-10.9972
ᎪᏎᎭ	-10.9978
ᏥᏁᏤᎸ	-10.998
ᏓᎾ	-10.9983
ᏞᎢ	-10.999
▁ᎠᎦᏓ	-10.9991
▁ᏘᏅ	-11
▁ᎦᎶᏗ	-11.0003
ᏯᏅᏗ	-11.0031
ᎵᏍᏕᎵᏍᎬ	-11.0036
ᏛᏁᎯ	-11.004
▁ᏱᏂᎪ	-11.0041
▁ᏧᏂᏅ	-11.0048
ᏰᎢ	-11.005
▁ᏣᎫ	-11.0057
ᏍᏔᎾ	-11.0059
▁ᏓᏛ	-11.0061
▁ᎠᎩᏁ	-11.0071
▁ᎢᏣᏓᏅᏖ	-11.0086
▁ᏓᏥᏲ	-11.0088
ᎦᏔᏁᎢ	-11.0088
▁ᏚᏂᏁ	-11.0096
▁ᎤᏓᏁ	-11.0096
ᏕᏘᏱ	-11.011
ᏂᎯ	-11.0116
ᏟᏐᏗᏱ	-11.0117
▁ᏂᎤ	-11.0129
ᏲᏍᎬ	-11.0131
ᏖᎢ	-11.0135
ᎦᏔᎮᏍᏗ	-11.0138
▁ᎢᏥᏍᎦᎾ	-11.0148
▁ᎤᏅᏤ	-11.0156
ᏘᏄᎦ	-11.0157
ᏣᏛ	-11.0158
ᏁᏤᏗᏱ	-11.0159
▁ᎢᏗᏣ	-11.0159
ᏎᎮ	-11.0161
ᎪᎾᏛ	-11.0163
▁ᎠᏂᏍᎦᎢᎮ	-11.0165
ᎪᏕᏍᏗ	-11.0176
ᎵᎰ	-11.018
▁ᎤᏂᏩ	-11.0182
▁ᎠᏎᎵ	-11.0185
▁ᏂᏚᏩ	-11.0191
ᏔᏲᏎᎭ	-11.0196
▁ᎠᏂᏍᎦ	-11.0205
ᏁᏤᎲ	-11.0207
▁ᎠᏥᎸᏳ	-11.0207
ᎬᏩᎶᏓᏁ	-11.0208
ᎾᏄᎪᏫᏍᏗᏱ	-11.0223
ᎷᏥ	-11.0231
▁ᏛᏆ	-11.0232
▁ᎯᏥ	-11.0233
▁ᎤᏄ	-11.0236
ᏚᎯ	-11.0236
▁ᎦᏬᏂ	-11.0239
ᏇᏅᎯ	-11.0245
ᏴᏛ	-11.0248
ᏅᏓᏛ	-11.0248
▁ᎠᏲᎱ	-11.0248
▁ᏧᏲ	-11.0251
▁ᏗᏂᏅ	-11.0253
ᎦᏄᎪᏫᏍᎦ	-11.026
ᏄᏬᏍᏗ	-11.0264
▁ᎤᏲᎢᏍᏗ	-11.0265
ᏁᎾ	-11.027
▁ᏕᏍ	-11.0271
▁ᏙᎩᏂ	-11.0277
ᏂᎵ	-11.0282
▁ᎤᏪᎵ	-11.0283
ᏛᏗᏍᎩ	-11.0288
▁ᎤᏁᏙᎸ	-11.0291
▁ᏫᏂ	-11.0295
▁ᎠᏚᏓᎴᏍᏗ	-11.0297
▁ᎤᎾᏣᎢ	-11.0302
▁ᏤᏈᏛ	-11.0303
▁ᏣᏤᏍᏙ	-11.0318
▁ᏱᎬᎩ	-11.0319
▁ᏙᏓᎧ	-11.0332
▁ᏦᎩᏂ	-11.0339
ᎬᎭ	-11.0339
ᎨᎾ	-11.0346
▁ᎦᏬᏂᏍᎨ	-11.0347
ᏯᏗ	-11.0347
ᏍᏆᎳ	-11.035
▁ᎤᏂᏰᎸᏎ	-11.0357
▁ᏥᏨ	-11.0366
▁ᏫᏚᎧᎾᏁ	-11.037
▁ᎦᏍᎩᏓᏍᎬ	-11.037
▁ᎠᏥᏃᏁᎴ	-11.0371
▁ᏙᎩᎸᏫᏍᏓᏁᎲ	-11.0372
▁ᎢᏛᏗᏍᎬ	-11.0375
▁ᎠᎾᏛᎩᏍᎬ	-11.0376
▁ᎠᎾᎵᎮᎵᎬ	-11.0377
▁ᏗᎩᏲ	-11.0381
▁ᎤᏃᎯᏳᏒ	-11.0381
▁ᏕᎤᎷᎬ	-11.0382
▁ᏂᏓᏕᏘᏴᎯᏒ	-11.0383
ᎾᏰᎯᏍᏗ	-11.0383
▁ᎠᏂᎩᎵᏲᎬ	-11.0384
ᏟᏏᏍᎪ	-11.0384
ᏓᏍᏗᏱ	-11.0385
ᎡᏝᏪᎯ	-11.0385
ᎢᏏᎵ	-11.0385
▁ᎤᏒᏂᎴ	-11.0388
▁ᏗᎾᏓᎪᎾᏗᏍᎬ	-11.0388
▁ᎯᏁᎬ	-11.0389
ᎠᎳᏂ	-11.0389
▁ᎠᏂᎧᎸ	-11.039
▁ᎤᏃᎯᏳᏅ	-11.0391
ᎾᏄᎪᏫᏎ	-11.0391
▁ᎤᏁᎷᏁ	-11.0391
ᎠᏍᎦᏯ	-11.0392
▁ᎠᎩᏍᏛᏗᏍᎬ	-11.0393
ᏴᏔᏂᎸ	-11.0394
▁ᎠᎬᏗᏍᎬ	-11.0394
▁ᎠᎾᏕᎲᏍᎬ	-11.0394
▁ᎤᏓᏙᎵᏍᏔᏅ	-11.0397
▁ᎤᏍᏗᏰᏔᏁ	-11.0398
▁ᎤᎾᏓᏙᎵᏍᏔᏅ	-11.0402
▁ᏦᎢᏉ	-11.0404
▁ᎾᏆᎵᏍᏔᏅ	-11.0404
ᏆᎴ	-11.0406
ᏄᏕᏘᏴᎲ	-11.0407
▁ᎪᏙ	-11.0407
▁ᎦᏓᏙᎵᏍᏗᏍᎬ	-11.0409
▁ᎤᏦᎯ	-11.0413
▁ᎠᏇᏅᏒ	-11.0414
▁ᎤᏂᏰᎸᏅ	-11.0416
▁ᏭᏂᎶᏒ	-11.0417
▁ᎤᏪᎧᏅ	-11.0417
▁ᏥᏃᎮᏍᎬ	-11.0419
▁ᏅᏓᎦᎵᏍᏙᏗᏍᎬ	-11.0419
▁ᎠᎾᏓᎪᎾᏗᏍᎬ	-11.0421
ᏈᎳ	-11.0423
▁ᏗᎦᏁᎸ	-11.0424
▁ᎢᏗᏂ	-11.0424
▁ᎠᏉᏪᎳᏅ	-11.0424
▁ᏧᎶᏒ	-11.0424
ᎵᏍᏓᏴᏙᏗ	-11.0426
▁ᏨᏌ	-11.0426
ᏓᏍᏕᎸᏗ	-11.0427
▁ᏅᏗᎦᎵᏍᏙ	-11.0427
▁ᏧᏓᎴᏁ	-11.0429
ᎠᏁᎯ	-11.043
▁ᏭᏓᎪᎾᏛ	-11.043
▁ᎢᏯᏅᏁ	-11.0432
▁ᎤᏙᎯᏳᏁ	-11.0434
▁ᏚᎪ	-11.0434
ᏆᎳ	-11.0435
▁ᏓᎦᏥᏯ	-11.0435
▁ᏧᎾᏛᏐᏅ	-11.0436
▁ᎢᏓᎵᎮᎵ	-11.0437
▁ᏗᎩᎾᏫ	-11.0437
▁ᎢᏳᎵᏍᏔᏂᏓᏍᏗ	-11.044
ᏎᎪᎩᏍᏗ	-11.0441
ᏁᎵᏍᎬᎾ	-11.0441
▁ᏗᎪᏪᎳᏅ	-11.0442
ᏲᎯᎲ	-11.0442
▁ᎨᏥᏛᏙᏗ	-11.0442
ᏥᎾᏝᎥᎾ	-11.0443
▁ᏕᏣᏓᏂᎸᏨ	-11.0444
▁ᏭᏂᎶᎯᏍᏗ	-11.0444
▁ᏂᎦᎵᏍᏔᏅ	-11.0444
▁ᏗᏥᎧᎿᏩᏛᏍᏗ	-11.0445
ᎸᏙᏗ	-11.0445
▁ᏗᏍᏆᏂᎪᏙᏗ	-11.0446
▁ᏣᏍᏆᏂᎪᏙᏗ	-11.0449
▁ᏭᎶᎯᏍᏗ	-11.0453
ᏥᏁᎸᎯ	-11.0453
▁ᏗᎦᎵᏦ	-11.0454
▁ᎢᏳᏟᎶ	-11.0456
▁ᎹᏓ	-11.0456
▁ᎤᏂᏃᎮᏗ	-11.0456
▁ᎤᎵᏂᎩᏗ	-11.0457
▁ᎠᏁᎵ	-11.0458
▁ᏗᏣᎸᏫᏍᏓᏁᏗ	-11.0459
▁ᏩᎾᎢ	-11.0459
▁ᏩᏥᎳ	-11.0459
ᏠᎾᏍᏛᎾ	-11.046
▁ᎪᎵᎬ	-11.0461
ᏁᏔᏁ	-11.0461
ᎰᏢᏅᎭ	-11.0462
es	-11.0463
ᏦᎢ	-11.0464
ᏍᏓᏩᏛᏍᏗᏱ	-11.0465
dinot	-11.0466
▁ᎠᎰᎵᏆᎹ	-11.0466
▁ᎤᎧᏖᏃᎴ	-11.0466
▁ᎤᎬᏩᎳ	-11.0466
▁ᎱᏁᏅᏎ	-11.0466
▁ᎾᎵᏍᏓᏴᎲᏍᎬᎾ	-11.0466
▁ᏂᏥᎪᎸᎾ	-11.0466
▁ᏂᏥᏪᎠ	-11.0466
▁ᏕᏏᎶᏂᎦ	-11.0466
▁ᏗᎦᏃᏣᏝᏍᎩ	-11.0466
▁ᏗᎦᏌᏆᎸ	-11.0466
▁ᏧᎾᏍᏕᏥ	-11.0466
▁ᏧᏂᎳᎾᎢ	-11.0466
▁ᏧᏩᏗᏔᏯ	-11.0466
▁ᏬᎩᎶᏒᎩ	-11.0466
▁ᏭᎩᏨᏅ	-11.0466
▁ᏱᏅᏎᎦᎩ	-11.0466
▁ᎤᏔᎳᏬᏎᎢ	-11.0466
▁ᏂᏣᏛᎿᏕᎨᏍᏗ	-11.0466
▁ᎠᏳᎾᎦ	-11.0466
▁ᎤᏔᎴᎦᏒ	-11.0466
▁ᎤᏕᏯᏔᏁᎴ	-11.0466
▁ᎤᏩᏯᎨᎢ	-11.0466
▁ᏱᏕᏍᎬᏏ	-11.0466
▁ᎤᏓᏥᎾᏍ	-11.0466
▁ᏄᎾᏓᏅᏛᎾ	-11.0466
▁ᏍᎩᏁᎲᏏ	-11.0466
▁ᏗᎦᏩᏒᎩ	-11.0466
▁ᎾᏅᏛᏁᎰ	-11.0466
▁ᏅᏧᎵᏍᏙᏔᏁ	-11.0466
▁ᎠᎩᏍᏓᏩᏕᎨᏍᏗ	-11.0466
▁ᎠᎵᏰᎢᎶᎸᎭ	-11.0466
▁ᎢᏣᏛᏅᎢᏍᏙᎢ	-11.0466
▁ᎣᏍᏓᏓᏤᎵ	-11.0466
▁ᎤᏁᎳᏫᏎᎸ	-11.0466
▁ᎤᏓᏩᏗᏍᏙᏛ	-11.0466
▁ᎨᎢᎾᏂ	-11.0466
▁ᏗᏔᎳᏗᏍᏗᏱ	-11.0466
▁ᏗᏠᏍᎩ	-11.0466
▁ᏥᏂᏥᏪᎭ	-11.0466
▁ᎠᏓᏪᎵᎩᏍᎩ	-11.0466
▁ᏄᎾᏛᎾᏕᎬ	-11.0466
▁ᏫᏂᏨᎦ	-11.0466
▁ᎤᎬᏩᎴ	-11.0466
▁ᏙᏓᎫᎪᏓᏁᎵ	-11.0466
▁ᏅᏓᏣᏓᎴᏅᎯ	-11.0466
▁ᎤᏍᏔᏩᏛ	-11.0466
▁ᏂᎪᎯᏳᎲᏍᎬᎾ	-11.0466
▁ᏗᎫᎪᏓᏁᎯ	-11.0466
▁ᏧᏯᏍᎦ	-11.0466
▁ᎢᎦᏪᏍᎩ	-11.0466
▁ᎥᎨᏒᎩ	-11.0466
ᏁᏉᏣᏖᏍᏗ	-11.0466
▁ᎢᎬᏩᎾᏛᏁᏗ	-11.0466
▁ᎤᎬᏩᎸ	-11.0467
▁ᎤᎵᏘᎾᎥ	-11.0467
▁ᏥᏕᏣᎪᎲᎩ	-11.0467
▁ᏅᏓᏥᏴᏁᎵ	-11.0467
▁ᏴᎦᏥᏛᏓ	-11.0467
▁ᏂᎬᏠᏍᎬᎾ	-11.0467
▁ᎠᎵᏛᏓ	-11.0467
▁ᎠᎨᏲᏅ	-11.0467
▁ᏍᎨᏫ	-11.0467
▁ᏣᏃᎮᎸᎩ	-11.0467
▁ᏱᏂᎦᏛᏁᎭ	-11.0467
▁ᏗᎪᏏᏏᏍᎩ	-11.0467
▁ᏤᎿᎠ	-11.0467
▁ᎥᏓᎷᎶᏗ	-11.0467
▁ᏕᎭᏓᏅᎡᎮᏍᏗ	-11.0467
▁ᏧᎾᎴᏐᏛ	-11.0467
▁ᏗᏂᎧᎿᏩᏕᎩ	-11.0467
▁ᏥᏨᏰᎳᏗᏙᎲᎩ	-11.0467
▁ᎤᏩᏃᏪ	-11.0467
▁ᏥᏚᎸᏫᏍᏓᏁᎭ	-11.0467
▁ᏕᎪᏢᏎᏍᏗ	-11.0467
▁ᏚᏜᏅᏛ	-11.0467
▁ᏂᏕᎤᏍᏕᏍᏗ	-11.0467
▁ᏔᏘᏂᏙᎯ	-11.0467
▁ᏅᏓᎬᏯᏛᏁᎵ	-11.0467
▁ᎤᎾᏗᎦᎴᏲᏨᎯ	-11.0467
▁ᏄᏍᎦᏅᏨᎾ	-11.0467
▁ᏂᎩᏴᏁᎸ	-11.0467
▁ᏕᎯᏁᏤᎮᏍᏗ	-11.0467
▁ᎰᏌᎾ	-11.0467
▁ᎤᎾᎵᏍᏔᏴᏗ	-11.0467
▁ᏂᎨᎵᏍᎬ	-11.0467
▁ᏗᎾᏂᏏᎲᏍᎩ	-11.0467
▁ᏗᏣᏓᎵᎢ	-11.0467
▁ᎠᎾᏛᏁᎵᏍᎩ	-11.0467
▁ᏕᏥᏙᎨᏍᏗ	-11.0467
▁ᏍᎩᏲᎮᏍᏗ	-11.0467
▁ᏗᏥᏲᎱᏒᎯ	-11.0467
▁ᎤᏄᏬᏍᏕᏍᏗ	-11.0467
▁ᏂᏪᏍᎬᎢ	-11.0468
ᏤᏬᎩ	-11.0468
ᎵᏍᎪᎸᏗᏍᎨᏍᏗ	-11.0468
▁ᏂᏑᏪᏎᎴᎢ	-11.0468
▁ᏅᏓᏨᏁᎵ	-11.0468
▁ᏱᏄᏪᏒ	-11.0468
ans	-11.0468
▁ᎤᏂᎾᏰᏎᎢ	-11.0468
▁ᏗᏂᏲᎤᎵ	-11.0468
ᎸᏂᏗᏍᎩ	-11.0468
▁ᎢᏣᎦᏌᏯᏍᏓ	-11.0468
▁ᎤᏩᎾᏕ	-11.0468
▁ᎠᎩᏍᎦᏅᏥᏙᎸᎢ	-11.0468
▁ᎠᎾᏁᎸᏗᏍᎬ	-11.0468
▁ᎢᏳᏩᎦᏘ	-11.0468
▁ᏚᏌᎯᎸ	-11.0468
▁ᏂᏥᏍᎦᎢᎲᎾ	-11.0468
▁ᏚᏓᏂᎸᏨ	-11.0468
▁ᏧᎾᏘᏂᏙᎯ	-11.0468
▁ᏗᏣᏘᏂᏙᎯ	-11.0468
▁ᏂᎦᏪᏍᎪᎢ	-11.0468
▁ᎤᏁᎾᎢ	-11.0468
ay	-11.0468
ᏙᎴᏇ	-11.0468
▁ᎤᏃᏢᏔᏅᎩ	-11.0468
▁ᎨᎵᏌᏕ	-11.0469
▁ᎬᏩᎾᎦᏌᏯᏍᏗᏕᎩ	-11.0469
▁ᎨᎦᎫᏴᏓᏁᏗ	-11.0469
▁ᏙᏛᏛᏔᏂ	-11.0469
▁ᏚᏆᏛ	-11.0469
▁ᏗᎾᏓᎾᏌᎲᏍᎩ	-11.0469
▁ᎤᏛᏒ	-11.0469
▁ᎭᏓᏅᏓᏓ	-11.0469
▁ᏗᏕᏲᎲᏍᎩ	-11.0469
▁ᏧᏔᎾᎶ	-11.0469
▁ᏲᏥᎦᏔᎭ	-11.0469
▁ᎢᏨᏰᎳᏗᏙᎭ	-11.0469
▁ᎢᏣᏓᏅᏟ	-11.0469
▁ᎦᏙᎴᎣᏍ	-11.0469
▁ᏧᎳᏏᏕᏅ	-11.0469
▁ᎠᏂᎶᎻ	-11.0469
▁ᏂᎦᏚᏏᏁ	-11.0469
▁ᎤᏗᏌᏓᏛ	-11.0469
▁ᎠᎵᏍᎦᏁᏛ	-11.0469
▁ᎨᏨ	-11.0469
▁ᎠᏂᏬᏂᏍᎩ	-11.0469
▁ᏂᏤᎲᎾ	-11.0469
▁ᏳᏓᏬᎠ	-11.0469
▁ᎨᏥᏍᎦᎩ	-11.0469
▁ᎠᎩᏬᏂᎯᏍᏗᏱ	-11.0469
▁ᎠᎪᏎ	-11.0469
▁ᎡᎭᎦᏔ	-11.047
▁ᎾᏅᏁᎲ	-11.047
▁ᎨᎦᎵᏍᎪᎸᏓᏁᎸᎯ	-11.047
▁ᏩᎵᏰᎢᎶᎯᎭ	-11.047
▁ᎠᏛᏂᏗᏍᏙᏗ	-11.047
▁ᎢᏥᎪᏩᏘᏍᎨᏍᏗ	-11.047
▁ᏣᏂᎧᎳ	-11.047
▁ᏭᏓᏐᎴ	-11.047
▁ᏂᎦᎾᏰᏍᎬᎾ	-11.047
▁ᎢᏣᏤᎵᎪᎯ	-11.047
▁ᏓᎩᎸᏫᏍᏓᏁᎸ	-11.047
▁ᎢᏰᏨᏁᎸᎯ	-11.0471
▁ᎡᏣᏅᏏᏓᏍᏗ	-11.0471
▁ᎤᏓᏴᏛ	-11.0471
▁ᏧᏚᎪᏔᏅ	-11.0471
▁ᏓᏥᏍᏓᏱᏕᎵ	-11.0471
▁ᏤᏌᏂ	-11.0471
▁ᎤᏮᏙᏗᏱ	-11.0471
▁ᎣᎾᏂ	-11.0471
▁ᏂᏣᏓᏅᏛᎾ	-11.0471
▁ᎤᎾᎵᏏᎾᎯᏍᏗ	-11.0471
▁ᎬᎩᏁᏉᏤᏗᏱ	-11.0471
▁ᏚᏕᏘᏴᏌᏗᏒ	-11.0471
▁ᏂᏍᎦᏅᎾ	-11.0471
▁ᏂᏣᏛᏁᎭ	-11.0471
ᏓᏬᏅᏛ	-11.0471
▁ᏣᏃᏍᎩᏒᎩ	-11.0471
▁ᏓᎾᏤᎸ	-11.0471
▁ᏯᏆᏚᎵᏍᎨ	-11.0471
▁ᎤᏬᏯᏁᏒ	-11.0472
▁ᏕᎬᏆ	-11.0472
▁ᏗᎧᎿᏩᏕᎩ	-11.0472
▁ᎠᏇᏲᏅ	-11.0472
▁ᎣᏩᏒ	-11.0472
▁ᎤᏯᏖᎾ	-11.0472
▁ᎤᏔᏂᏗᎨ	-11.0472
▁ᏭᎪᎮ	-11.0473
▁ᎠᎩᏍᏕᎵᏍᎩ	-11.0473
▁ᏗᏂᎴᏂ	-11.0473
▁ᏗᎩᏲᎯᏍᏗᏱ	-11.0473
▁ᎤᏂᎬᎥᏍᎬ	-11.0473
▁ᏣᏓᏴᎳᏔᏍ	-11.0473
▁ᏭᏂᎷᏣ	-11.0473
▁ᎠᎱᎵ	-11.0473
▁ᏧᏂᏴᏍᏕᏍᎩ	-11.0473
▁ᏕᎤᏙᏍᏛ	-11.0473
▁ᎢᏥᏩᏛᏗᏱ	-11.0473
▁ᎤᎾᏕᏘᏱ	-11.0473
▁ᎬᏩᏃᎮᏍᎩ	-11.0473
▁ᏙᏓᏰ	-11.0473
▁ᎡᏥᎾᏰᏍᎨᏍᏗ	-11.0473
▁ᏣᎢᏎᏍᏗ	-11.0474
▁ᎡᏤᎾ	-11.0474
▁ᏛᏓᎴᎲᏍᎬᎩ	-11.0474
▁ᎤᏂᏃᏁᏗᏱ	-11.0474
▁ᏁᎳᏚ	-11.0474
▁ᏱᏙᎨᏥ	-11.0474
▁ᏚᎿᏍᏕᏢ	-11.0474
▁ᏗᎦᏟᏓ	-11.0474
▁ᏚᏅᏍᏓᏕᎴ	-11.0474
▁ᏗᏣᎦᏴᎵᎨ	-11.0474
▁ᎠᎩᏃᎮᏍᎩ	-11.0475
ᏨᏁᏗ	-11.0475
▁ᏗᏆᎵᎢ	-11.0475
▁ᏫᏥᎦᏘ	-11.0475
▁ᎠᎾᏛᎬᎦ	-11.0475
ᎦᏘᎴᏅ	-11.0475
▁ᎤᏍᏗᎩᏳ	-11.0475
▁ᎪᏢᏍᎩ	-11.0475
ᎾᏌᎾᎩ	-11.0475
▁ᎢᏏᎦ	-11.0475
▁ᏍᎩᏅᏏᏓᏍᏗ	-11.0475
▁ᏗᏲᏍᏙᏗ	-11.0475
ᏂᎬᎬ	-11.0476
▁ᏏᏐᎢ	-11.0476
▁ᎡᎿᎢ	-11.0476
▁ᏥᏄᎵᏍᏔᏅ	-11.0476
▁ᎢᏥᎷᎩ	-11.0476
▁ᎢᏨᏃᏁᎭ	-11.0476
▁ᏗᎧᏃᎨᏂ	-11.0477
▁ᏣᏃᏎᎰᎢ	-11.0477
▁ᎦᏟᎲ	-11.0477
▁ᎡᏥᏍᏕᎸᏗᏱ	-11.0477
▁ᏭᏴᎮ	-11.0477
▁ᏲᏨᏗᏍᎨ	-11.0477
▁ᎢᏥᎬᏫᏳᎯ	-11.0477
▁ᎤᏂᎸ	-11.0477
▁ᎠᎵᏥᏙᎲᏍᎬ	-11.0477
▁ᎠᏥᎸᎨᎳᏍᏗ	-11.0477
▁ᎤᏂᏂᏴᏗᏱ	-11.0478
▁ᏂᎦᎡᏍᏗ	-11.0478
▁ᎪᏱᏅᏍᏗ	-11.0478
▁ᏂᏨᏴᏁᎭ	-11.0478
▁ᏗᏨᏲᎯᏎᏗᏱ	-11.0478
▁ᏓᎪᏄᎸ	-11.0478
▁ᎡᏚᏥ	-11.0478
▁ᎤᎾᏙᎴᎰᎯᏍᏗᏱ	-11.0478
▁ᎤᏛᏓᏍᏓᏁᎴ	-11.0478
▁ᎬᏁᏤᎭ	-11.0478
▁ᎠᏂᎦᏲᎵᏳ	-11.0478
▁ᎢᏥᎦᏔᎲ	-11.0479
▁ᏧᏬᎳ	-11.0479
▁ᎠᎩᏰᎸᎰ	-11.0479
ᎵᏛᏓᏁ	-11.0479
▁ᎤᏛᎪᏗ	-11.0479
▁ᏗᏑᏱ	-11.0479
▁ᏚᎵᏍᏚᎢᏎᎢ	-11.048
▁ᎢᏥᎦᏴᎵᎨ	-11.048
▁ᎦᏓᎷᎪᏗ	-11.048
▁ᎬᎥᏏ	-11.048
▁ᏚᎸᏫᏍᏓᏁᎮᏍᏗ	-11.048
▁ᎤᎵᏖᎸᏅᎩ	-11.048
▁ᏓᏦᎯᏍᏛ	-11.048
▁ᎬᏩᏔᏲᏎᎸᎩ	-11.0481
▁ᎠᏴᏓᏆᎶᏍᎩ	-11.0481
▁ᏚᏘᏅᏒᎩ	-11.0482
▁ᏭᏅᏥᎴ	-11.0482
▁ᏍᎩᎷᏥᏏ	-11.0482
▁ᎡᏣᎫᏴᎡᏗ	-11.0482
▁ᏧᏕᏲᏅᎯ	-11.0482
▁ᏗᏙᎴᏆᏍᏗ	-11.0482
▁ᏗᏣᏄᏬ	-11.0483
▁ᏍᏋ	-11.0483
▁ᎦᎶᏐᏅᎭ	-11.0483
▁ᎠᎾᏗᏍᎪ	-11.0483
▁ᎤᎾᏤ	-11.0483
▁ᏣᎾᎥᎢ	-11.0483
▁ᏂᎦᏥᏴᏁᎸᎭ	-11.0483
▁ᏓᎬᎩᎵ	-11.0483
▁ᎢᏥᎪᏩᏘᎭ	-11.0484
▁ᏗᎵᏒᏍᏗ	-11.0484
▁ᎣᏓᎵ	-11.0484
▁ᏭᏃᏁᎸᎩ	-11.0485
▁ᏍᎩᎥᏏ	-11.0485
▁ᏧᎪᎸ	-11.0485
▁ᏗᎦᏘᎴᎩ	-11.0485
▁ᏥᏂᎦᎵᏍᏗᎭ	-11.0485
▁ᏩᏍᏘ	-11.0486
▁ᏫᎨᏥᏯᏅᏛ	-11.0486
▁ᏗᎦᎳᏫᎩ	-11.0486
▁ᏗᏂᏢᏗᏱ	-11.0486
▁ᏧᏂᏲᎱᎯᏍᏗᏱ	-11.0486
▁ᏅᎩᏦᏁ	-11.0487
▁ᎯᎰᎵ	-11.0487
▁ᏂᎨᏳᏎᏍᏗ	-11.0487
▁ᎠᏂᏍᏓᏩᏕᎩ	-11.0487
▁ᎤᎾᎵᏃᎮᎴ	-11.0488
▁ᎦᏂᎳ	-11.0488
ᏰᎸᏍᎦ	-11.0488
▁ᎠᏛᎩᏍᎨᏍᏗ	-11.0488
▁ᎾᏂᏪᏍᎨᏍᏗ	-11.0488
▁ᎤᎾᏓᏓᏍᎩ	-11.0489
▁ᎦᎸᏉᏗᏍᎨ	-11.0489
▁ᎨᏥᏯᏅᏛ	-11.0489
ᏃᎯᏎᎲ	-11.0489
▁ᎤᎵᏃᎮᏔᏅᎢ	-11.0489
▁ᎠᎾᏓᏙᎵᏍᏗᏍᎬ	-11.049
▁ᏕᎦᏅᏌᏛ	-11.049
▁ᏄᎾᎵᏍᏔᏅ	-11.0491
▁ᎠᎩᏠᏫᏍ	-11.0491
▁ᏅᎦ	-11.0491
▁ᏥᏤᎭ	-11.0492
▁ᎤᏂᎨᏳᎯ	-11.0492
▁ᏗᏆᏓᏅᏛ	-11.0492
▁ᎡᏦᎢᏳᏒ	-11.0492
▁Ꮰ	-11.0492
▁ᎢᏥᏔᏲ	-11.0493
▁ᎠᏓᏙᎵᏍᏓᏁᎯ	-11.0493
▁ᎤᎧᎵᏨ	-11.0493
▁ᏄᎵᏂᎬᎬ	-11.0494
▁ᏄᎾᏓᎴ	-11.0494
ᏨᎭ	-11.0494
▁ᎢᎨᏎᎢ	-11.0495
▁ᏫᏚᏂᏯᏅᎲ	-11.0496
ᏓᎸᏛ	-11.0496
▁ᎤᏍᏓᏲᏒ	-11.0496
ᏢᏔᏂ	-11.0497
▁ᏓᏰᏏ	-11.0497
▁ᎠᏩᎾᎦᎳᎯᏳ	-11.0497
▁ᎤᎾᏓᏅᏒᎩ	-11.0498
▁ᎾᏅᏁᎭ	-11.0498
▁ᎢᏥᎷᏤᏗᏱ	-11.0499
▁ᏰᎵᎦᏯ	-11.0499
ᎷᎬ	-11.0499
▁ᏄᏩᏂᏌᏅ	-11.0499
ᏒᎾᏔᏅ	-11.05
▁ᏣᏰᎯ	-11.05
▁ᏕᎾᏓᎪᎲᏳ	-11.05
▁ᏭᏂᏴᎸᎩ	-11.0501
▁ᎯᏍᎩᏍᎪᎯ	-11.0501
▁ᏗᎦᏚᎲᏍᎩ	-11.0501
▁ᎠᎪᏩᏘᏍᎬ	-11.0501
▁ᎠᏂᎷᎩ	-11.0502
▁ᎤᏕᎰᎯᏍᏗᏳ	-11.0502
▁ᎢᏯᏅᏁᎯ	-11.0502
▁ᏣᏓᏅᏖᏍᏗ	-11.0503
▁ᎡᏈ	-11.0504
▁ᎯᎷᎦ	-11.0504
▁ᏯᏃᏉ	-11.0505
▁ᏥᏍᎦᏅᏤᎸ	-11.0505
▁ᏣᏚᎵᏍᎪ	-11.0505
▁ᎤᏁᏙᎸᎯ	-11.0505
▁ᎬᏩᎪᎮᎢ	-11.0506
▁ᎦᏓᎥ	-11.0506
ᏚᎸᏅᎥᏍᎬ	-11.0506
▁ᎿᏛᏁᎲ	-11.0506
▁ᎤᏍᏉᎵᏱ	-11.0507
ᏂᏃᏁᎴ	-11.0508
▁ᎤᏓᏔᏅ	-11.0508
▁ᎤᏓᏅᏍᏗᏱ	-11.0509
▁ᎣᏤᎯ	-11.0509
▁ᏚᎾᎴᏅᎩ	-11.0509
ᏅᏓᏛᎩ	-11.051
▁ᎾᎦᎸᎳᏗ	-11.051
▁ᎠᎦᏛᏅᎯ	-11.0511
▁ᏓᎩᏏᎳᏛᎢ	-11.0512
ᎣᏏᏉ	-11.0512
▁ᏕᏣᎸᏫᏍᏓᏁᎲᎢ	-11.0512
▁ᏚᏬᏢᏁᎢ	-11.0512
▁ᎤᎾᎵᏎᎢ	-11.0512
▁ᏧᏑᏰᏛ	-11.0512
▁ᎢᎦᎵᏍᏕᎸᏙᏗ	-11.0513
▁ᏗᎬᏔᏅᎯ	-11.0514
▁ᎤᎳᏏᏕᏂ	-11.0514
▁ᎢᎨᏨᏁᏗ	-11.0514
▁ᏚᏂᎧᏁᎢ	-11.0515
▁ᎪᎵᏍᏗᏱ	-11.0515
▁ᎾᏆᏍᏗ	-11.0516
ᎹᏂ	-11.0516
▁ᎤᏓᏅᏍᏗ	-11.0517
▁ᎠᏇᎷᏅ	-11.0519
▁ᎠᏯᏫᏍᎩ	-11.0519
▁ᎤᏂᎦᎸ	-11.0521
▁ᏓᏰᏂ	-11.0521
▁ᏦᏍᏛ	-11.0522
▁ᎠᏂᏍᏆᏂᎪᏗᏍᎩ	-11.0522
▁ᎤᎸᏁᎢ	-11.0523
▁ᏦᎴᏍᏗ	-11.0523
▁ᎠᏇᏅᏒᎩ	-11.0523
▁ᏱᏍᏆ	-11.0523
▁ᏧᏁᎶᏗ	-11.0523
▁ᏴᎨᏨ	-11.0524
▁ᏂᏚᏂᏪᏎᎴᎢ	-11.0524
▁ᎤᏂᏰᎸᎭ	-11.0524
ᎿᎷᏒ	-11.0525
▁ᏪᎯ	-11.0527
▁ᎤᎵᏍᏙᏔᏅ	-11.0528
▁ᏕᎤᎸᏫᏍᏓᏁᎲᎢ	-11.053
▁ᎲᏅᎢ	-11.053
▁ᏚᏂᎸᏫᏍᏓᏁᎮ	-11.053
▁ᏓᎾᎵᏍᏓᏴᎲᏍᎬᎢ	-11.053
▁ᏄᎵᏍᏓᏁᎸᎢ	-11.0531
▁ᏓᏘᏁᎲᎢ	-11.0531
▁ᎤᎫᏴᎡᏗ	-11.0531
▁ᎦᏰᏥᏐᏢ	-11.0531
▁ᎠᏓᎴᏒᎢ	-11.0531
▁ᏪᏙᎮ	-11.0531
▁ᏚᏓᏘᎿᎥᎢ	-11.0532
▁ᎤᏁᏓᏍᏗᏱ	-11.0532
▁ᎠᎧᏘ	-11.0532
▁ᎤᏓᏅᎡᎴᎢ	-11.0532
▁ᎨᎳᏍᏙᏗ	-11.0533
▁ᏕᎦᏬᏁᏗᏍᎬᎩ	-11.0533
▁ᎤᏁᎷᎬᎩ	-11.0534
▁ᎠᏓᏁᏣᏍᏚᎶᎩ	-11.0535
▁ᎠᏰᎸᏒᎩ	-11.0536
ᏛᏗᏍᎪᎢ	-11.0536
ᎧᎵᎢᏍᏗᏱ	-11.0537
▁ᎤᏚᎵᎭ	-11.0537
ᎦᏂᏌᎲ	-11.0538
▁ᏚᏪᎧᎲ	-11.0539
▁ᎤᏬᎯᏳᏅᎩ	-11.0539
▁ᎤᏂᏁᎢᏍᏔᏅ	-11.054
ᎦᏌᎴ	-11.054
▁ᏧᎧ	-11.0542
ᏁᏅᏍᏗᏱ	-11.0543
▁ᏓᎻ	-11.0543
▁ᎨᏍᏓ	-11.0544
ᏰᏲᎲᏍᎩ	-11.0546
ᏃᎯᏎᏗ	-11.0548
▁ᏗᏍᏓᏱ	-11.0548
▁ᎠᏂᏍᎦᎢᎮᎢ	-11.055
▁ᏚᎾᏄᎪᏫᏎᎸ	-11.055
ᏆᏠ	-11.0551
▁ᎠᏁᎵᏍᎪ	-11.0553
▁ᎤᎵᎮᎵᏨᎯ	-11.0554
ᏠᎯᏍᏓ	-11.0555
▁ᏥᏯᎥᎢ	-11.0555
ᎨᏳᏅᎾ	-11.0556
▁ᏑᏟᎶᏛᏉ	-11.0556
▁ᎡᎶᏗᏏ	-11.0557
ᏣᏉᎯ	-11.0557
▁ᏚᏂᏍᏘᏰᎬ	-11.0559
ᏙᏱ	-11.0559
▁ᏂᏓᏛᏁᎲ	-11.0559
▁ᏥᎪᎥᎩ	-11.0562
▁ᏄᏕᏘᏴᎲ	-11.0564
▁ᏕᏨᏅ	-11.0564
▁ᏧᎴᎯᏐᏗ	-11.0565
▁ᎤᏒᏂᎴᎢ	-11.0566
ᎴᏂᏓᏍᏗ	-11.0567
▁ᎤᏃᏛ	-11.0568
▁ᏌᎾ	-11.0569
▁ᎤᏂᏂᏴᎮ	-11.057
▁ᎠᎾᏗᏍᎬᎢ	-11.057
▁ᏁᏨᏁᎸ	-11.0572
▁ᏚᏂᏏᏂᏙᎸ	-11.0572
▁ᎤᎾᏄᎪᏫᏏ	-11.0572
▁ᎦᏓᏍᎬ	-11.0572
▁ᏂᏕᏨᏁᎸ	-11.0573
▁ᏦᏨ	-11.0574
▁ᏚᏯᏪ	-11.0575
▁ᎨᏥᏚᎢᏍᏓᏁᎸ	-11.0579
ᏳᏓᎴᏏ	-11.0581
ᏓᏂᎧᎿᏩᏕ	-11.0582
▁ᏅᏔ	-11.0583
▁ᏧᏂᏲ	-11.0585
ᏓᏙᎵᏍᏔᏂ	-11.0585
▁ᎤᏪᏴᎢ	-11.0585
▁ᎤᏰᎸᏅᎩ	-11.0586
▁ᎵᏳ	-11.0586
ᏙᎥᎯᏍᏗ	-11.0589
ᏗᎦᎵᏍᏙᏗ	-11.0589
▁ᎢᏍᎩ	-11.059
▁ᎤᎾᏄᎪᏫᏎᎴᎢ	-11.0592
▁ᎠᎴᏂᏍᎬ	-11.0595
▁ᎠᏁᎵᏍᎬᎩ	-11.0595
ᏁᎩᏎᎢ	-11.0597
ᎦᏁᎳᏅᎯ	-11.0598
▁ᏂᎨᏎᎢ	-11.06
ᏲᎵᎸ	-11.06
▁ᎡᎵᏍᎬᎢ	-11.0601
ᏓᏁᎲ	-11.0602
▁ᏓᏂᎧᏅᎢ	-11.0602
▁ᎤᏂᏅᏅ	-11.0602
▁ᎠᏂᏙᎾᎡᎢ	-11.0602
▁ᏓᏂᎳᏫᎥᎢ	-11.0603
▁ᏂᏚᏪᏎᎸᎢ	-11.0603
▁ᎢᏣᏕᎶᏆ	-11.0603
▁ᎾᏋ	-11.0604
▁ᏄᏛᏁᎸᎾ	-11.0606
ᏙᎲ	-11.0607
▁ᎤᏛᎦ	-11.061
▁ᎤᎩᏎ	-11.0612
▁ᏭᏂᏴᎮ	-11.0615
▁ᎡᎳᏪᏉ	-11.0617
▁ᏣᎩᏍᏗ	-11.0618
▁ᏗᎦᏙᏗ	-11.062
▁ᏚᏲᎯᏎᎴ	-11.0625
▁ᏧᏬᎸᎢ	-11.0626
▁ᎠᎦᏔᎯ	-11.0628
▁ᎾᏉᎯᏳ	-11.0629
▁ᎯᎩ	-11.0629
ᎦᏙᎥᏒᎯ	-11.0633
▁ᏥᏕᎭ	-11.0633
▁ᏥᏰ	-11.0634
▁ᏄᎵᏍᏔᏁᎴ	-11.0634
▁ᏣᎪᏩᏘᏍᎪ	-11.0635
ᎳᏅᏛ	-11.0636
ᏍᏕᎸ	-11.0637
▁ᏄᏂᏪᏎᎸ	-11.0638
ᏪᎳ	-11.0639
ᏂᎷᏥ	-11.064
▁ᎠᏚᎢᏍᏛᎢ	-11.064
▁ᎤᏕᏗ	-11.0644
▁ᏟᏗ	-11.0644
▁ᎤᏍ	-11.0651
▁ᏩᎾᎢᏒ	-11.0651
▁ᎤᏂᏲᎭ	-11.0654
▁ᎤᎾᏓᏅᏖ	-11.0656
ᎦᏍᎦᏂᏗᏢ	-11.0658
▁ᏗᎦᏘᏯ	-11.0661
▁ᎠᎾᎵᏥᏙᎲᏍ	-11.0661
▁ᎦᏁᎲᎩ	-11.0662
▁ᏫᏯ	-11.0662
▁ᎤᏢᏗ	-11.0663
▁ᎠᏂᏙᎾᎥᎩ	-11.0665
▁ᎣᎦᎵᎪ	-11.0666
ᏓᎴᏅᎯ	-11.0671
▁ᏚᏅᏎᎢ	-11.0672
▁ᏣᏉᎩ	-11.0673
ᎯᏉ	-11.0675
ᏔᎳᏬᎯᏍᏗ	-11.0675
▁ᏱᏗᏓ	-11.0676
▁ᏚᎾᎵ	-11.0676
ᏗᏔᎯ	-11.0677
▁ᏄᎾᏛᏁᎸᎢ	-11.0678
ᏲᎦᏛᏅ	-11.0683
▁ᏪᏥ	-11.0683
▁ᎤᏩᎨᏫᏎ	-11.0683
ᏅᏓᏗᏍᎬ	-11.0686
▁ᎠᎩᏍᎨᏍᏗ	-11.0687
▁ᎧᏃᎮᏍᎬᎢ	-11.0688
ᏚᎪᏓᏁᏗ	-11.0689
▁ᎠᏍᏆᎸ	-11.0694
▁ᎦᏅᎬᎢ	-11.0698
▁ᎬᏩᎷᏤᎮ	-11.0698
▁ᎠᏂᎵ	-11.0701
▁ᎢᏧᏓᎴ	-11.0703
ᏃᎮᎮᎸ	-11.0705
▁ᎤᏂᏄᎪᏨᏃ	-11.0707
▁ᏇᎵ	-11.0715
▁ᎠᏗᏍᎨ	-11.0716
▁ᎤᎶᏗ	-11.0719
ᏅᎡᎵ	-11.072
ᎦᏍᏙᏗ	-11.0721
▁ᎧᏁ	-11.0724
▁ᎤᏅᏏᏛ	-11.0724
ᏤᎯ	-11.0725
ᏁᎵᏍᎬ	-11.0726
▁ᏱᏙᎨ	-11.0727
ᏥᏄᎪᏫᏍᏗ	-11.0728
▁ᎤᎷᏤᎸ	-11.0728
▁ᎤᏪᎷᎬ	-11.0729
ᏅᏗᏍᎪ	-11.073
▁ᎢᏥᏍᎦᏅᏨ	-11.0732
ᏍᏓᏁᎸᎯ	-11.0737
▁ᎤᏃᎸ	-11.0738
▁ᏮᏓᏲ	-11.0739
▁ᎤᏃᏢᏗ	-11.0741
ᏆᏓ	-11.0742
▁ᎤᏁᎵᏍᏗ	-11.0748
▁ᏨᏍᎩᏃᎢ	-11.0749
▁ᏱᏗᏗ	-11.0749
▁ᎠᏆᎧᏛᎢ	-11.075
▁ᎤᏪᎯ	-11.0752
▁ᎤᏂᏣᏖᏰᏃ	-11.0753
▁ᏯᏛ	-11.0755
▁ᎤᏰᏤᎢ	-11.0757
ᏣᏘᏃᎵ	-11.0757
▁ᏥᎦᎶ	-11.0757
▁ᏫᏓᎦ	-11.0758
▁ᎦᏁᎲᎢ	-11.0766
ᏓᏅᎯᏓ	-11.0768
▁ᎠᏰᏙᎳᏛᎢ	-11.077
▁ᏚᎴᏅᎩ	-11.077
ᏥᎶᏍᏔᏅ	-11.0774
ᎩᎪᏩᏛᏗᏱ	-11.0775
▁ᎤᏁᏅᏎᎢ	-11.0775
ᏴᏍᏗᏱ	-11.0784
ᏣᏛᏂᏏ	-11.0785
▁ᎦᎶᏍᎬ	-11.0793
▁ᎢᏨᏴ	-11.0793
▁ᎤᏬᎯᏳᏁ	-11.0794
ᎴᏫᏍᏔᎾ	-11.0796
▁ᏗᎵ	-11.0801
▁ᏗᏦᎸ	-11.0806
▁ᏧᎳ	-11.0806
ᏅᎢᏍᏗᏱ	-11.0807
ᏛᏅᎢᏍᏕ	-11.0808
▁ᎤᏴᏍᏗᏱ	-11.0809
▁ᎦᏬᏂᏍᎬᎩ	-11.0809
ᎵᏂᎩᏛ	-11.0809
ᎷᏤᎸᎩ	-11.0809
▁ᎢᏣᎵ	-11.0811
▁ᏓᏯ	-11.0816
▁ᎤᏁᏤᎸᎯ	-11.0822
▁ᎤᎯᏍᏗᏱ	-11.0823
▁ᏧᏪᏅᏒᎢ	-11.0823
▁ᎤᏃᏴᎬᎢ	-11.0825
▁ᎤᏂᎲᎢ	-11.0829
▁ᏳᏂᏰᎸ	-11.0829
▁ᏕᎨᎦᎸ	-11.0834
▁ᏕᎦᏁᎲ	-11.0836
ᏛᏃ	-11.0838
ᏯᎩᏍᏗ	-11.0841
▁ᏚᏭᏢ	-11.0842
▁ᏳᎳ	-11.0844
▁ᎤᏕᏅᎢ	-11.0845
▁ᎦᎪᎨ	-11.0867
▁ᎢᎩᏴᏁᏗ	-11.0874
▁ᎠᎦᏛᏅ	-11.0877
▁ᎤᏃᏢ	-11.0877
▁ᎢᎦᏛᏍᎩᏂ	-11.0879
▁ᎢᏳᎾᎵᏍᏔᏅ	-11.0879
▁ᏚᎧᎿᏅᏃ	-11.0879
▁ᏗᏓᎴᏂᏍᎬᎢ	-11.088
▁ᏗᎦᎦ	-11.0884
▁ᎠᎢᏒᏃ	-11.0887
ᏒᏍᏗ	-11.0892
ᎵᏂᎩᏗᏳ	-11.0894
▁ᎨᏥᏁᏤᎸ	-11.0902
ᏍᎦᎳᏁ	-11.0904
▁ᎦᏅᎦ	-11.0904
▁ᏩᏥ	-11.091
▁ᏕᎨᎦᏛ	-11.0911
▁ᎢᏨᏯᎵᏥᏙᏁᎸ	-11.0919
▁ᎨᏆ	-11.0931
ᎠᏤ	-11.0932
▁ᏚᏂᎩᏒ	-11.0934
▁ᎤᏕᏘᏴᏌᏗᏒᎢ	-11.0935
▁ᏕᎤᏙᎥᎢ	-11.0936
▁ᎤᏂᏣᏘᏰᏃ	-11.0943
▁ᎮᎵᏍᎬ	-11.0953
ᏴᎮ	-11.0962
▁ᎤᎾᏓᏅᏛ	-11.0966
▁ᎨᎥ	-11.0966
ᎧᏔᎭ	-11.097
▁ᏏᎻᏯᏂᏃ	-11.0971
▁ᎣᏂᎦ	-11.0971
ᏨᎢ	-11.0974
ᏴᏙᏗᏱ	-11.0975
▁ᎤᏙᏢᏒ	-11.0975
ᏌᎥ	-11.0977
▁ᎤᏂᏁᏨᏃ	-11.0979
ᏚᎧᎾᏅ	-11.0982
▁ᎤᏲᎯ	-11.0982
ᏴᎯᎮᏍᏗ	-11.0989
ᎳᏅ	-11.0994
ᏓᏛᏁᎮᏍᏗ	-11.0997
ᏥᏯᏅᏗ	-11.1
▁ᏗᏍᏛ	-11.1002
ᏳᏩᏅ	-11.1008
▁ᎤᎾᏓᏃᏴᎵᏍ	-11.1008
ᎦᏖᏃᎲ	-11.1016
ᏟᎶ	-11.102
ᏏᎸ	-11.1029
ᎸᏎ	-11.1029
▁ᎤᏚᎵ	-11.103
ᏥᏐᏅᏅ	-11.1034
▁ᎠᏆᏓᏅᏖᎸ	-11.1036
ᎪᎲᎩ	-11.1049
▁ᏗᎦᎸᏫᏍᏓᏁᏗᏱ	-11.1052
▁ᏱᏚᎾ	-11.1062
ᏲᎯᏎᎸᎯ	-11.1064
ᏴᎢ	-11.1066
▁ᏓᏕᏲᎲᏍᎨ	-11.1066
▁ᎤᏲᎱᏒᎩ	-11.1077
ᏁᏟᏴᏛ	-11.108
ᏥᏍᎦᏨᎯ	-11.1088
▁ᎤᏁᏗ	-11.1101
▁ᎢᎩᏛ	-11.1107
ᏍᏛᎩ	-11.1107
▁ᎢᏳᏓᎵ	-11.1114
ᎪᏩᏘᏍᎪ	-11.112
ᎰᏅ	-11.1125
▁ᎤᏃᎮᏗ	-11.1125
ᏣᎾᏄᎪᏫᏎᎸ	-11.1129
ᏕᎭ	-11.1129
ᏣᏓᏙᎵᏍᏗ	-11.1131
▁ᎦᏅᎢ	-11.1137
▁ᎠᎩᏢ	-11.1139
▁ᏥᏩ	-11.1142
ᏤᎮ	-11.1144
▁ᏧᎾᏙ	-11.1144
▁ᎤᎵᏏᎬᎢ	-11.1145
ᎵᎸ	-11.1146
ᏔᏂᏓᏍᏗ	-11.1147
ᎲᏒ	-11.1147
ᎾᎥᎢ	-11.1149
ᎾᏰᏍᎨᏍᏗ	-11.1152
▁ᎠᏂᎪ	-11.1153
ᏕᎶᏆᏍᏗ	-11.1157
ᏄᏬ	-11.1157
▁ᎦᎸᎳᏗᎨ	-11.1159
▁ᎤᎾᏓᏅᏖᏗ	-11.1161
ᏏᏱ	-11.1167
▁ᏓᏥᏩᏛᎯ	-11.117
▁ᏕᏣᏂᏴ	-11.1176
▁ᎣᏍᏕ	-11.1187
▁ᏣᎵᏍᎦᏍᏙᏗ	-11.1193
ᏩᏛᏗᏱ	-11.1194
ᏍᎦᎾᎯᏳ	-11.1195
▁ᏚᏂᎬ	-11.1196
ᏒᏰᏃ	-11.1197
▁ᎤᏪᎷ	-11.1198
ᎦᏓᎭ	-11.1204
ᏂᏓᏍᏗ	-11.1205
ᏥᎶᏍᏗ	-11.1206
ᏛᎦᏁᎰᎢ	-11.1206
▁ᎬᏓ	-11.1207
ᏂᏪᏏ	-11.1215
▁ᎢᏥᏁ	-11.1218
ᎩᏍᏙᏗ	-11.1247
ᏛᏅᎯ	-11.1256
▁ᏕᏥᎧ	-11.1257
ᎲᏍᎬᎢ	-11.1259
▁ᎠᏐ	-11.1262
ᏢᏈᏍᏗᏱ	-11.1262
ᎯᏰ	-11.1268
ᏁᏪᏎᎢ	-11.1282
ᏂᎦ	-11.1282
▁ᎢᏥᏴ	-11.1284
▁ᏚᏩ	-11.1291
ᎾᏓ	-11.1294
ᏘᏍᎬ	-11.1308
ᎨᏴ	-11.1314
▁ᎤᏍᏕᎸᎲ	-11.1326
ᏅᏗᏱ	-11.1331
ᎪᏍᎬ	-11.1335
▁ᏧᏃᏢ	-11.1339
ᎦᏘᎴᎩ	-11.1345
ᏂᏏᏅᎯ	-11.1361
ᎢᏣ	-11.1364
▁ᏧᏂᏰᎸ	-11.1371
▁ᎤᎪᎲᎢ	-11.1378
ᏗᏗᏱ	-11.1385
▁ᏗᎧᎾ	-11.139
▁ᎢᎭ	-11.139
▁ᏕᏤ	-11.1391
▁ᏚᏲᎯᏎᎸ	-11.1395
▁ᏂᎦᏪᏎ	-11.1395
▁ᎪᎱ	-11.1407
▁ᎤᏂᎷᏤᎴ	-11.1408
▁ᏱᏙᏥ	-11.1409
ᎨᏳᎭ	-11.1411
ᎾᏕᏘᏴᏛ	-11.1417
ᏅᎯᏒ	-11.1418
▁ᏗᏅᏂ	-11.1419
▁ᎤᏂᏅᏁ	-11.1427
ᏓᏁᎸᎩ	-11.1432
ᎧᎭ	-11.1436
ᏓᏯᏂᏍᎪ	-11.1437
ᎵᏙᎮ	-11.1446
▁ᎨᎾ	-11.1448
ᏁᎩ	-11.1459
▁ᏗᏥᏲᎯᏍᏗ	-11.1467
ᏲᎮᎢ	-11.1469
ᏁᏤᎸᎭ	-11.1469
▁ᏧᎾᏓᎴᏅ	-11.1477
ᏃᎯᏍᏗ	-11.1496
ᏅᏒᎾ	-11.1501
ᏎᎴᎢ	-11.1502
ᎶᏃ	-11.1507
▁ᎬᏛᎪ	-11.1515
ᎩᏍᏆᏂᎪᏔᏅ	-11.1518
ᏓᏁᎴ	-11.152
▁ᏍᎩᏉ	-11.1525
ᏆᏟ	-11.153
▁ᎡᏉ	-11.1531
ᏅᏁᏗᏱ	-11.1532
▁ᎤᎦᏙᏍᏕ	-11.1534
ᎵᏦᏛ	-11.1536
▁ᎠᏂᏫᎾᎨ	-11.1541
▁ᎠᏍᏓᏱᏛ	-11.1542
▁ᎨᎪᏎ	-11.1548
ᎦᏛᏁ	-11.1557
ᏑᎶ	-11.1564
▁ᏫᏙ	-11.1565
ᏓᏴᏎ	-11.1567
ᎨᏩ	-11.1568
▁ᏱᏚᏳᎪ	-11.1569
▁ᏥᎶ	-11.1572
ᎾᎲ	-11.1587
▁ᏦᎠ	-11.1595
ᎢᏍᏔᏅ	-11.1598
▁ᎨᏛ	-11.1603
ᏂᏏᏍᎨᏍᏗ	-11.1609
▁Ꮦ	-11.1619
▁ᎦᏙᎨᏃ	-11.163
ᎴᏙᏗ	-11.163
▁ᏅᏩᎾᏓᎴᎢ	-11.1633
▁ᎦᎶᎯᏍᏗᏳ	-11.1635
▁ᎤᎾᏚᎵᏍᎨ	-11.1637
ᏂᎩᏓ	-11.164
ᏣᎦᏌᏯᏍᏗᏕᎩ	-11.1643
▁ᎢᏦᎵᏍ	-11.1643
▁ᎢᏣᏓᏅᏛ	-11.1647
ᏓᏅᏛᎵ	-11.165
▁ᎤᎮᏍᏗ	-11.1652
▁ᎠᏥᏅ	-11.1659
▁ᏱᏘ	-11.1661
▁ᎠᎾᎵᎮᎵ	-11.167
▁ᎤᎸᎢ	-11.1674
▁ᏍᎩᏍᏓᏩᏕ	-11.1682
ᏗᏍᎬᎩ	-11.1687
ᏩᏛᎯᏙ	-11.1687
ᏌᎳᏓᏅ	-11.1688
▁ᎧᏃ	-11.1698
ᎧᎵᏎ	-11.1704
▁ᏫᏍᏗ	-11.1705
ᏍᏓᏁᎸ	-11.1714
▁ᎦᏙᎦ	-11.172
▁ᎠᏆᏓᏅ	-11.1724
▁ᎤᎾᎵᎪᏎ	-11.1728
▁ᎠᏍᎪ	-11.1744
▁ᎤᏂᎧᎵ	-11.1745
▁ᏕᎤᏲ	-11.1745
ᏎᏃ	-11.1749
ᎪᏩᏘᏍᎬ	-11.175
ᏛᎯᏍᏙᏗ	-11.1751
▁ᏓᏘ	-11.1757
ᎵᏍᏓ	-11.1757
▁ᎡᏥᏁ	-11.1757
▁ᎠᎦᏅ	-11.1762
▁ᏥᏩᎾᎦ	-11.1767
▁ᏙᎯᏱᏉ	-11.1787
▁ᏯᏇ	-11.1793
▁ᎤᏬᏂᎯᏍᏗ	-11.1801
▁ᏂᎦᏛᏉ	-11.1804
ᏓᏛᏁᏗ	-11.1804
ᏂᎦᏔᎲᎾ	-11.1813
ᏙᎴᎰᏒ	-11.1815
ᏍᏆᏂᎪᏓᏁᏗ	-11.182
▁ᎠᏂᎪᏩᏘᏍᎨ	-11.1822
ᏥᏍᏔᏅ	-11.1826
▁ᏨᏆ	-11.1827
▁ᏱᏅᏩᏍᏗ	-11.1834
ᏏᏯ	-11.1836
ᏬᏁᏔᏅ	-11.1844
ᏬᏁᏙᏗ	-11.1847
▁ᎠᏆᏓᏅᏖ	-11.1848
ᎵᏎ	-11.1851
ᏘᏍᎩ	-11.1856
ᎴᏗᏱ	-11.1858
ᏲᏍᏔᏅ	-11.1859
ᏪᏏ	-11.1864
ᏣᏉ	-11.1872
ᏔᎴᏒ	-11.1873
ᎨᏎ	-11.1884
ᏥᎵ	-11.1889
ᏎᎵᏙᏗ	-11.189
▁ᎢᏣᏓᏙᎵᏍᏗ	-11.1893
ᏁᎸᏗᏍᎬ	-11.19
ᏩᏛᎯ	-11.1903
ᎵᏍᏕᎸ	-11.1903
▁ᏴᎦᏥ	-11.1912
▁ᎠᏍᏚ	-11.1914
▁ᎤᎾᏓᏅ	-11.1916
ᏄᎪᏨᎩ	-11.1925
▁ᏕᎦᏘ	-11.1926
ᏯᏅᎯ	-11.1928
▁ᏳᏲ	-11.1929
ᏅᏓᏗᏍᎨᏍᏗ	-11.1939
ᏍᏕᎸᎯᏙᎯ	-11.1944
ᏍᏙᎢ	-11.1963
ᏩᏓ	-11.1966
▁ᏴᏗ	-11.1968
ᏍᏓᏲ	-11.1979
ᏚᎵᎭ	-11.1984
ᎧᏂᏍᎬ	-11.1987
▁ᎥᏝᏍᎩᏂ	-11.1992
ᎮᎵ	-11.1994
ᏁᎦ	-11.1995
ᎵᏍᎩ	-11.2002
▁ᎠᏍᏆ	-11.2003
▁ᎤᏄᎪᏫᏎ	-11.2015
ᎶᏅ	-11.2016
ᏪᏎᎵ	-11.2017
ᏂᏪᏎ	-11.2018
▁ᎠᏰᎵᏉ	-11.2027
▁ᎠᏎᏍᎩᏂ	-11.2029
ᏁᎶᏕᏍᏗ	-11.2036
ᏣᎷᏤᏗᏱ	-11.2048
▁ᎤᏂᏩᏛ	-11.2061
ᎥᏍᎨᎢ	-11.2063
ᏐᏢ	-11.2065
ᏙᎵᎪ	-11.2069
▁ᏱᎬᏆ	-11.2069
▁ᏳᎸ	-11.2073
ᏓᎴᎲᎦ	-11.2081
ᎸᎮ	-11.2084
ᏔᏪᏙ	-11.2098
ᎵᎻ	-11.2101
▁ᎦᏪ	-11.2101
ᏍᏆᏂᎪᏓ	-11.2103
ᏲᏙᏗ	-11.2115
▁ᎠᏂᎪᎵᏰᏍᎨ	-11.2126
ᏢᏁᎢ	-11.2132
ᎵᏍᏆᏙᎾ	-11.2132
ᏅᏂ	-11.2159
ᏦᏒ	-11.2164
▁ᎦᏲ	-11.2165
▁ᏯᏆᏓ	-11.2167
ᎮᎸ	-11.2171
▁ᏥᏍᎦᎾ	-11.2173
ᏌᎲ	-11.218
▁ᎠᎩᏁᎸ	-11.2182
▁ᎤᏂᏃ	-11.2185
▁ᎤᏩᏎ	-11.2186
ᎷᎩᏍᎩ	-11.2192
ᏓᏛᏁᎵ	-11.2196
ᏜᏗ	-11.2196
▁ᏫᏯᏅ	-11.2196
ᏇᏓ	-11.2197
ᏰᎬ	-11.2197
▁ᏣᏢ	-11.2198
▁ᎤᎩᏍᏗ	-11.2204
ᎲᏍᎨ	-11.2209
ᏥᏓ	-11.2212
ᏓᏁᎢ	-11.2213
ᏛᏁᎰ	-11.2215
▁ᎢᏥᏍᎦᏅ	-11.2218
ᎴᏅᏓ	-11.2219
ᏉᎯ	-11.2222
ᏓᏑᏴ	-11.2224
▁ᎬᏩᎵᎪᏁ	-11.2231
▁ᎩᎳᎢ	-11.2235
▁ᎥᏝᏍᏗ	-11.2243
▁ᎠᏑᏴ	-11.2252
ᎦᏛᎩ	-11.2258
▁ᏗᏕᎶᏆᏍ	-11.226
ᎪᎨ	-11.2263
▁ᎭᏓᏅᏖ	-11.2267
▁ᎤᏲᏍᏔᏅ	-11.2268
ᎾᎵ	-11.2268
▁ᏩᏂᎷ	-11.2271
▁ᏕᎨᏣ	-11.2273
▁ᏙᎬ	-11.2275
▁ᎭᏓ	-11.2279
▁ᎠᎩᎨᏳᎯ	-11.229
▁ᏓᏍᎩ	-11.2293
▁ᎤᏩᏙ	-11.2297
ᎡᎲᎢ	-11.2299
ᎴᏅᎮ	-11.2301
ᏑᎸᏓ	-11.2309
ᏍᏔᏅᎢ	-11.2313
ᎨᎯᏙᎸ	-11.2315
▁ᏄᏩᏁ	-11.2317
ᏣᏁ	-11.2317
ᏓᏙᎵᏍᏓᏏ	-11.2318
ᏪᏒ	-11.2334
ᎣᏁ	-11.2335
ᎨᏥᏁᏗᏱ	-11.2336
ᏥᎾᏄᎪᏫᏎᎸ	-11.2337
ᏍᎪᏒ	-11.2341
ᏲᏎᎸ	-11.2347
▁ᏳᏓᏑ	-11.2355
▁ᏗᏍ	-11.2358
ᎾᎡ	-11.237
▁ᏈᏂ	-11.2372
▁ᎦᏐ	-11.2373
ᎵᏓ	-11.2375
ᏲᎮᏗ	-11.238
ᎲᏍᏗᏱ	-11.2389
▁ᏂᏥᏪᏎ	-11.239
ᏚᎸᏅᏗ	-11.2395
▁ᏓᎨ	-11.24
▁ᎤᏍᏛ	-11.24
ᏂᏢᏗᏱ	-11.2403
ᏥᏯᏅᏛ	-11.2406
ᎵᏬ	-11.2406
ᏂᏍᎨᏍᏗ	-11.2408
▁ᏩᏆ	-11.2414
▁ᏬᎩ	-11.2418
ᏍᎦᏯ	-11.2418
ᏤᏪ	-11.2419
▁ᎾᏥᎸᏉ	-11.2423
ᏕᎨ	-11.2427
ᏘᏎᎢ	-11.2433
ᏓᎨᏳᏗ	-11.2434
ᏲᎱᎯ	-11.2441
▁ᎠᏥᎸᏃ	-11.2443
ᏍᏓᏩᏕᏏ	-11.2445
ᎪᎵᏰᏍᎨᎢ	-11.2447
▁ᏚᎵ	-11.2448
ᎩᏛ	-11.2455
ᎪᏒ	-11.246
ᏅᏩᏍᏗᏉ	-11.246
ᏓᏘᏂᏙᎯ	-11.2462
▁ᏚᎾᎵᎪ	-11.2467
▁ᏄᎵᏍ	-11.247
ᏠᎠᎯ	-11.2475
ᏃᎮᏗ	-11.2487
ᎳᏏᏕᏂ	-11.2487
▁ᎠᏆᏛ	-11.2488
▁ᎤᎷᏨᏃ	-11.2497
▁ᏳᏪ	-11.2498
ᏙᎾ	-11.2504
ᎴᏅᎲ	-11.2508
▁ᎠᏂᏯᏫᏍᎩᏃ	-11.2514
ᏍᎦᏅᏨᎢ	-11.253
ᏕᏣᏙ	-11.2532
ᏍᏛᏗ	-11.2533
ᏂᏱᏍᎨ	-11.2534
▁ᎠᏂᎾ	-11.2535
▁ᎠᏂᎡ	-11.2544
▁ᎠᏴᏉ	-11.2552
ᏲᎱᎯᏍᏗ	-11.2557
ᎦᏓ	-11.2561
▁ᏂᏣᎵᏍᏓᏁ	-11.2562
ᏛᏛᎲᏍᎦ	-11.2565
ᏚᎩ	-11.2567
▁ᏧᏅᏏ	-11.2568
▁ᎠᏓᏍᏕᎵ	-11.2569
ᏓᏗᏍᏗ	-11.257
▁ᎤᏐᏅᎢ	-11.2578
ᏒᎦᎸ	-11.2587
▁ᎠᎵᏥ	-11.2588
ᏍᎪᎵ	-11.2601
ᏙᎦ	-11.2606
ᏨᏍᏗᏱ	-11.2609
▁ᏳᏃᏴ	-11.2609
▁ᎠᏍ	-11.2616
▁ᎥᏆ	-11.2619
ᎮᎯ	-11.2626
ᏢᏔᏅᎯ	-11.2627
ᎯᏍᏗᏍᎬ	-11.264
ᏥᎦᏔ	-11.2646
▁ᏂᎦᏥᏴᏁ	-11.2651
ᏎᎸᎢ	-11.2651
ᎸᏉᏓ	-11.2652
ᏚᎵᏍᎨ	-11.2653
ᏫᏎᎢ	-11.2656
ᏗᏍᏗᏱ	-11.2665
ᏏᏅᏍᏗ	-11.2676
ᏄᎪᏫᏒᎯ	-11.2678
▁ᏅᏓᏳᏓᎴ	-11.2682
▁ᏗᎩᏍᏗ	-11.2691
▁ᏅᎵᏌᎵ	-11.2701
ᏘᏃᎯᏍᏗ	-11.2707
▁ᏅᏩ	-11.2708
ᏥᏲᏍᏙᏓᏁ	-11.2709
ᏍᏚᎩᏒ	-11.2721
ᎯᏛ	-11.2722
ᎪᏩᏗᏍᎬ	-11.2725
ᎶᎥ	-11.2726
ᏣᎴᏛ	-11.2726
ᏍᎬᎾᏉ	-11.273
▁ᏱᏚᏓ	-11.2731
ᏲᎯᏏ	-11.2735
▁ᏯᎩᎪ	-11.2735
ᎦᏉ	-11.2741
ᎦᎵᎰ	-11.2744
ᎦᎶ	-11.275
ᏍᏗᏂ	-11.2751
ᏴᏔᏅᎩ	-11.2754
ᏚᏓᏲᏎ	-11.2756
ᏢᎭ	-11.2757
ᏃᏅᎯ	-11.2759
ᏐᎾ	-11.276
ᏍᏕᎢ	-11.276
▁ᏁᏩᏔᎵ	-11.2761
▁ᏯᎦᏓ	-11.2763
▁ᏚᏩᏛᎲ	-11.2765
ᏧᏔᏅ	-11.2766
▁ᎠᏕᎸᏃ	-11.2768
ᏎᎰᎢ	-11.2772
▁ᎯᏁᎩ	-11.2774
ᏍᏆᎵᏍᎬ	-11.2777
▁ᏕᏥᏯ	-11.2779
ᎪᎰᏍ	-11.2787
ᏛᎦᏅ	-11.2794
▁ᎠᎾᎵᏍᏓᏴᎲᏍᎬ	-11.2806
▁ᎤᎾᎴᏅ	-11.2808
▁ᎬᏩᏃᎯᏳ	-11.281
ᎾᏄᎪᏫᏒ	-11.2811
ᎡᏃ	-11.2812
▁ᏕᎪᏢᏒ	-11.2816
ᎦᏌᏯᏍᏙᏗ	-11.2817
▁ᏆᏏ	-11.2819
ᏁᎢᏍᏗᏍᎬ	-11.2822
ᏗᏢᏍᏙᏗ	-11.2824
▁ᎤᏂᏩᏒ	-11.2831
▁ᏭᏭᏍ	-11.2836
ᎩᏍᏓ	-11.2837
▁ᎦᎦ	-11.284
▁ᎤᏢᎬ	-11.2842
ᎨᏳᎯ	-11.2843
▁ᎠᏥᏰᎸᎾᏁ	-11.285
ᏙᎴᎰᏎ	-11.2851
ᎪᎯᏳ	-11.2851
ᏥᎷᎩ	-11.2852
ᏍᏕᎵᏍᎪ	-11.2853
ᏘᏓ	-11.2854
▁ᏓᏟᎶᏍᏗ	-11.2855
▁ᏑᏟᎶᏛ	-11.2856
ᏚᏲᏎ	-11.2861
▁ᏱᏓᎾ	-11.2863
▁ᎦᏅᎪᎢ	-11.2863
▁ᏴᏓ	-11.2867
▁ᎡᏌ	-11.2867
ᎦᎸᎲᎩ	-11.2868
▁ᏂᏓᏙᏓᏈᏒ	-11.2871
▁ᎾᎬᏁᎴ	-11.2871
▁ᎠᎧᎵ	-11.2871
▁ᏂᏚᏍᏕ	-11.2874
ᏘᏅᏍᏔᏁᎢ	-11.2875
ᎤᏨᏉᏗ	-11.2875
ᎢᏗᎦᏘ	-11.2875
▁ᏚᏄᏩᎥ	-11.2877
▁ᎤᎾᏅᏁ	-11.2877
ᎤᏂᎷᏤᎢ	-11.2877
ᏒᎮᏱᏣ	-11.2879
▁ᏕᏣᎸᏫᏍᏓᏁᎸ	-11.2879
▁ᎾᎩᏪᏒ	-11.288
▁ᎦᎵᎡᎵᎬ	-11.288
ᎧᏃᎮᏛ	-11.288
ᎢᏥᏈᏱ	-11.288
▁ᎤᏃᎯᏳᏁ	-11.2881
ᎠᎬᏱ	-11.2881
▁ᎾᏂᏪᏍᎨ	-11.2885
ᎵᎪᎯ	-11.2885
▁ᏚᏓᏘᎿᎥ	-11.2886
▁ᏕᎤᎸᏫᏍᏓᏁᎲ	-11.2886
▁ᏚᏍᎫᏓᏛ	-11.2886
▁ᎤᏅᏂ	-11.2886
▁ᏄᎵᏍᏓᏁᎸ	-11.2886
▁ᎤᎵᏖᎸᏁ	-11.2886
▁ᎤᏔᏪᏙᏁ	-11.2887
ᏇᎵᏥ	-11.2887
▁ᏂᏣᏓᎨᏳᏒ	-11.2887
ᏉᎡᏗ	-11.2888
▁ᎤᏓᏙᎵᏍᏔᏁ	-11.2888
ᏘᏅ	-11.2889
▁ᏚᏄᎪᏔᏅ	-11.289
▁ᎤᏎᎵ	-11.289
▁ᎤᏪᏍᎩᎸ	-11.289
▁ᏱᏄᎵᏍᏔᏁ	-11.2891
▁ᏚᏂᏢᎬ	-11.2891
▁ᏧᎶᏎ	-11.2891
▁ᎤᎴᏂᏙᎴ	-11.2893
▁ᎲᏅ	-11.2893
▁ᎢᏣᏚᎵᏍᎬ	-11.2893
▁ᏓᎾᎵᏍᏓᏴᎲᏍᎬ	-11.2893
▁ᎢᏥᏁᎬ	-11.2894
▁ᏘᏁ	-11.2895
▁ᏫᏥᎦᏛ	-11.2897
▁ᎤᏓᏅᎡᎴ	-11.2897
▁ᏂᏚᏩᏁᎴ	-11.2897
▁ᏓᏅᏗᏍᎬ	-11.2897
ᎯᏢᎾ	-11.29
ᏍᏓᏩᏛᏎ	-11.2901
▁ᎾᏂᎡ	-11.2901
▁ᎤᏍᎩᏓᏒ	-11.2901
▁ᎠᏥᏃᎮᏍᎬ	-11.2901
▁ᎢᏳᎵᏍᏔᏅ	-11.2901
▁ᎢᏨᏰᎳᏗᏙᎲ	-11.2902
▁ᎤᏍᏓᏱᏛ	-11.2902
ᎵᎨᏂ	-11.2905
▁ᎤᏍᎦᎴ	-11.2909
ᏚᏓᏕᏫᏒ	-11.2909
▁ᎤᏑᎵᎪᏨ	-11.2909
▁ᎤᏮᏔᏅ	-11.2911
▁ᏚᏂᏲᎱᏒ	-11.2911
▁ᎤᏓᏅᏁ	-11.2912
▁ᎨᎬ	-11.2912
ᏍᏉᎵᏱ	-11.2913
▁ᏂᎦᎵᏍᏗ	-11.2913
▁ᏗᎦᎸ	-11.2914
▁ᎠᏄᎯᏍᏗᏍᎬ	-11.2914
▁ᏥᏬᏂᏍᎬ	-11.2916
ᎦᏘᏗᏍᏗᏱ	-11.2916
ᏍᎩᏓᏎᎢ	-11.2918
ᎵᏍᎪᎸᏗᏍᎬ	-11.2918
▁ᏚᎾᎴᏅ	-11.2921
▁ᎤᏯᏅᎮ	-11.2922
▁ᏣᏁᏨ	-11.2923
▁ᏪᏙ	-11.2924
▁ᎠᏆᎴᏅ	-11.2925
ᏗᏉ	-11.2926
ᎸᎥᏍᎬ	-11.2926
▁ᎣᎦᏣᏅ	-11.2927
▁ᎣᎪᎯᏳ	-11.2928
ᎸᏍᎦ	-11.2929
ᎩᏍᏓᏩᏕ	-11.2929
ᎾᎾᏛᏁᎰ	-11.293
▁ᎦᏁᎮ	-11.2931
▁ᏗᏘᏲ	-11.2932
▁ᎠᏂᏛ	-11.2933
▁ᎤᏍᏓᏩᏛᏎ	-11.2933
▁ᏗᏘᏂᏙ	-11.2933
▁ᎤᏪᎧᎲ	-11.2935
ᏲᎵᎴ	-11.2936
ᏙᏢᎾ	-11.2937
▁ᏥᎪᏩᏛ	-11.2938
ᏴᏤᏂ	-11.2939
▁ᏦᎩᎾᏫ	-11.294
ᏓᏓᏍᎬ	-11.2941
ᎸᏉᏔᏂ	-11.2941
ᏁᎵᏎᎢ	-11.2942
▁ᏱᏙᎬ	-11.2942
▁ᎡᎩᏍᏕᎸᏗ	-11.2942
▁ᎦᏅᏆᎶ	-11.2943
ᏒᎲᏍᎦ	-11.2943
▁ᎢᏳᏩᏂᏐᏗ	-11.2944
ᎦᏔᎲᏍᎬ	-11.2944
ᏍᏕᎸᎲᎩ	-11.2945
▁ᏧᏂᏒᏍᏗ	-11.2946
▁ᏗᎬᏩᎸᏌ	-11.2946
▁ᏣᏁᎮ	-11.2946
▁ᎢᏣᏓᏅᎦᎸ	-11.2948
▁ᎢᏨᏲᏎ	-11.2949
▁ᎤᎩᎵᏲᎢᏍᏗ	-11.2949
ᏩᏁᎦ	-11.2949
ᏂᏁᏨ	-11.295
▁ᏂᎦᎵᏍᏔᏂ	-11.2951
▁ᎤᏬᏢᏁ	-11.2953
▁ᏗᎧᏃᎨ	-11.2954
ᏍᏆᏂᎪᏗᏳ	-11.2955
ᏏᏔᏗᏍᏗ	-11.2956
▁ᏩᏚ	-11.2956
▁ᎢᏣᎵᏍᏓᏴᏗ	-11.2957
ᏠᎠᏒ	-11.2958
▁ᏗᎦᏤᎵ	-11.2959
▁ᎦᎷᏨ	-11.2959
ᏒᎵ	-11.2959
ᏕᏲᏅᎯ	-11.2959
▁ᎠᏂᏍᏆᏂᎪᏗᏍ	-11.296
ᏄᏬᎡᎢ	-11.2961
ᏓᏂᎵᎨ	-11.2962
▁ᎤᏂᏲᎴ	-11.2962
ᏃᎵᏤ	-11.2962
▁ᎠᏛᎩᏍᎨ	-11.2963
ᏚᏅᏏᏴ	-11.2963
ᏙᎴᏆᏍᏗ	-11.2963
ᏁᏤᎮᏍᏗ	-11.2964
ᏦᏎᎭ	-11.2965
▁ᏥᏯᎥ	-11.2965
ᏓᏅᏓᏗᏍᏗᏍᎩ	-11.2965
▁ᎠᏓᎴᏒ	-11.2966
ᏓᎾᏕᏒᎲᏍᎪᎢ	-11.2966
▁ᎠᏁᏯᏔᎯ	-11.2966
▁ᎠᏂᎢᏏᎺᎵ	-11.2966
▁ᎠᏍᏕᏱᏛ	-11.2966
▁ᎢᏍᎪᏂᏗᏢ	-11.2966
▁ᎢᏯᏆᏕᏘᏴᏓ	-11.2966
▁ᎤᎾᏓᎪᎾᏙᏗ	-11.2966
▁ᎤᎾᏗᏍᎦᏢ	-11.2966
▁ᎤᏔᏲᎴ	-11.2966
▁ᎤᏩᎬᏘᎶᏓ	-11.2966
▁ᎤᏩᎾᏓᎴ	-11.2966
▁ᎥᏖᎣᎩ	-11.2966
▁ᏁᏥᏪᏎᎸᎭ	-11.2966
▁ᏂᎦᏗᎹᏏ	-11.2966
▁ᏂᏓᏁᏢᏛᎾ	-11.2966
▁ᏂᏗᎬᏩᏓᎴ	-11.2966
▁ᏂᏧᏪᏎ	-11.2966
▁ᏄᏃᎯᏳᏅᎾ	-11.2966
▁ᏒᏗᏩᏟ	-11.2966
▁ᏓᎱᏃᎲ	-11.2966
▁ᏓᎾᏦᎭᏱᎲ	-11.2966
▁ᏓᏂᎳᏍᏓᎳᏩᏗᏒᎢ	-11.2966
▁ᏓᏂᎶᏄᎮᏍ	-11.2966
▁ᏓᏊᎪᏔᏅ	-11.2966
▁ᏓᏟᏰᎵᏙ	-11.2966
▁ᏗᎾᎵᏦᎯᏛ	-11.2966
▁ᏗᏝᏗᏍᏗᏱ	-11.2966
▁ᏙᏛᎾᏓᏡᏔᏂ	-11.2966
▁ᏥᏂᏥᏪᎠ	-11.2966
▁ᏥᏓᎩᎸᏫᏍᏓᏁᎭ	-11.2966
▁ᏥᏕᎭᏘᏁᎭ	-11.2966
▁ᏧᏄᏩᎢ	-11.2966
▁ᏯᏙᎴᎰᏍᎦ	-11.2966
▁ᏱᏓᎴᏂᏙᎭ	-11.2966
▁ᏱᏣᏁᎢᏍᏔᏁᏍᏗ	-11.2966
▁ᏱᏫᏣᏴᎸ	-11.2966
▁ᎨᏥᎦᏘᏗᏍᏗ	-11.2966
▁ᏂᏚᎾᏁᎶᏛᎾ	-11.2966
▁ᏆᎻᏈᎵᏱ	-11.2966
▁ᏓᎦᎫᏴᎯ	-11.2966
▁ᏗᎧᏃᎩᏛ	-11.2966
▁ᏚᏬᏏᏌᏁ	-11.2966
▁ᏛᎾᏛᎦᏂ	-11.2966
▁ᏨᏓᏯᎢ	-11.2966
▁ᏳᎵᏃᎯᏰ	-11.2966
▁ᎠᎵᎮᎵᎪ	-11.2966
▁ᎡᎻᎳ	-11.2966
▁ᎤᎩᏠᏫᏎ	-11.2966
▁ᎤᏪᏟᏌᏁ	-11.2966
▁ᎺᎮᎴᎵ	-11.2966
▁ᏁᏓᏈ	-11.2966
▁ᏄᏛᎿᏕᎬ	-11.2966
▁ᏙᏓᏥᏲᎱᏏ	-11.2966
▁ᏙᏗᎾᎵᏍᏓᏴᎲᏍᎬ	-11.2966
▁ᏥᎪᎵᏰᏍᎬ	-11.2966
▁ᏮᏘᏯᏅᎯ	-11.2966
▁ᏱᎡᏦᎢᏳ	-11.2966
▁ᎹᎻᎵ	-11.2966
▁ᏓᏍᏗᏰᏗᏍᎬ	-11.2966
▁ᏘᏰᎸᏂ	-11.2966
▁ᏧᎾᏓᏂᎸᎢᏍᏗᏱ	-11.2966
ᎵᏍᎨᏗᏴ	-11.2966
▁ᎢᎦᏗᏍᎦᎶᏗᏱ	-11.2966
▁ᎩᏅᎪᎢ	-11.2966
▁ᏁᎨᏒᎾ	-11.2966
▁ᏂᏨᏴᏁᎸ	-11.2966
ᎩᏪᏎᎲᎩ	-11.2966
▁ᏓᏤᎵᏍᏛ	-11.2966
▁ᏚᏂᎧᎮᏍᏗ	-11.2966
▁ᏚᏟᏂᏆᏅᏁ	-11.2966
▁ᏮᏘᎶᏏ	-11.2966
▁ᏯᎵᏖᎸᎮᏍᎬᎾ	-11.2966
▁ᏯᏎᎦᎩ	-11.2966
ᎦᎭᎾᏅ	-11.2966
▁ᎠᏲᏓᏝᎲᎢ	-11.2966
▁ᎢᏖᎳ	-11.2966
▁ᏂᏪᏎᎸᎭ	-11.2966
▁ᏕᎷᎨ	-11.2966
▁ᏬᎩᏅᏍᏔᏅᎩ	-11.2966
▁ᎢᎬᏩᏛᏛᏁ	-11.2966
▁ᏯᏓᏅᏍᎬᎾ	-11.2966
▁ᏥᏄᏩᏁᎸ	-11.2966
▁ᎤᏪᏯᎸᏅᎩ	-11.2966
ᏬᏁᏗᏍᎪ	-11.2966
▁ᎠᎦᏔᏛᏍᎩ	-11.2966
▁ᎤᏎᎦᏨᎯ	-11.2966
▁ᎪᎶᏁᏛ	-11.2966
▁ᎬᏩᏴᎸᎯ	-11.2966
▁ᏚᎵᏃᎮᏔᏁᎢ	-11.2966
▁ᎬᏍᎦᎵ	-11.2966
▁ᏫᎬᏲᏪᎳᏏ	-11.2966
▁ᏧᏘᏲ	-11.2966
▁ᎡᏗᏂᏱ	-11.2966
▁ᏄᏍᏆᏂᎩᏛ	-11.2966
▁ᏛᏂᎾᏄᎪᏥ	-11.2966
▁ᏣᏔᎳᏬᏍᎬ	-11.2966
▁ᎢᏦᎵᎩ	-11.2966
▁ᎤᏂᏔᎳᏬᏍᎬᎢ	-11.2966
▁ᏁᏍᏗᏪᏎᎸᎭ	-11.2966
▁ᏂᏦᎯᏳ	-11.2966
▁ᎢᏳᎾᏛᎾᏕᎩ	-11.2966
▁ᎤᎯᏐᏓᏁ	-11.2966
▁ᎤᏕᏒᏂᎸᎯ	-11.2967
▁ᎤᎾᎵᏃᎯᏴᎯ	-11.2967
▁ᏓᏑᏫᏍᎬ	-11.2967
▁ᎠᏍᎫᏕᏒ	-11.2967
▁ᎠᏍᏙᏍᎩ	-11.2967
▁ᎤᎵᏌᎵᏓᏁ	-11.2967
▁ᎤᏩᏂᎦᏢ	-11.2967
▁ᏱᏗᏣᏰᎸᏁᎢ	-11.2967
▁ᎦᏄᎾᏓᎴᎩ	-11.2967
▁ᏓᏥᏯᏓᏙᎵᏍᏓᏁᎵ	-11.2967
▁ᏗᏂᎬᏓᎨᏂ	-11.2967
▁ᎢᏣᏓᏟᏌ	-11.2967
▁ᎣᎨᏙᎸ	-11.2967
▁ᏙᏛᎾᎴᏂ	-11.2967
▁ᏯᏂᎷᎬᎾ	-11.2967
▁ᏗᎾᏓᏲᏁᎯ	-11.2967
▁ᏂᏗᎨᏥᎾᏝᎥᎾ	-11.2967
▁ᏂᏦᎯᏳᎲᏍᎬᎾ	-11.2967
▁ᏗᎨᎦᏛᏅᎯ	-11.2967
▁ᏗᏐᏂ	-11.2967
▁ᏧᎵᎦᎸᏓ	-11.2967
▁ᎠᏙᏂᏍᎩ	-11.2967
▁ᎠᏂᎷᏨᎭ	-11.2967
ᏍᏓᏩᏗᏒᎩ	-11.2967
ᏓᏫᏍᎦᎨ	-11.2967
▁ᏌᎶᎻ	-11.2967
▁ᎤᎬᏍᏕᎵ	-11.2967
▁ᎪᏢᏅᎥᏍᎩ	-11.2967
▁ᏓᏆᏓᏂᎸᎨᏍᏗ	-11.2967
▁ᏙᎩᎾᏦᏒ	-11.2967
▁ᎦᎵᏒᏍᏗᏍᎬ	-11.2967
▁ᏕᎫᏓᏛ	-11.2967
▁ᎢᎬᏂᎮᏍᏗ	-11.2967
▁ᏗᎦᎶᎩᏍᎩ	-11.2967
▁ᏗᎾᏓᏙᎵᏍᏓᏁᎯ	-11.2967
▁ᎤᏔᏲᎸ	-11.2967
ᎨᏅᏴ	-11.2967
▁ᎤᎾᎵᏍᏓᏴᏁᏃ	-11.2967
▁ᏱᏨᏰᎵᏎᎭ	-11.2967
▁ᏂᏓᎾᏓ	-11.2967
▁ᏗᏓᏂᏱᏍᎩ	-11.2967
▁ᎩᎵᏯᏗ	-11.2967
▁ᏓᏓᏂᏌᎲ	-11.2967
ᏧᎪᏓᏏ	-11.2967
▁ᏅᏓᏳᎵᏍᎪᎸᏔᏅᎯ	-11.2967
▁ᎢᏣᏄᏬᏍᏕᏍᏗ	-11.2967
▁ᏂᏕᏣᏛᏁᎮᏍᏗ	-11.2967
▁ᎤᎿᎷᏎ	-11.2967
▁ᏄᎾᏓᏛᎩ	-11.2967
▁ᏍᎩᏯᏛᎦᏁᎸᎯ	-11.2967
▁ᎤᏁᎢᎸᏗ	-11.2967
▁ᏍᎩᏯᏅᏓᏗᏍᎨᏍᏗ	-11.2967
▁ᏙᏓᏳᏲᏏ	-11.2967
▁ᎤᏓᏁᏟᏴᏍᏓᏁᎴ	-11.2967
▁ᎩᏂᏙᏓ	-11.2967
▁ᎡᏗᎸᏉᏓ	-11.2967
▁ᏕᎦᎧᎮᏍᏗ	-11.2967
▁ᏚᎾᎭᏄᏮ	-11.2967
▁ᎥᏇᎵᏎᎸ	-11.2967
ᎯᏣᏛᎦᏍᏓ	-11.2967
▁ᏣᎵᏍᏓᏴᏗ	-11.2967
▁ᎠᎩᎵᏬᎢᏍᏗ	-11.2967
▁ᎠᏛᎩᏍᎩ	-11.2967
▁ᏂᏕᎦᎵᏍᏗᏍᎨ	-11.2967
▁ᎠᏥᏅᏩᏅᎯ	-11.2967
▁ᏅᏛᏂᏪᏏ	-11.2967
ᎬᏲᎵᎭ	-11.2967
ᏔᎴᏐ	-11.2967
▁ᏓᎬᏅᏏ	-11.2967
▁ᏗᎩᏂᏴᏗᏱ	-11.2967
▁ᏴᎨᏥᎪᏩᏛ	-11.2967
ᏯᏛᏁᎮᏍᏗ	-11.2967
▁ᏓᏂᏂᏓᏛ	-11.2967
▁ᏗᎫᏓᏙᏗ	-11.2967
▁ᏧᎾᏓᏅᏬᏗᏱ	-11.2967
▁ᏫᏄᎾᎵᏍᏓᏏ	-11.2967
ran	-11.2968
▁ᏗᎦᏃᏙᏗᏱ	-11.2968
▁ᎠᏂᏁᏉᎨ	-11.2968
▁ᎠᏍᎦᏲᎯ	-11.2968
▁ᎾᏆᏛᏁᎵᏙᎸ	-11.2968
▁ᎬᏍᎦᏅᏤᎸ	-11.2968
▁ᎤᏁᎵᏨ	-11.2968
▁ᏳᏲᎱᏎᎸ	-11.2968
▁ᏗᏗᏰᎸ	-11.2968
▁ᎬᏩᏂᏅᏫᏍᏔᏂᏙᎯ	-11.2968
▁ᏧᎵᎩᏏ	-11.2968
▁ᏂᏨᏁᎮᏍᏗ	-11.2968
▁ᎠᎾᏟᎲ	-11.2968
ᏓᏒᏍᏓ	-11.2968
ᎬᏩᏳᎪᏗ	-11.2968
▁ᏕᎬᏩᏠᏎᎢ	-11.2968
▁ᎫᎭᎳ	-11.2968
▁ᎤᎸᏫᏒ	-11.2968
▁ᏓᏍᏆᏚᎸ	-11.2968
▁ᏧᏭᏓᎴᏍᏗᏱ	-11.2968
▁ᎤᏓᎾᏏᏅ	-11.2968
▁ᎠᎾᏟᏃᎮᏍᎬ	-11.2968
▁ᎢᏥᎧᎵᏣ	-11.2968
▁ᏓᏅᏩ	-11.2968
▁ᏚᎩᏒᎩ	-11.2968
ᏠᏯᏍᏗᏍᎨᏍᏗ	-11.2968
▁ᎠᎩᏲᏏᏍᎬ	-11.2968
▁ᎪᏢᏛᎩ	-11.2968
▁ᏧᏁᏅᏒ	-11.2968
▁ᏃᎦᏛᏅ	-11.2968
▁ᏚᏁᏅᏒ	-11.2968
▁ᏗᎩᏣᏗ	-11.2968
▁ᎢᏍᏗᏙᏓ	-11.2968
▁ᏭᏓᏓᎩᏅᏎ	-11.2968
▁ᏫᏲᏪᎳᏏ	-11.2968
▁ᎡᎶᏂᎵ	-11.2968
▁ᏗᏂᎦᏘᎴᎩ	-11.2968
ᏏᏀᎥ	-11.2968
ᎫᏘᎶ	-11.2969
▁ᏱᏂᏓᎦᎵᏍᏔᏂ	-11.2969
▁ᎠᏆᎵᏥᏙᏗᏱ	-11.2969
▁ᎤᏓᏍᏛᏗᏍᏗ	-11.2969
▁ᏚᏙᏓᏈᏒ	-11.2969
▁ᏚᎵᎬᏩᏢ	-11.2969
▁ᏭᏕᏁᎢ	-11.2969
▁ᏫᎦᎢᏒ	-11.2969
▁ᏱᏄᏩᏁᎰ	-11.2969
▁ᎢᎬᏩᏍᏗᎭ	-11.2969
▁ᏕᏣᏓᎨᏳᏎᏍᏗ	-11.2969
ers	-11.2969
▁ᏱᏓᏲᎩ	-11.2969
▁ᎠᏓᎦᎵᏍᏓᏗᏍᎩ	-11.2969
ᎾᏞᎬ	-11.2969
▁ᎠᏓᏅᏖᎸ	-11.2969
▁ᏙᏓᎬᏁᎵ	-11.2969
▁ᎤᏪᎷᏅ	-11.2969
▁ᏘᎹᏂ	-11.2969
▁ᏥᏕᏣᎸᏫᏍᏓᏁᎭ	-11.2969
▁ᏕᏣᎧᎿᏩᏗᏙᎮᏍᏗ	-11.2969
ᏈᎪᎵ	-11.2969
▁ᏕᎦᎵᏦᏛ	-11.2969
▁ᎣᏣᎵᎡᎵᏤ	-11.2969
▁ᏥᏍᎦᏅᎩ	-11.2969
▁ᏗᎤᏁᏤ	-11.2969
▁ᎤᏅᏂᏍᏗᏱ	-11.2969
▁ᎠᏂᏍᏆᏂᎪᏍᎨ	-11.297
▁ᏚᎪᏄᎶᏎ	-11.297
▁ᏌᎪᏗ	-11.297
▁ᎢᏥᎩᎵᏲᎬᎢ	-11.297
▁ᎤᏂᎧᎲ	-11.297
▁ᎬᏩᏂᏍᏓᏩᏗᏙᎯ	-11.297
▁ᏧᏓᏅᏓᏗᏍᏙᏗᏱ	-11.297
▁ᏧᏪᎷᏁ	-11.297
▁ᏗᏓᏙᏕᏍᏗᏍᎩ	-11.297
▁ᏧᏅᎨᏫ	-11.297
▁ᏚᏃᎩᏎ	-11.297
▁ᏗᏂᏙᎬ	-11.297
▁ᏗᏜᏍᏔᏅᎯ	-11.297
ᎵᏍᏘᏂᎸ	-11.297
▁ᎤᏂᏃᎮᏛ	-11.297
▁ᏗᎩᏙᏓ	-11.297
▁ᏄᏂᎪᎸᎾ	-11.297
▁ᎱᎷᏨ	-11.297
▁ᏂᏗᏣᏓ	-11.297
▁ᎠᎩᏲᎱᎯᏍᏗᏱ	-11.297
▁ᎤᎾᏓᏛᏅᎯ	-11.297
▁ᏗᎬᏯᏠ	-11.297
▁ᎢᏣᎵᏍᏓᏴᏗᏍᎨᏍᏗ	-11.2971
▁ᎠᏥᏂᏌᏅ	-11.2971
ᏅᏓᏥᏪᏎᎵ	-11.2971
▁ᎢᏣᏕᏗᏱ	-11.2971
▁ᏓᎦᎾᏄᎪᏫᏏ	-11.2971
▁ᏣᎩᏯᎠ	-11.2971
▁ᏂᏓᎾᏤ	-11.2971
▁ᏗᏂᏁᎵᏛ	-11.2971
▁ᎬᏬᎳᏕᏍᎬ	-11.2971
▁ᎠᎵᏍᏆᏓ	-11.2971
▁ᎡᏣᏙᎵᎩ	-11.2971
▁ᏓᎬᎷᏤᎵ	-11.2971
▁ᏍᎩᏲᏍᏓ	-11.2971
▁ᎭᏠᎠᎯ	-11.2971
▁ᎢᏥᎦᏛᏂᏙᎯᏉ	-11.2971
▁ᏅᏯᏗᎦᎪᏗᏱ	-11.2971
▁ᎦᎶᎪᏗ	-11.2971
▁ᏱᎦᏬᏂᎭ	-11.2971
▁ᎤᎾᏨᏓᎵ	-11.2971
▁ᎣᎩᎵᏦᏩᏛ	-11.2971
▁ᏦᏚᎯ	-11.2971
▁ᏗᏍᎩᏲᎯᏏ	-11.2971
▁ᎠᎩᎩᎬ	-11.2971
▁ᎤᏰᎶᎢᏍᏔ	-11.2972
▁ᏗᎨᏥᏲᎯᏎᎸᎯ	-11.2972
▁ᏧᏬᏪᎳᏁ	-11.2972
▁ᎠᏥᏂᏌᏁ	-11.2972
▁ᎤᏣᏪᏐᎸᏍᏕ	-11.2972
▁ᏁᏓᏂᎵ	-11.2972
▁ᏅᏓᏳᎶᎯᏍᏗᏱ	-11.2972
▁ᏌᏆᏯ	-11.2972
ᎫᏓᎴᏍᎩ	-11.2972
▁ᏧᎾᏂᏏᏗᏱ	-11.2972
▁ᎾᎩᎲᎾ	-11.2972
ᏍᏕᎵ	-11.2972
▁ᏂᎦᏖᏍᏗ	-11.2972
▁ᏧᏙᏍᏙᏗ	-11.2973
▁ᎤᎩᏢ	-11.2973
▁ᏂᎨᏨᏁ	-11.2973
▁ᎨᏥᎩᎵᏲᎢᏍᏙᏗᏱ	-11.2973
▁ᏕᎧᏅ	-11.2973
▁ᏓᎶᎨ	-11.2973
▁ᎤᏗᏩᏒᎯ	-11.2973
▁ᏧᎦᏌᏬᎸ	-11.2973
▁ᎢᏓᎻ	-11.2973
ᎾᎵᏍᏓᏁᏗ	-11.2973
▁ᏧᏬᏪᎶᏗ	-11.2973
ᎦᎫᏍᏓᎥ	-11.2973
▁ᎠᎦᏙᎥᎯᏍᏙᏗ	-11.2974
▁ᏕᎰᏢᏅᎭ	-11.2974
ᏂᎸᎬᎾ	-11.2974
▁ᎯᏌᏙᏯ	-11.2974
▁ᎤᎾᎵᏍᏓᏴᏁᎢ	-11.2974
▁ᎢᏣᏛᏁᎸᎯ	-11.2974
▁ᎪᎭᏗ	-11.2974
▁ᏛᏂᎪᎯ	-11.2974
▁ᏱᏥᏯᎠ	-11.2974
▁ᎤᎾᏓᏅᏓᏕᎢ	-11.2974
▁ᎠᏂᏏᎾᏌᏅ	-11.2974
▁ᎤᏯᏪᏐᎴ	-11.2974
▁ᎤᏄᎩᏣᏁ	-11.2974
▁ᎧᏃᎨᏂ	-11.2974
▁ᎠᏓᏛᏗᏍᎩ	-11.2974
ᎾᏙᏓᏆᏍᏗ	-11.2974
▁ᎢᏗᎬᏁᎸᎯ	-11.2974
▁ᏯᏆᏛᏁᎸ	-11.2974
▁ᏧᎾᏨᏍᏗᏱ	-11.2974
▁ᎣᎩᏅᏏᏓᏍᏗ	-11.2974
▁ᏳᏃᎵᏤ	-11.2975
▁ᏗᏥᏅᏏᏓᏍᏗ	-11.2975
▁ᎣᎩᎷᏤᎸ	-11.2975
▁ᏯᏕᎶᎰᏍ	-11.2975
▁ᎭᎦᏌᏯᏍᏓ	-11.2975
▁ᏗᏂᎾᏕᎩ	-11.2975
▁ᎠᏓᏴᏍᏔᎩᏍᎩ	-11.2975
▁ᎤᏁᏐᎠᏒᎩ	-11.2975
▁ᎬᏩᎾᏰᏍᎩ	-11.2975
▁ᎴᎹᎩ	-11.2975
▁ᎠᏥᎶᎥ	-11.2975
ᏓᏅᏛᎳ	-11.2975
▁ᏍᏊᏓᎳᎩ	-11.2975
▁ᏣᏍᎦᎸᎩ	-11.2975
▁ᎦᏌᎴᏅ	-11.2975
▁ᏂᏚᏂᏪᏎᎸᎩ	-11.2975
▁ᎰᎯᏳᎲᏍᎦ	-11.2976
▁ᏚᏭᏓᏔᏅᎩ	-11.2976
▁ᏧᏄᎪᏔᏅ	-11.2976
▁ᏚᏂᏚᎲ	-11.2976
▁ᎠᏗᏔᏍᎨᏍᏗ	-11.2976
▁ᎤᎾᏗᏔᏍᏗ	-11.2976
▁ᏓᏕᏏ	-11.2976
▁ᎤᎵᏨᏓᏆᏛ	-11.2976
▁ᎠᏍᏆᏂᎪᎯᏍᏗ	-11.2976
▁ᎠᏖᎵᏙᎩᎯ	-11.2976
▁ᎤᏁᏍᏔᎳ	-11.2977
▁ᏧᏂᏄᎪᏫᏍᏗᏱ	-11.2977
▁ᎢᏣᎵᏏᎾᎯᏍᏗ	-11.2977
▁ᏕᎦᎶᏛ	-11.2977
▁ᎢᏥᏴᏍᏗᏱ	-11.2977
▁ᎤᏩᏂᎸᎩ	-11.2977
▁ᏗᏣᎵᏂᎩᏗᏳ	-11.2977
▁ᏣᏰᎸᏅ	-11.2977
▁ᎬᏩᏄᎯ	-11.2977
ᏕᏯᏙᏗ	-11.2977
▁ᎻᏗᏂᏱ	-11.2977
▁ᏫᏥᎶᎯ	-11.2977
ᏚᎧᎾᎾ	-11.2978
▁ᎡᏥᎨᏳᎢ	-11.2978
ᏪᏎᎸᎯ	-11.2978
▁ᏗᎵᏍᏚᎶ	-11.2978
▁ᎢᏥᏯᎥᎢ	-11.2978
▁ᏱᎰᏣ	-11.2978
▁ᎤᎾᏛᏅᎢᏍᏔᏁ	-11.2978
▁ᏗᎧᎿ	-11.2978
▁ᏥᏥᏯᎠ	-11.2978
ᎤᏁᏨ	-11.2978
▁ᎢᏯᏋᏁᏗᏱ	-11.2978
▁ᎤᏓᎪᎵᏰᏗ	-11.2979
▁ᎬᎩᏁᏤᎸᎯ	-11.2979
▁ᎠᏂᎨᏳᏣ	-11.2979
▁ᎠᎩᏅᏏᏓᏍᏗ	-11.2979
▁ᎣᏥᏃᎮᏍᎩ	-11.2979
▁ᎤᏓᏅᎡᎸᎩ	-11.2979
▁ᎤᎾᎵᏓᎩᏛ	-11.2979
▁ᎬᏩᏂᏴᏗᏱ	-11.298
▁ᎤᏓᏅᏓᏕᎢ	-11.298
▁ᏅᏧᏪᏎᎢ	-11.298
▁ᎤᏙᏯᏅᎯᏛ	-11.298
▁ᎤᏓᏱᎴᎢ	-11.298
▁ᎤᏇᏓᏢ	-11.298
▁ᏥᏄᎾᏍᏗ	-11.298
▁ᎤᎾᏛᏅᎢᏍᏗ	-11.298
▁ᎤᏂᏍᏆᏂᎪᏔᏅ	-11.298
▁ᏳᎨᏳᎭ	-11.298
▁ᏗᎦᏃᎸᏗᏍᎬ	-11.298
ᏍᏔᏁᎰ	-11.298
▁ᎤᎾᏍᎪᏎ	-11.298
ᏰᎸᎾ	-11.2981
▁ᎤᏁᏍᏓ	-11.2981
▁ᏧᎵᏏᎬ	-11.2981
▁ᎦᎬᏩᏐᏢᏕᎢ	-11.2981
▁ᏦᎨᏅᏒ	-11.2981
▁ᏫᎤᎶᏎᎢ	-11.2981
▁ᎤᏂᎾᏰᎯᏍᏗ	-11.2981
▁ᎤᎾᏓᏍᏔᏴ	-11.2982
ᏍᏓᏱᏗᏍᏗᏱ	-11.2982
▁ᏁᏪᏎᎴᎢ	-11.2982
▁ᏥᏥᎪᏩᏘᎭ	-11.2982
ᏩᏘᏍᎩ	-11.2982
▁ᏒᎦᎾᏲᎪ	-11.2982
▁ᎥᎦᏥᎪᎥᎩ	-11.2982
▁ᏧᎾᎵᏍᏓᏴᏗᏱ	-11.2982
▁ᏅᏋᏁᎸ	-11.2982
ᏌᎩᏒ	-11.2982
▁ᏭᏩᏅᏓᏕ	-11.2982
▁ᏕᎩᎸᏫᏍᏓᏁᎲ	-11.2982
▁ᎣᎦᎵᎪᏅ	-11.2982
▁ᎤᎧᎭᏲᏛ	-11.2983
▁ᏕᎦᏃᏣᎸ	-11.2983
▁ᎦᎸᏍᏙᏗ	-11.2983
▁ᎣᎦᏚᎵᏍᎬ	-11.2983
▁ᎤᏓᏅᎦᎸᏓ	-11.2983
▁ᏓᎩᏲᎯᏎᎸ	-11.2983
▁ᏗᎵᏍᎪᎸᏔᏅᎯ	-11.2983
▁ᎭᏙᎴᎰᎯ	-11.2983
▁ᎠᏗᏍᎦᎶᏗ	-11.2983
▁ᏳᎷᏨ	-11.2984
▁ᏓᏍᎩᏁᎵ	-11.2984
▁ᏚᏌᎳᏓᏅ	-11.2984
▁ᎠᎾᎦᎵᏍᎩ	-11.2984
ᏒᏁᎰ	-11.2984
▁ᏥᏐᎯ	-11.2984
▁ᎠᏁᎷᎲᏍᎨ	-11.2984
▁ᎢᏥᎷᏨᎭ	-11.2984
▁ᏂᎬᏩᏂᏪᏎ	-11.2984
▁ᎡᎦᏔ	-11.2985
▁ᏱᏂᏣᏛᏁᎸ	-11.2985
▁ᏧᏄᎪᏙᏗᏱ	-11.2985
▁ᏚᏲᎵᎸ	-11.2985
▁ᏧᏂᎷᏫᏍᏔᏁᏗ	-11.2985
▁ᎢᏣᏛᎪᏗᏱ	-11.2985
▁ᎢᏳᏂᏪᏍᏗᏱ	-11.2985
▁ᎤᎾᎵᏍᏓᏴᏅᎯ	-11.2985
▁ᎶᏔᏂ	-11.2985
ᏗᎦᎴᏲᏤ	-11.2985
▁ᎯᏥᏧᏣ	-11.2985
▁ᏚᏂᏲᏎ	-11.2985
▁ᏓᏞᏍᏗ	-11.2985
▁ᎠᎦᎫᏴᎡᏗ	-11.2985
▁ᏧᏏᎳᏛᏙᏗ	-11.2985
▁ᏓᏥᎷᏥ	-11.2985
▁ᎠᏆᏡᏗᏍᎩ	-11.2986
ᎦᎿᏩ	-11.2986
▁ᎠᏨᏏᏰᏗ	-11.2986
▁ᎤᏩᏇᏅᏔᏁ	-11.2987
▁ᎾᎾᏛᏁᎮᏍᏗ	-11.2987
▁ᎢᏥᎦᏔᎰ	-11.2987
▁ᏱᏣᏞ	-11.2987
▁ᎠᏛᎯᏍᏗᏍᎩ	-11.2987
▁ᎤᏓᎷᎸ	-11.2987
▁ᎠᏔᏲᎯᎮᏍᏗ	-11.2987
▁ᏭᏘᏅᏍᏔᏁᎢ	-11.2987
▁ᏥᏍᎦ	-11.2987
▁ᎧᏃᏍᎦ	-11.2987
▁ᎤᏂᏰᏨ	-11.2987
▁ᎤᏪᏙᎵᏤᎢ	-11.2987
▁ᎤᏓᏴᎳᏔᏅ	-11.2988
▁ᎠᏲᎱᏍᎨᏍᏗ	-11.2988
▁ᏭᏴᏍᏗᏱ	-11.2988
▁ᎦᎾᏄᎪᏥᎸᎭ	-11.2988
▁ᎤᏁᎳᏗᏍᏗᏱ	-11.2988
▁ᎤᏘᏅᏎ	-11.2989
▁ᎤᎬᏍᎪᎸᏁ	-11.2989
▁ᎡᏥᏁᎸ	-11.2989
▁ᏤᏏᏂ	-11.299
▁ᏗᎦᎫᏍ	-11.299
▁ᎡᏥᎦᏔᎭ	-11.299
▁ᎨᏥᏰᎸᎯ	-11.299
▁ᏥᎧᏍᎨᏂ	-11.299
▁ᏭᏓ	-11.299
▁ᎢᏣᏙᎴᎰᎯ	-11.299
▁ᏱᎾᏛᎦ	-11.2991
▁ᎠᏂᏐᏢᎢᏍᏗᏍᎩ	-11.2991
▁ᏚᏅᏩᏅᎩ	-11.2991
▁ᏫᏓᏆᎧᎾᏅᎩ	-11.2991
▁ᏂᏕᎲᏁ	-11.2991
▁ᎤᏂᏁᎢᏍᏗᏱ	-11.2991
▁ᎬᎭᏃ	-11.2991
▁ᏚᏪᏐᏤ	-11.2992
▁ᎤᏍᏔᎦ	-11.2992
▁ᎯᏍᎩᏍᏆ	-11.2992
▁ᎤᎩᎵᏲᎢᏍᏗᏱ	-11.2992
▁ᎤᎾᏓᏅᏍᏗᏱ	-11.2992
▁ᏕᏛᏅ	-11.2992
▁ᏳᏪᎾ	-11.2992
▁ᎮᎮᏍᏗ	-11.2993
▁ᎠᏤᎷᎯᏍᏗ	-11.2993
▁ᎾᏅᏁᎰ	-11.2993
ᏌᎳᏙᏗᏱ	-11.2994
▁ᎪᏍᏔᏴ	-11.2994
ᎠᏍᎦ	-11.2994
▁ᎠᏥᎤᏍᏕᏎ	-11.2994
ᏐᏍᏙᏗ	-11.2995
▁ᎠᏆᏕᏗᏱ	-11.2995
ᎾᏝᎥᎾ	-11.2995
▁ᎤᎾᏠᎾᏍᏛ	-11.2995
▁ᎤᏍᏆᏂᎩ	-11.2995
▁ᏚᎵᏰ	-11.2995
▁ᎬᏩᏂᏴᎲᎩ	-11.2996
▁ᎤᎾᏗᏔᏍᏗᏱ	-11.2996
▁ᏣᎾᏗᎭ	-11.2997
ᏍᎩᏰᎵᏎᎮᏍᏗ	-11.2997
▁ᎤᎵᏌᎳᏓᏁ	-11.2998
▁ᏔᏔ	-11.2998
▁ᎠᏂᏣᏗ	-11.2999
▁ᏱᏓᏚ	-11.2999
▁ᎠᏲᏍᏙᏗ	-11.2999
▁ᏧᏍᏕᎸᏗᏱ	-11.2999
▁ᎠᏂᎦᏘᏴ	-11.2999
▁ᎢᎬᏴ	-11.2999
▁ᎠᏍᏓᏱᏗᏍᎩ	-11.2999
ᏦᎦᏓᎵ	-11.3
▁ᎠᎩᏁᏤᎸᎩ	-11.3
▁ᎩᎳᏊ	-11.3
▁ᏗᏍᏕᎵᏍᎩ	-11.3001
▁ᏗᎬᏩᏁᎶᏗ	-11.3001
▁ᏣᎦᏙᎥᎯᏍᏗᏱ	-11.3001
ᏓᏙᎵᏍᏓᏁᎭ	-11.3002
▁ᏧᏏᎳᏛᏗ	-11.3002
▁ᎤᏂᏌᏛᏗ	-11.3003
▁ᎪᎵ	-11.3003
▁ᎠᎾᏓᏩᏛᎯᏙᎢ	-11.3003
▁ᎤᏅᏓᏗᏗᏒᎢ	-11.3003
▁ᏓᏓᏁᎳᏗᏒᎢ	-11.3003
▁ᏗᏆᏓᎴᏅᎢ	-11.3003
▁ᏚᏠᏒᏎᎢ	-11.3003
▁ᏚᏚᎪᏔᏅᎢ	-11.3003
▁ᎤᏓᏏᏁᎢ	-11.3003
▁ᏕᏣᏓᏘᎾᎥᎢ	-11.3003
▁ᏧᎾᏄᎪᏫᏎᎴᎢ	-11.3003
▁ᏗᏒᏆᎶᏍᏗ	-11.3003
▁ᏳᏫᎦ	-11.3003
▁ᏓᎬᏩᎵ	-11.3003
▁ᎢᏣᏂᎩ	-11.3003
▁ᏚᎾᏄᎪᏫᏎᎢ	-11.3003
▁ᏣᏍᎦᎩ	-11.3003
▁ᎠᏕᎸᏓᎶᏂᎨ	-11.3004
▁ᏙᏣᏓ	-11.3004
▁ᎤᏛᎦᏍᏔᏁᎢ	-11.3004
▁ᏧᏛᏒ	-11.3004
▁ᏗᎦᎵᏦᏛᎢ	-11.3004
ᏍᏓᏁᎭ	-11.3004
▁ᏚᎾᏓᏂᎸᏨ	-11.3005
▁ᏍᎩᎨᏳᎯᏳ	-11.3005
ᏅᏍᏔᏅᎯ	-11.3006
▁ᎧᏁᎨᎢ	-11.3006
▁ᎠᏂᎦᏔᎮᏍᏗ	-11.3006
▁ᎣᏤᎲᎢ	-11.3006
ᎧᎲᏍᏗᏱ	-11.3007
▁ᏣᏚᎵᎭ	-11.3007
▁ᏴᎦᎬ	-11.3007
▁ᎡᏥᎦᏙᎥ	-11.3007
▁ᎤᎵᏏᎾᎯᏍᏗ	-11.3007
▁ᎤᏢᎦ	-11.3007
▁ᎤᏂᏲᎸᎩ	-11.3008
▁ᎠᎩᏰᎯ	-11.3008
▁ᎠᏅ	-11.3008
▁ᎣᎦᏓᏅᏔᏩᏕ	-11.3008
▁ᎠᏓᎾᏅ	-11.3008
▁ᏥᏃᎪᎢ	-11.3008
▁ᎤᎾᏛᏓᏍᏛ	-11.3008
▁ᏂᎤᏍᏗ	-11.3009
▁ᎠᏥᏯᏅᎲ	-11.3009
ᎬᎭᎷᏰᎢ	-11.3009
▁ᎠᏍᏆᏂᎪᏛ	-11.301
▁ᎠᏍᎦᎢᎮᏰᏃ	-11.301
▁ᏄᏁᎩᏴ	-11.301
▁ᎮᏙᎭ	-11.301
▁ᎾᏆᎵᏍᏓᏁᎸᎩ	-11.3011
ᏛᏂᏗᏍᏕᏍᏗ	-11.3011
▁ᏕᎨᏥᏲ	-11.3011
▁ᏥᏚᏁᏤᎴ	-11.3011
▁ᎢᎬᏩᏅᏁ	-11.3012
▁ᎾᏂᎠ	-11.3012
▁ᎠᏥᏍᏛᏗᏍᏙᏗ	-11.3012
▁ᏳᏛᎦ	-11.3012
ᏍᏚᎲᏍᎪ	-11.3013
ᏄᏪᏎ	-11.3013
▁ᎤᏁᏉᎢᏍᏗᏱ	-11.3014
▁ᎤᎾᏄᎪᎢᏍᏗᏱ	-11.3014
▁ᏕᏥᎳᏫᎩ	-11.3014
▁ᎠᎫᏤᎵ	-11.3014
▁ᎤᏁᏙᎴᎢ	-11.3014
▁ᎤᏪᏁ	-11.3015
▁ᏧᏍᎩᏃ	-11.3015
▁ᎠᏂᎵᎾ	-11.3015
▁ᎠᎩᎸᏙᏗ	-11.3015
▁ᎤᏁᎫ	-11.3016
▁ᏧᏅᎪᏤ	-11.3016
▁ᎤᎾᎵᎪᎲ	-11.3017
▁ᏚᏑᏰᏒ	-11.3017
▁ᎤᎾᏛᎦ	-11.3017
▁ᎠᏓᏅᏙᎩᎯ	-11.3018
▁ᏯᎩᏰᎸᎭ	-11.3018
▁ᏮᏓᏥ	-11.3018
▁ᏗᎻᎾ	-11.3018
▁ᎠᏯᏫᏍ	-11.3019
▁ᏚᎾᏔᏅᎩ	-11.3019
ᎧᏁᏗ	-11.302
ᎷᏤᎴᎢ	-11.302
ᎵᏍᏔᏅᎯ	-11.302
▁ᎤᏁᎸᏙᏗ	-11.302
▁ᎦᎵᎡᎵ	-11.302
▁ᏂᏚᏛᏁᎸ	-11.3021
▁ᎤᏂᎶᏐᏅ	-11.3021
▁ᎨᏥᏍᏕᎸᏗᏱ	-11.3021
▁ᎪᎹᎵᏱ	-11.3021
▁ᎠᏂᎦᏔᎯᏳ	-11.3022
▁ᏗᏤᏅᏒ	-11.3022
▁ᏚᏂᏲᎱᏒᎩ	-11.3023
ᎨᎮᎩ	-11.3023
▁ᏕᏥᎧᏅ	-11.3023
▁ᏂᎪᎯ	-11.3023
▁ᎠᎾᏓᏅ	-11.3024
▁ᏄᏪᎡᎢ	-11.3024
▁ᎣᎦᏛᎦᏅᎯ	-11.3024
▁ᏧᏪᎳ	-11.3025
▁ᎣᎦᏣᏅᎩ	-11.3025
▁ᎣᏥᏬᏂᏍᎬ	-11.3026
▁ᎾᏆᏛᏅᎢ	-11.3026
▁ᎤᏔᎳᏬᏍᎬᎢ	-11.3026
▁ᎣᎦᏤᎵᎦ	-11.3026
▁ᏚᏪᏲᏁᎢ	-11.3027
▁ᎤᏪᏓᏍᏗᏱ	-11.3027
ᏅᏬᏒ	-11.3027
▁ᎤᏢᎬᎩ	-11.3027
▁ᏧᏂᏍᏓ	-11.3028
▁ᎠᏫᎾᎨᏍᏗ	-11.3028
ᏲᏓᎬ	-11.3028
ᏍᏆᏂᎪᏔᏅ	-11.3028
▁ᎩᏥ	-11.3029
▁ᎤᏍᎩᏓᏎᎢ	-11.3029
▁ᎤᏂᎩᏌ	-11.3029
▁ᎮᏙᎲᎢ	-11.3029
▁ᎤᏂᏬᏂᏒ	-11.3029
▁ᎤᎧᎵᎢᏍᏗᏱ	-11.303
▁ᎤᏂᏰᎸᏗ	-11.303
▁ᏅᏓᏍᎩ	-11.303
▁ᎦᎵᏦᏅ	-11.303
▁ᏥᏧᏏ	-11.3031
ᎬᏂᏛ	-11.3031
▁ᎤᏛᏛᏅᎩ	-11.3031
▁ᎤᏰᎸᏒ	-11.3033
▁ᏥᏤᎾ	-11.3033
▁ᏳᏁᎭ	-11.3033
▁ᏧᏓᎴᏅᎢ	-11.3033
▁ᎠᏗᏅᏓ	-11.3033
▁ᎤᎵᏦ	-11.3034
▁ᎤᎾᏁᎶᏔᏅ	-11.3034
▁ᏤᏙᎭ	-11.3035
▁ᏧᏄᏬᏍᏗ	-11.3035
ᏬᎥᎯ	-11.3035
▁ᎦᎷᎩ	-11.3036
▁ᏣᏠᎾᏍᏗ	-11.3036
ᏛᏛᎲᏍᎨᏍᏗ	-11.3037
ᎦᏔᎿᎢ	-11.3037
▁ᏕᏓᏓᎪᎲᏳ	-11.3037
▁ᎠᏑᏫᏍ	-11.3038
▁ᎡᏓᏍᏗᏱ	-11.3038
▁ᎢᏓᎵᎮᎵᎩ	-11.3039
▁ᎤᏓᏙᎵᏍᏔᏅᎩ	-11.3039
▁ᎤᏃᎮᎸᎯ	-11.3039
▁ᎤᎵᏓᏍᏔᏅ	-11.3039
▁ᎢᎳᎻ	-11.304
▁ᏭᎶᏒᏍᏛ	-11.304
ᎩᎦᏘᏛ	-11.304
▁ᎪᏢᏗᏱ	-11.304
▁ᎢᏥᏍᏆᏂᎪᏙᏗᏱ	-11.3041
▁ᏚᏭᎪᏔᏁᎢ	-11.3042
ᏕᎭᏲ	-11.3042
ᏕᎨᏍᏗ	-11.3042
▁ᎤᏂᏴᎲᎩ	-11.3043
▁ᏱᎦᏔᎭ	-11.3045
▁ᎠᏈ	-11.3046
ᎵᏍᎪᎸᏓᏁᎰ	-11.3046
▁ᎦᎵᏙᏗ	-11.3047
▁ᎩᎦᎨᏍᏛᏱ	-11.3047
▁ᎠᏁᎨ	-11.3047
▁ᎧᏃᎮᎭ	-11.3048
▁ᎤᏂᏍᏆᏂᎪᏙᏗᏱ	-11.3049
▁ᏧᏓᎵ	-11.3049
▁ᏓᏰᏙᎳᏛᎢ	-11.3049
▁ᎢᎨᎦ	-11.3049
▁ᎤᏰᎸᏒᎩ	-11.305
▁ᎪᎵᎩ	-11.305
▁ᏣᏁᏨᎢ	-11.3051
▁ᎤᏍᏓᏩᏛᏎᎢ	-11.3051
▁ᎢᏳᏅᏂ	-11.3051
▁ᎤᎵᏖᎸᏁᎢ	-11.3051
▁ᎢᏨᏁᏗᏱ	-11.3053
▁ᏚᏪᏟᏌᏅ	-11.3053
▁ᎤᏂᏄᎪᏤᏃ	-11.3053
▁ᏓᏘᏁᎲ	-11.3054
▁ᏗᏣᎵᎢ	-11.3055
▁ᎠᎵᎮᎵᏤᏗ	-11.3056
▁ᎠᏥᏍᏕᎸᏗᏱ	-11.3056
▁ᏗᏂᏁᎯ	-11.3057
▁ᏬᏥ	-11.3057
▁ᎤᏍᎦᎴᎢ	-11.3057
ᏟᎶᏍᏔᏅ	-11.3058
ᏏᏙᎴ	-11.3058
▁ᏕᏦᏕᏍᏗ	-11.3058
ᎳᏁᎸᎯ	-11.3058
▁ᏧᎶᏎᎢ	-11.3059
▁ᎠᎩᎾᏫᏱ	-11.3059
▁ᏳᏛᎾ	-11.3059
▁ᏱᏕᎬ	-11.3059
ᎩᏍᎬᎢ	-11.306
▁ᏂᏓᏅ	-11.306
▁ᎨᎦᎵᏥᏙᏁ	-11.3062
▁ᎡᏓᏓᏙᎵᏍᏓᏁ	-11.3063
ᏙᏔᏅᎩ	-11.3064
▁ᎢᏥᏰᎸᎭ	-11.3065
▁ᎤᏲᏍᏔᏅᎯ	-11.3065
▁ᏴᎬᎾ	-11.3066
ᎯᏍᏔᏅ	-11.3066
▁ᎢᏯᏋᏁ	-11.3067
▁ᏇᎯ	-11.3069
▁ᎤᏬᏢᏗᏱ	-11.3069
▁ᎬᎨᏳ	-11.3071
▁ᏥᏂᏣᏛᏁᎸ	-11.3072
ᏨᏒᎩ	-11.3073
▁ᏙᏌ	-11.3073
ᎦᎨᏗᏳ	-11.3073
▁ᎠᏂᎦᏔᎭ	-11.3074
▁ᏂᏓᏕᏘᏴᎯᏒᎢ	-11.3074
▁ᏩᏌ	-11.3074
▁ᏗᎦᏁᎸᎢ	-11.3074
▁ᎢᏧᏍᏗ	-11.3074
ᏛᏅᎢᏍᏗᏍᎨ	-11.3074
ᎾᏓᏡᎩ	-11.3075
ᎤᏅᏗ	-11.3075
▁ᎤᎾᏓᏅᏖᎸᎩ	-11.3075
▁ᎦᎾᏄᎪᏫᏍᎪ	-11.3076
▁ᎤᏯᎠ	-11.3077
▁ᏓᏰᏙᎳᏛ	-11.3077
▁ᏚᏂᎲᎢ	-11.3077
▁ᏦᏕ	-11.3077
ᏥᎳᏫᏎᎲ	-11.3079
ᏍᎦᏅᎾ	-11.3079
▁ᏗᏆᏄᏬ	-11.3079
ᎦᏙᏍᏙ	-11.3079
▁ᏚᏯᏍᏗ	-11.3079
▁ᎤᏗᎴᎲᏍᎬ	-11.308
ᏌᎻ	-11.3081
ᎪᎲᏍᎬ	-11.3082
▁ᎤᏂᏅᏅᎢ	-11.3082
ᎶᏘ	-11.3084
▁ᎣᏏᏉᏍᎪ	-11.3084
▁ᎢᏳᏲ	-11.3084
▁ᏆᎷ	-11.3086
ᎬᏗᎭ	-11.3087
▁ᏂᎨᏒ	-11.3087
▁ᎤᏂᏍᏚ	-11.3088
▁ᎤᏬᏂᏒᎩ	-11.309
▁ᎤᏁᏙᎸᎢ	-11.309
▁ᎤᏛᏗᏱ	-11.3091
▁ᏑᏓᎨ	-11.3091
▁ᎤᏯᏅᎮᎢ	-11.3093
▁ᎤᏂᏁᏨᎯ	-11.3094
ᎵᏍᏓᏁᎸᎩ	-11.3095
▁ᏑᎾᎴᎢᏳ	-11.3096
ᏈᎦ	-11.3097
ᏗᎣᏈ	-11.3097
▁ᎠᎩᏇᏓᎸᎢ	-11.3098
▁ᏕᎦᏍᎩᎸᎢ	-11.3098
▁ᎤᎩᎸᏗ	-11.3098
ᏩᏌᏙᏰ	-11.3098
▁ᏰᎮᏍᏗ	-11.31
▁ᏕᎦᎸᎢ	-11.31
▁ᎾᎾᏛᏁᎲᎾ	-11.3101
▁ᏗᎹ	-11.3101
▁ᎤᏓᏰ	-11.3102
▁ᎠᏇᎵᏍᏗ	-11.3102
▁ᎢᏣᎵᎮᎵᎬᎢ	-11.3103
▁ᎤᏚᏓᎳ	-11.3103
▁ᎤᏬᎯᏳᏒᎢ	-11.3103
ᎳᏫ	-11.3103
▁ᎤᎶᏏ	-11.3104
▁ᎠᏟᏍᏕ	-11.3105
▁ᎠᏁᎬ	-11.3105
▁ᎤᎩᎸᎩ	-11.3105
▁ᎤᎾᏚᎸ	-11.3105
▁ᎦᏆ	-11.3105
▁ᎠᏓᎶᏂᎨ	-11.3106
ᏯᏍᏛ	-11.3106
▁ᏄᏂᏪᏎᎴᎢ	-11.3106
▁ᏌᏉᎯᏳ	-11.3106
▁ᎮᎵ	-11.3107
▁ᎬᏩᏛᏛᏅᎩ	-11.3108
ᎵᏍᎪᎸᏔ	-11.3109
▁ᎠᏔᎸ	-11.3109
ᏩᏛᎮᎢ	-11.3109
▁ᎤᏬᎯᏨᏃ	-11.3109
▁ᎤᏕᎶᎰᎯᏍᏗ	-11.311
▁ᎠᏆᏛᎦᏅᎯ	-11.3111
▁ᏱᏁ	-11.3111
▁ᎠᎩᏍᎦᏅᏨᎢ	-11.3113
▁ᏧᎦᎴᏅ	-11.3113
ᏎᎵᏔᏁ	-11.3113
▁ᏫᏚᎷᏤᎴ	-11.3113
▁ᏧᏐ	-11.3114
ᏕᎸᎩ	-11.3116
ᎤᏙᎯᏳᎭ	-11.3117
ᏄᎪᏫᏒᎭ	-11.3117
ᏏᎳᏗ	-11.3118
ᏥᎸᏉᏔᏅᎯ	-11.312
▁ᎦᎢᏒᎢ	-11.3122
▁ᏓᎩᎸᏫᏍᏓᏁᎲᎢ	-11.3123
▁ᎣᎳ	-11.3124
▁ᎯᎦᏔᎲᎢ	-11.3124
ree	-11.3124
ᏓᏛᏁᎸ	-11.3125
ᏴᏅᎮ	-11.3126
ᎩᏍᎨ	-11.3127
▁ᏤᎦ	-11.3127
▁ᎦᏯᎸᎢ	-11.3128
▁ᎦᏗᎭ	-11.3128
▁ᎤᎬᎭᎷᏴ	-11.3128
ᏑᎶᏗ	-11.3128
ᎾᎾᏛᏁᎭ	-11.3128
▁ᎤᏔᎷᎩᏍᎬ	-11.3128
▁ᏧᏄᏬᎢ	-11.3129
ᏓᏢᎩ	-11.3133
▁ᏓᎾᏗᏔᏍᎨ	-11.3135
▁ᎤᏍᏚᎢᏒᎩ	-11.3135
▁ᎤᏦᏍᏔᏁ	-11.3136
▁ᎤᏂᏃᎮᎸᎩ	-11.3137
▁ᎾᏆᏛᏁᎸᎩ	-11.3138
ᎦᏅᏍᎨᏂ	-11.3139
▁ᎠᏆᎴᏂᏙᎸ	-11.314
ᏂᏴᏗᏱ	-11.3141
▁ᏥᏂᎦᏪᏍᎪ	-11.3142
ᏍᎪᎯᏧᏈ	-11.3143
▁ᏣᏯ	-11.3143
▁ᎤᎦᏔᎲᏒᎩ	-11.3144
▁ᏣᏍᏓ	-11.3145
▁ᎨᏙ	-11.3145
▁ᏚᎴᎯᏌᏅᎢ	-11.3146
▁ᏣᏓᏁᏗ	-11.3146
▁ᏗᏥᎦᏴᎵᎨᎢ	-11.3146
▁ᎠᏂᎦᏴᎵᎨᎢ	-11.3147
▁ᏧᎦᏴᎵᎨᎢ	-11.3147
▁ᎤᏁᎳᎩᏉ	-11.3147
ᏓᎢᏅᏒᎩ	-11.3149
▁ᎤᏰᎸᏎᎢ	-11.3149
ᏂᏅᎪᎠ	-11.315
▁ᎡᎪᎢ	-11.315
▁ᏩᎩᏴ	-11.3151
ᏫᏏ	-11.3151
▁ᎢᏕᎲᎢ	-11.3152
▁ᎤᎾᏚᎵᏍᎬᎩ	-11.3152
▁ᎢᏨᏰᎵᏎ	-11.3153
▁ᎦᏄᎸᏒᎢ	-11.3155
▁ᎦᎶᏛ	-11.3156
▁ᎤᏂᎷᏨᎯ	-11.3158
▁ᏥᏂᏥ	-11.3158
▁ᏗᏧᎬ	-11.3159
ᎵᎮ	-11.3159
▁ᎤᎾᏣ	-11.316
▁ᎠᎪᎵᏰᏍᎩ	-11.3163
ᎪᏢᏔᏅᎯ	-11.3163
▁ᎢᏣᎦᏔᏅᏎ	-11.3163
▁ᎤᏬᎴᎢ	-11.3164
▁ᏧᏂᏥ	-11.3164
▁ᎣᏁᎯ	-11.3164
▁ᎭᎳ	-11.3166
▁ᎬᏍᎦᎳ	-11.3168
▁ᏗᎯᏍᏗᏱ	-11.3168
▁ᎤᎵᏍᏆᏗᏍᏗᏱ	-11.3169
ᎵᏂᎪᎯᏍᏗᏍᎩ	-11.317
▁ᎢᎶ	-11.3171
▁ᎠᏂᏍᎦᎩ	-11.3173
ᏪᏛ	-11.3173
ᎵᎮᎵᏍᏙᏗ	-11.3174
▁ᏥᏁᎸᎢ	-11.3175
ᏓᎳᎩ	-11.3176
▁ᏈᎵᎩᏱ	-11.3182
ᏰᎸᏗᏱ	-11.3183
ᎵᎷᎬ	-11.3185
▁ᏚᏂᏅᏨ	-11.3186
▁ᎠᎦᎸ	-11.3187
ᏢᏫᏍᏙᏗ	-11.3187
▁ᎤᎾᎵᏥᏙᏅ	-11.3187
ᏛᏓᏍᏓᏁᎵ	-11.3188
▁ᏭᎶ	-11.3189
ᏥᏉᎳ	-11.3189
▁ᎠᎼᎯ	-11.3191
ᏏᏙ	-11.3192
▁ᏓᏂᏃ	-11.3192
ᏏᏙᎮ	-11.3192
▁ᏧᏍᎪᎸ	-11.3194
▁ᏕᎦᏚᏩᏗᏒᎢ	-11.3195
▁ᎤᏰᎸᏅᎢ	-11.3195
ᏓᏅᏖᏍᏗ	-11.3195
▁ᎢᏯᏛᏁᏗᏱ	-11.3196
ᏓᏎᎪᎩᏍᏗᏱ	-11.3197
▁ᏕᎮ	-11.3198
▁ᎤᏂᏁᎯ	-11.3199
▁ᎠᏲᏟᎨ	-11.32
▁ᎤᎵᏍᏓᏴᏗᏱ	-11.3205
▁ᎤᏣᏗ	-11.3207
▁ᏓᏰᏣ	-11.3207
▁ᎬᎩᏍᏗ	-11.321
▁ᏧᏁᏗ	-11.3212
ᎩᎳᎾᎳᏗᏍ	-11.3214
ᏂᏍᏓᏩᏚᎦ	-11.3214
▁ᎣᎦᎾ	-11.3216
▁ᎢᏳᎾᎵᏍᏓᏁᏗᏱ	-11.3217
▁ᏙᏓᏥ	-11.3218
▁ᎬᏩᏍᏛᏗᏍ	-11.3218
▁ᎠᎪᎲᏍᎬ	-11.3219
ᏆᏂ	-11.3224
ᏣᏓᏅᏛᎾ	-11.3226
ᎯᎠᎾ	-11.323
ᏂᎨᏒᎾ	-11.3231
▁ᎤᏂᏧᏈᏍ	-11.3232
▁ᏧᏂᏲᎰ	-11.3232
ᎤᎬᏫᏳ	-11.3238
ᏄᏛᏗ	-11.3238
ᏕᏗᏴ	-11.3238
▁ᏧᏭᏓ	-11.324
▁ᎠᎪᎲ	-11.3241
ᏫᏒᏗ	-11.3241
▁ᎠᏯᎥᎢ	-11.3243
▁ᎤᏜᏅᏛᎢ	-11.3243
▁ᎤᏢᏨ	-11.3245
▁ᎤᏗᏍᎦᏢ	-11.3246
▁ᏗᎦᎴᏴ	-11.3247
or	-11.3249
▁ᏅᏩᏍᏗ	-11.3254
ᏌᏁᎢ	-11.3255
ᏓᏁᎴᎢ	-11.3256
▁ᏗᏄᏬᏍᏗ	-11.3257
ᏂᎢᏛ	-11.3258
ᎨᏫᏍᏗ	-11.3261
▁ᎠᏍᎦᏅᏨᎢ	-11.3261
ᏪᏒᎩ	-11.3262
▁ᏆᎩ	-11.3265
▁ᎠᏉᎯᏳ	-11.3267
▁ᏂᏕᎦᏪᏎ	-11.3268
ᏲᎯᏎᏗ	-11.3272
▁ᏳᎾᎵᎪ	-11.3272
▁ᎧᏃᎲᏍ	-11.3272
▁ᎠᏍᏆᏂᎪᏍᎨ	-11.3273
▁ᎤᎾᏓᏅᎦᎸ	-11.3275
▁ᎤᎵᏍᏙᏗ	-11.3277
▁ᎤᏂᏍᏆᏂᎪᏎᏃ	-11.3284
▁ᏳᏰᎸᏁ	-11.3284
ᏱᎵᏙᎸ	-11.3286
ᎩᎷᏫ	-11.3291
ᏄᏍᏛ	-11.3292
▁ᏧᎾᏄᏬᎢ	-11.3292
ᏓᏂᏙᎦ	-11.3294
ᎯᏐᏗ	-11.3295
▁ᎠᏌᏅ	-11.3295
▁ᏭᏏᎳᏛᏁ	-11.3296
▁ᎠᏟ	-11.3297
▁ᏓᏍᏆᏂᎪᏗ	-11.3299
▁ᏃᎴᏍᏉ	-11.33
▁ᏏᏉ	-11.3304
▁ᏕᎤᎴ	-11.3305
ᏟᏏᏍᎪᎢ	-11.3311
▁ᎨᏣᎵᎮᎵ	-11.3311
ᏕᎸ	-11.3312
ᏓᎢᏅᏎᎢ	-11.3312
ᏁᏉᎢᏍᏗᏱ	-11.3313
ᏙᏙᏱ	-11.3313
ᎪᏯᏛ	-11.3314
ᏛᎦᏁᎴ	-11.3316
▁ᏴᎾ	-11.3318
▁ᎦᎸᎢ	-11.3322
▁ᎤᏇᏓᎸᎢ	-11.3322
▁ᎤᎾᎥ	-11.3324
ᎬᏁᏗ	-11.3325
ᏰᎮᏍᏗ	-11.3325
▁ᏫᏗᎩ	-11.3326
▁ᏣᏓᏡᏗᏍᎪ	-11.3332
▁ᎥᎩᏂᏐᏗ	-11.3334
▁ᎠᎩᎷᏤᎸ	-11.334
ᏍᏗᏍᎪ	-11.334
▁ᎠᎩᎪᎵᏰ	-11.334
▁ᏧᏂᏗᏱ	-11.3341
ᏆᎧᎿᏅᎩ	-11.3342
▁ᎠᏂᏙᎾᎥᎢ	-11.3343
▁ᎦᏥᏯᎵᏥᏙᏁ	-11.3344
ᏅᎬ	-11.3347
ᏲᏍᏙᏓᏁᏗ	-11.335
ᎸᏉᏙᎢ	-11.335
▁ᏍᎩᎵ	-11.3352
▁ᏕᎦᏛᎢ	-11.3357
▁ᎦᎵᏣ	-11.3359
ᏍᏔᏁᎴ	-11.336
ᏥᏍᏛᏗᏍᏙᏗ	-11.3364
▁ᎤᎵᏁᏨᎢ	-11.3365
▁ᏱᏂᎬᏂ	-11.3366
ᏥᎩ	-11.3367
ᏏᎳᏛᏙᏗ	-11.337
ᏂᏆᏘᎮᏍᏗ	-11.337
▁ᎨᎦᏎᎸ	-11.3371
▁ᎠᏄᏬᏍᏗ	-11.3372
ᏓᏌᎳᏗᏍᎨᏍᏗ	-11.3377
ᎩᎸᏙᏗ	-11.3377
▁ᏱᏓᏓ	-11.3378
▁ᏓᏳᏓᎴᏅᎩ	-11.3383
ᏔᏍᏗ	-11.3384
ᏓᏅᏬᏗ	-11.3387
▁ᎠᏊ	-11.3387
▁ᏯᏥ	-11.3389
ᎮᏗ	-11.3389
▁ᎤᏅᏏᏴᎢ	-11.339
▁ᎤᎨᏓᎵᏴᎢ	-11.339
ᏂᏅᏏᏓᏍᏗ	-11.3391
▁ᏭᏯᏅᎮᎢ	-11.3396
ᏓᏅᏘ	-11.3397
▁ᏧᏩᏔᏁ	-11.3399
▁ᎠᏍᎦᏂᏍᎩᏂ	-11.3407
ᏃᎮᏍᎨᏍᏗ	-11.3408
▁ᎢᏨᏯᏅᏓᏗᏍ	-11.341
ᎾᏗᏅᏗ	-11.3411
▁ᎥᏍᎩᏃ	-11.3414
ᎧᏁᎸᎾ	-11.3414
▁ᎧᎳᏩᏗᏒᎢ	-11.3415
▁ᎤᏃᏴ	-11.3416
▁ᏗᎦᏚᎲᎢ	-11.3416
▁ᎤᎾᏞ	-11.3422
ᎾᏚᎦ	-11.3424
ᎴᏛ	-11.3425
▁ᏂᏥᏍᎦᏅ	-11.3427
▁ᏰᎮ	-11.3428
ᎪᎵᎬᎾ	-11.3428
ᎾᏗᏅᏎ	-11.3432
▁ᏚᎾᏓᎸ	-11.344
ᎭᏢ	-11.3441
ᏥᏛᎯ	-11.3444
ᏍᎩᏯᏅᎡᎸ	-11.3444
ᏁᏉᏤᏗᏱ	-11.3447
▁ᏃᎦᏍ	-11.3448
ᏓᏁᎲᎩ	-11.345
ᎵᎢᏍᏗ	-11.3454
ᏐᎯ	-11.3454
▁ᎣᏣᎵᏥᏙᎲᏍ	-11.3459
▁ᎠᏂᏯᎥ	-11.3461
▁ᏗᎦᎴ	-11.3463
▁ᎤᏛᏛ	-11.3466
▁ᏱᎦᎷ	-11.3468
▁ᏧᏂᎦᏐᎠ	-11.3471
▁ᎣᏓ	-11.3472
▁ᏱᎦᎨᏎ	-11.3473
▁ᎤᎯᏍᏗ	-11.3475
▁ᏧᏂᏁ	-11.3476
ᏍᏓᏁᏗ	-11.348
ᎪᎲᏍᏔᏁ	-11.348
▁ᎬᏗᏍᎬᎩ	-11.3481
▁ᎤᎾᏟ	-11.3483
▁ᎢᏗᏓᏛᏁ	-11.3484
▁ᏉᏏ	-11.3485
▁ᎤᎾᏙᏢ	-11.3487
ᎯᏰᏃ	-11.3488
▁ᎢᏳᏂᏨ	-11.3489
▁ᏓᏓᎿᏩᏍᏛᎢ	-11.3489
ᏄᎪᎨᏍᏗ	-11.349
▁ᎢᎦᎦᏛᎢ	-11.349
▁ᎠᏂᏃᎮᏍᎬᎢ	-11.349
▁ᎥᎴ	-11.3491
ᏖᏃᎯ	-11.3496
ᏓᏂᏴ	-11.3496
ᏙᎯᏉ	-11.3499
▁ᎤᏲᎴᏃ	-11.3501
ᎪᏩᏗᎭ	-11.3503
▁ᎦᏛᎩ	-11.3505
▁ᎤᏁᎴᎢ	-11.3506
ᎷᏤᎸᎭ	-11.3513
ᎸᏏ	-11.3516
ᎨᏳᏒ	-11.3517
▁ᏔᎳ	-11.3527
▁ᎱᏂᎷ	-11.3527
ᏍᏛᏅᎯ	-11.3532
▁ᏗᎦᎳ	-11.3534
ᏍᏗᏰᎬ	-11.3539
ᏰᏨ	-11.3539
▁ᎦᎶᏍᎨ	-11.3539
ᏍᏚᎩᏎ	-11.3546
ᎾᎷᏒ	-11.3548
ᏨᏛ	-11.3551
ᏠᏱᎭ	-11.3555
▁ᎢᏥᏔᏲᎯ	-11.3556
ᏳᎶᏗ	-11.3558
ᏅᏣᏛ	-11.356
▁ᎤᎾᎵᎪᏒ	-11.3561
ᏚᎲ	-11.3564
▁ᎤᏣᏙ	-11.357
ᏂᎨᏂ	-11.3573
▁ᏕᎦᎸ	-11.3575
ᏲᎤᎵ	-11.3578
▁ᎤᏬᏒ	-11.3579
ᏂᏪᎠ	-11.3579
ᎥᎭ	-11.359
▁ᎬᏩᏕ	-11.3595
ᏙᎭᏴ	-11.3596
ᏛᏂᏗᏍᏗ	-11.3597
▁ᎤᏤᎵᎪ	-11.3599
ᏂᎦᏛ	-11.3603
▁ᏴᏫᏯ	-11.3604
▁ᎦᏥᏲ	-11.3611
▁ᏱᏂᎨ	-11.3612
▁ᎤᏤᎵᎦᏯ	-11.3615
▁ᏫᎬᏩᏴ	-11.3616
ᎩᏚᎢᏍᏓᏁᎸ	-11.3618
ᎦᏔᏙᎥ	-11.3619
ᎦᎸᎢᏛ	-11.362
▁ᏥᏫᎦ	-11.3621
ᏓᏅᏖᏍᎨ	-11.3622
ᎦᏔᎯᏳ	-11.3626
▁ᎠᎦᏔᎲᎩ	-11.3627
ᏃᏎᎭ	-11.3627
▁ᎬᏩᏃᎵᏍ	-11.3628
▁ᎣᏣᎵᏍᎦᏍᏙ	-11.3629
ᎯᏍᏗᏍᎪ	-11.3633
ᎾᏄᎪᏫᏎᎸᎯ	-11.364
▁ᏭᏚ	-11.3644
ᏌᎡ	-11.3646
ᏚᏓᎳᎡ	-11.3649
ᏲᎯᏎᎴ	-11.365
▁ᎢᏣᏓᏄᏴ	-11.3652
ᎷᏥᎸ	-11.3655
ᎬᏁᎲ	-11.3657
ᎦᏙᎥᏒ	-11.3658
▁ᎤᏣᏁ	-11.3659
▁ᏬᎩᏂ	-11.3661
▁ᎠᏤᎸᏍ	-11.3663
ᏣᎵᎮᎵᎦ	-11.3665
ᏓᏯ	-11.3665
ᏓᎬᏩᏍᏓᏩᏛᏛ	-11.3667
▁ᎤᏙᎴᎰᏒᎩ	-11.3669
▁ᏚᎧᎵ	-11.367
▁ᎤᎵᏍᏙ	-11.3672
▁ᎤᏂᎪᎲᎢ	-11.3672
▁ᏴᎦᎦ	-11.3674
ᏓᏤᎵᏛ	-11.3679
▁ᎠᏗᏍᎩ	-11.368
▁ᏚᏪᎧᎮ	-11.3683
▁ᏕᎨᎦᏬᏍ	-11.3689
▁ᎯᎬ	-11.3691
▁ᎤᎾᏨᏎ	-11.3693
▁ᎢᏤᏙᎯ	-11.3696
▁ᎣᎬᏙᏗ	-11.3703
ᏍᏉᏟ	-11.3711
▁ᎠᎡ	-11.3715
ᏪᏎᎮᏍᏗ	-11.3716
▁ᎦᏙᏉ	-11.3718
▁ᏧᎵᏰ	-11.3725
▁ᎤᏓᏣᎦᎸ	-11.3726
▁ᎠᏂᎦᏔᎲᎩ	-11.3729
ᏲᎱᏍᎦ	-11.3737
ᏍᎦᏅᏨᎯ	-11.3741
ᏯᏅᏓ	-11.3743
▁ᏂᎯᎾ	-11.3744
ᎳᏍᏓ	-11.3744
ᏍᏆᏂᎪᏗᏍᎩ	-11.3744
▁ᏴᏛ	-11.3749
▁ᎤᏂᏲᎮ	-11.3751
ᏛᎩᏍᎬ	-11.3759
▁ᏩᏴᏍᏗ	-11.3762
▁ᎢᏨᏰ	-11.3764
ᏃᎮᏍᎩ	-11.3767
▁ᎣᎩᎭ	-11.3771
ᏥᏁᎰᎢ	-11.3776
▁ᏱᏭᏂ	-11.3779
▁ᎡᏣᏑᏰ	-11.3781
ri	-11.3784
▁ᏗᏰ	-11.3792
ᏗᏍᏙᏗ	-11.3794
▁ᎬᏩᎵ	-11.3803
▁ᏣᏍᎦᏅᎪ	-11.3811
ᏑᏢ	-11.3812
▁ᎤᏂᏰᎸ	-11.3812
ᎦᏍᎩᎶᎩ	-11.3815
▁ᎦᏂᏴᏗ	-11.3819
ᏏᎳᏕ	-11.3823
ᎤᏙ	-11.3823
▁ᏘᎩ	-11.3827
▁ᎢᏝ	-11.3827
ᎦᏚᎩᏱ	-11.3828
ᏲᎮᎸ	-11.383
ᏄᎪᏫᏍᏗᏱ	-11.3832
ᏛᏗᏱ	-11.3834
▁ᎤᏚᎵᏍᎬᎢ	-11.3836
▁ᏥᏨᏲᏎ	-11.3839
▁ᎦᎾᎸ	-11.3839
ᏅᏅ	-11.3846
ᎫᎢᏍ	-11.3847
ᎳᎭ	-11.3852
ᎯᎮ	-11.387
ᏴᎦ	-11.3872
▁ᎢᏥᏁᎸ	-11.3881
▁ᏗᏣᎵ	-11.3883
▁ᏚᎴᏁᏃ	-11.3888
ᎾᏄᎪᏫᏍᎦ	-11.3888
▁ᎡᎳᏪᏱᏉ	-11.389
ᎵᏏᎾᎯᏍᏗ	-11.3891
ᏥᏌᎳᏙᏗ	-11.3897
▁ᏄᎾᏍᏛᎢ	-11.3898
▁ᎠᎾᏓᏅᏖ	-11.391
▁ᎠᏑᏰ	-11.3913
▁ᎠᎪᎵᏰᏍᎬ	-11.3921
▁ᏱᏂᎦ	-11.3934
ᏴᏁᏗᏱ	-11.3945
▁ᏱᏤ	-11.3947
ᏲᎯᏎᎸ	-11.3949
▁ᏕᎬᏕ	-11.3951
▁ᏁᎵ	-11.3953
ᏘᏲᎯ	-11.3954
ᏕᏏ	-11.3958
ᏒᏉ	-11.396
ᏣᏛᏅᎢᏍᏓᏁ	-11.3966
ᏥᏰᎯ	-11.3966
▁ᏱᏥᏩᏛ	-11.3967
ᎸᏍᏙᏗᏱ	-11.3968
ᏪᎳᏅ	-11.3972
▁Ꮚ	-11.3972
▁ᎤᎾᏑ	-11.3977
▁ᎠᎩᏍᏆᏂᎪ	-11.3986
ᏁᏛ	-11.3988
▁ᏎᏗ	-11.3989
ᏂᏯᏪᏨ	-11.3993
ᏒᏂᎸ	-11.3993
▁ᎤᏴᎸ	-11.3994
▁ᏗᏂᏁ	-11.3998
▁ᎤᎵᏦᏔᏅ	-11.3998
▁ᏕᏧᎪ	-11.4
ᏛᏁᎢ	-11.4005
ᏥᏯᏂᏍᎨᏍᏗ	-11.4005
ᎾᏡᏗᏍᎬ	-11.4008
ᎾᏌᎢ	-11.4022
ᏨᏍᏛ	-11.4024
ᏙᏔᏁᎢ	-11.4026
ᏓᏑᏲ	-11.4034
▁ᏥᎦᏃ	-11.4034
▁ᏂᎬᎩ	-11.4035
ᎤᎾᏣᏁ	-11.4043
ᏍᏗᏰᏔᏅᎩ	-11.4048
▁ᏓᎧᎿᏩᏗ	-11.4049
▁ᎠᎩᎾᎥ	-11.4054
▁ᎤᎾᏄᎪᏨ	-11.4058
ᏛᏅᎢᏍᏔᏅᎯ	-11.4066
ᏨᏁᎸ	-11.4069
▁ᎢᏣᏠᏯᏍᏙᏗ	-11.4072
▁ᏥᎠ	-11.4072
▁ᏣᎦᎴ	-11.4077
▁ᏂᎬᏪᏎ	-11.4082
ᏲᏍᏓ	-11.4085
▁ᎣᎩᎾᎵ	-11.4085
▁ᎢᏦᎯᏳᎲᏍ	-11.4087
▁ᎠᏓᏅᏍᎨ	-11.4088
ᏥᏅᏍᏗ	-11.4091
ᎾᎫᏴᏗ	-11.4092
ᏂᏐᏗᏱ	-11.4094
ᏣᎦᏎᏍᏕᏍᏗ	-11.4095
ᏲᏎᎮᏍᏗ	-11.4096
ᏙᏛ	-11.4097
ᏲᎮᎸᎩ	-11.4099
▁ᎤᏲᏏᏍᎨ	-11.4109
ᏂᎦᎥ	-11.4121
ᏗᎹ	-11.4122
▁ᎬᏆᏓᏅ	-11.4122
ᏔᏍᎬ	-11.4125
▁ᏓᏳᏁ	-11.4125
ᏅᏙ	-11.4126
▁ᏓᎴᎲᏍᎬ	-11.4131
ᎦᎴᏔᏂ	-11.4133
ᏍᏓᏁᎵ	-11.4136
ᏎᎯ	-11.4144
ᏌᏛᎢ	-11.4145
ᎵᎪᏁᎸᎯ	-11.4145
▁ᎠᏂᎯ	-11.4149
ᎴᏫᏍᏔᏅ	-11.4153
▁ᎨᏥᏁᎸ	-11.4158
▁ᏗᎧᎿᏩ	-11.4159
ᏃᏴᎵᏍᏗ	-11.4164
ᏃᎮᏍᎬ	-11.4165
ᏴᏙᏗ	-11.4173
ᏓᏓᎸ	-11.418
▁ᏘᏂ	-11.4196
ᏗᎤᏨᏎ	-11.4197
▁ᎤᏓᎴ	-11.421
▁ᏭᏢ	-11.4211
ᏥᏁᎴ	-11.4211
ᎵᏂ	-11.4218
▁ᎮᏙ	-11.422
▁ᎢᏥᎪᎵᏰ	-11.4221
▁ᏯᎵ	-11.4223
ᏎᎪᎩᏒ	-11.4224
▁ᎠᏓᎴ	-11.4225
ᏍᏕᏓᎵᏴ	-11.4225
ᎵᏙᎲᎢ	-11.4227
ᏜᏏᏛᎡ	-11.4227
ᏩᎯᏍᏔᏅᎯ	-11.4229
▁ᏂᏚᏪ	-11.4232
▁ᏱᎦᏓ	-11.4232
ᎮᎸᎩ	-11.4234
ᎠᎩ	-11.4235
ᏍᏆᏂᎪᏛ	-11.4237
▁ᏧᏍᎪ	-11.4246
ᏅᏗᏍᎬ	-11.4249
ᏙᎥᎢ	-11.4255
ᎬᏩᏂᎪᏩᏛ	-11.426
▁ᏣᏗ	-11.4265
ᏍᎦᏍᏓᏁᏗᏱ	-11.4275
▁ᎠᏯᏦ	-11.4275
ᎾᏰᏍᎦ	-11.4279
▁ᎤᏍᎩ	-11.4283
ᎳᏕᏗ	-11.4298
▁ᎤᎾᎴᏅᏗ	-11.4305
ᏚᎵᏍᎬᎢ	-11.431
▁ᏯᏂᎦᏔ	-11.4318
ᏚᎸᏌᏛ	-11.4318
ᏅᏏ	-11.4326
ᏚᎢᏍᏓᏁ	-11.4326
▁ᎤᏂᏏ	-11.433
ᏲᏎᎢ	-11.433
▁ᏚᏂᎭ	-11.4338
ᏓᎾᏅ	-11.4342
ᏓᏅᏙ	-11.4349
ᏄᎶᏔᏅ	-11.4351
ᎪᏩᏔ	-11.4363
▁ᎤᎸᏕ	-11.4365
ᎣᎢ	-11.4366
▁ᏧᏪᎧᏁ	-11.4381
ᎵᏥᏙᏁᎸ	-11.4381
ᎵᏍᏗᏍᎬ	-11.4383
▁--	-11.4389
▁ᎤᎾᎵᏍ	-11.4391
▁ᏗᏯᏖ	-11.4405
ᏳᎢ	-11.4406
▁ᏫᎦᎾᏄᎪ	-11.4409
▁ᎤᏂᏍᏆᏛ	-11.4415
ᏓᏂᏐᏗᏱ	-11.4416
ᏫᏎᎸᎯ	-11.4417
▁ᏯᎭ	-11.4417
▁ᏣᏙᎵ	-11.4419
ᏪᎢ	-11.4424
ᏍᎩᏃ	-11.4425
ᎦᎹ	-11.4427
ᏨᏓ	-11.4428
ᏍᎩᎲᏏ	-11.4434
▁ᎾᏁ	-11.4439
▁ᏥᏍᎩ	-11.4443
▁ᎤᏢᏁ	-11.4443
ᏚᎵᏍᎬ	-11.4453
ᏲᎯᎮ	-11.4458
▁ᎤᏁᎢ	-11.4461
ᏲᎰᏎᏗ	-11.4467
ᏯᎡ	-11.4474
▁ᎤᎾᏂᏢ	-11.4475
▁ᏫᏕ	-11.4478
ᏲᎢᏳ	-11.4484
▁ᎦᏄᎪᎬ	-11.4485
ᏥᏲᎢᏎ	-11.4494
ᏚᏓᎴ	-11.4499
▁ᎤᏂᎦ	-11.45
▁ᎠᏂᏩᏛ	-11.4504
ᎯᏏ	-11.451
▁ᏫᏘ	-11.4516
▁ᏗᏂᎳ	-11.4522
ᏳᎵᏍᏙᏗ	-11.4522
ᎶᎯᏎᎸ	-11.4534
ᎦᎶᎯᏍᏗᏱ	-11.4548
ᏥᏂᎨᏂ	-11.4554
▁ᎢᎯᏯ	-11.4555
▁ᏱᏥᏍᏆᏂᎪ	-11.4557
ᏔᏲᎯᎰ	-11.4563
ᏃᎮᏗᏱ	-11.4569
ᏥᏴᏔᏂ	-11.4573
ᎦᏘᎴᎦ	-11.4575
ᏂᏴᎲ	-11.4579
ᎴᏗ	-11.458
ᏛᏎ	-11.4587
▁ᎠᎨᏳ	-11.459
ᎳᎩ	-11.4595
ᏙᎲᎾ	-11.4603
ᎦᎷᎬ	-11.4603
▁ᎤᏍᏓᏩᏗᏒ	-11.4606
▁ᏗᏣᏓᎨᏳ	-11.4612
ᏓᏲ	-11.4614
▁ᎤᏑᏰ	-11.4614
ᏂᏓ	-11.4618
ᏓᏅᏔ	-11.462
▁ᏧᏪᏲ	-11.4621
▁ᎦᏂᎵ	-11.4621
▁ᎢᎦᏛᏉ	-11.4622
▁ᎠᏆᏗ	-11.4626
▁ᎢᏨᏁᎸ	-11.4626
▁ᎠᎳ	-11.4631
ᏥᏪᏏ	-11.464
▁ᏱᎦᏰ	-11.4644
▁ᏣᎢᏒ	-11.4645
ᎾᏏᏁ	-11.4654
ᏛᏅᎢᏍᏙᏗ	-11.4664
▁ᏯᏉ	-11.4666
ᏘᎷᎦ	-11.4668
▁ᎤᎾᏣᏅ	-11.4668
ᏂᎩᏍᏔᏁ	-11.4669
ᎻᎦ	-11.4669
▁ᎣᏤᎵ	-11.4678
ᏝᎥ	-11.468
ᏴᎳᏒ	-11.4683
ᏰᎵᏏ	-11.4685
ᏩᎾᎦᎳᎯᏳ	-11.4685
ᏩᏛᎲᎾ	-11.4686
ᏂᏍᎦᎩ	-11.4688
▁ᎠᏂᎸ	-11.4688
▁ᎨᏥᏅ	-11.4693
ᏤᎳ	-11.4694
▁ᏰᏙᎮ	-11.4699
▁ᎠᎩᏍᎩ	-11.4701
ᎦᎵᏍᏙᏗᎭ	-11.4701
▁ᎫᏓ	-11.4701
▁ᎤᎪᏅ	-11.4702
ᏂᏆᏘᎭ	-11.4706
da	-11.4707
ᏌᏬᎸ	-11.4715
▁ᏗᏥᏴ	-11.4717
ᏫᏍ	-11.4718
▁ᎤᎫᏴ	-11.4727
ᎤᏟ	-11.4731
ᏫᏗ	-11.4734
ᏴᎳ	-11.4736
▁ᎣᎩᏃᎮ	-11.4737
ᎦᎵᏍᏓ	-11.4742
ᎦᏌᏯᏍᏗᏍ	-11.4744
▁ᎭᎵᏍᏓᏴ	-11.4745
▁ᏭᎷᏤᎸ	-11.4746
ᎢᏒ	-11.4758
ᎦᏔᎰᎢ	-11.4758
ᏘᏃᎸᎩ	-11.4763
▁ᎤᏂᎧᎵᏨ	-11.4765
ᎯᏴᎩ	-11.4769
▁ᎤᎨᏳ	-11.4771
ᏥᏩᎯᏍᏔᏅᎯ	-11.4774
▁ᎤᏂᏁᏤ	-11.4778
ᎯᏍᏓᏁᎸ	-11.4781
ᏇᏗ	-11.4782
▁ᏗᏯ	-11.4796
ᏍᏓᏴᏗ	-11.4797
ᏥᏁᎪᎢ	-11.4804
▁ᎠᎱ	-11.4807
ᏲᎲᏍᎬ	-11.4811
ᏨᏁᏍᏗ	-11.4821
ᎾᏛᎩᏍᎪ	-11.4828
▁ᏖᎾ	-11.4839
ᎤᏨᏎ	-11.4841
ᎵᏍᏓᏴᏙᏗᏱ	-11.4844
▁ᏂᏚᏂ	-11.4854
ᏝᏅ	-11.4864
ᏕᎪ	-11.4873
ᎨᎯᏒ	-11.4875
ᏘᏂᏒ	-11.4877
ᎧᏃᏗ	-11.4878
ᎷᏤᏗ	-11.4881
ᎦᏘᏲ	-11.4884
▁ᎣᎩᏴ	-11.4885
ᎦᏙᏍᏔᏁᎢ	-11.4886
▁ᎤᏛᏛᏁᎢ	-11.4899
ᏐᏢᎢᏍᏙᏗᏱ	-11.49
ᎪᏩᏘᏍᎨᏍᏗ	-11.4902
ᏣᎵᏍᏗᎭ	-11.4907
▁ᎢᎩᎧ	-11.4908
ᎸᏫᏍᏓᏁᎰᎢ	-11.4909
ᎦᏲᎵᏳ	-11.491
ᏛᏁᎴᎢ	-11.4918
ᎡᎪᎢ	-11.4924
▁ᏕᎦᎾ	-11.493
▁ᏭᏴ	-11.493
ᏲᎮᎴᎢ	-11.4945
ᎸᏅ	-11.4947
▁ᏳᎾᏅ	-11.4947
ᎩᏐᏅ	-11.4949
▁ᎤᎿᎸ	-11.4951
ᏁᎲᎾ	-11.4952
▁ᎦᏥᏁᏗ	-11.4956
ᏁᏍᎨᏍᎩ	-11.4958
▁ᎠᏐᏢᎢᏍᏙᏗ	-11.4959
▁ᎢᎾᎨᏉ	-11.4963
ᏃᏁᎵ	-11.497
ᏅᏍᏔᏁᎢ	-11.4978
▁ᎠᏨ	-11.4978
▁ᎤᏢᎨ	-11.4978
ᏰᎸᏎ	-11.4987
ᏛᏁᎸ	-11.4988
▁ᎤᏂᏇᏓ	-11.4989
▁ᏧᎾᏚᎪᏓᏁᏗ	-11.4992
ᎴᏔᏂ	-11.4995
ᏓᏓᏱ	-11.4999
ᏈᏓ	-11.5019
ᎵᏍᎪᎸᏓᏁᎸ	-11.5019
ᏍᏓᏁᎮ	-11.5024
ᏓᏥᎶ	-11.5026
▁ᎡᏥᎸ	-11.5035
ᏩᏯ	-11.5044
ᏱᎴ	-11.5045
ᎢᎲ	-11.5051
▁ᎠᏎᎪᎩᏍ	-11.5055
ᏩᏂᎦᎸ	-11.5068
ᏴᏓᏆᎶᎥᎩ	-11.5074
ᏎᎵᏛ	-11.5078
▁ᎤᎾᎵᏍᎩ	-11.5083
ᏴᏍᏕᏍ	-11.5087
▁ᏕᎤᏅ	-11.5088
▁ᎤᏙᎯᏳᏗ	-11.5089
▁ᎠᏆᏕ	-11.509
▁ᏱᏂᎦᎵᏍ	-11.5091
▁ᎡᎬ	-11.5097
ᎡᎰ	-11.5108
ᏛᎪᏗ	-11.5111
ᎾᏛᏁᎭ	-11.5118
▁ᏕᎦᏓ	-11.5118
▁ᎤᎪᎳ	-11.512
ᎵᏍᎪᎢ	-11.5127
ᎪᏢᏙᏗ	-11.5133
▁ᎢᏥᎨᏳ	-11.514
▁ᏅᏓᏣ	-11.514
ᏢᏈ	-11.514
ᏗᏎᎢ	-11.5141
ᎵᎥᏂᎸ	-11.5144
ᏔᏲᏎᎮ	-11.5147
▁ᎤᏙᏯᏅᎯᏕ	-11.5147
ᏓᏉ	-11.5151
ᎶᏍᎬ	-11.5152
ᏗᏩᏛᎯ	-11.5153
▁ᏧᏓᏴᎳ	-11.5154
ᎪᎥᎯ	-11.516
▁ᏭᏂᏴ	-11.5163
ᎦᎵᏍᎪ	-11.5164
▁ᎦᎾᏰ	-11.517
ᎦᏧ	-11.5176
ᎪᏔᏅ	-11.5181
ᎯᎠᏃ	-11.5183
ᏍᏗᏰᏔᏁ	-11.5192
ᏐᏅᎢᏍᏔᏅᎯ	-11.5201
ᏚᎶ	-11.5207
ᏱᏢᏗ	-11.5216
ᎩᏍᏕᎸᏗᏱ	-11.5222
ᎲᏍᎪ	-11.5226
▁ᏔᎴ	-11.523
▁ᎤᏂᎾᏗᏅ	-11.5231
▁ᏗᎦᏓᎨᏳᎯ	-11.5236
▁ᎡᏥᎾᏰ	-11.5239
▁ᎤᏂᎷᏤᏃ	-11.5243
▁ᏚᎾᏠᎯᏍ	-11.5244
le	-11.5247
ᏓᏕᏲᎲᏍᎨᏍᏗ	-11.5247
ᏴᏗᏱ	-11.5248
ᏅᏌ	-11.5248
ᎯᏍᏔᏁ	-11.5249
ᎵᏙᎸᎢ	-11.5257
▁ᎦᎷᎶ	-11.526
▁ᏥᏯᏓᏙᎵᏍᏓᏁ	-11.5261
▁ᎤᎾᎪᎸ	-11.5263
ᎵᏍᏆᏗ	-11.527
ᏰᎵᎯᏍᏗ	-11.5274
▁ᏥᏭ	-11.5285
ᎳᏅᏓᏕ	-11.5294
▁ᎤᎴᏗ	-11.5305
▁ᏓᎩᏯ	-11.5306
ᎦᎸᎢ	-11.5309
▁ᎠᏓᏂ	-11.531
ᎲᎯ	-11.5311
▁ᏗᎪᏪᎶ	-11.5312
▁ᎨᏥᏯᏅᏗ	-11.5313
ᏁᏟᏴᏒ	-11.5315
ᏣᎦᎸ	-11.532
ᏂᎨᏥᏪᏎᎴ	-11.5321
▁ᏗᎦᎵ	-11.5323
ᏈᏴᎡ	-11.5325
▁ᏫᎷᏥ	-11.5333
ᎵᏏᏂ	-11.5337
▁ᏱᎦᏥ	-11.5349
ᎴᎲ	-11.535
ᏓᏅᏛᎢ	-11.5351
ia	-11.5357
ᏚᏩᏂᎦᎸ	-11.5364
ᏔᏲᎯᎲ	-11.5369
▁ᎦᎳᏅᏛ	-11.537
ᎶᏔᏅ	-11.5373
ᏓᏍᎩ	-11.5388
▁ᏆᏂ	-11.5394
ᏤᎴᏍᏗ	-11.5395
▁ᎠᎩᏃᎮ	-11.5399
ᎠᏉᎯᏳᎭ	-11.5399
ᎦᏔᎲᏍᏗᏱ	-11.5403
▁ᎤᏤᏪ	-11.5411
ᏪᏥ	-11.5412
ᏍᎦᏅᏤᎮᏍᏗ	-11.5416
ᏓᏅᏓᏗᏍᏔᏅ	-11.542
▁ᏧᏭᎪ	-11.5423
▁ᏔᎫᏴ	-11.5424
ᏫᏍᎪ	-11.5425
ᏍᏚᎢᏍᏗ	-11.5429
▁ᏩᎪᏩᏛ	-11.5432
▁ᏫᏄ	-11.5432
▁ᏦᎯᏍ	-11.5434
ᏅᏙᏗ	-11.5434
▁ᎤᏣᏘᏂᏉ	-11.5437
▁ᎣᏂᎩ	-11.5437
ᎿᎢᏳ	-11.5438
ᎾᏛᏁᎰᎢ	-11.544
▁ᏓᏅ	-11.5443
ᏗᏒᏍᏗᏱ	-11.5443
▁ᎢᏥᏰ	-11.5451
ᎩᏳ	-11.5456
ᏣᎪᏩᏛᏗᏱ	-11.5459
ᎵᏍᎦᎸ	-11.5469
▁ᎤᏪᎧᏁ	-11.5473
ᎲᏍᏗ	-11.5479
▁ᏚᏂᎨ	-11.548
ᎨᏥᎾᏌᎢ	-11.5482
▁ᎤᏬᎯᏳᎯ	-11.5482
ᏂᏙᎲᎢ	-11.5484
ᎾᏫᏛᎮ	-11.5485
ᏲᎰᏒ	-11.5486
ᎵᎮᎵᏍᏗᏱ	-11.549
▁ᏧᏓᎴᏅ	-11.5491
ᏅᏁ	-11.5493
▁ᏓᎭ	-11.5502
ᏥᏍᏕᎵᏍᎬ	-11.5504
ᎦᎾᏅᎪ	-11.5508
▁ᎦᏙᎩ	-11.5508
ᎵᏍᎨᏍᏗ	-11.5514
▁ᎤᏂᏯ	-11.5518
ᏘᏌ	-11.5527
▁ᏭᏗᏅ	-11.553
ᏫᏍᎪᎢ	-11.5531
▁ᎠᏥᎪ	-11.5533
ᏂᏳ	-11.554
ᎧᎲᎦ	-11.5542
ᏍᏓᏩᏕᏅ	-11.5545
▁ᎢᏯᎾᏛᏁ	-11.5554
ᏅᏛᎾ	-11.5556
▁ᏅᏩᏓᎴᎢ	-11.556
▁ᎤᏅᎢᏍᏗ	-11.5561
ᏥᏅᎵ	-11.5568
▁ᎠᏓᏰ	-11.5571
▁ᎦᏇᏅ	-11.5573
ᏆᏤᎵ	-11.5573
▁ᎤᏝ	-11.5575
▁ᎨᎯ	-11.5576
ᎪᏍᏓᏯ	-11.5577
ᎪᎥ	-11.5579
▁ᎭᎸ	-11.5584
ᏑᏯᎩ	-11.5585
ᎯᏍᏙᏗᏱ	-11.559
▁ᎤᏁᏉᏤ	-11.559
ᏌᏙ	-11.5593
▁ᎢᏳᎯ	-11.5596
▁ᎠᏂᎴ	-11.5598
ᏥᎪᏩᏗᎭ	-11.56
ᎬᏩᎶᏗ	-11.5607
ᎿᎥᎾ	-11.5611
ᎾᏣᎥ	-11.5613
ᎡᎮᏍᏗ	-11.5615
ᏥᏃᎯᏎᎸ	-11.5617
ᏓᏨᏯᏍᏗ	-11.5618
ᏛᏅᎢᏍᏔᏅᎩ	-11.5621
ᎾᏗᏍᎪᎢ	-11.5626
▁ᎠᎦᏞ	-11.5629
▁ᏫᎬᎩ	-11.5629
ᏍᏘᏰ	-11.563
ᏩᏘᏍᎨᏍᏗ	-11.5634
ᏅᏬᏗ	-11.5638
ᎪᎵᏰᏍᎪᎢ	-11.5641
ᎪᎵᏰᏍᎨᏍᏗ	-11.5642
ᏲᏢᎾᏁ	-11.5643
▁ᎦᏴ	-11.5643
ᏃᎯᎮ	-11.5645
▁ᎠᏂᎷ	-11.5653
▁ᎤᏂᏥᎸ	-11.5654
ᏏᏔᏗ	-11.5658
ᎯᎰᎢ	-11.5659
▁ᎤᎾᏗᏓ	-11.5661
▁ᎢᏳᎵᏍᏓᏁ	-11.5665
ᎵᏍᏓᏴ	-11.5672
▁ᏓᎾᏓᏅ	-11.5672
ᏗᎵᏍᎪᎸᏙᏗ	-11.5673
▁ᏭᏕ	-11.5674
ᏓᏅᏘᏐ	-11.5677
ᏂᏣᏔ	-11.5677
ᎾᏝᎠ	-11.5686
ᏓᏓᎴᏓ	-11.5686
ᎥᏍᎬᎢ	-11.5686
ᏂᏙᎲ	-11.5687
ᎦᎸᏉᏗᏳ	-11.5689
▁ᏙᏛᏂ	-11.569
▁ᏛᏣ	-11.5701
▁ᏗᏍᎩᏯ	-11.5701
as	-11.5701
▁ᏨᏙᏗ	-11.5703
▁ᎠᏌᎹᏗ	-11.5709
ᎨᏎᏍᏗ	-11.571
▁ᏯᏰ	-11.5715
ᏯᏅᎲᎭ	-11.5722
ᎵᏍᎪᎸᏔᏅᎯ	-11.5728
▁ᏓᎾᏛ	-11.5734
ᎾᎻ	-11.5736
ᏙᏥᏩᏛᎲᎩ	-11.5746
ᏍᏘᏰᎬᎢ	-11.5746
▁ᏗᏣᎶ	-11.576
▁ᏯᎦ	-11.5765
▁ᏩᏗ	-11.5773
▁ᏕᏣᎵ	-11.5777
▁ᏴᎦᏰ	-11.5778
▁ᎤᏔᎶ	-11.5778
▁ᏱᏚᏁ	-11.5783
▁ᎠᏩ	-11.5788
ᎠᏂ	-11.5792
ᏍᎦᏍᎪ	-11.5793
ᏯᏫᏍᎨᏍᏗ	-11.5795
▁ᎠᏫᏒ	-11.5796
▁ᎢᎤᏁᏅ	-11.5806
▁ᎢᏥᎨᏳᎯ	-11.5807
▁ᏙᏓᏓ	-11.5814
▁ᏓᎴᏅ	-11.5814
ᏍᏓᏩᏛᏛ	-11.5818
ᎤᏙᏓ	-11.5821
ᏍᏈᏗ	-11.5821
ᏩᏛᎯᎵ	-11.5822
▁ᏗᎩᎦᎨ	-11.5822
ᏅᎲᎭ	-11.5827
▁ᏱᏛ	-11.5829
ᏁᏣ	-11.5832
ᎷᏤᎵ	-11.5841
ᎣᎵ	-11.5844
ᎳᏗᏓᏍᏗᏱ	-11.5851
▁ᎠᎾᏁᎷᎩ	-11.5856
▁ᎢᏣᏛ	-11.5857
ᏂᏂᏌᏁᎢ	-11.5866
ᏐᏴᎢ	-11.5871
▁ᏥᏚᎾ	-11.5874
ᎩᎳᏩ	-11.5875
ᎶᎨᏒᎢ	-11.5875
ᎳᏍᏙᏗ	-11.5876
ᏃᏴᎵᏍ	-11.5886
▁ᏧᏭ	-11.5887
▁ᏕᎦᏁ	-11.5887
▁ᎫᏢ	-11.589
ᎶᏙᏗ	-11.5892
▁ᎤᏂᎭ	-11.5892
▁ᎾᎾᎵᏍ	-11.5897
ᎦᏗᏔ	-11.5902
▁ᎤᏚᏒ	-11.5905
▁ᏱᏨᏯ	-11.5908
▁ᎠᏴᎩ	-11.5914
ᏘᏁᎪ	-11.5918
▁ᎠᏆᏚ	-11.5919
▁ᎤᏁᏙ	-11.5919
ᏏᏅ	-11.5924
ᎵᎥᏂᎴ	-11.5931
ᏏᏍᎨ	-11.5934
ᏤᎰ	-11.5936
ᎦᏌᏯᏍᏗᏕᎩ	-11.5939
ᏁᎨ	-11.594
▁ᏧᏂᏯ	-11.5944
ᏂᎷᏣ	-11.5946
ᏓᏁᎲᎢ	-11.5947
ᏥᎾᏝᎢ	-11.5947
▁ᏓᎧ	-11.5958
▁ᏨᏔᏅ	-11.5959
▁ᏕᏨᏯ	-11.596
ᎾᏣᎡᎢ	-11.5963
ᏒᏂᏍᏗᏱ	-11.5966
ᏲᏞᎯ	-11.5966
▁ᏗᎧᏃᎮ	-11.5967
ᎦᏔᎲᎩ	-11.5972
▁ᎤᎵᏘ	-11.5972
ᏓᎴᏍᎨᏍᏗ	-11.5972
▁ᏤᎳ	-11.598
▁ᏛᎬ	-11.5987
▁ᎦᏄ	-11.5989
▁ᎠᏏᎾᏌᏅ	-11.5994
▁ᎠᏆᏓᏅᏔ	-11.5995
ᏕᏍᎩ	-11.5998
▁ᎭᎦᏔ	-11.5999
▁ᎦᏥᏃᏍ	-11.6002
▁ᎠᏩᏔ	-11.6003
ᏍᏔᏴ	-11.6004
ᎩᎸᏗ	-11.6009
▁ᎠᏗᏔᏍ	-11.6012
ᏚᏓ	-11.6018
▁ᏥᏅᏗᎦᎵᏍᏙᏗ	-11.6019
▁ᎤᏂᏁᏗ	-11.6022
▁ᏙᏓᎦᏥ	-11.6025
▁ᏦᏍᎪ	-11.603
ᎧᎿ	-11.6031
▁ᎯᏍᏆ	-11.6034
ᎯᏳᎲᎦ	-11.6042
▁ᎣᎩᏙ	-11.6044
ᏅᏓᏗᏍᏗᏱ	-11.6048
ᏎᎲ	-11.605
▁ᏧᏢᏫ	-11.6057
ᏓᏡᏗᏍᎪᎢ	-11.6057
▁ᏱᏣᏁ	-11.606
▁ᏗᎦᏰ	-11.6063
▁ᎡᏦ	-11.6063
ᏂᎾᏰᏍᎬ	-11.6064
▁ᎦᏣᏄᎵ	-11.6065
▁ᏓᏍᏆ	-11.6072
▁ᎠᎩᏰ	-11.6072
ᎿᏬ	-11.6072
▁ᏕᏣᏓᏠ	-11.6077
▁ᏂᏨᏪᏎ	-11.6077
ᎵᏰᎢᎶ	-11.6078
ᎾᏕᎶᏆᏍᏗ	-11.6078
ᏲᎲᏍᎩ	-11.6085
▁ᎤᎾᏓᏟᏌ	-11.6085
ᎩᎷᎯᏍᏗᏱ	-11.6086
ᎩᏰᏃ	-11.6094
ᎾᏩᏛ	-11.6094
▁ᏍᎩᏲᏎ	-11.6099
ᏖᎸᎮᏍᎬ	-11.6101
▁ᏗᎻ	-11.6102
ᏝᏁᎢ	-11.6108
ᏗᏅᏗ	-11.6108
▁ᎤᏔᎷᎩᏍ	-11.611
▁ᎤᏍᏆᏃᏴ	-11.6113
ᎵᏍᏔᏁᎢ	-11.6113
▁ᎣᏨᏗ	-11.6113
▁ᏣᏲ	-11.6113
ᎫᏴ	-11.6116
▁ᏚᏂᏣ	-11.6117
▁ᎠᏥᎸᏉᏙᏗ	-11.6118
ᏣᏯ	-11.6125
ᎾᏓᏗᏍᎪ	-11.6131
ᏓᏓ	-11.6132
▁ᏱᏄ	-11.6134
▁ᎤᏬᏢᏅᏅ	-11.6134
ᎮᏗᏱ	-11.6136
▁ᎤᏬᎯᏨ	-11.6136
▁ᏱᏓᏆ	-11.6138
▁ᏅᏩᏍᏕ	-11.6143
ᎸᏉᏛ	-11.6146
▁ᎠᎾᏗᏒᎯ	-11.6147
ᎴᏂᏓᏍᏗᏱ	-11.6152
ᎵᏱᎶᎸ	-11.6154
ᎨᎳᏍᏙᏗ	-11.6158
▁ᎾᏆᎵᏍᏓᏁᎸ	-11.616
ᎦᏓᏅᏓᏗ	-11.616
ᏲᎲᏍᎨᏍᏗ	-11.6161
ᏩᎯᏍᏗ	-11.6162
ᏗᎧ	-11.6163
ᎧᎭᏲᏔ	-11.6164
ᏁᏤᎴᎢ	-11.6164
ᏩᏍᎦ	-11.6165
Ꮊ	-11.6169
▁ᏱᏩ	-11.6169
ᏍᎦᏰᎬᏍᏔ	-11.6171
▁ᏥᏂᎦᎵᏍᏗ	-11.6174
ᎺᎵ	-11.6177
ᏍᏔᏅᎾ	-11.6178
▁ᎢᏓᏙᎴᎰᎯ	-11.6179
ᏍᏔᏁᏍᏗ	-11.6181
ᏓᎦᎶᏐᏂ	-11.6183
ᎬᏗᏍᎨᎢ	-11.6184
▁ᏱᏓᏥ	-11.6184
ᏨᏯ	-11.6184
ᏯᏅᎡᎵ	-11.6185
ᏗᎨᎴ	-11.6187
ᎸᏁ	-11.6188
ᎮᎵᎠᏍᎪ	-11.6191
▁ᏗᏌ	-11.6191
ᎦᎵᎡᎵ	-11.6194
▁ᏂᏕᎦ	-11.6195
ᎰᏂ	-11.6197
▁ᏪᎮ	-11.6198
ᎵᏬᏤ	-11.62
ᏕᏓᏓᎪᎲᏳ	-11.6202
ᎩᎦᎨᏍᏛᏱ	-11.6202
▁ᎤᏂᎶᏎ	-11.6204
▁ᎤᏅᏍᎦᎴ	-11.6204
▁ᎤᎵᏍᎪᎸᏔᏁ	-11.6204
▁ᎠᎩᎪᏁᎸ	-11.6204
▁ᏚᏂᎧᎲ	-11.6204
▁ᎠᎵᎬ	-11.6205
▁ᎤᏓᏙᏎᎴ	-11.6205
▁ᏓᎾᏓᏅᏖᏍᎬ	-11.6205
ᎠᏡᏗᏍᎩ	-11.6205
ᏗᎦᎪᏗᏱ	-11.6205
ᏲᎢᏎᎴ	-11.6206
▁ᏳᏂᎪᎮ	-11.6206
ᏚᏪᎧᏁᎢ	-11.6206
▁ᎢᏨᏬᏁᏔᏅ	-11.6208
ᏂᏍᏚᏁ	-11.6208
ᎦᎾᏄᎪᏫᏍᎪ	-11.6208
ᏓᎩᎸᏫᏍᏓᏁᎲ	-11.6209
▁ᏩᏂᎦᏛ	-11.6209
▁ᏫᏚᏳᎪᏛ	-11.621
▁ᎢᎬᏬ	-11.621
ᎪᎵᏰᏍᎬᎢ	-11.621
ᏡᏔᏅ	-11.6212
ᎠᎳᏑᎶ	-11.6212
ᎤᏬᏚᏨ	-11.6212
ᎤᏓᏅᏒ	-11.6212
▁ᎢᏣᏓᏁᏟᏴᏏᏒ	-11.6213
ᏣᏄᏏ	-11.6213
ᏧᏂᎸᏫᏍᏓᏁᎯ	-11.6213
ᎬᏂᏳᏉ	-11.6214
▁ᏥᎦᎷᎪ	-11.6214
▁ᎠᎾᎢᏎ	-11.6214
▁ᎠᏋᏔᏅ	-11.6215
ᏧᏙᎢᏛ	-11.6215
▁ᏚᏂᏂᏴᎮ	-11.6215
▁ᎠᏐᏢᎢᏍᏗᏍᎬ	-11.6216
ᏧᏪᏥ	-11.6216
▁ᎠᏂᎦᏔᎮ	-11.6216
▁ᎤᏔᎳᏬᏍᎬ	-11.6217
ᏂᎾᏫ	-11.6217
▁ᎤᏂᏂᎬᏎᎲ	-11.6218
ᏗᏂᎦᏘᏯ	-11.6218
▁ᏚᏪᎧᏁᎴ	-11.6219
ᎡᎳᏂ	-11.6219
ᎣᏏᏉᏍᎪ	-11.6219
▁ᏂᏚᏂᏪᏎᎴ	-11.6219
▁ᏕᏣᎸᏫᏍᏓᏁᎲ	-11.6219
ᎪᏪᎴ	-11.622
ᎤᏔᎷᎩᏍᎩ	-11.6221
▁ᏣᎾᏗ	-11.6221
▁ᏥᏄᎵᏍᏔᏁ	-11.6222
▁ᏓᎩᏏᎳᏛ	-11.6222
▁ᎤᎾᎦᏙᏍᏕ	-11.6222
▁ᎤᏁᎸᏔᏁ	-11.6224
▁ᏓᎫ	-11.6224
▁ᏚᏠᏱᎴ	-11.6224
▁ᏄᏕᏘᏴᎮ	-11.6224
▁ᏗᏦᏢ	-11.6224
▁ᏂᎨᎬᏁᎸ	-11.6226
ᎪᏪᎵ	-11.6226
ᎪᏪᎸᎢ	-11.6226
ᎵᏍᏙᏔᏅ	-11.6227
ᎵᏍᎪᎸᏓᏁᏗ	-11.6227
ᎠᏎᏗ	-11.6228
▁ᏚᏫᏞᏫᏒ	-11.6228
▁ᎠᏟᏍᏛ	-11.6228
▁ᎦᎸᏉᏗᏳᏰᏃ	-11.6228
ᎠᎨᏴ	-11.6228
▁ᏂᎬᏩᏪᏎᎴ	-11.6229
ᏥᏅᏬᏗ	-11.623
▁ᎢᏥᎪᎲ	-11.623
▁ᏕᎫᎪᏓᏁ	-11.6231
▁ᎬᏩᏍᏓ	-11.6232
ᎦᎵᏉᎩ	-11.6234
ᎣᎯᏍᏙᏗ	-11.6235
ᏣᏁᎳ	-11.6235
▁ᎠᎵᏍᏓᏴᎲᏍᎬ	-11.6236
ᎾᏗᏔᏍᏗ	-11.6236
▁ᎤᏂᏚᎲ	-11.6236
ᎤᏛᏁᎢ	-11.6236
ᏂᏨᏁᏍᏗ	-11.6237
▁ᏥᏍᏚᏂᎩᏍᏗ	-11.6238
▁ᏕᏥᎳᏫ	-11.6239
▁ᏚᏂᎧᏁ	-11.6239
▁ᎾᏆᏛᏅ	-11.624
ᏂᏬᏂ	-11.6241
▁ᎤᏂᏇᏓᎸ	-11.6242
▁ᎦᏃᎪ	-11.6242
▁ᏚᏬᏢᏁ	-11.6242
▁ᎠᏒᏛ	-11.6243
▁ᏩᎩᎶᏒ	-11.6243
ᏥᎸᏉᏔᏅ	-11.6243
ᎦᏪᏍᎬᎩ	-11.6244
▁ᏚᏪᏲᏁ	-11.6244
▁ᏓᏂᏙᎬ	-11.6244
▁ᏥᏄᏪᏒ	-11.6244
▁ᏚᏂᎳᏫᏨ	-11.6245
▁ᏓᎩᎪᎲ	-11.6245
ᎯᏙᎲ	-11.6246
ᎬᏂᎨᏒ	-11.6248
▁ᎤᏮ	-11.6249
ᏗᎧᎿᏩᏛᏍᏗ	-11.6249
ᏅᎪᏨ	-11.6249
▁ᎤᏃᎯᏳᏗ	-11.6251
▁ᎤᏁᎢᏍᏔᏁ	-11.6252
ᏂᎪᎵᏰᎥ	-11.6252
▁ᏧᎾᏓᏡ	-11.6252
ᏁᎢᏍᏔᏁ	-11.6253
ᏓᏙᎵᏍᏗᎭ	-11.6253
▁ᎠᏛᏍᎨ	-11.6253
ᏯᏫᏍᏗ	-11.6254
▁ᎤᏁᎲ	-11.6254
▁ᎤᎾᏠᏤ	-11.6255
ᎦᏓᎡᎢ	-11.6255
ᏪᏎᎢ	-11.6255
ᏲᏂ	-11.6255
ᎯᏄᎪᎢ	-11.6256
▁ᎤᏁᎵᏒ	-11.6257
▁ᏗᏂᎳᏫ	-11.6257
▁ᏣᏅ	-11.6258
ᎩᏓᏟ	-11.6258
ᎫᏈ	-11.6258
ᏲᎱᏎ	-11.6259
ᎦᏍᎦᏂ	-11.626
▁ᏂᏣᎵᏍᏔᏅ	-11.626
▁ᏛᏥ	-11.626
▁ᏭᏂᏴᎸ	-11.626
ᎶᏄᎮᏗᏱ	-11.6261
ᏂᏐᏢᎢᏍᏙᏗ	-11.6261
▁ᏫᎬᏆ	-11.6262
ᏀᎢ	-11.6263
ᏁᏍᏓᎳ	-11.6263
ᏏᏓᏍᏗ	-11.6263
▁ᏄᏅᏁᎴ	-11.6264
ᎩᏌ	-11.6264
ᏍᏓᏁᎴ	-11.6264
ᏲᎱᏒᎯ	-11.6265
▁ᎠᏉᎸ	-11.6266
ᏆᏕ	-11.6268
ᎹᎵ	-11.6268
▁ᏗᎬᏩᏁᎶ	-11.6268
▁ᏱᏚᎸᏫᏍᏓᏁ	-11.627
▁ᎦᎾᏄᎪᏥᎸ	-11.627
▁ᏱᏥᎪᏩᏘ	-11.627
ᏟᏌ	-11.627
▁ᎤᎾᏘᏅᏍᏗ	-11.627
ᏂᏪᏍᎬ	-11.6271
▁ᏱᏣᏚᎵ	-11.6271
▁ᏧᏳᎪ	-11.6271
▁ᏭᏂᏃᏁ	-11.6271
▁ᎡᎩᏁᎸ	-11.6272
▁ᎾᏎᎵ	-11.6272
ᏘᏳ	-11.6272
ᏃᎯᏰ	-11.6273
ᎡᏆ	-11.6273
ᏪᎳᏅᎯ	-11.6273
▁ᏭᏂᎷᎯᏍᏗ	-11.6274
▁ᎢᏳᏂᏪᏍᏗ	-11.6274
▁ᏧᏄᎪᏙᏗ	-11.6274
▁ᎠᏆᎵᎮᎵᏍᏗ	-11.6275
ᎠᏆᏚᎵ	-11.6275
ᏋᎨᏫ	-11.6275
▁ᎤᎾᏓᏡ	-11.6275
▁ᎢᏳᏪᏅᏍ	-11.6275
▁ᎢᏣᏓᏤᎵ	-11.6275
▁ᏗᎨᏥᎢᏍᏗ	-11.6276
▁ᏫᏨᎷᏤᏗ	-11.6276
▁ᏇᏗᏂ	-11.6276
▁ᎣᎦᎵᏍᏓᏴᏗ	-11.6277
▁ᏥᏄᎵᏍᏔ	-11.6277
▁ᎤᎾᏄᎪᏫᏍᏗ	-11.6278
▁ᏗᎦᎳᏫᎢᏍᏗ	-11.6278
ᏁᎶᏙ	-11.6278
▁ᏗᎩᎸᏫᏍᏓᏁᏗ	-11.6278
ᏩᏙᎯᏯᏛ	-11.6279
▁ᎠᏰᏙᎳ	-11.6279
▁ᎠᏥᏙᎵᏍᏗ	-11.6279
ᏯᏘᏃᎮᎸ	-11.628
▁ᏧᏍᏆᏅ	-11.628
ᎨᏳᏣ	-11.6281
▁ᎢᏳᎾᎵᏍᏙᏗ	-11.6282
ᏲᎦᏛᏁᏗ	-11.6282
ᏍᏚᎢᏎ	-11.6282
ᏣᎳᏁ	-11.6283
ᎴᎲᎦ	-11.6283
▁ᎢᏣᏛᎦᏅ	-11.6283
▁ᎠᏍᎦᎢᎮ	-11.6283
▁ᏚᎸᏫᏍᏓᏁᎮ	-11.6283
▁ᎠᏫᎾᎨ	-11.6284
▁ᎠᏍᏆᎸᎲ	-11.6285
ᏡᎦ	-11.6285
ᏈᏱ	-11.6286
ᎸᎢᏍᏗ	-11.6287
ᏃᎮᎮᎴ	-11.6287
▁ᎨᏣᎵ	-11.6287
ᎨᏅᏕ	-11.6288
ᎿᏍᏕᏢ	-11.6288
▁ᎠᏂᎩᎵᏲ	-11.6289
ᎵᏍᏓᏴᎾᏁᏗ	-11.6289
ᎾᏛᏗᏱ	-11.6289
ᏄᏩᎢᏴ	-11.629
▁ᎾᏆᎵᏍᏔᏁ	-11.629
▁ᏕᎾᏓᎪ	-11.629
▁ᎢᏣᏛᎪᏗ	-11.6291
ᏁᏓᏥᏛ	-11.6291
ᎧᎿᏩᏗᏓ	-11.6292
▁ᏄᏟᏂᎬ	-11.6292
ᏝᏪᎯ	-11.6293
ᏜᏏᏛᎡᎲᎾ	-11.6293
▁ᎮᎲ	-11.6294
ᎨᏢᏔᏅᎭ	-11.6294
ᎦᏛᏂᏙᎯᏉ	-11.6294
ᎴᎬ	-11.6294
ᎣᏍᏛ	-11.6294
ᏅᎵᏰᏓ	-11.6295
ᏅᏍᏓᏕᎴ	-11.6295
in	-11.6295
ᏣᎵᎡᎵᏤᏗ	-11.6296
ᏗᏌᏓᏕ	-11.6296
▁ᏕᎬᎦᎿᏩᏗᏙ	-11.6296
ᎵᏍᏔᏁᏍᏗ	-11.6296
ᎪᏅᏍᏓᎵ	-11.6296
ᏓᏲᎵᏍᏗ	-11.6297
ᎤᏍᏕᏎᎸᎯ	-11.6298
ᎵᏏᎾᎯᏍᏛᎾ	-11.6299
▁ᏩᎾᎦᎳ	-11.6299
▁ᎤᏓᏴᏎ	-11.6299
ᏲᎲ	-11.6299
ᎭᏄᏩ	-11.6299
▁Co	-11.63
aire	-11.63
ichael	-11.63
reland	-11.63
ᎦᏨᏩᏍᏙᏗᏱ	-11.63
ᎶᏄᎲᎵ	-11.63
ᏂᏍᏋᎦ	-11.63
ᏍᏕᎵᏌᏕᏒᎭ	-11.63
ᏓᏂᏲᎰᏍᎪ	-11.63
ᏓᏓᎾᏁᎶᏂᎨ	-11.63
ᏔᏕᎶᎰᏏ	-11.63
ᏚᎸᎡᎸᎩ	-11.63
ᏩᏛᎱᎦ	-11.63
▁ᎠᎩᏲᎱᏏᏗ	-11.63
▁ᎠᎾᎵᏍᏓᏴᏂᏙᎮ	-11.63
▁ᎠᏂᏯᏙᎯᎯ	-11.63
▁ᎠᏍᏈᏅ	-11.63
▁ᎠᏥᏂᏌᎲ	-11.63
▁ᎡᏣᏁᎳᏁᎸ	-11.63
▁ᎢᎡᏍᏕᎵᏌᏕ	-11.63
▁ᎢᏍᏙᏎᎸᎭ	-11.63
▁ᎢᏨᏰᎳᏗᏙᎸ	-11.63
▁ᎢᏰᎬᏁᎸᎯ	-11.63
▁ᎤᎦᏑᎲᎢ	-11.63
▁ᎤᎳᏍᏚᏒ	-11.63
▁ᎤᎾᏓᏄᏴᏗ	-11.63
▁ᎤᎾᏓᏙᎵᏍᏓᏁᎴ	-11.63
▁ᎤᏁᏄᎳᏍᏔᏁᎢ	-11.63
▁ᎤᏂᏔᎳᏬᏒᎩ	-11.63
▁ᎤᏄᏖᏎ	-11.63
▁ᎤᏍᎫᏓᏁᎦᎸ	-11.63
▁ᎤᏖᎸᏁ	-11.63
▁ᎨᏤᎳᏗᏙᎮᏍᏗ	-11.63
▁ᎬᏩᏄᎸᏗ	-11.63
▁ᎬᏩᏓᏡᏫᏍᏔᏅᎩ	-11.63
▁ᎬᏬᏍᏔᏅᎯ	-11.63
▁ᎭᏓᎦᏖᏙᎢᏍᎨᏍᏗ	-11.63
▁ᎮᏏᎦᏯ	-11.63
▁ᏂᎠᏂᏪᎭ	-11.63
▁ᏂᎦᎸᏉᏗᏍᎬᎾ	-11.63
▁ᏂᎧᏪᏍᎬᎩ	-11.63
▁ᏂᏓᎷᎸᎥᏍᎬᎾ	-11.63
▁ᏂᏓᏓᏂᎸᎬᎾ	-11.63
▁ᏂᏗᎦᎵᏍᏔᏂ	-11.63
▁ᏂᏥᏪᏍᎪᎢ	-11.63
▁ᏄᎾᏓᏁᏟᏴᏎᎢ	-11.63
▁ᏄᏂᎦᏙᎥᏒᎾ	-11.63
▁ᏅᏓᎨᏥᏅᏏᏛ	-11.63
▁ᏅᏓᏍᏛᏴᏁᎵ	-11.63
▁ᏅᏩᏍᏗᏗᏎᏍᏗᏉ	-11.63
▁ᏈᏯᏏᏱᏆ	-11.63
▁ᏍᏆᏎᎵᏓᏁᎸᎢ	-11.63
▁ᏍᏆᏎᎵᏓᏏ	-11.63
▁ᏐᎣᏁᎵᏁ	-11.63
▁ᏑᎧᏔ	-11.63
▁ᏓᎪᏄᎶᏏᏙᎮᏍᏗ	-11.63
▁ᏓᎵᏖᎸᏂᏙᎮᏍᏗ	-11.63
▁ᏓᎾᏦᏍᎬ	-11.63
▁ᏓᏂᏍᏔᏲᎯᎲ	-11.63
▁ᏓᏂᏏᎳᏛᎥᏍᎨ	-11.63
▁ᏓᏆᏚᏫᏍᏔᏅᎩ	-11.63
▁ᏓᏓᏬᏍᏗᏍᎬᎩ	-11.63
▁ᏓᏛᎯᏍᏓᏁᎮᏍᏗ	-11.63
▁ᏔᏓᏅᏗᏍᏓ	-11.63
▁ᏕᎤᎸᏫᏍᏓᏁᎸ	-11.63
▁ᏕᎦᎶᎴᎬᎢ	-11.63
▁ᏕᏥᏅᎪᎥᏗᏍᎨᏍᏗ	-11.63
▁ᏕᏥᏅᏫᏍᎨᏍᏗ	-11.63
▁ᏕᏦᏢᎯᏏ	-11.63
▁ᏗᎩᎸᏫᏍᏓᏁᎯ	-11.63
▁ᏗᎩᏄᎪᏨ	-11.63
▁ᏗᏓᏙᏪᏙᎥ	-11.63
▁ᏙᏓᏳᎸᏫᏍᏓᏁᎵ	-11.63
▁ᏙᏗᏂᏁᎸᎢ	-11.63
▁ᏚᎧᏙᏍᏕ	-11.63
▁ᏚᎾᏁᏢᏔᏅᏒᎢ	-11.63
▁ᏚᎾᏠᏱᎴᎢ	-11.63
▁ᏚᏂᏖᎸᏁ	-11.63
▁ᏚᏃᏣᎶᏤ	-11.63
▁ᏚᏢᏫᏎᎴ	-11.63
▁ᏠᏆᎹ	-11.63
▁ᏣᏍᏕᏅᏨ	-11.63
▁ᏣᏗᏫᏍᏓ	-11.63
▁ᏧᎦᏎᏍᏗᏕᎩ	-11.63
▁ᏧᏃᏕᏍᏗᏍᎩ	-11.63
▁ᏫᏙᏓᏨᏯ	-11.63
▁ᏫᏴᎨᏥᎷᎩ	-11.63
▁ᏮᏓᎦᎶᏏ	-11.63
▁ᏯᏓᏬᏍᎨᏍᏗ	-11.63
▁ᏱᏄᎵᏍᏔᏃ	-11.63
▁ᏱᏙᎬᏩᎸᏫᏍᏓᏏ	-11.63
▁ᏱᏚᏓᏌᏝᎮᏍᏗ	-11.63
▁ᏱᏚᏛᏓᏍᏓᏁᎴᎢ	-11.63
▁ᏱᏚᏪᏘᎸ	-11.63
▁ᏱᏨᏲᏪᎳᏁᎭ	-11.63
▁ᏳᎾᏛᏅᎢᏍᏗ	-11.63
▁ᏳᏍᎦᏅᏨ	-11.63
▁ᏴᎬᏂᎷᎩ	-11.63
ᎵᏰᏑᏍᏚᏬ	-11.63
ᏍᏇᎵᏰᏗ	-11.63
ᏓᎾᏫᏛᏗ	-11.63
▁ᎢᏍᏉᏎᎭ	-11.63
▁ᎤᏙᎴᎱ	-11.63
▁ᎦᏖᏌᏗ	-11.63
▁ᎵᏆᏗᎻ	-11.63
▁ᏂᏚᎿᏍᏕᏢᎾ	-11.63
▁ᏍᎩᎨᏳᎭᏧ	-11.63
▁ᏙᏧᏁᏅᏒ	-11.63
▁ᏦᎧᏔᏂ	-11.63
ᏥᏍᎩᏅᏛᎯ	-11.63
ᏬᎯᎵᏴᏍᏓᏁ	-11.63
▁ᎠᎦᏘᏗᏍᏙᏗ	-11.63
▁ᎠᎾᏓᏌᎩᏙᎲ	-11.63
▁ᎠᏂᎫᏌᏩᎩ	-11.63
▁ᎤᏃᎱᎦᏅ	-11.63
▁ᎤᏓᏏᏂᏕᏅ	-11.63
▁ᎤᏦᏔᎮ	-11.63
▁ᏍᎩᏯᏅᏓᏗᏍᎬᎢ	-11.63
▁ᏍᎩᏲᎢᏳᎲᎦ	-11.63
▁ᏓᎦᏓᏅᏏ	-11.63
▁ᏗᎩᎧᏁᎸᎯ	-11.63
▁ᏙᏓᎨᏥᏲᎯᏎᎵ	-11.63
▁ᏨᏓᎬᏯᏎᎮᎵ	-11.63
▁ᏩᏂᎦᏖᎢ	-11.63
▁ᏭᏪᏙᎴᎢ	-11.63
▁ᏱᏄᏓᎠ	-11.63
ᎯᎬᏍᎪᎸᎥᏍᎨᏍᏗ	-11.63
ᏤᏲᎲᏍᎦ	-11.63
▁ᎠᎻᏗᏏ	-11.63
▁ᎠᎾᏓᎩᎡᎯ	-11.63
▁ᎢᏨᏂᏌᏛ	-11.63
▁ᎢᏯᏂᏪᏍᎩ	-11.63
▁ᎤᏂᏍᏛᏛᎯ	-11.63
▁ᎤᏉᏔᏗ	-11.63
▁ᏂᏚᎾᏑᎴᎲᎾ	-11.63
▁ᏅᏗᏛᏁᎵᏒ	-11.63
▁ᏇᏣᏱᏗ	-11.63
▁ᏌᎷᏱ	-11.63
▁ᏓᎬᏯᎫᏴᎡᎵ	-11.63
▁ᏓᏍᏆᎸᎮᎬᎢ	-11.63
▁ᏗᎦᎸᏉᏔᏅᎯ	-11.63
▁ᏗᎧᏃᎩᏓ	-11.63
▁ᏗᏂᎭᏲᎯ	-11.63
▁ᏗᏂᏏᎲᏍᎩ	-11.63
▁ᏗᏲᎳᏅᎯ	-11.63
▁ᏙᏛᏂᏲᎯᏎᎵ	-11.63
▁ᏣᏂᎦᏴᎵ	-11.63
▁ᏦᎩᎦᏴᎵᎨᎢ	-11.63
▁ᏱᏄᏩᏁᎸ	-11.63
ᏓᏅᏖᏔᏂ	-11.63
▁ᎠᎩᏔᎳᏬᏍᎬ	-11.63
▁ᎠᎾᎵᏙᎩᏯᏍᎩ	-11.63
▁ᎢᏨᏁᏤᎸᎢ	-11.63
▁ᎤᎵᏍᎦᏎ	-11.63
▁ᎤᏩᎢᏎᎸᎯ	-11.63
▁ᎤᏲᏏᏌᏁᎢ	-11.63
▁ᎪᎸᏌᏛᏗ	-11.63
▁ᎬᏩᎵᏃᎮᏔᏁ	-11.63
▁ᎾᏂᏴᎬᎾ	-11.63
▁ᏍᏇᎵᏎᏗᏱ	-11.63
▁ᏚᏂᏐᏨ	-11.63
▁ᏚᏟᎶᏍᏓᏁᎸᎩ	-11.63
▁ᏚᏬᏑᎴ	-11.63
▁ᏥᏫᏗᎨᎦᏘᏅᏍᏔᏁ	-11.63
▁ᏯᏂᎷᎩ	-11.63
ᏗᎩᏴᎩ	-11.63
▁ᎡᎵᏍᏓᎦ	-11.63
▁ᎣᎦᏛᏅᎢᏍᏗ	-11.63
▁ᎤᏁᎳᎥᎯ	-11.63
▁ᏄᎪᎸᎾ	-11.63
▁ᏅᏓᏲᏣᏛᏁᎵ	-11.63
▁ᏧᏂᏍᏚᏗ	-11.63
▁ᏩᏓᏁᏟᏴᏍᏓ	-11.63
▁ᎠᏂᏇᎵᏏ	-11.63
▁ᎤᏓᏁᏟᏴᏍᏔᏁᎴ	-11.63
▁ᏂᏚᎾᎵᏂᎬᎬ	-11.63
▁ᏄᎵᏍᏔᏂᏙᎴ	-11.63
▁ᏕᏓᎧᏂᏍᎬ	-11.63
▁ᏥᏅᏓᎦᎵᏍᏔᏂ	-11.63
▁ᏥᏓᎾᏕᏲᎲᏍ	-11.63
▁ᏩᎦᏘᏅᏍᏙᏗᏱ	-11.63
▁ᎤᏕᏯᏔᏁᎸ	-11.63
▁ᏄᎵᏍᏚᎸᎾ	-11.63
▁ᏕᎱᏓ	-11.63
▁ᎠᎩᎳᏫᏍᏗᏱ	-11.63
▁ᎠᎵᏍᏕᎵᏍᎬ	-11.63
▁ᎠᏆᏙᎴᎰᎯᏍᏗᏱ	-11.63
▁ᎣᏌᏯ	-11.63
▁ᎤᎾᏕᏯᏔᏁᎴᎢ	-11.63
▁ᏈᏥᏱ	-11.63
▁ᏚᏰᎵᎯᏍᏔᏁ	-11.63
▁ᏦᏓᎻ	-11.63
▁ᏫᎷᏨᎭ	-11.63
▁ᏮᏓᎦᏙᎴᎣᏏ	-11.63
▁ᏴᎨᏦᎯᏳᎲᎦ	-11.63
▁ᎠᏓᏍᏕᎸᏓ	-11.63
▁ᎠᏥᏅᏩᏅᎢ	-11.63
▁ᎤᎾᎵᏛᏔᏅ	-11.63
▁ᎤᎾᏗᏒᎸ	-11.63
▁ᎤᏆᎶᎦ	-11.63
▁ᎻᎴᎳ	-11.63
▁ᏓᎾᏗᏔᏍᏗᏍᎨ	-11.63
▁ᏗᏂᏍᏔᏲᎯ	-11.63
▁ᏥᎨᏳᎠ	-11.63
▁ᏧᎳᏏᏗᏱ	-11.63
per	-11.63
▁ᎠᎫᏴᎡᏗᏱ	-11.63
▁ᏙᏓᏰᏣᏬᏍᏔᏂ	-11.63
▁ᏚᎵᏘᎾᎥ	-11.63
▁ᏚᏂᎵᏬᏨᎩ	-11.63
▁ᏥᏚᏃᎱᎦᏁ	-11.63
▁ᎤᏚᏣᎳᏅᎩ	-11.63
▁ᎦᏨᏩᏍᏔᏅᎯ	-11.63
▁ᏂᏙᏓᎦᏪᏎᎵ	-11.63
▁ᏓᎦᏥᏁᏉᎢ	-11.63
▁ᏓᏱᏓᎵ	-11.63
▁ᏣᎷᎯᏍᏗᏱ	-11.63
ᎩᏲᎱᏎᎲᎩ	-11.63
ᏬᏁᏓ	-11.63
▁ᎠᏂᏃᏟᏙ	-11.63
▁ᎡᏦᎯᏳᎲᏍ	-11.63
▁ᎬᏩᎪᎵᏰᏍᎬ	-11.63
▁ᏓᏤᏅᎡᎵ	-11.63
▁ᏕᎦᏆᏛ	-11.63
▁ᏕᎯᏯᏁᎶᏕᏍᏗ	-11.63
▁ᏥᏂᏴᏁᎭ	-11.63
▁ᎤᎦᏖᏃ	-11.63
ᏍᏚᎢᎡᎸ	-11.63
▁ᎤᎾᏣᏪᏐᎸᏍᏙᏗᏱ	-11.63
▁ᎤᏬᎦᏒ	-11.63
▁ᎾᏂᎦᏔᎾᎥᎾ	-11.63
▁ᏗᎾᎵᏍᏓᏴᏂ	-11.63
▁ᏬᎩᏃᎸᎩ	-11.63
▁ᏗᎬᏩᎾᏛᎪᏙᏗ	-11.63
▁ᏙᎦᏠᏒᎩ	-11.63
▁ᎤᎾᏕᎶᏆᏍᏗᏱ	-11.63
▁ᏂᏨᎾᏛ	-11.63
▁ᏄᏂᏍᎦᏅᏨᎾ	-11.63
▁ᏛᏓᎸᎢ	-11.63
▁ᏯᏥᏯᏝ	-11.63
ᏓᎴᏴᏗᏍᎩ	-11.63
ᏓᏓᎴᏔᏂ	-11.63
▁ᎢᏥᎪᎵᏰᎥᎭ	-11.63
▁ᎻᏗᏯᏂ	-11.63
ᎱᏢᏔᏅᎭ	-11.63
▁ᏒᎦᏙᎯ	-11.63
▁ᏛᏥᎷᏥ	-11.63
ᏙᏥᎵᏦᏛᎦ	-11.63
▁ᎠᎵᏃᎮᏗᏍᎬᎢ	-11.63
▁ᎤᎾᏘᏍᏙᏗᏱ	-11.63
▁ᎤᎾᏦᏍᏔᏁ	-11.63
▁ᎤᏎᎵᏓᏁᎴᏃ	-11.63
▁ᏂᏙᏓᎬᏁᎵ	-11.63
▁ᏅᏓᏨᏴᏁᎵ	-11.63
▁ᏗᎾᏓᏙᏕᏍᏗᏍᎩ	-11.63
▁ᎠᏂᏁᎢᏍᏗᏍᎩ	-11.63
▁ᏕᎦᏕᏲᎲᏍᎬ	-11.63
▁ᏕᎧᏃᎮᏍᎬ	-11.63
▁ᏚᎳᏫᏛ	-11.63
ᎩᎵᏲᏥᏙᎸᎢ	-11.63
▁ᎠᏰᎴᎩ	-11.63
▁ᎤᏅᏘᏛ	-11.63
▁ᎤᏙᏣᎸᎢ	-11.63
▁ᎾᎾᏓᏛᏍᎬᎾ	-11.63
▁ᏱᏅᏓᎦᎵᏍᏙᏓ	-11.63
▁ᎣᏥᏯᎥ	-11.63
▁ᎤᏍᏆᎷᎪ	-11.63
▁ᎤᏓᏦᎯᏯ	-11.63
▁ᎦᎨᏥᏐᏢ	-11.63
▁ᎦᏴᏓᏗ	-11.63
▁ᏗᏧᎪᏗᏍᎩ	-11.63
▁ᎯᏯᏛᎥᎦ	-11.63
▁ᏙᎩᎾᏗᏔᎲ	-11.63
▁ᎦᏅᏃᏫ	-11.63
▁ᏅᏗᎦᏪ	-11.63
▁ᏧᏃᏑᎴᏗ	-11.63
ᏲᎱᎯᏎᎴᎢ	-11.63
▁ᎦᏢᏍᎩ	-11.63
▁ᏄᎾᏙᏓᏈᏒ	-11.63
▁ᏫᏄᏒ	-11.63
▁ᎠᏍᏚᎢᏛ	-11.63
▁ᎤᎾᏓᏓᏍᎩᏌᎲ	-11.63
▁ᎦᏃᎱᎩᏍᎨ	-11.63
▁ᏛᎵᏛᏔᏂ	-11.63
▁ᎠᏂᏂᎩᎸ	-11.63
▁ᎤᎦᏛᎴᎯᏍᏗᏱ	-11.63
▁ᏗᎬᏩᏂᏯᎢ	-11.63
▁ᏄᎵᏌ	-11.63
▁ᎠᏐᏢᎢᏍᏗᏍᎨᏍᏗ	-11.63
▁ᎤᏍᏘᏰᎩ	-11.63
▁ᏛᎬᏯᏘᏃ	-11.63
▁ᎤᏟᏃᎮᏔᏁᎢ	-11.63
▁ᏄᏂᏧᏈᏍᏕᏍᏗ	-11.63
ᎫᎪᏓᏁᏗ	-11.63
ᏑᎶᏨᎯ	-11.63
▁ᎠᎵᏱᎵᏒᎢ	-11.63
▁ᎠᏃᏢᏅᎥᏍᎩ	-11.63
▁ᏧᎾᏛᏒᎯ	-11.63
▁ᎠᎾᎵᏍᎩᏍᎬ	-11.63
▁ᎤᎾᎵᏍᏓᏴᏃᏅ	-11.63
ᏨᏯᏛᏛᏂ	-11.63
▁ᏥᏄᎾᏍᏛᎢ	-11.63
ᎿᎸᏍᏗᏍᎨᏍᏗ	-11.63
ᏕᏯᏔᏁᎭ	-11.63
▁ᏂᎨᏣᏛᏁᎮᏍᏗ	-11.63
▁ᏃᎩᏪᏒᎩ	-11.63
▁ᏓᏳᏂᏄᎪᏨᎩ	-11.63
ᏣᏓᏅᎡᎸ	-11.63
▁ᎤᏗᏛᎲᎩ	-11.63
▁ᏧᎾᏓᏟᏴᏗ	-11.63
▁ᏗᎵᏰ	-11.63
▁ᏙᎩᏃᏢ	-11.63
▁ᎠᎩᏔᏕᎩᏍᎬ	-11.63
▁ᏙᏘᏲᎢ	-11.63
▁ᎢᏣᏛᎿᏕᎩ	-11.63
▁ᎾᏆᎵᏍᏓᏁᎵᏕᎬ	-11.63
▁ᏣᎦᏥᎶᏍᏔᏅ	-11.63
ᎬᏣᏝᏅ	-11.63
▁ᏂᎦᎷᎶᎬᎾ	-11.63
▁ᏚᎵᏥᏙᏁᎴᎢ	-11.63
▁ᏥᏂᎦᏛᏁᎭ	-11.63
▁ᏧᎧᏃᏗᏱ	-11.63
▁ᎠᎩᏟᏲ	-11.63
▁ᏅᏓᏥᏯᏛᏁᎵ	-11.63
▁ᏚᎾᎵᏯᏍᏚ	-11.63
▁ᎢᏥᎪᏙᏍᎨᏍᏗ	-11.63
▁ᏰᏦᏎᎮᏍᏗ	-11.63
▁ᏚᏄᏮ	-11.63
▁ᏚᏥᎸᏒ	-11.63
▁ᎠᏉᎵᏨ	-11.63
▁ᎤᏄᏬᎥᎯ	-11.63
▁ᏗᏥᏅᏍᎨᏂ	-11.63
▁ᏗᎩᎪᎶᎯ	-11.63
▁ᎡᏣᏁᏍᎨᎲᎯ	-11.63
▁ᏂᎦᎵᏍᏔᏂᏙᎮᏍᏗ	-11.63
▁ᏧᏁᎩᏳ	-11.63
▁ᏄᏓᏅᏛᎾ	-11.63
▁ᎠᏃᏢᏍᎬ	-11.63
▁ᎤᏍᎦᎢᏓ	-11.63
▁ᎢᏥᎾᏫ	-11.63
▁ᎠᎵᏍᏆᏛᎭ	-11.63
▁ᎡᏣᎵᎡᎵᏤᎮᏍᏗ	-11.63
▁ᎠᏆᎵᏂᎬᎬᎢ	-11.63
▁ᏫᎷᎩ	-11.63
ᎳᏫᏎᎮᏍᏗ	-11.63
ᏧᎾᏚᎩᏎ	-11.63
▁ᎢᏨᏯᏅᏓᏗᏍᏗᏍᎬᎢ	-11.63
▁ᎢᏏᎳᎻ	-11.63
▁ᎾᏐᏂ	-11.63
▁ᎾᏓᏛᏁᎲᎢ	-11.63
ᎾᎪᏄᎸ	-11.63
▁ᎨᎩᏍᎦᎩ	-11.63
▁ᎹᏈᎳ	-11.63
▁ᎤᏂᎾᏰᏒᎩ	-11.63
▁ᏂᏕᎦᏅᎯᏒᎩ	-11.63
▁ᎢᏣᏛᎩᏍᎨᏍᏗ	-11.63
▁ᏄᏲᎱᏒᎩ	-11.63
ᎳᏫᏎᏗ	-11.63
▁ᎤᏁᏢᏔᏅᏒᎢ	-11.63
▁ᏗᏓᎪᏗᏍᎩ	-11.63
ᏍᎦᎳᏤ	-11.63
ᎩᎵᏲᎨᏍᏗ	-11.63
▁ᏱᏩᏍᏔ	-11.63
ᏢᏥᏰᏍ	-11.63
▁ᎤᏗᎦᎵᏍᏙᏗᏍᎨ	-11.63
▁ᏛᎩᏲᎵ	-11.63
▁ᏥᏓᏓᏂᎸᎪᎢ	-11.63
ᎬᏲᏎᏗ	-11.63
▁ᎠᏆᏁᎳᏫᏎ	-11.63
▁ᏫᏨᏲᎵ	-11.63
▁ᎠᎵᏱᎶᎸᎭ	-11.63
▁ᏙᎨᏥ	-11.63
▁ᎾᏂᎦᏔᎿᎥᎾ	-11.63
▁ᏒᎯᏰ	-11.63
▁ᏱᏓᏂᏁᏟᏴ	-11.63
ᎳᏍᏕᎵᏴᏌ	-11.63
▁ᎤᏪᏣᏄ	-11.63
▁ᎤᎧᎵᏦᏅ	-11.6301
▁ᏬᏥᎦᏛ	-11.6301
▁ᏧᏲᏍᏔᏅᎯ	-11.6301
▁ᎢᏳᎾᎵᏍᏔᏁᏗ	-11.6301
▁ᏧᎾᎳᏏᏕᏄᎶᏗ	-11.6301
▁ᎤᎾᏁᎳᏛ	-11.6301
▁ᎠᎨᎾᏂ	-11.6301
▁ᏕᎱᎪ	-11.6301
▁ᎠᎩᏬᏂ	-11.6301
▁ᏫᏚᎾᏘᏃᎮᎸᎩ	-11.6301
ᏲᎱᏒᎾ	-11.6301
▁ᏳᏍᏆᎸ	-11.6301
▁ᏅᏓᏳᏪᏒᎩ	-11.6301
▁ᏭᏪᏙᎸ	-11.6301
▁ᎠᏍᏆᎾᎸ	-11.6301
▁ᎠᏆᏛᏛᏅ	-11.6301
▁ᏧᎾᎳᏏᏕᏅ	-11.6301
▁ᏂᏗᏨᎦ	-11.6301
▁ᎢᎪᎯᏳᏒ	-11.6301
▁ᏣᎪᏎᎰᎢ	-11.6301
ᎩᏍᏚᎲᎩ	-11.6301
▁ᏂᏥᏲᎯᏍᏗᏍᎬᎾ	-11.6301
▁ᎠᎾᏕᎲᏍᎨ	-11.6301
▁ᎤᏃᏴᎳᏒ	-11.6301
▁ᎤᏅᏫᏍᏗᏍᎩ	-11.6301
▁ᏄᎵᏁᏨ	-11.6301
▁ᏅᏧᏪᏎᎴᎢ	-11.6301
ᏍᏇᏲᎲᎦ	-11.6301
▁ᎠᎪᏩᏘᏍᎩ	-11.6301
▁ᏁᏙᎲᎾ	-11.6301
▁ᏍᎩᏯᏛᏓᏍᏓᏏ	-11.6301
▁ᏏᏗᎻ	-11.6301
ᎵᎯᎮᎢ	-11.6301
▁ᏚᏂᏲᏏᏍᎬ	-11.6301
▁ᎢᎩᏇᏓᎸ	-11.6301
▁ᏚᏂᎦᏘᎸᏎ	-11.6301
ᏟᎶᏍᏔᏂ	-11.6301
ᏥᏯᏫᏍᎬ	-11.6301
▁ᎠᏂᏲᎵᎮ	-11.6301
▁ᎤᏗᎴᎲᏍᎨᎢ	-11.6301
▁ᎤᏙᎵᏍᏙ	-11.6301
▁ᎢᏣᏓᏅᏓᏓ	-11.6301
▁ᎠᎢᏗᏢ	-11.6301
▁ᎠᏆᏛᏐᏅᎯ	-11.6301
▁ᏚᏬᎥᎩ	-11.6301
▁ᎢᎨᏓᏍᏗᏱ	-11.6301
▁ᏄᎸᏉᏔᏅᎾ	-11.6301
▁ᏗᎾᏓᎯᎯ	-11.6301
ᏣᎦᏎᏍᏓ	-11.6301
▁ᏧᏓᏅᎵᏰᏓ	-11.6301
▁ᎤᎵᏒᏍᏔᏁᎢ	-11.6301
▁ᏓᏥᎾᏄᎪᏫᏎᎵ	-11.6301
ᎭᏄᏫ	-11.6301
▁ᎢᏨᏁᏤᎭ	-11.6301
▁ᎠᏓᏅᏬᎯᏍᏗᏍᎩ	-11.6301
▁ᎬᏩᏛᎡᎴᏍᏗ	-11.6301
▁ᎤᎦᏌᏛᎢ	-11.6301
▁ᏓᏳᏠᎠᏒᎩ	-11.6301
▁ᏚᏂᏎᎪᎩᏎ	-11.6301
▁ᎠᏎᎵᏛᏍᎬ	-11.6301
▁ᏫᏚᏂᏴᏍᏗᏱ	-11.6301
▁ᎣᏣᏓᏅᏟ	-11.6301
▁ᎤᎯᏌᏛ	-11.6301
▁ᎠᎾᏓᎸᏉᏗᏍᎩ	-11.6301
▁ᎠᎩᏁᏉᏤ	-11.6301
▁ᏕᎤᏲᎯᏎᎴᎢ	-11.6301
▁ᎤᏠᎩ	-11.6301
▁ᎠᏍᏙᏓ	-11.6301
▁ᏦᏥᏰᎸ	-11.6301
▁ᏳᏂᏃᎮᎸ	-11.6301
▁ᎢᏨᏲᎵᎦ	-11.6301
▁ᎾᎾᎵᏍᏗᎭ	-11.6301
▁ᎠᏓᏓᏱᎮᏍᏗ	-11.6301
▁ᏕᎦᎦᏙᏍᏛ	-11.6301
▁ᎠᏁᏦ	-11.6301
ᏯᏓᏂᎸᏥ	-11.6301
▁ᎥᏆᏬᏍᏙᏗ	-11.6301
▁ᏭᏗᏢᏍᏔᏅ	-11.6301
▁ᎢᏥᏲᎮᏍᏗ	-11.6301
▁ᎢᏥᏁᎢᏍᏗᏱ	-11.6302
▁ᎠᏉᎯᏳᎲᏍᎨᏍᏗ	-11.6302
▁ᎤᎾᎵᏍᏔᏴᏅ	-11.6302
▁ᏳᏥᏍᎪᎸ	-11.6302
▁ᎥᎩᏂᎵ	-11.6302
ᎬᏑᎶᏙᏗ	-11.6302
ᏨᏉᏛᎾ	-11.6302
▁ᏚᎾᏂᏏᏁᎢ	-11.6302
▁ᏱᎦᏂᏆᏘᎭ	-11.6302
▁ᏫᎬᎷᏤᏗᏱ	-11.6302
▁ᏗᎪᏏᏐᏗ	-11.6302
▁ᏳᏓᏅᏒ	-11.6302
▁ᎤᎾᏁᎶᏔᏁ	-11.6302
▁ᎣᎦᏂᎩᏒᎩ	-11.6302
▁ᎤᏂᏲᎢᏎᎸᎯ	-11.6302
▁ᏫᏚᎵᏍᏘᏂᎸ	-11.6302
▁ᏚᏂᎳᏫᏦᎴ	-11.6302
ᏦᎣᏍᏙᏗ	-11.6302
▁ᎢᏣᏗᏔᏍᎨᏍᏗ	-11.6302
▁ᏓᏆᎭᏄᏮ	-11.6302
▁ᏫᏍᎩᏩᎯᏏ	-11.6302
▁ᎤᏛᎸᎮ	-11.6302
ᎵᏍᏓᏁᎵᏕᎬ	-11.6302
▁ᏅᏓᏳᎾᏄᎪᎢᏍᏗ	-11.6302
ost	-11.6302
▁ᎦᎾᏜᎢ	-11.6302
▁ᏓᏰᏥᎪᎢ	-11.6302
▁ᎠᎦᏘᏅᏍᏗᏱ	-11.6302
ᏕᎰᏍᎬᎾ	-11.6302
▁ᏌᎳᏓᏱᎵ	-11.6302
▁ᏓᏘᎭᏁᎲ	-11.6302
▁ᏓᏳᏗᏩᏏ	-11.6302
▁ᎢᏍᎩᎪᏩᏘᏍᎨᏍᏗ	-11.6302
▁ᎤᎾᎦᏙᏍᏛ	-11.6302
er	-11.6302
▁ᏓᏉᏙᎥ	-11.6302
▁ᏫᏓᏂᎷᎦ	-11.6302
▁ᏐᏆᎵ	-11.6302
▁ᏌᏗᏏ	-11.6302
▁ᎢᏨᏍᏓᏩᏕᏅ	-11.6302
▁ᏧᏟᏴ	-11.6302
▁ᏧᎾᎭᎾᏬ	-11.6302
▁ᎤᏓᏬᎡ	-11.6302
▁ᏅᏛᎴᏅᏛ	-11.6302
▁ᏙᏓᏲᏣ	-11.6302
ᏗᎨᏥᏰᎪᎢ	-11.6302
ᏢᏈᏍᎦ	-11.6302
▁ᎤᏂᎦᎾᏍᏓ	-11.6302
▁ᎡᏥᎸᏉᏗᏍᎨᏍᏗ	-11.6302
▁ᏫᏗᏍᎩᏯᏅᏏ	-11.6302
▁ᎣᎦᏁᎳᎩ	-11.6302
ᎶᏄᎮᎸᎩ	-11.6302
▁ᎠᏓᏅᏖᏍᎩ	-11.6302
▁ᎤᎵᏏᏂᏕᎾ	-11.6303
▁ᎢᏳᎾᏓᎵ	-11.6303
ᎨᎲᏒᎩ	-11.6303
▁ᏱᏍᎩᎪᏩᏘᏍᎨᏍᏗ	-11.6303
▁ᎢᏓᎢᏎᏍᏗ	-11.6303
▁ᎢᎨᎳᏗᏙᎭ	-11.6303
▁ᎢᏣᏓᏄᎸᏗ	-11.6303
▁ᎤᏪᎧᎮ	-11.6303
▁ᏙᏂᏍᎩ	-11.6303
▁ᎠᏉᎯᏳᎲᏍᎩ	-11.6303
ᏃᏪᎳᏁ	-11.6303
▁ᎫᏘᏍᎬ	-11.6303
▁ᎡᎳᏆᏘ	-11.6303
▁ᎢᎤᏂᎷᏨ	-11.6303
▁ᎤᎾᏓᏅᎡᎸᎩ	-11.6303
▁ᏙᏥᏲᎦ	-11.6303
▁ᏕᏣᏏᎳᏛ	-11.6303
▁ᎣᎩᎾᏟᏃᎮᎸ	-11.6303
▁ᎣᏦᎯᏳᎲᏍᎦ	-11.6303
ᏩᎵ	-11.6303
▁ᎢᏰᏨᏁᏗᏱ	-11.6303
▁ᎠᏆᏎᎵᏙᏔᏅ	-11.6303
▁ᏱᏂᎬᏩᏍᏗᏉ	-11.6303
▁ᎠᏇᏙᏅ	-11.6303
▁ᏚᏰᎵᏏᏙᎴᎢ	-11.6303
▁ᏥᏥᏃᎮᎭ	-11.6303
▁ᏚᏍᏕᎸᎯᎸ	-11.6303
▁ᏱᏍᎩᏃᎯᏎ	-11.6303
▁ᏗᏤᎵᏏ	-11.6303
▁ᎤᏩᏃᏫᏍ	-11.6303
▁ᏚᏂᏐᏈ	-11.6303
▁ᏭᏂᎧᏁ	-11.6303
▁ᏴᏗᏓᎴᎲᏍᎦ	-11.6303
▁ᏕᏥᏁᏤᎮᏍᏗ	-11.6303
▁ᏗᎫᎪᏗᏱ	-11.6303
▁ᎤᎵᏍᏚᎸᎩ	-11.6303
▁ᏕᏣᎸᏫᏍᏓᏁᎮᏍᏗ	-11.6303
▁ᏓᎾᎴᎯᏌᏅ	-11.6303
▁ᎢᏗᏜ	-11.6303
▁ᏝᏬ	-11.6303
▁ᏌᎵᎹ	-11.6303
▁ᏚᎾᏠᏱᎸᎩ	-11.6303
▁ᎭᎵᏍᏓᏴᎲᎦ	-11.6303
▁ᎠᏆᏣᏅᏓᏕ	-11.6303
▁ᎤᎩᎴᏍᏗ	-11.6303
▁ᎡᏣᏓᏅᏛᎵ	-11.6303
▁ᎠᎬᏂᏗᏳ	-11.6303
▁ᏗᎬᏩᏂᎾᏝᎢ	-11.6303
▁ᏱᏓᎨᏏ	-11.6303
▁ᏕᏣᏓᏅᏖᏍᏗ	-11.6303
▁ᎢᎪᎯᏳᏅ	-11.6303
▁ᎤᏍᏆᏄ	-11.6303
▁ᎤᏓᏅᎵᏰᏓ	-11.6304
▁ᏂᏥᎾᏰᏍᎬᎾ	-11.6304
▁ᎠᏅᏍᎬᎢ	-11.6304
▁ᏴᎨᏤ	-11.6304
▁ᎢᎬᏴᏁᏗᏱ	-11.6304
▁ᎢᎫᏓᎴᏍᏗᏱ	-11.6304
ᏗᏔᏍᏔᏁ	-11.6304
ᏓᏚᎪᏓᏁᎭ	-11.6304
▁ᏥᏗᎧᎸᎪ	-11.6304
▁ᏖᏒ	-11.6304
▁ᏯᏬᏅ	-11.6304
▁ᎦᏓᏙᎵᏍᏗᏍᎨᏍᏗ	-11.6304
▁ᎠᏔᏍᎩᏍ	-11.6304
▁ᏗᏂᏂᏙᎯ	-11.6304
▁ᎠᎾᏙᎴᎰᏍᎨᏍᏗ	-11.6304
▁ᏕᏣᏓᎨᏳᏒ	-11.6304
▁ᏗᎦᎾᎯᏍᏙᏗ	-11.6304
▁ᏭᎦᏔᎲᏍᏔᏅ	-11.6304
▁ᏥᎨᎳᏗᏙᎮ	-11.6304
▁ᏥᎾᏂᎥ	-11.6304
▁ᎢᏥᏫᏅ	-11.6304
▁ᏚᏂᏃᎸᎩ	-11.6304
▁ᎤᏃᏒᏅ	-11.6304
▁ᏩᏎᎯ	-11.6304
ᏍᎦᏞᎢ	-11.6304
▁ᏂᏍᎩᏴᏁᎸ	-11.6304
ᏍᏕᏓᎵᏴᏌ	-11.6304
▁ᏚᏍᏚᏤ	-11.6304
▁ᎤᏂᏏᏁᎢ	-11.6304
▁ᎢᏗᎬᏓ	-11.6304
▁ᏧᏪᏲᏅᎯ	-11.6304
▁ᎢᏨᏅᎵ	-11.6304
▁ᎤᏁᏍᎨᎴ	-11.6304
▁ᏭᎵᏰᎢᎶᎸ	-11.6304
▁ᏕᏨᏰ	-11.6304
ᏳᎪᏛᎾ	-11.6304
ᎵᏴᏌ	-11.6304
▁ᏧᏕᏲᏗᏱ	-11.6305
▁ᎨᏣᎵᏍᏕᎸᏙᏗ	-11.6305
▁ᎢᏥᏂᎬᏎᎲᎢ	-11.6305
▁ᏍᎩᏯᏓᏅᏏ	-11.6305
ᎩᎩᎡᎵ	-11.6305
▁ᏓᏳᏍᏕᎸᎯ	-11.6305
▁ᎦᏁᏐᎠᏍᎬ	-11.6305
▁ᎤᏤᏥᏍᏗ	-11.6305
▁ᏍᏆᏕᏁᎸ	-11.6305
▁ᏅᏩᏛᏁᏍᏗ	-11.6305
▁ᎢᏨᏲᎢᏳ	-11.6305
▁ᎠᏕᏄ	-11.6305
▁ᎠᏕᎰᎯᏍᏗ	-11.6305
▁ᎢᏳᏥᎶᏓ	-11.6305
ᏓᏄᏴᏛᎾ	-11.6305
▁ᏫᏨᏲᏪᎳᏁᏗᏱ	-11.6305
▁ᏗᏣᏠᏱᎸᎩ	-11.6305
▁ᎤᏂᏯᏙᎴ	-11.6305
▁ᏚᏅᏫᏍᏔᏅ	-11.6305
▁ᎹᏚ	-11.6305
▁ᏧᏓᎴᏅᏔᏅᎯ	-11.6305
▁ᏄᎾᏍᏕᏍᏗ	-11.6305
▁ᎠᎦᏬᎥ	-11.6305
▁ᏕᎦᎶᏍᎬ	-11.6305
ᏴᎳᏎᎢ	-11.6305
▁ᎠᎾᎵᏍᏔᏴᎲᏍᎬ	-11.6305
▁ᏄᏓᎨᏒ	-11.6305
▁ᎠᏯᎣᎢ	-11.6305
▁ᎣᏣᏓᏙᎵᏍᏓᏁ	-11.6306
▁ᎢᏲᎦᏛᏁᏗᏱ	-11.6306
▁ᎯᏅᎦᎸ	-11.6306
▁ᏤᏥᎤᏍᏕᏎᏗᏱ	-11.6306
▁ᎢᏕᎮᏍᏗ	-11.6306
▁ᎤᎾᏓᏙᎵᏍᏗ	-11.6306
▁ᏥᏄᏪᏎᎴᎢ	-11.6306
▁ᏧᎾᏁᎳᏗᏍᏗᏱ	-11.6306
▁ᎦᏁᎵᏛ	-11.6306
▁ᏋᏗᏱ	-11.6306
▁ᎯᏁᏒᎭ	-11.6306
ᏙᎰᏎ	-11.6306
▁ᏛᎨᏥ	-11.6306
▁ᏯᏆᏛᎦ	-11.6306
ᎦᏎᏍᏔᏅ	-11.6306
▁ᎢᏨᏯᏛᏁᏗᏱ	-11.6306
▁ᏱᏙᎦᏰ	-11.6306
▁ᏂᎦᏁᎲᎾ	-11.6306
ᏕᎰᎯᏍᏙᏗᏱ	-11.6306
▁ᎠᎾᏔᏍᎩᏍᎩ	-11.6306
▁ᎢᏤᎳᏗᏙᎭ	-11.6306
▁ᎢᎤᎷᏤ	-11.6306
ᎥᏍᎩᏱᎩ	-11.6306
▁ᎤᏓᏅᏓᏛᎩ	-11.6306
▁ᎢᏥᎷᎨᏍᏗ	-11.6307
▁ᎢᏣᏓᏯᏫᏍᎨᏍᏗ	-11.6307
▁ᎠᏝᎲ	-11.6307
▁ᏍᎩᏯᏘᏃᎮᎸᎭ	-11.6307
▁ᏣᎾᏓᎾᏏᏂᏙᎭ	-11.6307
▁ᏥᎦᎷᎯᏍᏗᎭ	-11.6307
▁ᎢᏳᏪᏍᏘ	-11.6307
▁ᏂᏥᏪᏒᎭ	-11.6307
▁ᏗᎦᏅᏍᏙᏗ	-11.6307
▁ᏱᏣᏰᎸᏅ	-11.6307
▁ᎤᏂᏑᎵᎪᏤ	-11.6307
▁ᏅᏓᏳᏄᎪᏨᎯ	-11.6307
▁ᏳᏲᏤᎢ	-11.6307
▁ᎾᎾᏓᏁᏟᏴᏏᏒ	-11.6307
▁ᎢᏣᏣᏪᏐᎸᏍᏓ	-11.6307
▁ᏱᏦᎵᎦ	-11.6307
▁ᎤᏩᎦᏘ	-11.6307
▁ᏗᎦᏚᏗᏱ	-11.6307
▁ᏓᏂᎾᏌᏛ	-11.6307
▁ᎾᏥᏪᏎᎸ	-11.6307
▁ᎢᏳᏩᎪᏗ	-11.6307
▁ᎯᏫᏅ	-11.6307
ᎶᏅᎮᎸ	-11.6307
ᎠᎩᎷᏨ	-11.6307
▁ᎡᏙᏙᏱ	-11.6307
▁ᏗᎨᎪᏍ	-11.6307
▁ᎠᏂᎵᏫ	-11.6307
▁ᏕᏨᏁᏍᏗ	-11.6307
▁ᎬᎩᎷᏤᏗᏱ	-11.6307
ᏯᎷᎦ	-11.6307
▁ᏱᎾᏥᎸᏉᏙ	-11.6307
ᏓᏐᎴ	-11.6307
▁ᏥᏯᎵᎪᏁᎯ	-11.6308
ᏎᏒᎮ	-11.6308
▁ᏗᏑᏫᏍᎩ	-11.6308
▁ᎡᏥᏯᎡᏍᏗ	-11.6308
▁ᎤᏓᏅᏘᏌᏅ	-11.6308
▁ᏍᎩᏂᏌᏅᎭ	-11.6308
▁ᎠᏥᏌᎳᏓᏅ	-11.6308
▁ᏗᏋᏅ	-11.6308
st	-11.6308
▁ᏦᏥᎦᏔᎭ	-11.6308
▁ᎠᎩᏁᎢᏍᏗᏱ	-11.6308
▁ᎢᏨᎥᏏ	-11.6308
▁ᏍᎩᏩᎯ	-11.6308
▁ᎦᎸᎳ	-11.6308
▁ᎢᏦᎯᏳᏅ	-11.6308
▁ᎠᏯᏖᏂ	-11.6308
▁ᎤᏰᏥᏍᎩ	-11.6308
▁ᎨᏥᏁᎢᏍᏗᏍᎬ	-11.6308
▁ᏗᏣᏚᏙ	-11.6308
▁ᎡᏦᎢᏳᏗᏱ	-11.6308
▁ᎬᏩᏂᏴᎮᎢ	-11.6308
ᏠᎯᏍᏗᏱ	-11.6308
▁ᎢᎦᎯ	-11.6308
▁ᎤᏂᏴᏔᏂᎯᏍᏗᏱ	-11.6308
▁ᏚᏂᎵᏦᏛ	-11.6308
▁ᏗᏂᏃᎩᏍᎩ	-11.6308
▁ᏥᎦᏁᎭ	-11.6308
▁ᏥᏰᎸᎥ	-11.6308
▁ᎭᎴᎲᎦ	-11.6308
▁ᏫᎯᎶᎯ	-11.6308
▁ᏚᏃᎸᏎᎢ	-11.6308
▁ᏱᏥᏩᏘᎭ	-11.6308
ᏄᎵᏍᏓᏁᎴ	-11.6308
▁ᎢᏨᎪᏩᏛᏗᏱ	-11.6309
▁ᎤᎾᏓᏅᏔᏩᏕ	-11.6309
▁ᏥᏚᏙᎠ	-11.6309
▁ᎢᏨᎷᏤᏗᏱ	-11.6309
▁ᏂᎪᎵᎬᎾ	-11.6309
▁ᏕᏨᏗᏍᎨᏍᏗ	-11.6309
▁ᎤᏬᎯᏳᎯᏍᏛ	-11.6309
▁ᏕᎨᏥᎵᎥᏂ	-11.6309
▁ᎤᏓᎵᏁᎯᏕ	-11.6309
▁ᎠᏆᏙᎴᎰᏒ	-11.6309
▁ᎰᎯᏳᎲᎦ	-11.6309
▁ᏕᏥᎸᏉᏕᏍᏗ	-11.6309
▁ᎥᎩᏍᏕᎸᏗᏱ	-11.6309
▁ᏚᏃᎯᏳ	-11.6309
▁ᎠᎫᏣ	-11.6309
▁ᎠᎦᎸᏥ	-11.6309
ᏯᏓᏅᏏ	-11.6309
▁ᏱᎦᏕᎣᏍᎦ	-11.6309
▁ᏯᏲᎱᎯ	-11.6309
▁ᎤᎵᏍᏆᏙᏅ	-11.6309
▁ᏱᎾᏛᏁᎮ	-11.6309
▁ᎢᏯᏆᎵᏍᏓᏁᏗ	-11.6309
▁ᏣᏍᏉᏂᎪᏗ	-11.6309
▁ᎤᏂᏲᏍᏙᏗᏱ	-11.631
▁ᎦᏓᏆᏟ	-11.631
ᏠᏱᎸᎩ	-11.631
▁ᏚᏰᎵᏒ	-11.631
▁ᎠᎾᎵᏍᏓᏴᎲᏍᎩ	-11.631
▁ᎯᏲᏍᏗᏍᎩ	-11.631
▁ᎤᏍᏆᎸᎯᏗᏒᎩ	-11.631
▁ᎠᎩᎾᏄᎪᏫᏎᎸᎩ	-11.631
▁ᎠᎩᎸᏗᏍᎩ	-11.631
▁ᏧᏂᎦᏯᎷᏗ	-11.631
▁ᎨᎪᏢᏅᎯ	-11.631
▁ᎠᎾᏓᏁᏟᏴᏏᏒ	-11.631
ᎪᎲᏍᏔᏂ	-11.631
▁ᎢᏥᎷᏤᏗ	-11.631
▁ᎦᎶᏐᏅ	-11.631
▁ᎤᎾᏓᏙᎵᏍᏙᏗᏱ	-11.631
▁ᏓᏆᎴᎸ	-11.631
▁ᎭᏓᏙᎵᏍᏗᏍᎬ	-11.631
▁ᏩᏲᎯ	-11.631
▁ᎣᏣᎢᏒ	-11.6311
▁ᎬᏩᏍᏚᎢᏍᏗ	-11.6311
▁ᏧᏩᎿ	-11.6311
▁ᏚᎾᎵᏂᎬᎬ	-11.6311
▁ᏧᏓᏂᎸᎢᏍᏗᏳ	-11.6311
▁ᏣᏓᏅᏖᏗᏱ	-11.6311
▁ᏧᏂᏲᎱᎯᏍᏗ	-11.6311
▁ᎤᏓᏴᏒᎩ	-11.6311
▁ᏥᎦᏡᎦ	-11.6311
▁ᏫᏄᏩᏁᎴ	-11.6311
▁ᏥᎦᏘᏏᏗᏢ	-11.6311
▁ᎤᎧᏲᏓ	-11.6311
▁ᎤᎵᏍᏛᏧᏅ	-11.6311
▁ᎤᎱᏍᏕᏎᎴ	-11.6311
▁ᎤᎵᏍᎫᏮ	-11.6311
▁ᎤᎵᏬᎢᏍᏗ	-11.6311
▁ᎤᏯᏍᏚᏎᎢ	-11.6311
▁ᎨᏥᏛᎦ	-11.6311
▁ᏂᎬᏩᏍᏛ	-11.6311
▁ᏭᏕᎵᎨ	-11.6311
ᎱᏩ	-11.6311
▁ᎠᎩᏁᎫ	-11.6311
▁ᎢᏣᏓᏅᏓᏗᏍᏗᏱ	-11.6311
▁ᎠᏆᏎᎵᏔᏅ	-11.6311
ᏅᏮᎦ	-11.6311
▁ᏧᎾᏓᎵ	-11.6311
▁ᏣᏴᏍᏗ	-11.6311
▁ᏅᏛᏁᎵ	-11.6311
▁ᎠᎵᏍᏓᏴᎲᏍᎩ	-11.6311
ᏥᏰᎸᏂ	-11.6311
▁ᎢᏣᏗᏔᏍᏗᏱ	-11.6311
▁ᎤᏅᎦᎳᎲ	-11.6311
ᏑᏩ	-11.6311
▁ᎤᎿᏬᎡ	-11.6312
▁ᏥᏁᏣᏛᏁ	-11.6312
▁ᎠᏆᏦ	-11.6312
▁ᎠᏱᏍᎨᏍᏗ	-11.6312
▁ᏥᏂᎬᏁᎭ	-11.6312
▁ᎠᎩᏁᎢᏍᏔᏅ	-11.6312
▁ᎾᏆᎵᏍᏔᏁᎸ	-11.6312
▁ᎤᏟᎶᎥᎩ	-11.6312
▁ᎪᎵᎦᏓ	-11.6312
▁ᏄᏛᏁᎵᏙᎸ	-11.6312
ᏂᎶᏌ	-11.6312
▁ᏥᎦᏘᏯ	-11.6312
▁ᎡᎩᏩ	-11.6312
▁ᎠᎶᎻ	-11.6312
▁ᎠᎾᎵᎲᎢ	-11.6312
▁ᎢᏣᎴᏂᏓᏍᏗᏱ	-11.6312
▁ᏗᎦᏁᎶ	-11.6312
▁ᏥᏧ	-11.6312
▁ᏙᏛᎠᎴ	-11.6312
▁ᏭᏗᏅᏎ	-11.6313
▁ᏚᏄᎪᏫᏎ	-11.6313
▁ᎤᏰᏣ	-11.6313
▁ᏓᏍᏕᎵᏍᎬᎩ	-11.6313
▁ᎣᎦᏅᏅᎩ	-11.6313
▁ᎹᏌ	-11.6313
▁ᏄᏛᏁᎳ	-11.6313
▁ᎤᏂᎷᎯᏍᏗ	-11.6313
▁ᏤᏣᏛᏅᎩ	-11.6313
▁ᎯᏃᎮᏍᎩ	-11.6313
▁ᎢᏤᏙᎮᏍᏗ	-11.6313
▁ᎤᎾᏓᏄᎸᏗ	-11.6313
ᏥᏲᎤᎯ	-11.6313
ᏯᏠᎢᏍᏓᏁᎵ	-11.6313
ᎤᏰᎸᏗ	-11.6313
ᏥᏍᎦᎢᎭ	-11.6313
▁ᏳᏩᏛᎮᎢ	-11.6314
▁ᎤᎭᏄᏮ	-11.6314
▁ᏳᏪᎵᏎ	-11.6314
ᏂᎦᏛᏁᎰᎢ	-11.6314
▁ᏧᎭᎾᏬ	-11.6314
▁ᎥᏘᏍᎩ	-11.6314
▁ᎢᏳᎾᏕᏘᏴᏛ	-11.6314
▁ᏧᏪᏲᎲᏍᎩ	-11.6314
▁ᎦᏃᏙᏗ	-11.6314
ᏍᏚᎢᏏ	-11.6314
▁ᎤᏗᏩᏒᎩ	-11.6314
▁ᎢᎬᏩᏂᎩᏍᏔᏁ	-11.6315
▁ᏓᎪᏩᏘᏍᎬ	-11.6315
ᎩᏩᏛᎲᎩ	-11.6315
▁ᏚᎭᏁᎦᎸ	-11.6315
▁ᎠᏆᏢᏈᏍᏗᏱ	-11.6315
▁ᎠᏓᎦᏘᏕᎯ	-11.6315
▁ᏗᏓᏘᏍᏗ	-11.6315
▁ᎤᏍᏆᎸᎮ	-11.6315
▁ᏧᎬᏩᏟ	-11.6315
▁ᎤᎾᏓᏅᏍᏗ	-11.6315
▁ᎠᏛᏁᎮᏍᏗ	-11.6315
ᏧᎧᎸᏨ	-11.6315
ᎴᎳᏛᏅ	-11.6315
▁ᏱᏦᎯᏳᎲᎦ	-11.6315
▁ᎢᏥᎦᏔᎯᏳ	-11.6315
▁ᏚᏍᏚᎢᏎ	-11.6316
▁ᏫᏚᎧᎾᏅ	-11.6316
▁ᏗᎾᏟ	-11.6316
▁ᎠᏥᎸᎨᎳᏍᏙᏗ	-11.6316
▁ᎠᎵᏍᎩᏍᏗ	-11.6316
▁ᎢᏯᎩᏪᏍᏗᏱ	-11.6316
▁ᎠᏓᏬᏍᏗᏱ	-11.6316
▁ᎠᏆᏍᎦᏱ	-11.6316
▁ᎤᏂᎪᎵᏰᏗᏱ	-11.6316
▁ᏣᏱᎵᏙᎯ	-11.6316
▁ᎣᎾᏫᏱ	-11.6316
▁ᎢᎩᏍᏕᎵᎭ	-11.6316
▁ᏫᏗᎦᏘ	-11.6316
▁ᏧᏪᏙᎵᏍᏗᏱ	-11.6316
▁ᎦᏓᏫᏔᏅ	-11.6316
ᏕᏙᎲᎩ	-11.6317
▁ᎢᏥᏙᎾ	-11.6317
▁ᎭᏅᏓᏓ	-11.6317
ᏣᏘᏃᎸᎭ	-11.6317
▁ᏫᏥᏤᎢ	-11.6317
▁ᏫᎾᏛᎦ	-11.6317
▁ᎠᏂᎪᏩᏘᏍᎩ	-11.6317
▁ᏱᏄᎾᏍᏗ	-11.6317
ᏬᏍᎪᎢ	-11.6318
▁ᏥᏚᎦᏒᏍᏙ	-11.6318
▁ᏧᏴᎴ	-11.6318
▁ᎻᏌ	-11.6318
▁ᏧᏌᎨ	-11.6318
▁ᎤᎸᏁ	-11.6318
▁ᏔᎷ	-11.6318
ᏏᏏᏍᎩ	-11.6318
▁ᏭᎷᎯᏍᏗ	-11.6318
▁ᎦᏐᏂ	-11.6318
ᎦᎧᎲᏍᎨᏍᏗ	-11.6318
▁ᎢᏣᏙᎴᎰᎯᏍᏗᏱ	-11.6318
▁ᏭᎳᏛ	-11.6318
▁ᎢᏣᏓᏅᏙ	-11.6318
ᎵᏯᎻ	-11.6318
▁ᎠᏂᏍᎦᏰᎬᏍᏔ	-11.6318
▁ᎯᎦᏔᎮᏍᏗ	-11.6319
ᏁᏢᏙᏗᏱ	-11.6319
▁ᏥᏕᏙᎭ	-11.6319
▁ᎾᏑᎵᎪᎬᎾ	-11.6319
▁ᏧᏄᎪᏤᎢ	-11.6319
▁ᏚᏃᏪᎸᎢ	-11.6319
▁ᏧᏁᏢᏔᏅᏒᎢ	-11.6319
▁ᎡᏤᏲᏅᎢ	-11.6319
▁ᎢᏨᏁᎢᏍᏗᏍᎬᎢ	-11.6319
▁ᎤᎾᏓᏁᏟᏴᏒᏒᎢ	-11.6319
▁ᎬᏁᏤᎲᎢ	-11.6319
▁ᏓᎪᏄᎴᎢ	-11.6319
▁ᏚᏪᏣᎦᎸᎮᎢ	-11.6319
▁ᏧᎾᏄᎪᏤᎢ	-11.6319
▁ᎤᏓᏅᏔᏕᎢ	-11.6319
▁ᏄᏍᏗᏕᎬᎢ	-11.6319
▁ᏗᎦᏘᏍᏗ	-11.6319
▁ᎢᏣᏛᎩᏍᎬᎢ	-11.6319
▁ᎠᎦᏬᎡᎢ	-11.6319
ᏰᏫᏒ	-11.6319
▁ᎤᎾᏁᏢᏔᏅᏒᎢ	-11.6319
▁ᎧᏄᎦ	-11.6319
▁ᏱᏥᏩᏘᏍᎪᎢ	-11.6319
ᏓᏨᎾᏄᎪᏫᏎᎵ	-11.632
▁ᏧᏂᎶᏒ	-11.632
ᏍᏓᏩᏕᎪᎢ	-11.632
▁ᎧᏁᏉᏥᏎ	-11.632
▁ᏂᎦᏪᎠ	-11.632
▁ᏕᎬᏩᏘᏃᎮᎴᎢ	-11.632
▁ᏄᏪᎵᏍ	-11.632
▁ᎤᎬᎥᏍᎬ	-11.632
▁ᎨᏣᏓᏑᏴ	-11.632
▁ᎬᏃᏓ	-11.632
ᏓᎵᏅᏟ	-11.632
ᏕᏁᎵ	-11.6321
▁ᏕᎭᏕᏲᎲᏍᎬᎢ	-11.6321
▁ᏓᎾᎵᏍᏓᏴᎲᏍᎨᎢ	-11.6321
▁ᎤᏂᏁᎢᏍᏗ	-11.6321
▁ᏗᏣᏏᎳᏛᏗ	-11.6321
ᏋᏕᏨ	-11.6321
▁ᏱᏚᎾᏓ	-11.6321
▁ᏧᎦᏙᏍᏙᏗ	-11.6321
▁ᏫᎤᏂᎶᏎᎢ	-11.6321
▁ᎬᏩᎨᏳᎯ	-11.6321
▁ᏝᏬᏚ	-11.6321
▁ᏕᎯᏬᏁᏗᏍᎬ	-11.6321
▁ᎯᎶᏁᎥᎭ	-11.6321
▁ᏚᏄᏬᎡᎢ	-11.6321
▁ᏗᏣᎵᏂᎪᎯᏍᏙᏗᏱ	-11.6321
▁ᏫᏂᎬᎦ	-11.6321
ᏖᏍᎬᎢ	-11.6321
▁ᏄᏟᏂᎬᎬ	-11.6322
▁ᎤᏌᎨ	-11.6322
▁ᎠᎩᏃᎮᏍᎬᎢ	-11.6322
▁ᏭᏅᎪᏤ	-11.6322
▁ᎤᏴᏨ	-11.6322
▁ᏩᏥᎳᎨ	-11.6322
▁ᎤᏚᎢᏍᏓᏁᎸ	-11.6322
▁ᏚᏂᎵᏬᏤᎢ	-11.6323
▁ᏅᏓᎦᏛᏁᎵ	-11.6323
▁ᏅᏛᎾᎵᏍᏔᏂ	-11.6323
▁ᏨᏗᎦᏚᎭ	-11.6323
▁ᏭᏙᎯᏳᎲ	-11.6323
▁ᎤᎾᏁᎳᏗᏍᏗᏱ	-11.6323
▁ᏍᎩᏍᏕᎳ	-11.6323
▁ᏓᎪᏪᎳᏂ	-11.6323
▁ᎠᎻᎳᎻ	-11.6323
▁ᏚᏂᏴᎲ	-11.6323
▁ᏧᏂᏣᏔ	-11.6323
▁ᎦᎳᎨᏰ	-11.6323
▁ᏚᏅᏩᏁᎢ	-11.6323
▁ᏓᏂᎧᎿᏩᏗ	-11.6323
▁ᏃᎦᏛᏁᎸ	-11.6323
▁ᎤᏂᏛᏗᏍᎩ	-11.6323
▁ᎢᏳᏩᏁᏗ	-11.6323
▁ᎭᎵᏘ	-11.6323
▁ᎤᏗᎦᎵᏍᏙᏗᏍᎨᏍᏗ	-11.6323
▁ᏓᏰᏥᏁᎵ	-11.6323
▁ᎤᏩᏓᎴ	-11.6323
▁ᏗᏩᎾᎨ	-11.6323
ᎧᎲᏍᎩ	-11.6323
▁ᎢᎦᎵᏍᏓᏁᏗ	-11.6323
▁ᏣᏫᏎᎢ	-11.6323
ᎪᏪᎸᎾ	-11.6323
▁ᎠᏓᏏᏎ	-11.6323
▁ᏍᎩᏁᏥ	-11.6324
▁ᎦᎷᎨᏍᏗ	-11.6324
▁ᎤᏰᎾᎥ	-11.6324
▁ᎠᏆᏓᏅᏖᏙᏗ	-11.6324
▁ᎠᎬᏔᏅᏛ	-11.6324
▁ᎤᏓᏙᎵᏣᏘ	-11.6324
▁ᏱᎦᏗᎭ	-11.6324
ᏍᏔᏩᏕ	-11.6324
▁ᎢᎳᏍᏓ	-11.6324
▁ᏱᏥᏁᎦ	-11.6324
▁ᏚᏅᏴ	-11.6324
▁ᏧᏂᎷᏤᎸ	-11.6324
▁ᏥᎦᏙ	-11.6325
▁ᎤᏴᎴᎢ	-11.6325
▁ᎠᏓᏍᏕᎵᏍᎩ	-11.6325
▁ᎤᎾᎳᏍᏓᎡᏗ	-11.6325
▁ᏳᎵᏬᏨ	-11.6325
▁ᏱᏂᏙ	-11.6325
▁ᏱᏅᏗᎦᎵᏍᏙᏗᏍᎨᏍᏗ	-11.6325
▁ᎨᏥᏃᎮᏍᎬᎢ	-11.6325
▁ᎢᏳᏅᏁᎯ	-11.6326
▁ᎤᎦᏔᏔᏁᎢ	-11.6326
▁ᎢᏳᏏᏗ	-11.6326
▁ᏱᎾᏰᏍᎨᏍᏗ	-11.6326
▁ᎦᎵᏦᏩᏛ	-11.6326
▁ᏗᎨᏥᏰᎯ	-11.6326
▁ᏅᎩᏗᏂᏅᏌᏗ	-11.6326
▁ᎠᏂᎪᏩᏗᏍᎬ	-11.6326
▁ᎣᎦᎵᏍᏓᏴᏗᏱ	-11.6326
▁ᏂᏯᏛᏂᏏ	-11.6326
▁ᎠᏆᏤᎵᎪᎯ	-11.6326
▁ᎤᏗᏍᎦᎶᏗ	-11.6326
▁ᎤᏂᎿᎥᎢ	-11.6326
▁ᎤᎪᎵᏰᏗᏱ	-11.6326
▁ᏓᏕᏲ	-11.6326
▁ᏫᏚᏩ	-11.6327
ᎾᏍᏆᎶᏍ	-11.6327
▁ᎤᏂᎧᎭᏲ	-11.6327
ᏍᏆᏃᏴᎪ	-11.6327
▁ᎤᏗᎴᎬ	-11.6327
▁ᎠᏲᏍᏗᏍᎪ	-11.6327
▁ᎦᎬᏙᏗ	-11.6327
▁ᎡᏤᎵᏎ	-11.6327
ᎵᎲᏲᎵ	-11.6327
ᏚᏁᎢ	-11.6327
▁ᎤᏰᎸᏐᎢ	-11.6327
▁ᏂᏚᏂᎨᏳᏒ	-11.6327
▁ᎠᏆᏅᏛ	-11.6328
ᏍᏚᎢᎡᎴ	-11.6328
▁ᏓᎫᏩ	-11.6328
▁ᎤᏍᏗᎩᎨ	-11.6328
▁ᎹᎳ	-11.6328
▁ᎬᏩᏂᏍᎦᎩ	-11.6328
▁ᏯᏃᎯᏳᎲ	-11.6328
▁ᏗᎦᏅᎬ	-11.6328
ᏓᏁᏏ	-11.6328
ᏄᏬᎥᎭ	-11.6328
▁ᎠᏴᏓᏆᎶᏍᎬ	-11.6328
▁ᎣᏥᏃᎮᎭ	-11.6329
▁ᎠᎭᎾᏬ	-11.6329
▁ᎠᎵᏰᎢᎶᎦ	-11.6329
▁ᎢᏣᎵᏂᎬᏁ	-11.6329
▁ᎢᏗᎹ	-11.6329
▁ᎠᏣᎳᎩ	-11.6329
▁ᎠᏂᏃᎲᏍᎨ	-11.6329
ᎦᏂᏍᎬ	-11.6329
▁ᎨᏥᏙᎵᏍᏗ	-11.6329
▁ᎡᎵᎻ	-11.6329
▁ᏚᏂᏂᏴᎲ	-11.6329
▁ᎢᎶᏂ	-11.6329
▁ᎬᏩᏕᎰᎯᏍ	-11.6329
ᏛᏅᎢᏍᏓᏁᏗᏱ	-11.6329
▁ᏙᏛᏁᎵ	-11.6329
▁ᎠᏯᏛᎥ	-11.6329
▁ᏙᏓᏨ	-11.6329
▁ᎣᎩᎪᎲᎯ	-11.633
▁ᏥᏚᎾᏚ	-11.633
▁ᎠᏒᏛᏓ	-11.633
ᏴᎳᏏ	-11.633
▁ᏓᏐᏴᎢ	-11.633
▁ᎠᎾᎵᏥᏙᎲᏍᎦ	-11.633
ᏮᏕᏨ	-11.633
▁ᎠᏃᏎᎮ	-11.633
▁ᎡᏥᏲᎭ	-11.633
ᏛᎦᏅᎢ	-11.633
▁ᏗᏣᏘᏄᎦ	-11.633
▁ᎦᏃᏟ	-11.633
ᏅᎬᏛ	-11.6331
▁ᎤᏬᎯᏤ	-11.6331
ᏗᎦᏔᏫᎢᏍᏗᏱ	-11.6331
▁ᎤᏬᏍᎩᎵ	-11.6331
▁ᎤᏲᎱᏏᏕᎾ	-11.6331
▁ᏗᏍᏆᏂᎪᏗᏍᎩ	-11.6331
ᎠᏗᏒ	-11.6331
▁ᏚᏯᏙᎮᎴ	-11.6331
ᏅᏨᎾ	-11.6331
▁ᎤᎧᎭᏲ	-11.6331
▁ᎤᎵᏛᏔᏁᎢ	-11.6331
ᏱᎵᏕᎲᎢ	-11.6331
▁ᎠᏍᏆᎸᎲᎭ	-11.6331
▁ᎤᏣᎢᏒ	-11.6332
ᏅᏨᎩ	-11.6332
▁ᏧᏌᎴᏅ	-11.6332
▁ᎠᏆᎵᎮᎵᏨᎩ	-11.6332
▁ᎠᏆᎵᎮᎵᏍᏗᏱ	-11.6332
▁ᏣᏂᏃᎮᎭ	-11.6332
▁ᎨᎪᏣᎴᏛ	-11.6332
▁ᏫᎦᎶᏍᎬ	-11.6332
ᏅᎥᏏ	-11.6333
▁ᏚᎪᏓᏁᎯ	-11.6333
ᏐᏲ	-11.6333
▁ᏖᏒᎭ	-11.6333
▁ᎤᎵᏦᏔᏁᎢ	-11.6333
▁ᏱᏣᏚᎵᎭ	-11.6334
ᎦᏓᎴᏅᎯ	-11.6334
▁ᎤᏩᏂᎴᎢ	-11.6334
▁ᏚᏙᎡᏍᏗ	-11.6334
▁ᏳᏰᎸᏅ	-11.6334
▁ᏚᎾᏓᏡᎬ	-11.6334
▁ᎠᏲᏍᎩ	-11.6334
▁ᏚᏯᏅᎮᎢ	-11.6334
▁ᏱᎨᏩ	-11.6334
▁ᏓᏃᏎᎰ	-11.6334
▁ᏫᏥᎶᎢ	-11.6335
ᎶᎩᎯ	-11.6335
▁ᏳᏇᏗ	-11.6335
▁ᎤᎸᏓᎸᎥᏍᎩ	-11.6335
▁ᏍᎩᏁᎮᏍᏗ	-11.6335
▁ᏄᎾᎵᏍᏔᏁᎲ	-11.6335
▁ᎤᎸᏖᎴ	-11.6335
▁ᎤᎾᏤᎸᎯ	-11.6336
▁ᏣᏁᏤᏗᏱ	-11.6336
▁ᎤᏒᎦᎸᎩ	-11.6336
▁ᏑᏥᎶ	-11.6336
▁ᎠᏂᏔᏲᎯᎮᏍᏗ	-11.6336
▁ᏕᎨᏥᏂ	-11.6336
▁ᎦᎧᎮ	-11.6336
ᏰᏗᎭ	-11.6336
ᏯᏛᎩᎭ	-11.6336
ᏂᏜ	-11.6337
▁ᏓᎩᎧᎭ	-11.6337
▁ᏦᎩᎾᏫᏱ	-11.6337
ᎵᏂᎪᎯᏍᏙᏗᏱ	-11.6337
▁ᎤᏍᏚᏅ	-11.6337
ᎧᏔᏁ	-11.6337
ᎵᏍᏓᏁᎵᏒ	-11.6337
ᏅᏓᎨᏨᏁᎵ	-11.6337
▁ᏣᏛᏁᎸ	-11.6337
▁ᎬᏁᏤᎸᎢ	-11.6338
▁ᎡᎳᎻ	-11.6338
▁ᏗᎪᏍᏓᏯ	-11.6338
▁ᎤᎾᎵᏍᏓᏴᏅᎩ	-11.6338
▁ᎠᏯᏨᏗ	-11.6338
▁ᏧᎵᏠᏯᏍ	-11.6338
▁ᎢᏣᏓᏁᎮᏍᏗ	-11.6338
▁ᏙᏨᏗᏍ	-11.6339
▁ᎪᎶ	-11.6339
▁ᎠᏅᏬᎳᏕᏍ	-11.6339
▁ᏗᎦᏥᏯ	-11.6339
ᏛᏂᎸᏉᏔᏂ	-11.6339
▁ᏗᎬᏩᏂᏐᏢ	-11.6339
▁ᏱᏅᏗᎦᎵᏍᏙᏗᏍᎨ	-11.634
▁ᎤᏂᏍᎦᎢᏍᏗ	-11.634
ᏏᏔᏗᏍᏗᏱ	-11.634
▁ᎤᎵᏍᎪᎸᏓᏁᎸᎩ	-11.634
▁ᎤᏂᏴᎲ	-11.634
▁ᏥᎨᎲ	-11.6341
▁ᎢᏨᏃᏁᎸᎯ	-11.6341
▁ᏄᏃᎯ	-11.6341
ᏓᏕᎵᏎ	-11.6341
ᏂᏩᏛᎮ	-11.6341
▁ᏄᏦ	-11.6341
▁ᏧᏂᏒᏍᏗᏱ	-11.6341
▁ᎤᏍᏚᏞ	-11.6341
▁ᎤᎾᏎᎸ	-11.6341
▁ᎬᏩᏡᏗᏍᎬᎢ	-11.6341
▁ᎣᏥᏁᎦ	-11.6341
▁ᎦᏬᏂᏍᏗ	-11.6341
▁ᏕᎦᎵ	-11.6342
▁ᏧᏓᏂᎸᎢᏍᏗ	-11.6342
▁ᎠᏆᏕᏗ	-11.6342
ᏣᎦᏔᎲᏛ	-11.6342
ᏟᏂᎬᏁᎰ	-11.6342
▁ᎦᏰᏣ	-11.6342
ᏗᎨᎳᏍᏙᏗ	-11.6343
▁ᎤᎾᏓᏅᏖᏛ	-11.6343
ᏓᏙᎵᏣᏘᏳ	-11.6343
▁ᏣᏚᎵ	-11.6343
ᎦᎪᎯᏳᏗ	-11.6343
ᏕᎰᏏ	-11.6343
▁ᎾᏂᏪᎭ	-11.6344
ᏨᏌ	-11.6344
▁ᎢᏣᏓᏅᏓᏛ	-11.6344
▁ᎻᎵ	-11.6344
ᏲᎯᏍᏗᏱ	-11.6344
ᎥᏍᎪᎢ	-11.6344
ᏆᎧᎿᏅ	-11.6344
▁ᏕᏥᎨᏳᏒ	-11.6344
ᏙᏓᏆᏛ	-11.6345
▁ᎤᎾᏚᎸᏅᏗ	-11.6345
▁ᎡᎩᏍᏕᎸᏗᏱ	-11.6345
▁ᎡᏥᏯᏅᎲ	-11.6345
▁ᎤᏂᏂᎩᏛ	-11.6345
▁ᏣᏣᏪᏐᎸᏍᏙᏗ	-11.6346
▁ᎦᏢᏗ	-11.6346
▁ᏣᏰᎸᏗ	-11.6346
▁ᏚᎾᏙ	-11.6346
▁ᏓᏁᎶᏛᎩ	-11.6346
▁ᎩᎦᎨᎠᏗᏔᏍᏗ	-11.6347
▁ᎤᏍᏆᏗᏍᏗᏱ	-11.6347
▁ᏄᎵᏍᏓᏁᎲ	-11.6347
▁ᎤᏄᎸᏅ	-11.6348
ᎵᏍᏓᏴᏁᎢ	-11.6348
▁ᎤᏂᏲᎸᎯ	-11.6348
▁ᏍᏔᎵ	-11.6348
▁ᎠᏓᏁᎳ	-11.6348
▁ᏳᏬ	-11.6348
▁ᎤᎦᏌᏯᏍᏗᏕᎩ	-11.6348
▁ᏗᎤᎷᏨ	-11.6348
▁ᎤᎵᏏᎲᏎ	-11.6349
▁ᎤᏁᎷᏅ	-11.6349
▁ᎨᏥᏛᏙᏗᏱ	-11.6349
▁ᏣᎷᏨ	-11.6349
▁ᎠᏛᏃ	-11.6349
ᏓᏁᎲᎾ	-11.6349
▁ᎤᏩᎾᏬᏒ	-11.635
▁ᏥᏓᎩᏂᏴ	-11.635
▁ᎣᎩᏍᎦᏅᏨᎢ	-11.635
▁ᏱᎾᎩ	-11.635
▁ᎪᏪᎳᏅ	-11.635
ᎨᎦᏛᏅᎢᏍᏓᏁᎸ	-11.635
▁ᏕᎦᏯᎸ	-11.635
ᎷᎨᏍᏗ	-11.635
▁ᏓᏂᏐ	-11.635
▁ᏗᏁ	-11.635
▁ᎤᏓᏅᏖᏗᏍᎨᎢ	-11.635
▁ᎤᎾᏨᏏ	-11.635
▁ᏚᏁᏒ	-11.635
▁ᎪᎯᏍᏗᏍᎩ	-11.635
▁ᎠᏂᎶᏍᎬ	-11.635
▁ᎤᏅᎪᏨ	-11.6351
▁ᎠᎾᏙᎴᎰ	-11.6351
ᎵᏍᏙᏗᏱ	-11.6351
▁ᏄᏓᏛᏁᎴ	-11.6351
▁ᎤᎵᎦᎵᏴ	-11.6351
▁ᎢᏳᏂᏁᎫᏥ	-11.6351
▁ᎤᎩᏓᏟ	-11.6352
▁ᏄᏓᏪᏎᎴ	-11.6352
▁ᏂᏣᎵᏍᏓᏁᎲᎢ	-11.6352
▁ᎤᏬᏁᏔᏅᎢ	-11.6353
▁ᏄᎾᏛᎿᏕᎬᎢ	-11.6353
▁ᏕᎦᎸᏫᏍᏓᏁᎸᎢ	-11.6353
▁ᏥᏮᎦᏙᎢ	-11.6353
▁ᎤᎾᏓᏴᎳᏛ	-11.6353
ᏓᏅᏫᏍᎩ	-11.6353
▁ᎠᏩᏘᏍᎪᎢ	-11.6353
▁ᎤᏁᎳᏫᏎᎲᎢ	-11.6353
▁ᏨᏓᎸᎢ	-11.6353
ᏕᎶᏆᎡ	-11.6353
▁ᏭᏓᎾᏫᏛᎮ	-11.6353
ᏱᎵᏓᏍᏗᏱ	-11.6353
▁ᏗᏗᏙᏗ	-11.6353
▁ᏗᎪᏢᏙᏗ	-11.6353
▁ᎤᏗᏔᎮᎢ	-11.6353
▁ᎠᏌᏍᏛ	-11.6354
▁ᏭᏩᎦᏘᏗᏒᎢ	-11.6354
▁ᎠᏴᏈᏛ	-11.6355
▁ᏗᏣᎸᏫᏍᏓᏁᏗᏱ	-11.6355
▁ᏧᎶᎯᏍᏗ	-11.6355
▁ᎠᎵᏌᎳᏗᏍᎬ	-11.6355
▁ᏂᎨᏐᎢ	-11.6355
▁ᎢᏍᏛᏯ	-11.6356
▁ᎤᏩᏛᏛ	-11.6357
▁ᎠᏥᏍᏙᏗ	-11.6357
▁ᏥᏄᏍᏙ	-11.6357
▁ᎠᏓᎴᏂᏍᎩ	-11.6357
▁ᎢᏣᎵᎪᎯ	-11.6357
▁ᎦᏥᎪᎥ	-11.6358
▁ᎢᏣᎢᏒᎢ	-11.6358
▁ᎣᏥᏬᏂ	-11.6358
▁ᏇᏓᏁᎳᎻᏱ	-11.6358
▁ᏧᏂᎧᎿᏩᏛᏍᏗᏱ	-11.6358
▁ᎤᏲᎰᏒ	-11.6358
ᏙᎯᏳᎲᎦ	-11.6358
▁ᏂᏣᎵᏍᏔᏅᎩ	-11.6358
▁ᏚᏂᎳᏫᏨᎩ	-11.6358
▁ᎤᏁᎵᏒᎩ	-11.6359
▁ᎠᏓᎨᏗᏱ	-11.6359
▁ᎠᎩᏰᎸᏗᏱ	-11.6359
ᏏᏕᏅ	-11.636
▁ᏥᏄᏪᏒᎩ	-11.636
▁ᏤᏆᏂ	-11.636
▁ᎧᏁᎦ	-11.636
ᏌᏙᎭ	-11.636
ᏯᏛᏂᏏ	-11.636
ᏌᏛᏅᎩ	-11.636
▁ᎤᏓᏅᏖᏗᏍᎬ	-11.636
▁ᏓᎩᎪᎲᎩ	-11.6361
▁ᎤᏓᎢᏅ	-11.6361
▁ᎤᎾᎵᏖᎸᏅᎩ	-11.6361
▁ᎠᎾᏗᎭ	-11.6361
▁ᎴᏈ	-11.6362
▁ᎬᏩᏂᎪᏩᏛᏗ	-11.6362
▁ᏴᏛᎾ	-11.6362
▁ᏚᏬᏁᏔᏁᎢ	-11.6363
▁ᏱᏂᏣᎵᏍᏓᏁ	-11.6363
▁ᏓᏍᏔᏅᏅ	-11.6363
▁ᎢᏣᏓᎳ	-11.6363
ᏰᎩ	-11.6363
▁ᎠᎦᎸᎢᏛ	-11.6363
▁ᏥᏍᏓᏱ	-11.6364
▁ᎭᏗᏛ	-11.6364
▁ᏂᏗᎬ	-11.6364
▁ᎬᏩᎾᏝᎢ	-11.6365
▁ᎠᏧ	-11.6365
▁ᏤᏅᏍᏗᏱ	-11.6365
▁ᏳᏁᏐ	-11.6365
▁ᎬᏬᏎᎸᎩ	-11.6365
▁ᏭᏍᏆ	-11.6365
▁ᏗᏓᎾᏅ	-11.6366
▁ᏕᎩᎸᏫᏍᏓᏁᎸ	-11.6366
ᎦᎴᏂᏙᎭ	-11.6366
ᎭᏁᎦᎸ	-11.6367
ᎧᎪ	-11.6367
ᏍᏆᏗᏍᏗᏍᎩ	-11.6367
▁ᏍᎩᏃᎯᏏ	-11.6367
▁ᎤᏞᎩ	-11.6367
ᎪᎲᎯ	-11.6367
ᏍᏙᏗᏍᎨ	-11.6367
▁ᏂᏣᏛᏁᎲᎾ	-11.6367
▁ᏫᏚᎧᎿᏅ	-11.6368
▁ᎤᎾᏓᏅᎦᎸᏛ	-11.6368
▁ᏫᏚᎾᎧᎿᏅ	-11.6368
▁ᏍᎩᏯᏅᏛ	-11.6368
▁ᏚᏰᎵᎯᏍᏔᏅ	-11.6368
▁ᏕᎫᎪᏗᏍᎬ	-11.6368
▁ᎤᏍᏚᎩᏎ	-11.6368
▁ᎠᏔᎴ	-11.6368
▁ᏚᎸᏫᏍᏓᏁᎰᎢ	-11.6368
▁ᎤᏂᎪᏁ	-11.6369
▁ᎨᏥᏰᎸᎢ	-11.6369
▁ᎤᎾᎷᏒ	-11.6369
▁ᏥᏫᎾ	-11.6369
ᏰᎢᎸᏍᏗᏱ	-11.637
▁ᏫᏚᏠᏎ	-11.637
ᏰᎢᎵᏙᎲᎢ	-11.6371
▁ᎤᏂᏔᏲᏎᎴ	-11.6372
▁ᎤᏂᏲᎰᎢ	-11.6372
ᏱᎵᏙᎯ	-11.6372
▁ᎤᏍᎫᏕ	-11.6373
ᎪᎲᏍᏔᏅ	-11.6373
▁ᎡᏥᏍᎦᏅᏤ	-11.6373
▁ᎤᏓᏓᏍᎬ	-11.6373
▁ᏕᎨᏥᏰ	-11.6373
ᏴᎲ	-11.6374
▁ᏱᏙᎨᏗ	-11.6374
▁ᎰᎵᏈ	-11.6374
ᏁᏙᎮ	-11.6375
▁ᎤᏛᏗᏕᎨ	-11.6375
▁ᏭᏂᎦᏐᎠ	-11.6375
▁ᏗᎪᏪᎳᏅᎯ	-11.6375
ᏪᏒᏛ	-11.6376
▁ᏳᏚᎵᏍᎬᎾ	-11.6376
▁ᏥᏣᏓ	-11.6376
▁ᎠᎩᏍᏚ	-11.6376
▁ᏚᏟᎶᏍᏓᏁᎴᎢ	-11.6377
▁ᎤᏅᏓᏛ	-11.6378
▁ᏑᎠ	-11.6378
▁ᎤᎾᎵᏍᎪᎸᏔᏅᎯ	-11.6378
▁ᎤᏃᏴᎩ	-11.6378
▁ᎠᏂᎷᎬ	-11.6378
ᏂᏐᏗ	-11.6379
▁ᏱᏮ	-11.6379
ᎷᎳ	-11.6379
▁ᏕᏥᎵᎷ	-11.638
▁ᏂᏥᏃᎯ	-11.6381
▁ᏲᎩᎾ	-11.6381
▁ᎡᏣᏙ	-11.6381
▁ᏗᏓᎨ	-11.6381
▁ᎢᎵᎻ	-11.6382
▁ᏩᎩᎶᏒᎩ	-11.6382
▁ᏱᏍᎩᏃᏁᎴ	-11.6382
▁ᏓᏂᏍᎦᎢ	-11.6382
▁ᎤᎦᏘᏗᏍᏗᏱ	-11.6382
ᏠᎠᏒᎩ	-11.6383
▁ᎢᏳᏪᏍᏗᏱ	-11.6383
▁ᎤᏍᏆᎸᎭ	-11.6383
▁ᎤᎾᏁᎶᏔᏅᎩ	-11.6383
▁ᎢᏣᎨᏳᏅ	-11.6384
▁ᎠᎩᏰᏨ	-11.6384
▁ᎤᏮᏔᏅᎩ	-11.6384
▁ᏕᏚ	-11.6384
▁ᎧᏁᏉᎨᎢ	-11.6384
▁ᎢᏣᏛᏓᏍᏗᏍ	-11.6385
▁ᏧᎦᎿᏁ	-11.6385
ᏝᏅᎯ	-11.6386
▁ᏥᏫᎯ	-11.6386
ᏘᎭᏁ	-11.6386
▁ᎠᏯᎡᎢ	-11.6386
▁ᏕᎨᎶ	-11.6386
ᏫᏂᏴ	-11.6386
▁ᎤᏂᏄᎪᎢᏍᏗ	-11.6387
▁ᎪᏙᎯ	-11.6387
▁ᎠᎾᎢᏎᎢ	-11.6388
▁ᎤᏍᏗᏰᎬ	-11.6388
▁ᏱᏂᎬᎦ	-11.6388
▁ᎠᏂᏁᏉᏍ	-11.6389
ᏛᎿ	-11.6389
ᏍᎩᎳᏛ	-11.6389
▁ᎣᏥᎩᎵᏲᎬ	-11.6389
▁ᏳᏰᎸᎭ	-11.6389
ᏘᏁᎪᎢ	-11.6389
▁ᎤᏃᏢᏅᎯ	-11.6389
▁ᎤᏁᎢᏍᏔᏁᎢ	-11.6389
▁ᎢᏧᏓ	-11.6389
ᏚᎾᏚᏫᏍᏔᏁᎢ	-11.6389
▁ᎤᏍᏆᏂᎪᏔᏅ	-11.639
▁ᎢᏣᏓᏁᏟᏴᏏᏒᎢ	-11.639
▁ᎠᎾᏓᏅᏖᎵᏙ	-11.639
▁ᎤᏘᏃᎴᎢ	-11.6391
▁ᏥᏄᎵᏍᏔᏁᎢ	-11.6391
▁ᎠᏂᎫ	-11.6391
▁ᎤᏪᎲᎢ	-11.6391
▁ᎤᎵᏠᏯᏍᏛ	-11.6391
▁ᏒᏍᎦ	-11.6392
▁ᎠᏂᏲᎯᎲ	-11.6392
▁ᎮᏙᎲ	-11.6392
▁ᏥᎦᎷᎪᎢ	-11.6392
▁ᏂᎦᏅᏅ	-11.6393
▁ᎤᏪᏘᏁᎢ	-11.6393
ᎶᏒᏍᏙᏗᏱ	-11.6393
▁ᎤᎾᏏᏁ	-11.6393
▁ᎤᏁᏉᏤᎢ	-11.6393
▁ᎤᎾᏖ	-11.6393
▁ᏫᎲᎦ	-11.6394
▁ᎭᎧ	-11.6395
▁ᏓᏂᏅᎬ	-11.6395
ᎩᏠᏫᏍ	-11.6396
▁ᏳᏬᎵᏤ	-11.6396
▁ᎾᎾᏛᏁᎮ	-11.6396
▁ᎠᏥᏁᏗᏱ	-11.6396
▁ᎠᏟᏂᎬᏁ	-11.6397
▁ᎤᎾᎵᏍᎪᎸᏔᏅ	-11.6397
▁ᎠᏐᏢᎢᏍᏗᏍᎬᎢ	-11.6398
▁ᏥᏅᏗᎦᎵᏍᏙᏗᏍᎨ	-11.6398
▁ᏫᏚᏯ	-11.6398
ᏗᎦᎵᏍᏙᏗᎭ	-11.6398
▁ᎤᏁᎸᏔᏁᎢ	-11.6398
ᏯᏅᎮᎢ	-11.6399
▁ᏄᏅᏁᎴᎢ	-11.6399
▁ᎠᏍᎧ	-11.64
▁ᎤᏪᎷᎩ	-11.64
▁ᎠᏂᏱᏙ	-11.64
▁ᏧᏂᏁᏗᏱ	-11.64
▁ᏤᎪᎢ	-11.64
▁ᎦᎶᏐᎲᏍ	-11.64
ᏂᏙᎸᎯ	-11.6401
▁ᏗᏁᎶᏗ	-11.6402
▁ᎠᏂᎱ	-11.6403
▁ᏗᎪᏒ	-11.6403
▁ᎠᏍᏆᎵ	-11.6403
▁ᎤᏅᏕᏨ	-11.6403
▁ᎠᎾᎵᏥᏙᎲᏍᎩ	-11.6404
▁ᏣᏍᏆᏂᎪᏙᏗᏱ	-11.6405
▁ᎤᏍᏆᎳ	-11.6405
ᏍᎬᏰᏃ	-11.6405
▁ᎠᎿᎥᎢ	-11.6406
ᎧᏒᎢ	-11.6406
ᎦᎷᎩ	-11.6407
▁ᎤᏂᏲᏍᏔᏁ	-11.6407
▁ᏱᎪᎯᏳᎲ	-11.6407
▁ᏫᎬᏍᏗ	-11.6408
▁ᏧᎪᏄᎶ	-11.6408
▁ᎤᎦᎾᏬᏍᎬ	-11.6408
▁ᏕᎪᏢᏒᎩ	-11.6408
▁ᎤᏂᏃᎴ	-11.6408
▁ᎾᎬᏁᎸᎭ	-11.6408
▁ᎤᎾᏏᏅ	-11.6409
▁ᏚᏆᎵ	-11.6409
▁ᏥᏂᎦᎵᏍᏗᏍᎪ	-11.641
▁ᎣᏣᏓ	-11.641
ᏰᎵᏎᏗ	-11.641
▁ᏚᏲᏍᏔᏅ	-11.6411
▁ᏚᏅᏒᎩ	-11.6411
▁ᏗᏄᎪᏗᏍᎩᏱ	-11.6411
ᏗᏔᎲᎭ	-11.6412
▁ᎤᏲᎱᎯᏎᎸᎯ	-11.6412
▁ᎮᎲᎢ	-11.6412
▁ᎢᏥᎩᎬ	-11.6412
ᏥᏅᎦᎸᎡ	-11.6413
ᏢᏔᎮ	-11.6413
▁ᏄᎾᎵᏍᏓᏁᎲ	-11.6413
▁ᎬᏩᎯᏍᏗᏱ	-11.6413
▁ᏂᏓᏅᏁᎲ	-11.6414
ᏣᏘᏃᎯᎮᏍᏗ	-11.6415
ᏇᏓᏍᏗ	-11.6415
ᏞᏒ	-11.6416
▁ᏗᎦᏐᎯ	-11.6416
▁ᎡᏣᏛᎦᏁᎸ	-11.6417
ᎤᏂᏃᏕᏅ	-11.6417
▁ᎯᏴᎭ	-11.6418
▁ᎠᏒᎨᏍᏗ	-11.6418
ᏑᏢᏛ	-11.6418
▁ᏱᏅᏩᏍᏗᏗ	-11.6418
▁ᎤᎾᎵᏖᎸᏅ	-11.6419
ᏕᎬᏲᎯᏏ	-11.6419
▁ᎤᏓᏅᏙᎩᎯ	-11.6419
ᏢᏔᎲ	-11.642
▁ᎠᎵᏍᏓᏴᎲᏍᎬᎢ	-11.642
▁ᏍᏆᏛᎦᏁ	-11.642
▁ᏫᎦᎾᏄᎪᎢ	-11.642
▁ᏗᏌᏂ	-11.642
▁ᏕᎯᏁ	-11.642
▁ᎤᎷᏤᎸᎯ	-11.6421
▁ᎢᏲᎩ	-11.6422
▁ᏚᏂᏢᎬᎢ	-11.6422
▁ᏕᏣᎸᏫᏍᏓᏁᎸᎢ	-11.6422
▁ᎤᏅᏎᏍᏗ	-11.6422
▁ᎠᏄᎯᏍᏗᏍᎬᎢ	-11.6422
▁ᏚᏍᎫᏓᏛᎢ	-11.6422
▁ᏓᏅᏗᏍᎬᎢ	-11.6422
▁ᏚᏄᎪᏔᏅᎢ	-11.6422
▁ᎤᏃᎯᏳᏁᎢ	-11.6423
▁ᎯᎲᎦ	-11.6423
▁ᏥᏙᏓᎦ	-11.6425
▁ᎠᏯᎡᏍᏗ	-11.6425
▁ᏛᏨ	-11.6426
▁ᎤᎾᏟᎶᎥ	-11.6426
▁ᎦᏓᏅᏖᏍᎪ	-11.6426
▁ᏧᎪᏩᏛᏗ	-11.6426
▁ᎢᎦᏅᎯᏛ	-11.6427
▁ᏚᏟᎶᏍᏓᏁᎴᏃ	-11.6427
▁ᏧᏴᏫ	-11.6427
ᏥᏯᏁᎶᏗ	-11.6428
▁ᎤᏓᎴᏅᎯ	-11.6428
ᎵᏍᏓᏴᎾᏁᏗᏱ	-11.6428
▁ᎤᎾᎵᎪᏒᎢ	-11.6429
▁ᎠᏛᏍᎨᎢ	-11.643
▁ᎪᎪ	-11.643
ᎵᏂᏆᏅᏁ	-11.643
▁ᎤᏢᎬᎢ	-11.6431
▁ᎢᏳᏩᏁᎸ	-11.6431
▁ᎤᎾᎵᏗᎩ	-11.6431
▁ᏧᎾᏄᏬᏍᏗ	-11.6432
▁ᎢᎬᏩᏁᏗᏱ	-11.6432
▁ᎤᏬᏛ	-11.6433
ᎳᏗᏍᎨᎢ	-11.6433
ᎾᏍᏉ	-11.6433
▁ᎠᏥᎢᏍᏗᏱ	-11.6433
▁ᏱᎦᎷᎩ	-11.6434
▁ᎢᏣᎵᎪ	-11.6435
▁ᎤᏥᏍᏛ	-11.6436
▁ᏁᏨᏁ	-11.6437
▁ᎠᏁᏙᎮᏍᏗ	-11.6437
▁ᎠᏆᎫᏴ	-11.6438
▁ᏳᏲᎰ	-11.644
ᏒᏗᏱ	-11.644
▁ᎠᎾᏗ	-11.6441
▁ᏓᏕᏲᎲᏍᎨᎢ	-11.6441
▁ᏄᏅᏁᎸᎩ	-11.6441
ᏒᎲᏍᏗᏱ	-11.6442
ᎨᏠᎮ	-11.6442
▁ᎢᏳᏍᏗᏓᏂ	-11.6443
▁ᏓᏰᏍ	-11.6443
▁ᎤᏍᏕᏓᎵᏴ	-11.6443
▁ᎤᏩᏴᏒ	-11.6443
▁ᏗᎦᏅᏆᎶ	-11.6444
▁ᏧᏂᎷᏤ	-11.6444
▁ᏥᏯᎠ	-11.6445
▁ᎣᎩᎦᎵᏍᏓᏗᏍ	-11.6445
▁ᏱᎬᏅ	-11.6446
▁ᏥᎸᏉᏗ	-11.6446
▁ᏯᏆᏚᎵᎭ	-11.6446
ᏙᏳ	-11.6446
▁ᎠᏯᏙᎵ	-11.6446
▁ᏗᎧᏃᎩᏍᏗᏱ	-11.6446
▁ᎢᎬᏩᎷᏤᎴ	-11.6446
ᎸᏉᏔᏅᎩ	-11.6446
ᏐᏅᏤᎸᎩ	-11.6447
ᎭᎵᏙᎩ	-11.6448
▁ᎤᏪᎴ	-11.6449
ᏓᏨᏁᎵ	-11.645
ᏓᏏᏒ	-11.645
ᏲᏅᎵ	-11.6451
▁ᏭᏯᏅᎲᎩ	-11.6451
ᏚᏓᎸ	-11.6451
ᏃᎮᎵ	-11.6451
▁ᎤᏬᏱ	-11.6451
▁ᏕᎨᏥᏅᏩ	-11.6451
▁ᎠᎩᏁᎸᎯ	-11.6451
▁ᏣᎦᏛ	-11.6452
ᎦᏥᏲᏎᎸ	-11.6452
▁ᎢᏣᏓᏅᏛᎢ	-11.6453
▁ᎤᏓᏅᏁᎢ	-11.6453
ᏓᏡᏗᎭ	-11.6453
▁ᎤᏍᎩᏓᏒᎢ	-11.6455
▁ᏤᏙᎰ	-11.6455
▁ᎠᎩᏂᎬᏎᎲ	-11.6456
▁ᎠᎾᏕᎲᏍᎬᎢ	-11.6457
▁ᎢᏤᎮᏍᏗ	-11.6457
▁ᏚᎾᏦᏎ	-11.6457
▁ᎤᏓᏙ	-11.6457
▁ᎣᎯᏍᏗ	-11.6457
▁ᎬᏣ	-11.6457
ᏍᏔᏁᏗ	-11.6457
▁ᎤᏃᎯᏳᏒᎢ	-11.6457
ᏴᏎᎸᎩ	-11.6458
▁ᏧᏬᏢᏁ	-11.6458
ᏓᏁᎸᎭ	-11.6458
▁ᏂᏥᏴ	-11.6459
▁ᏂᎦᏪᏏ	-11.6459
▁ᎨᏥᎸ	-11.646
▁ᏚᏪᎧᏁᎢ	-11.646
▁ᎤᏃᎮᎸᎩ	-11.646
▁ᏓᏥᏁ	-11.646
▁ᎠᎩᏍᏛᏗᏍᎬᎢ	-11.6461
▁ᎠᏲᏍᏗᏍᎬ	-11.6462
▁ᏗᎦᎷᏫᏍᏔᏁ	-11.6462
ᎿᏬᏍᏗ	-11.6463
ᎧᎿᏩᏛᎡ	-11.6463
▁ᏧᏩᏒ	-11.6464
▁ᏤᎮᏍᏗ	-11.6464
▁ᏓᏂᏁᎵ	-11.6464
▁ᎠᎾᎵᏍᏓᏴᏗᏍᎬ	-11.6465
ᎵᏥᏙᏁᎲᎢ	-11.6465
▁ᏣᏂᏅᎩ	-11.6465
▁ᏥᎪᏩᏘᎭ	-11.6465
ᏦᏩ	-11.6466
▁ᎠᏥᎦᏘᏗᏍᏗᏱ	-11.6468
▁ᏓᏍᏓ	-11.6468
▁ᎦᏌᎴ	-11.6468
▁ᏗᎪᏱ	-11.6469
▁ᏥᏚᏲᏎ	-11.647
ᎵᏍᏙᏔᏁ	-11.647
▁ᎤᎵᏍᏕᎸ	-11.647
▁ᏧᏔᏂ	-11.647
ᏂᏱᏍᎩ	-11.6471
ᎧᏁᏍᏗ	-11.6471
ᎧᎭᏲ	-11.6471
ᏂᏕᏅ	-11.6471
▁ᏤᏥᏃ	-11.6472
▁ᏓᏲᎩ	-11.6472
▁ᎡᎯᏍᏗᏳ	-11.6472
ᏓᏬᏍᏙᏗ	-11.6472
▁ᎠᏂᎩᎵᏲᎬᎢ	-11.6472
▁ᏥᏄᏛᏁᎴ	-11.6473
▁ᏱᎯᎦᏔᎮ	-11.6473
▁ᎥᏘ	-11.6474
▁ᎤᎪᎵᏰᏗ	-11.6475
▁ᏂᎦᎵᏍᏙ	-11.6475
▁ᎵᏓ	-11.6477
▁ᎠᎩᏩᏛᎲᎩ	-11.6477
▁ᏗᎦᎵᏍᏙᏗ	-11.6478
▁ᏕᏣᎴ	-11.6479
ᎨᎬᏁᎵ	-11.6479
ᏣᏛᎩᎭ	-11.648
ᎫᏴᎡᎸ	-11.648
ᎦᏎᏍᏙ	-11.6481
ᎩᏩᏛᏗᏱ	-11.6481
ᎭᏯᎸ	-11.6481
▁ᎠᏞ	-11.6481
▁ᎤᏂᎾᏗᏅᏎ	-11.6481
▁ᎤᏓᏴᏍᏗᏱ	-11.6481
ᏓᏦᏍᎬ	-11.6482
ᏲᏍᏗᏍᎩ	-11.6483
▁ᎠᎫᏬᏰ	-11.6485
▁ᏧᏍᎦ	-11.6485
▁ᏂᏪᏏ	-11.6486
ᏔᏁᎸᎯ	-11.6486
▁ᏫᏚᎷᏤᎸ	-11.6487
▁ᏚᎷᎬᎢ	-11.6487
▁ᏐᎭ	-11.6487
▁ᎤᏔᏲᏎᎸᎩ	-11.6487
▁ᏣᏓᏅᏘ	-11.6488
ᏍᏢᏂᏍᏔᏅ	-11.6488
▁ᎤᎾᏤᎵᎪ	-11.649
▁ᎦᎴᏂᏙᎲ	-11.6491
ᎾᏋᏁᎸ	-11.6491
▁ᎠᏓᏪᎵᎩᏍᎬᎢ	-11.6492
▁ᏧᏂᎬ	-11.6493
▁ᎤᏁᎷᎬᎢ	-11.6493
▁ᎤᏂᏖᎸᏅ	-11.6494
▁ᎢᏳᏩᎬ	-11.6494
▁ᏥᏍᎩᏯ	-11.6494
▁ᎤᎵᏦᏛᎢ	-11.6494
▁ᎦᏓᎥᎢ	-11.6494
▁ᎡᏗᎨᏳᎢ	-11.6495
▁ᏚᏇ	-11.6495
ᎤᏏ	-11.6496
ᏗᎬᏩᎧᏃᏗ	-11.6497
▁ᎡᎭᏏ	-11.6498
▁ᎾᎾᏛᏁᎭ	-11.6498
ᏤᎵᎯᏍᎪ	-11.6498
▁ᏱᏔ	-11.6499
▁ᏪᏙᎲ	-11.6499
▁ᎪᎯᏳᏙᏗ	-11.6499
▁ᎤᎳᏏ	-11.6499
ᎾᏰᎯᏍᏛ	-11.6499
▁ᏂᎦᎵᏍᏗᏍᎪᎢ	-11.6499
▁ᏚᎸᏌᏓ	-11.6499
ᎦᎵᏍᏓᏛ	-11.65
▁ᎤᏰᎯᏍᎩᏂ	-11.65
▁ᏓᏂᏢ	-11.65
▁ᏗᎧᎵᎢ	-11.65
ᏓᏂᏱ	-11.6501
▁ᎦᎷᏥ	-11.6501
▁ᏱᏄᏍᏕᎢ	-11.6502
▁ᏱᏝ	-11.6503
▁ᎢᏥᏁᏗᏱ	-11.6504
ᏥᏂ	-11.6504
▁ᏣᎯᏍᏗᏱ	-11.6504
ᏤᏯᏙᏤᎮᏍᏗ	-11.6505
▁ᏚᏓᏓᎴᏔᏁ	-11.6505
▁ᏂᏙᏔᏘ	-11.6506
▁ᏱᏥᎦᏔᎮᎢ	-11.6506
▁ᏚᏘᏃᎴ	-11.6506
▁ᎤᏂᎯᏍᏗ	-11.6507
▁ᏓᏓᎯ	-11.6507
▁ᎪᏢᏒᎩ	-11.6507
▁ᏅᏩᏓ	-11.6508
ᏱᎩᎵ	-11.651
▁ᎤᏁᎳᏛ	-11.6511
ᏪᎵᏏ	-11.6512
ᎰᎯᏍᏗ	-11.6512
▁ᏄᏩᏁᎲ	-11.6513
▁ᎤᏍᏗᏰ	-11.6513
▁ᎣᏨᏗᏍᎬ	-11.6514
▁ᎠᏓᎴᏂᏍ	-11.6515
▁ᎠᏆᏓᏤᎵᎦ	-11.6516
▁ᏥᏂᎩ	-11.6517
▁ᎤᏂᏬᏂᎯᏍᏗᏱ	-11.6518
ᎧᏁᎬ	-11.6519
▁ᏗᎦᏲᏥ	-11.6519
▁ᏄᏬᏚᏒ	-11.6519
▁ᎠᏆᏚᎸᎲ	-11.6519
▁ᎦᏛᎬᎦ	-11.652
▁ᎠᏥᏁᎸᎯ	-11.652
ᏂᏍᏗᎭ	-11.652
▁ᎨᏛᎢ	-11.6524
▁ᎤᎾᏓᏙᎵᏍᏔᏁ	-11.6525
▁ᏍᏆᎳ	-11.6525
▁ᎠᎩᏌ	-11.6526
ᏍᏓᏩᏗᏙ	-11.6526
▁ᏙᏓᏆᏍᎬᎢ	-11.6528
▁ᏂᎦᏔᎲᎾ	-11.6529
ᎳᏑᎳ	-11.6529
▁ᏥᏃᎮᏍᎬᎢ	-11.6529
▁ᏱᏚᏩᏛᎮ	-11.653
▁ᎤᏂᏃᏁᎴ	-11.653
ᎾᏕᎨ	-11.653
▁ᏃᏥᎥ	-11.6531
▁ᎨᏌ	-11.6532
ᏁᎳᏕᎢ	-11.6533
ᎷᎸᏁ	-11.6534
ᏍᏔᏲᏍᏙᏗ	-11.6536
ᏌᏙᏯ	-11.6537
ᏂᏓᏅᏁᎰ	-11.6538
▁ᏂᏚᏩᏁ	-11.6538
ᎵᏉᎩ	-11.6539
▁ᏂᏍᏛ	-11.6544
▁ᏚᏂᏰᎵᏒ	-11.6544
ᏛᎲᏃ	-11.6546
ᏟᏃᎮᏔᏁ	-11.6547
▁ᏙᎦᏠᎯᏍ	-11.6547
▁ᏅᏂ	-11.6548
ᏯᎦᏎᏍᏗ	-11.6548
▁ᏍᎩᏯᏕᎶᏆᎡ	-11.6548
▁ᏗᎬᏅ	-11.655
▁ᎠᎩᏁᏨᎩ	-11.6551
▁ᎠᏥᎪᎵᏰᎥ	-11.6552
ᏍᏚᎶᏙᏗ	-11.6552
▁ᎬᏩᏂᏃᎮᏗ	-11.6553
▁ᏕᎭᏘᏁ	-11.6555
▁ᏂᎬᏁᎰ	-11.6556
▁ᏱᎾᎾᏛᏁᎰ	-11.6556
ᏯᎪ	-11.6556
▁ᎤᎾᏂᎩᏍᏗ	-11.6558
▁ᎤᎶᎯᏍᏗᏱ	-11.6558
▁ᎬᏩᎾᏓᏅᎡ	-11.6558
ᎫᏴᎲᎾ	-11.6558
▁ᏂᏣᏪᏎᎸ	-11.6559
▁ᏂᏣᏛᏁᎰ	-11.6561
▁ᎤᏃᎭ	-11.6562
▁ᏫᎬᏪᎧᏁ	-11.6562
▁ᎯᎦᏘ	-11.6563
ᏍᏛᏗᏍᏗ	-11.6563
▁ᏗᎦᏅᏬᎢ	-11.6563
▁ᎯᎩᏍᎪ	-11.6564
▁ᏂᎦᏛᏁᎰᎢ	-11.6565
ᏅᏍᎬᎾ	-11.6566
▁ᏁᎵᏍᎬᎾ	-11.6567
▁ᎤᏁᏉᎡ	-11.6569
ᏥᏍᏢ	-11.6569
▁ᎤᏅᏁᎢ	-11.657
▁ᎤᎧᎭ	-11.6572
ᎣᎸ	-11.6572
▁ᏓᏳᏪ	-11.6572
▁ᎤᏩᏌᏆ	-11.6573
▁ᎤᏩᏛᎲᎩ	-11.6573
▁ᏧᎬᏩᎴ	-11.6573
▁ᏱᏚᏩᏛᎲ	-11.6576
▁ᎤᎾᏌ	-11.6577
ᎾᏓᏙᎵᏍᏗᏍᎪᎢ	-11.6577
ᏯᏛᎦᏁᎵ	-11.6579
ᎪᏛᎢ	-11.6579
▁ᎠᏉᎯᏳᏅ	-11.6579
▁ᏤᎲᎢ	-11.6579
ᏪᏌᏆᎴ	-11.658
ᎬᏇᎯᏍᏗᎭ	-11.6584
▁ᏫᎬᏩᏂᏴ	-11.6584
▁ᏯᏃᎵ	-11.6584
▁ᏯᎩᏍᏆᎸᎡ	-11.6585
▁ᎤᏥᏯ	-11.6586
ᏓᏇ	-11.6587
ᏲᏍᏗᏍᎨᏍᏗ	-11.6587
ᏅᏅᎢ	-11.6587
▁ᏧᏁᎯ	-11.6588
▁ᏂᏨᏪᏎᎸ	-11.6588
ᏕᏲᎲ	-11.6589
▁ᎦᏁᎵᏒ	-11.6589
ᎥᏍᎦ	-11.659
ᏛᏗᏍᎨᏍᏗ	-11.659
▁ᏧᎾᏙᏅ	-11.6591
▁ᎤᏂᏄᎸᏅ	-11.6591
▁ᎤᎵᏦᎯ	-11.6592
▁ᏁᏩᏔᎵᏃ	-11.6593
▁ᏚᎾᏘᏃᎸ	-11.6593
▁ᎤᏚᎢᏍᏔᏅᎢ	-11.6594
▁ᎠᎦᏯ	-11.6595
▁ᎤᎾᎵᎮᎵᏤᎢ	-11.6595
ᎠᏴ	-11.6595
ᏁᏟᏴᏍᏔᏁ	-11.6596
▁ᎢᏳᏩᏁ	-11.6596
▁ᎢᏥᎦᎵᏍᏓᏗᏍ	-11.6596
▁ᎤᏩᏓ	-11.6597
ᏰᏍᏔᏁᎢ	-11.6597
▁ᎤᎵᏘᏎ	-11.6597
ᎵᏔᏕ	-11.6598
▁ᏕᎤᎴᏔᏅᎢ	-11.6599
ᏤᏍᏙᎩᎯ	-11.6599
▁ᎣᎩᏰᎸ	-11.66
ᎦᏙᏍᏙᏗ	-11.66
▁ᏄᏂᏪᏒᎢ	-11.6601
▁ᏱᏕᏍᏗ	-11.6601
▁ᏍᎩᏅᎦᎸ	-11.6602
▁ᏂᎦᎵᏍᏗᏍᎨᎢ	-11.6602
ᏓᏁᎰᎢ	-11.6603
▁ᏂᎦᏛᏅᎢ	-11.6604
▁ᏙᎦᏘᏁ	-11.6606
ᏓᏅᏓᏗᏍᏔᏅᎯ	-11.6607
▁ᏫᏓᏗ	-11.6608
▁ᏧᏂᏴ	-11.6609
▁ᎤᎷᏤᏗ	-11.661
▁ᎤᏕᏒᏅ	-11.6611
ᏓᏅᏔᏩᏕᎬ	-11.6612
▁ᏘᎦᎵᏍᏙ	-11.6613
ᏦᎯᏳᎲᎦ	-11.6615
ᏨᏁᎰ	-11.6615
▁ᏓᏄ	-11.6616
▁ᎤᏍᏕᎸᏗ	-11.6618
ᏓᏴᏍᏗ	-11.662
ᏚᏳᎯᏛ	-11.662
▁ᎤᎶᏒᎢ	-11.662
ᏚᏓᏴᎳᏛ	-11.6621
▁ᏱᏍᎩᏯ	-11.6621
▁ᎠᎧ	-11.6622
▁ᎤᏰᏥ	-11.6622
ᎬᏎ	-11.6622
▁ᎳᏏ	-11.6622
ᎴᏎᎢ	-11.6623
▁ᏂᎦᏥᏴᏁᎸ	-11.6624
▁ᏓᏘᏁ	-11.6625
▁ᎤᎿᎸᏤ	-11.6625
▁ᏤᎵ	-11.6627
▁ᎨᏥᏍᏗ	-11.6627
▁ᎢᎦᏛᏁᏗ	-11.6628
▁ᎤᎾᏗᏔᎲ	-11.663
ᏌᏕᎢ	-11.663
▁ᎤᎾᏓᏅᏖᏔᏁ	-11.6631
▁ᎦᎸᎥ	-11.6632
▁ᎦᎳᎩ	-11.6633
▁ᏕᎨᏲᎲᏍᎨ	-11.6635
ᎾᎥᎾ	-11.6635
▁ᎤᏁᎵᏎᎢ	-11.6636
▁ᎤᏂᏩᏛᎲ	-11.6637
▁ᎢᎬᏩᎵᏍᏓᏁ	-11.6638
ᏔᎷᎩᏍᎬ	-11.6639
▁ᏴᎬᏩ	-11.6645
▁ᎤᏂᎾᏝᎾᎥ	-11.6646
▁ᏱᏗᏍᎩ	-11.6647
▁ᎠᏢᏛ	-11.6648
▁ᏚᎸᏫᏍᏓᏁᎸᎩ	-11.665
▁ᎠᏂᎦᎵ	-11.665
ᏓᏂᎸᏤ	-11.6651
▁ᏱᏧ	-11.6654
▁ᏥᎶᏃ	-11.6654
▁ᏚᏑᎦ	-11.6656
ᏍᏗᏰ	-11.6658
ᏝᏁ	-11.666
▁ᎦᎨᏣ	-11.6661
▁ᎢᏥᏪᏍ	-11.6662
ᏂᎨᏒ	-11.6662
▁ᎢᏓᏓ	-11.6663
ᏥᏰᎸᎾᏁᎰᎢ	-11.6663
▁ᏱᎾᏅ	-11.6664
▁ᎠᏲᎵᏃ	-11.6665
▁ᎾᏆᎵᏍᏓᏁ	-11.6667
▁ᎠᏂᏁᎩ	-11.6668
▁ᎡᏙᎰ	-11.6668
▁ᏗᏥᏰᎸᎢ	-11.6668
ᎪᎮ	-11.6668
ᎮᏙᎮ	-11.6669
ᎾᏬᏍᏔᏁᎢ	-11.667
ᏔᏛ	-11.6672
ᏯᏂᏍᎬᎢ	-11.6673
▁ᏱᏅᎨᏣ	-11.6674
▁ᎬᎳ	-11.6675
▁ᏧᏲᎰ	-11.6676
▁ᎦᏰᏌᏛᎢ	-11.6678
ᏣᏛᏁᎮᏍᏗ	-11.6679
ᏰᎶᎴ	-11.6679
▁ᎠᏗᏔᏍᏗᏱ	-11.6681
▁ᏓᏲᏣ	-11.6683
ᎪᏪᎶᏗ	-11.6684
▁ᎤᏪᎶ	-11.6687
ᏉᏎᏗ	-11.6688
ᏓᏙᎵᎨᏍᏗ	-11.669
ᏥᏍᏓᏱᏕᎸ	-11.669
▁ᏚᏬᏎᎴ	-11.669
ᏇᎵᏎ	-11.6692
ᏂᏏᏅᎩ	-11.6692
▁ᎡᏥᎷᏤᎸ	-11.6692
▁ᎤᏪᎵᏒ	-11.6693
▁ᎠᏓᏅᏖᏍᎨᎢ	-11.6696
▁ᏘᏲ	-11.6698
ᏲᎱᏍᎬ	-11.6701
ᏛᏙᏗᏱ	-11.6701
ᏛᏂᎲ	-11.6701
▁ᎢᏣᏓᏑᏴ	-11.6705
ᎸᏒ	-11.6706
▁ᏚᎸᏌᏛᎢ	-11.6706
▁ᏣᎬᎩ	-11.6707
▁ᎠᏁᎵᏍᎨᎢ	-11.6707
▁ᎠᏎᏍᏗ	-11.6709
▁ᏲᎪ	-11.6709
▁ᎤᏂᏍᎫᏕᏒ	-11.671
▁ᎢᏳᏓ	-11.6713
ᎪᎰᏍᎬ	-11.6714
▁ᎤᏂᏁᏨᎢ	-11.6718
ᎠᎩᏲᏏ	-11.6718
ᏥᏏ	-11.6719
▁ᎠᏚ	-11.6719
ᎩᏎᎢ	-11.672
▁ᎤᏂᏁᎸ	-11.6721
ᏯᏛᏅ	-11.6726
▁ᏕᎰ	-11.673
ᏑᏯᎩᏍᏗ	-11.6732
ᏱᏉᏍᎩᏂ	-11.6733
ᏑᏰᏎ	-11.6734
ᏘᏍᎬᎾ	-11.6735
▁ᏳᏂᎬ	-11.6737
ᏓᏛᏁᎭ	-11.6737
▁ᏗᎬᏩᏁ	-11.6738
▁ᎠᎪᏎᎴ	-11.6741
ᏍᏆᏛᎯ	-11.6742
▁ᏳᏔᎳᏬ	-11.6743
▁ᏒᏟ	-11.6743
ᏏᏲ	-11.6746
ᏍᎩᏘ	-11.6747
▁ᎤᏛᏗ	-11.6748
ᏙᏓᏋ	-11.6752
ᎬᏍᎪᎸᏅᎢ	-11.6752
ᏓᏅᏛ	-11.6753
▁ᎠᏯᎠ	-11.6754
ᎵᏩᏛᎡᎲᎢ	-11.6758
▁ᎣᎩᎸᏉᏗ	-11.6758
▁ᏚᏲᎴ	-11.6759
▁ᏂᎦᎷᎬ	-11.6759
ᎾᏟᏃᎮᎸ	-11.676
▁ᏛᎾᎢ	-11.6762
▁ᏳᏯ	-11.6762
▁ᏧᏙᏢ	-11.6763
ᏨᏗᏍᎨᏍᏗ	-11.6763
▁ᏧᏁᏨᏃ	-11.6764
▁ᎤᏭᏓᎸᏤ	-11.6766
▁ᏚᏑᏰᏎ	-11.6768
▁ᎠᏁᏙᎮᎢ	-11.6768
ᏣᏙᎴᎰᎯᏍᏗᏱ	-11.677
▁ᏳᎾᏚᎵᏍ	-11.6771
▁ᎢᏨᏁ	-11.6772
▁ᎤᏂᎷᏤᎭ	-11.6773
ᏱᏐ	-11.6776
ᎵᏃᎮᏗᏍᎨᏍᏗ	-11.6779
▁ᎠᎵᏍᎪᎸᏙᏗᏱ	-11.678
▁ᎭᏕᎶᎰ	-11.6782
ᏅᏍᏙᏗᏱ	-11.6785
ᎬᏙᏗ	-11.6786
ᏅᎾᏉ	-11.6787
ᏓᎦᎵᏍᏙᏓ	-11.6788
ᏍᏓᏱᏕ	-11.6789
▁ᏂᎦᏪᏒ	-11.6793
ᏲᎢ	-11.6794
▁ᏧᎾᏓᏕ	-11.6802
▁ᏥᏂᎦᏪᏍᎬ	-11.6805
ᎵᎦᎵᏴ	-11.6814
▁ᏄᏛᎾᏕ	-11.6814
ᏙᎴᎰᎯᏍᏙᏗ	-11.6814
▁ᏗᏑᏫ	-11.6815
▁ᏕᏦ	-11.6819
▁ᎦᎵᎭ	-11.6819
ᏍᏔᏁᎯ	-11.6819
▁ᎤᏚᎵᏍᎨᎢ	-11.6821
▁ᎤᏲᏨᎩ	-11.6822
ᎧᎯᏴᎩ	-11.6822
▁ᎣᎬᏔᏅ	-11.6824
ᏐᏢᎢᏍᏗᎭ	-11.6825
ᏲᏒ	-11.6825
▁ᎦᏙᎥ	-11.6827
▁ᎢᏨᏗᏍᎪ	-11.6828
ᏩᏗᏍᎬ	-11.6831
▁ᏩᏥᏯᏅ	-11.6831
▁ᏚᏕᏲᏅ	-11.6833
▁ᏛᎵ	-11.6835
ᎨᎵ	-11.6839
ᏄᏪᏎᎢ	-11.6841
ᎪᏫᏎ	-11.6842
▁ᎣᏣᏓᏙᎵᏍᏗᏍ	-11.6843
▁ᎢᏫ	-11.6844
ᎫᏓᎸ	-11.6847
▁ᎠᎪᏢᏅ	-11.685
▁ᏲᎨ	-11.6851
ᏚᏅᏁᎴ	-11.6851
▁ᎠᏍᎪᏒ	-11.6852
▁ᎤᎾᎵᏍᎦᏍᏙ	-11.6853
ᎳᎨᏯᏛ	-11.6854
▁ᎦᏛᎢ	-11.6856
▁ᎤᎦᏘᏗᏍ	-11.6857
ᏗᏎ	-11.6857
ᏯᏂᏍᎨᏍᏗ	-11.6857
▁ᎠᏆᎩᎸ	-11.6863
ᎾᏓᏡᎬ	-11.6864
▁ᎠᎩᏍᏆᏛ	-11.6868
▁ᏩᎩᎶᎯ	-11.687
▁ᏚᏂᏯᏪ	-11.6871
ᏃᎸᏔᏅᎩ	-11.6873
▁ᏍᎩᎾᎾᏂ	-11.6873
ᎢᏎᏗ	-11.6876
▁ᎬᎩᎸᏉᏗ	-11.6877
ᏫᏒᎯ	-11.6878
▁ᎦᏰᏗ	-11.6879
ᏁᏤᎸᎩ	-11.6879
ᏥᏃᎲᏏ	-11.688
ᏗᎦᏚᎲ	-11.689
ᏥᏯᎵᏍᎪᎸᏓᏁ	-11.6895
▁ᏕᏥᎾ	-11.6895
▁ᏂᎠ	-11.6896
▁ᏱᏗᎩ	-11.6897
ᏴᏍᎪᏳᏁ	-11.6898
ᎩᎷᏨᎩ	-11.6905
▁ᏓᏍᏆᎵᏍ	-11.6907
ᎦᏚᏢ	-11.6908
▁ᎠᏆᏚᎵᏍᎬᎢ	-11.6911
ᏎᎲᎢ	-11.6912
▁ᎣᏥᏁ	-11.6912
▁ᎠᏂᎳᎨᏴ	-11.6914
ᏕᎪᏢᎾ	-11.6917
▁ᎤᏕᏯ	-11.6918
ᎵᏑᏫᏓ	-11.6919
▁ᎤᏞ	-11.6922
ᎪᏢᏁᎢ	-11.6925
▁ᏗᏂᏂᎨ	-11.6931
▁ᏥᎩᏁᎸ	-11.6931
ᏁᏟᏴᏎ	-11.6934
▁ᎤᏍᎪᏍᏗ	-11.6934
▁ᎠᏥᏰ	-11.6935
▁ᏦᏥᏩᎾᎦᎳ	-11.6935
▁ᏧᏂᏙ	-11.6935
▁ᏘᎪ	-11.6936
ᎣᏐᏅ	-11.6937
ᎾᎵᎩᏛ	-11.6938
▁ᏣᎾᎢ	-11.694
ᏓᎴᏍᏗ	-11.694
ᎾᎵᏙᎩᏯ	-11.6943
▁ᏙᏥᏩᏛᎲ	-11.6945
ᎸᏔᏅᎯ	-11.6946
▁ᏚᎾᏗᏩᏍᎨ	-11.695
ᏩᎾᎨ	-11.6958
▁ᏚᏂᏅᏁ	-11.696
▁ᏯᎩᏍᏕᎵ	-11.6962
▁ᎬᏩᏓᏅᏘ	-11.6965
ᏆᎶ	-11.6967
▁ᏙᏍᎩ	-11.6967
▁ᎠᏍᏓᏲ	-11.6968
▁ᏗᎨᎩ	-11.6969
ᏯᏂᏍᎬ	-11.6971
▁ᏍᏊ	-11.6971
ᎦᎵᏯ	-11.6971
▁ᎤᎾᏛᏓᏍ	-11.6973
▁ᏂᎤᏪᏎ	-11.6973
▁ᏳᏃᎯᏳ	-11.6974
ᎬᎾᏬᏙᏗᏱ	-11.6975
▁ᎠᏍᏓᏱᏗᏍᏗ	-11.6976
ᎡᏥᏍᏓᏩᏕᎩ	-11.6981
▁ᎢᏨᏃᏁᎸ	-11.6985
▁ᏫᏥᎷᏤᎸ	-11.6989
▁ᏂᏍᎩ	-11.699
▁ᎤᏙᏩᏗᏍ	-11.6991
ᏙᎳᏅ	-11.6993
▁ᎠᎪᎵᏰᏍᎨ	-11.6996
▁ᎤᏫᏒ	-11.6997
ᏗᎦᎸᏉᏗ	-11.6997
▁ᏣᏚᎳ	-11.6997
ᏂᏆᏘᎸ	-11.6998
ᏚᏓᎸᏙ	-11.7
▁ᏧᏩᏅ	-11.7
ᎫᏴᎡᎮᏍᏗ	-11.7002
▁ᎢᏳᎾᏛᏁᎸ	-11.7005
▁ᏂᏗᎩ	-11.7006
▁ᎠᎾᏓᏱ	-11.7008
▁ᏓᏂᏃᎩᏍ	-11.7009
ᏤᎸᎩ	-11.7011
▁ᏂᏨᏃᏁ	-11.7011
▁ᎤᏴᏔᏁ	-11.7013
ᎿᏕᎬ	-11.7013
ᏩᏔᎰ	-11.7014
ᏒᏍᏗᏱ	-11.7014
▁ᎬᎩᏰᎸ	-11.7019
ᏂᎬᎬᎢ	-11.7022
▁ᎤᏰᎶ	-11.7023
ᏯᎩᏍᎪ	-11.7023
▁ᎠᎴᏂᏓᏍᏗ	-11.7025
ᏓᏁᏘ	-11.7025
▁ᏙᏓᎦᏅ	-11.7027
▁ᏚᏄ	-11.7029
▁ᎤᎴᏅᏔᏅ	-11.703
▁ᎷᎦ	-11.703
▁ᎦᎵᏥᏙᎲᏍ	-11.7031
ᏐᏍᏔᏅ	-11.7032
ᏪᏅᏎ	-11.7032
▁ᏧᎾᎦ	-11.7036
ᏯᏔᎲ	-11.7036
ᎵᏖᎸᏂᎴ	-11.704
▁ᎤᏩᏒᎯ	-11.7041
ᎫᏴᏗᏱ	-11.7042
▁ᏚᎾᏓᏅ	-11.7042
▁ᏓᏂᎾ	-11.7043
ᏅᎦᎸᎮᎢ	-11.7047
ᏆᏒᎦᎸ	-11.7054
▁ᏗᏣᏓᏅᏙᎩ	-11.7055
▁ᎤᏲᎮᏍᏗ	-11.7055
ᎪᏪᎸ	-11.7055
ᎦᏔᎿᎥᎾ	-11.7057
ᏒᏓᏅ	-11.7059
ᏴᏍᎪᎢ	-11.7062
ᏆᏗᏅᏛ	-11.7068
▁ᎬᎵ	-11.707
ᏍᎦᎢᎮ	-11.7071
ᎴᏍᏗᏱ	-11.7073
▁ᎤᏬᏢᎾᏁ	-11.7082
▁ᎤᏲᏉᏍᎩᏂ	-11.7084
ᏥᏍᏈ	-11.7085
ᎬᏍᎦᎸ	-11.7087
▁ᏱᏗᏥᏳᎪᏓᏁ	-11.709
▁ᎢᏥᎦ	-11.7091
ᏔᏛᎩ	-11.7095
▁ᎦᎪᏗᏱ	-11.7095
▁ᏚᎾᎵᏂᎪ	-11.7096
▁ᎠᏂᎲᏍᎨ	-11.7097
▁ᎤᏅᏗᏱ	-11.7097
ᏪᏣ	-11.7098
ᏗᏍᎦᎳᏁ	-11.71
▁ᎠᏛᏁᎵᏍ	-11.7103
ᏰᏗ	-11.7105
ᎯᏥᎨ	-11.7105
▁ᎤᎵᏂ	-11.7106
ᎾᏏᏗ	-11.7107
▁ᎢᏣᎴ	-11.7109
▁ᏧᏂᎭ	-11.7111
ᎾᎵᏖᎸᏂ	-11.7121
▁ᎠᏂᏟ	-11.7122
ᎫᏴᎲ	-11.7123
ᎦᏙᎥᎯᏍᏗ	-11.7128
▁ᎤᏁᏅᎢᏍᏗ	-11.713
ᏚᏛᏛᏅᎩ	-11.7138
ᎬᎾᏉ	-11.7138
ᏲᏞᏒ	-11.7144
ᎪᎸᏏ	-11.7146
▁ᎤᎶᏒᏍᏓᏁ	-11.715
▁ᎠᏢᏈᏍᏗ	-11.7152
ᏟᏫᏛᏗ	-11.7155
▁ᏛᎠ	-11.7158
ᎵᎥᏂ	-11.7158
▁ᏱᏄᏅᏁ	-11.7165
▁ᏓᏂᏱ	-11.7169
▁ᎠᏍᏚᎩ	-11.7169
ᏂᏴᎭ	-11.7169
▁ᏯᏆᏓᏅᏓᏗᏍ	-11.7169
▁ᎤᏩᏛ	-11.7174
ᎨᏰᎢ	-11.7176
ᎩᎬ	-11.7179
▁ᎦᏥᏔᏲᏎ	-11.7186
ᏛᏎᎢ	-11.7186
▁ᎤᏍᏕᎸᎮ	-11.7187
▁ᏄᏩᎾ	-11.7192
▁ᏗᎬᏂ	-11.7193
▁ᎤᏓᏂᏴ	-11.7194
ᏛᏓᏍᏓᏁᏗᏱ	-11.7195
▁ᎬᏩᏂᎾᏄᎪᏫᏒ	-11.7198
▁ᏣᏍᏆᏂᎪ	-11.72
▁ᎣᎩᏂᏙ	-11.72
▁ᏱᏕᏣ	-11.7204
▁ᏗᎲᎢ	-11.7206
ᎫᏤᎵ	-11.7206
ᎧᎾᏂ	-11.7215
ᎵᎨ	-11.7215
ᎾᏣᏪᏐᎸᏍᏙᏗ	-11.7218
▁ᏗᏤᎷ	-11.7221
ᎵᏎᎯ	-11.7221
▁ᏚᎩᏎ	-11.7222
▁ᎠᏓᎩᎡ	-11.7222
ᏥᎪᎵᏰᏗᏱ	-11.7225
▁ᏗᎦᎬ	-11.7228
▁ᎡᏥᏃᏁ	-11.7231
▁ᎢᏨᏴᏁ	-11.7232
ᏙᎰᎢ	-11.7235
▁ᏫᏚᏂᏲᎯᏎ	-11.7236
ᏂᏴᎲᎩ	-11.7239
▁ᏕᏥᏁ	-11.7244
ᏫᏱ	-11.725
ᏬᎦ	-11.725
ᎥᏍᎬᎾ	-11.7255
▁ᏓᎾᏁᎶ	-11.7256
▁ᎠᏥᏴ	-11.7257
▁ᏂᎦᎵᏍᏗᏍᎬᎢ	-11.7261
ᏩᏘᎭ	-11.7261
▁ᎠᏆᎵᏃᎮᏔᏅ	-11.7265
▁ᏚᏅᏅ	-11.7266
ᎾᏗᏅᏒᎩ	-11.7273
▁ᎤᏪᏅᎡ	-11.7275
▁ᎤᏬᏘ	-11.7275
▁ᏧᏪᏰ	-11.7278
▁ᎤᏂᎦᏙᎥᎯᏍᏗ	-11.7278
ᏒᏁ	-11.7282
ᏅᏍᏓᏕ	-11.7283
ᏩᏛᎡᏗᏱ	-11.7284
ᏂᏍᎩᏴᎦ	-11.7288
ᎪᏗᏱ	-11.7292
▁ᎠᏂᎧᎵ	-11.7296
▁ᎨᏣᎪᏩᏛᏗ	-11.73
▁ᏗᎦᎴᏅ	-11.7301
ᏔᏂᎴ	-11.7302
ᏅᏎᏃ	-11.7303
ᏚᏙᎥ	-11.7304
ᏲᎸᎩ	-11.7304
ᏍᏓᎦᏴᎯᏓ	-11.7306
▁ᏳᏴ	-11.7308
ᏎᎦ	-11.731
▁ᎤᏑᎸ	-11.7313
ᏂᏎ	-11.7322
ᏥᏂᏐᏗᏱ	-11.7327
ᎦᏔᏂᎴ	-11.7328
▁ᎠᎩᏰᎸᏒ	-11.733
▁ᎨᏥᏯᏅ	-11.7331
ᏂᏴᏙᏗ	-11.7336
ᏥᎦᏖᏃᎭ	-11.7336
ᏕᎶᏆᎥ	-11.7338
▁ᏓᏚ	-11.7338
ᎫᏴᎡᏗ	-11.734
ᏓᏦᎲ	-11.734
▁ᏧᎾᏁ	-11.7342
▁ᏣᏓᏅᏖ	-11.7343
ᏯᏅᎯᎸ	-11.7343
▁ᎢᎸᏍᎩᏉ	-11.7348
ᏱᏍᎪᎢ	-11.7349
ᎶᏄᎮᏍᎩ	-11.735
▁ᎢᏏ	-11.7353
ᏰᏙᎳᏛᏅ	-11.7353
ᎷᏤᎰᎢ	-11.7354
▁ᎠᎩᏩᏒ	-11.7359
ᏍᏆᏗᏍᏗᏱ	-11.7362
ᏒᎲ	-11.7365
▁ᏧᎾᏓᎯᏍᏗ	-11.7366
▁ᏓᏂᎯᏯᏍ	-11.7368
▁ᎡᏥᎩᎵᏲᎢᏍᏗᏍ	-11.7371
▁ᎬᏍᎬ	-11.7371
▁ᎪᏍᏗ	-11.7371
▁ᏚᎪᎲᏃ	-11.7372
ᏍᎪᎳ	-11.7377
ᎫᏍᏛᏗ	-11.7377
ᏐᏢᏙᏗ	-11.7377
ᎾᏓᏨᏯᏍ	-11.7378
▁ᎬᏩᏍᏆᏗᏍ	-11.738
ᎧᎵᎢᏍᏔᏅ	-11.7385
▁ᎤᏲᎰᏎ	-11.7388
▁ᏥᏅᏏᏓᏍᏗᏃ	-11.7392
▁ᎤᏲᎴᎢ	-11.7396
ᏳᎲᏍᎩ	-11.7398
ᏯᏙᎮᎮᏍᏗ	-11.7398
▁ᏭᏖᎳ	-11.7404
ᎦᏟ	-11.7404
ᏍᎪᎸᏨ	-11.7405
ᏲᎱᏎᎸᎯ	-11.7406
▁ᏥᏳᎯᏃ	-11.7409
ᏥᏚᎢᏍᏓᏁᎸ	-11.7411
▁ᏙᏓᏥᏃᎩ	-11.7413
ᏭᎪ	-11.7416
ᏓᏁᏟᏴᏒ	-11.7419
▁ᎤᏂᏟᏌᏅ	-11.742
▁ᏳᏗᏔ	-11.7422
ᎵᏃᎮᏔᏅᎩ	-11.7422
ᏲᎲᎩ	-11.7431
▁ᏍᏆᏛᏓᏍᏓ	-11.7431
▁ᏗᏥᏁᎸ	-11.7433
▁ᎤᎾᎵᏍᏓᏴ	-11.7433
▁ᎤᎾᏕᏯᏙᏗ	-11.744
ᎸᏫᏍᏓᏁᎸᎯ	-11.7445
ᏄᏬᎥ	-11.7448
▁ᏱᏂᏨᏁ	-11.745
▁ᏯᏓ	-11.7457
▁ᎢᏣᏪᏍᏗ	-11.746
▁ᎠᏓᏔᎶᎯ	-11.7463
ᎧᏲᏗ	-11.7472
▁ᎤᎵᏍᏙᏰ	-11.7472
▁ᎧᏅᏂᏍᎩᏉ	-11.7472
▁ᎢᏣᏙᎴᎰ	-11.7475
ᏐᏈᎵ	-11.7475
ᎷᎪ	-11.7475
▁ᏙᎤᏁᏅ	-11.7477
▁ᏧᏃᎯᏳᏗ	-11.7478
ᏟᎶᏍᏗ	-11.7481
▁ᎡᏥᏍᏕᎸ	-11.7489
ᏂᏯᏫᏍᎬ	-11.7491
ᎾᏓᏛᏁᎭ	-11.7495
ᎧᎿᏩᏗᏙᎮᏍᏗ	-11.7495
ᎸᏨ	-11.7496
ᏥᏁᎢᏍᏗᏍᎬ	-11.7501
▁ᎤᏛᎯᏍᏗ	-11.7503
ᎩᎵᏲᎢᏍᏗᏍᎬᎢ	-11.7504
▁ᎤᏍᏓ	-11.7505
ᏯᏘᏃᎯᏏ	-11.7506
ᏨᏁᏗᏱ	-11.7525
ᎯᏯᏍᏗ	-11.7531
▁ᎤᎵᎬᏚ	-11.7535
ᏲᎱᏍ	-11.7541
▁ᏆᏙ	-11.7545
ᎾᏓᏛᏁᏗᏱ	-11.7548
ᎶᎨ	-11.7554
ᏂᎥ	-11.7559
▁ᏏᎻ	-11.7562
▁ᎨᏦᎯᏳᏗ	-11.7567
▁ᏒᏃ	-11.7572
ᏥᎷᏤᎸ	-11.7574
▁ᎤᎾᏙᎴᎰᏒᏃ	-11.7582
ᎦᎵᏍᏓᏗᏍᏗᏱ	-11.7585
▁ᎦᏙᎬᎢ	-11.7589
▁ᎢᏨᎪ	-11.7589
ᎳᏑᎸ	-11.7592
▁ᎤᏂᏐ	-11.7593
▁ᎠᏆᏓᏅᏘ	-11.7594
▁ᎠᏲᎪ	-11.7595
ᎦᎴᏍᏗ	-11.7596
▁ᎠᏎᏛ	-11.7604
▁ᏒᏕ	-11.7611
ᎯᏙᎸ	-11.7614
ᎶᏁᎥ	-11.7615
▁ᎭᎵᏍ	-11.7618
ᏍᏔᏯ	-11.7628
▁ᏏᏂ	-11.7628
ᎮᎸᎯ	-11.7629
ᏓᏅᏖᎭ	-11.7629
▁ᏄᎨᏳᏎ	-11.7631
▁ᏘᏅᎵ	-11.7632
ᏤᎶᎯ	-11.7632
ᏅᎡᎯ	-11.7635
ᏥᎾᏌᎢ	-11.7638
ᏙᏯᏅᎯᏕᎢ	-11.7645
ᏤᏙᎭ	-11.7645
ᎲᏍᏔᏅ	-11.7652
ᏂᏅᏫᏍᏗᏍᎩ	-11.7655
▁ᎤᎵᏘᏒ	-11.7664
ᏘᏅᏍᏗᏱ	-11.7664
ᎫᏓᎴ	-11.767
▁ᎠᎩᏛ	-11.7673
▁ᎠᏍᏚᎢᏍ	-11.7674
ᏗᎦᏄᎪᎪ	-11.7677
ᎮᎭ	-11.7683
ᏒᎨ	-11.7685
ᎬᏔᏅᎯ	-11.7688
▁ᎣᎩᏃ	-11.7703
▁ᎣᎨ	-11.7706
ᎦᎵᏍᏙᏗᏍᎨᏍᏗ	-11.7711
▁ᎢᏳᎵᏍᏔᏁ	-11.7717
ᎪᏗᏍᎩ	-11.7717
ᎦᏥᏯᏓᏙᎵᏍᏓᏁᎭ	-11.7723
ᏈᏃ	-11.7725
▁ᎦᏰᎪ	-11.7726
ᏣᏛᎦᏁᎸ	-11.7727
▁ᎤᏪᎵᏎᎢ	-11.7727
ᏍᏕᏓᎵᏴᏍ	-11.7727
▁ᎦᏂᎩ	-11.7727
▁ᎧᎾ	-11.7728
ᏢᎾ	-11.7733
ᏥᎵᎥᏂᎵ	-11.7733
ᏍᏓᏩᏗᏙᎭ	-11.7736
ᏐᏗᏱ	-11.7738
▁ᏗᏣᏛ	-11.7739
ᎦᏔᏂᎸ	-11.7741
ᎩᏁᏥ	-11.7741
ᎯᎦᏔᎭᏍᎪ	-11.7742
ᏂᏏᏁ	-11.7748
▁ᎦᏙᎨᎢ	-11.7749
▁ᎠᏍᎦᏰᎬᏍ	-11.7752
ᏏᏙᎸ	-11.7757
▁ᎤᏂᎩ	-11.7757
▁ᎢᏍᏗᎪ	-11.7768
ᏂᎦᎸ	-11.7768
▁ᏔᎵᏉ	-11.7768
ᏕᏙᏛ	-11.777
ᏣᏓᏅᏔ	-11.7771
▁ᏚᏃᏒ	-11.7774
ᏰᎸᏅ	-11.7776
▁ᎣᏥᏅ	-11.7776
▁ᎠᎾᏡᏗ	-11.7778
▁ᎦᎸᏅ	-11.7779
ᎸᎾᏉ	-11.7783
ᎾᎵᏍᏓᏴᏗ	-11.7787
p	-11.7794
ᎵᏁᏌ	-11.7795
▁ᏣᏂᎧᏔᎮ	-11.7797
ᎾᏓᏂᎸᏤ	-11.7802
▁ᎦᏕᎶᎣᏍ	-11.7807
▁ᏚᏏᎳᏛᎢ	-11.781
ᏥᏬᏁᏔᏅ	-11.7814
▁ᎠᏙᎴᎰ	-11.7815
▁ᎣᏂᏍᎩᏂ	-11.7818
ᏩᏂᏌᏁ	-11.7824
▁ᏥᏕᎲ	-11.7825
ᏥᏴᎩ	-11.7827
ᏂᏴᏍᏗ	-11.7829
▁ᎯᏃᎮᏍᎬ	-11.783
▁ᏂᎬᏅᎩ	-11.7837
ᏂᏎᎢ	-11.7842
▁ᎯᏍᏚ	-11.7844
ᎪᎸ	-11.7851
ᏂᏗᏍᏗ	-11.7851
▁ᎤᏱᎶ	-11.7853
ᎾᏰᏍᎬᎢ	-11.7855
▁ᎤᏂᏔᏲ	-11.7856
▁ᎧᏁᏉᎨ	-11.7859
▁ᎤᏪᎳᏗᏍ	-11.7859
ᏴᏍᏕᏍᏗ	-11.7861
ᎵᏍᎪᎸᏓᏁ	-11.7862
ᎷᏤᎲ	-11.7867
ᏥᏯᏅᎲ	-11.7867
ᏂᎦᎵᏍᏓ	-11.7873
▁ᎠᏆᏍᏗ	-11.7873
▁ᎠᎩᎬ	-11.7874
ᏍᏓᎡ	-11.7877
▁ᏧᏬᏢ	-11.788
▁ᏍᏆᏂ	-11.7882
▁ᏕᎩᏂᏴ	-11.7887
ᏅᏍᏔ	-11.7888
ᎷᏏ	-11.7888
▁ᏧᏂᏍ	-11.7891
▁ᎤᏓᎵᏓᏍ	-11.7902
▁ᏂᏥᎦᏔ	-11.7906
ᏥᏫ	-11.7907
ᏓᎦ	-11.791
ᏰᎸᎰ	-11.7912
ᏥᏍᎪᎵ	-11.7921
ᏛᏁᎰᎢ	-11.7924
ᏏᎾᏍᏛ	-11.793
ᏅᏫᏍᏗᏍᎨ	-11.7933
▁ᎤᎷᏨᎢ	-11.7934
ᎾᎦᏔᎲ	-11.7934
▁ᏓᎩᎧ	-11.7937
ᏬᎡ	-11.7944
▁ᏂᎬᏴ	-11.7945
ᎭᏂᏍᏔᏅ	-11.7946
ᎯᏎᎴ	-11.7949
▁ᏓᏆᎴ	-11.7951
ᏕᏨᎩ	-11.7954
▁ᎢᏤᎵ	-11.796
▁ᏧᏬᏚ	-11.796
▁ᎤᎾᎴᏗ	-11.796
ᎬᏂᏐᏗᏱ	-11.7963
▁ᏓᏁᎶᏛ	-11.7964
ᏯᎪᎦ	-11.797
ᎴᏅᏗᏱ	-11.7973
ᏘᏍᏓᏁᎯ	-11.7974
▁ᏚᏂᏲᏒ	-11.7976
ᏯᏨ	-11.7979
▁ᎤᎨᎢ	-11.798
ᏓᏙᎵᏍᏙᏗᏱ	-11.7981
ᎩᏙᎵᏍᏗᏱ	-11.799
▁ᏓᎪᏩᏘᏍᎨ	-11.7996
ᏔᎶ	-11.7996
▁ᏫᎦᏅ	-11.7996
ᏍᏚᏣ	-11.7997
ᎧᎮ	-11.7999
▁ᏫᏓᎾ	-11.8
▁ᎤᏔᏕᎩᏍᎨ	-11.8005
▁ᏧᎾᏁᎳ	-11.8012
ᎵᏎᏗ	-11.8014
▁ᎤᎵᏃᎯᏰ	-11.8016
▁ᎬᏯᏛᏁ	-11.8017
ns	-11.802
▁ᎤᏤᎸᏅ	-11.8021
▁ᎢᏍᎪ	-11.8026
▁ᎾᏗᏍ	-11.8026
ᏰᎵᏎᎭ	-11.8029
▁ᏅᎬ	-11.8031
ᏕᏔᏅᎯ	-11.8033
▁ᏂᏚᎾ	-11.8034
▁ᎢᏍᏓᏛ	-11.8042
▁ᏛᎾᎵᏍᏓᏴ	-11.8042
▁ᎬᏩᏯᎢ	-11.8045
▁ᏚᎦᏙᏍᏔᏁ	-11.8045
ᎦᏡᏓ	-11.805
▁ᎦᏓᏬ	-11.8057
▁ᎬᏬᎯᏳᎲᏍᎨ	-11.8063
ᏍᎩᏰᏲᎲ	-11.8063
ᎿᎸ	-11.8063
▁ᎠᎵᏍᎩ	-11.8066
ᏫᏍᏔᏁ	-11.8067
ᏔᏲᏎᎸ	-11.807
ᏰᏅ	-11.8073
ᏆᏓᎾᏰᏍ	-11.8075
▁ᎤᏍᎦᏍᏓᏁ	-11.8075
▁ᏓᏂᏃᎮ	-11.8086
ᏗᏍ	-11.8088
▁ᏚᏪᏯ	-11.8088
ᏓᏁᎮᎢ	-11.8096
▁ᏥᏯᏙᎵ	-11.8101
▁ᎤᏐ	-11.8104
ᎳᏍᏛ	-11.8107
▁ᏭᎪᎲ	-11.8108
ᏂᏌᏙᏴ	-11.8109
▁ᎤᏃᎮ	-11.8113
▁ᎢᏤᎵᏎ	-11.8115
ᎾᏓᏂᎸᏨ	-11.8116
▁ᎬᏩᏲ	-11.8125
ᎵᏲ	-11.8126
▁ᎤᏂᎦᏯᎷ	-11.813
▁ᏓᏥᏃ	-11.8133
▁ᏧᎾᎵ	-11.8141
▁ᏍᏆᏓᏅ	-11.8142
ᎸᏫᏍᏓᏁᎴ	-11.8145
▁ᏱᏓᎩᏯ	-11.8154
▁ᏚᏏᏔᏕ	-11.8154
▁ᎤᏂᏁᏎ	-11.8155
ᎧᎸᎩ	-11.8157
ᏁᎳᏗᏍᎨ	-11.8159
▁ᎠᎪᎵᏰᏍᎪ	-11.8164
ᎯᏎᎸᎢ	-11.8168
▁ᎤᏂᏣ	-11.8175
▁ᎡᏣᎵ	-11.8176
▁ᏚᏒᏁ	-11.8176
▁ᎠᏓᏯᏅ	-11.8192
ᎾᎩᏪᏒ	-11.8193
ᎩᏂᎬᎦ	-11.8195
▁ᎨᏦᎯᏳ	-11.8206
ᏑᏱ	-11.8208
▁ᏯᏍᎦᎢᎮ	-11.8208
▁ᎤᏍᏆᏂᎪ	-11.821
▁ᎤᎾᎵᏍᎪᎸᏙᏗ	-11.822
ᎾᏲᎪ	-11.8223
▁ᎢᏥᏰᎸᏒ	-11.8226
▁ᎢᏍᏆ	-11.8229
▁ᎬᏩᏛᏓᏍᏓᏁ	-11.8233
ᎦᎵᏴ	-11.8233
ᎫᏍᏛ	-11.8233
▁ᏭᏂᏴᏍᏗ	-11.8235
ᎯᏎᎸᎯ	-11.8235
▁ᏧᎪᎲ	-11.8235
ᏎᎩ	-11.8235
▁ᏱᏥᏲ	-11.8236
ᏙᎴᎢ	-11.8237
ᏩᏛᏍᏗ	-11.8238
ᎢᏍᏓᏁᏗᏱ	-11.8241
ᎧᏘ	-11.8253
▁ᎤᎾᏦᏗ	-11.8253
▁ᏗᏓᎴᎲᏍᎨ	-11.8257
ᎨᏙᎰ	-11.8264
▁ᎠᏥᎪᏗ	-11.8265
ᏣᎶᏁ	-11.8267
ᏏᏌᏅ	-11.827
ᎦᏑᏰᏛ	-11.8271
▁ᏓᏰᏥ	-11.8272
▁ᎤᏬᏎ	-11.8274
ᏤᏅ	-11.8278
ᏣᏃᏁᎵ	-11.8288
ᎾᏉᎯ	-11.8291
▁ᏚᏂᏅ	-11.8292
ᏓᎴᎲᏍᎩ	-11.8301
ᎸᏍᏔᏅ	-11.8302
ᎳᏅᏓᏕᎸ	-11.8303
▁ᏴᏫᏍᎩᏂ	-11.8303
ᏓᏰᏅ	-11.8308
▁ᏙᏤ	-11.8308
▁ᏛᎭ	-11.8314
ᏣᏅ	-11.8321
▁ᏥᏓᎾ	-11.8323
▁ᏗᏕ	-11.8323
ᏎᎪᎩ	-11.8329
ᏓᏅᎦᎸ	-11.8329
ᎩᎸᏔᏁ	-11.833
▁ᏱᏚᏂᎸᏫᏍᏓᏁ	-11.8332
▁ᏥᏲ	-11.8334
ᏥᎩᏍᏗ	-11.8343
ᏆᏅᏔ	-11.8344
ᏉᏑᎴ	-11.8344
▁ᏂᎨᏥ	-11.8345
▁ᎥᎩᏁᎸ	-11.8352
ᎵᎴ	-11.8353
▁ᎠᎾᏅ	-11.8355
ᏬᏂᎯᏍᏗᏱ	-11.8355
ᏨᎦ	-11.8358
ᎸᏃᏘᎭ	-11.8367
ᏪᎸ	-11.8371
▁ᎥᎬᏩ	-11.8373
▁ᎬᏆᏕ	-11.8374
ᎸᎥᏍᎩ	-11.8379
ᏅᎦᎵᏍᎬᎢ	-11.8385
▁ᎤᎧᏙᏍ	-11.8386
ᏂᏟ	-11.8387
ᎵᎮᎵᏥ	-11.8388
ᎴᏫᏍᏗᏍᎨ	-11.8389
ᏔᎳᏬ	-11.839
ᏟᏌᏅᎩ	-11.8394
▁ᏱᏂᏣᏛ	-11.8398
▁ᎤᎵᎮᎵᏤᎸ	-11.8404
▁ᎠᎾᏛᎩ	-11.8414
ᏛᎦᏁᏗᏱ	-11.8419
ᎾᎴᏫᏍᏔᏁ	-11.8423
ᏍᎦᏃᎸ	-11.8423
ᎵᏍᏓᏴᎲᏍᎨᎢ	-11.8426
ᎦᏢᏈ	-11.8426
▁ᏧᏅᏙᏗ	-11.843
ᏒᎦᎳ	-11.8431
▁ᎧᏁᎢᏍ	-11.8432
▁ᏳᏝ	-11.8433
ᏝᎴ	-11.8438
▁ᎠᎩᎷᏤᏗ	-11.8439
▁ᏗᏂᏲᎵᏉ	-11.8441
ᎵᏲᎩ	-11.8441
▁ᎬᏯᏛᏁᎸ	-11.8445
▁ᏙᏓᏥᏯ	-11.8445
ᏥᏯᏬᎥ	-11.8447
▁ᏧᏂᏁᏤ	-11.8448
▁ᎤᏪᏙᎵᏨ	-11.8461
▁ᎤᏛᏓᏍ	-11.8467
ᏗᏔᏍᏗᏱ	-11.8474
▁ᏥᏅᏩᏍᏗ	-11.8478
▁ᎡᏣᏚ	-11.8481
▁ᎤᏬᏪᎳ	-11.8481
ᏯᏛᏗ	-11.8487
ᏌᎾ	-11.8488
ᏓᎪᏩᏘᎭ	-11.8489
▁ᏙᏛᏃ	-11.8492
ᎬᏁᏗᏱ	-11.8495
ᎵᏍᏔᏴᎲᏍᎬ	-11.8498
ᎯᏓᏍᏗᏱ	-11.8499
ᎾᏚᎵᏍᎨᏍᏗ	-11.8499
▁ᎬᏩᏁ	-11.85
ᏲᏍᏙᏗ	-11.8501
▁ᏗᎦᎨ	-11.8506
▁ᎬᎩᏯ	-11.8508
▁ᎤᏂᏯᎸ	-11.8508
ᎯᏍᏗᏍᎩ	-11.851
▁ᎲᏂ	-11.8512
ᏥᏃᏍᏛ	-11.8515
▁ᎤᏁᎳᏗᏍᏗ	-11.8517
▁ᎠᏓᎾᏏᏂ	-11.8522
ᏩᏉ	-11.8524
ᎩᎧᏏ	-11.8525
ᏥᏰᎵᏒ	-11.8527
ᏂᏍᏚᎩ	-11.8531
ᏍᎩᏲᏎᎭ	-11.8539
▁ᏕᎶ	-11.8542
ᎾᏄᎪᎨᏍᏗ	-11.8546
▁ᏚᏙᏪ	-11.8546
ᏍᎪᎸᏓᏏ	-11.8549
ᏛᏁᎵᏍᎩ	-11.8552
ᎫᏱᏍᎨᏍᏗ	-11.8554
▁ᏂᎬᏅᎢ	-11.8557
▁ᏗᎦᏍᎩᎶ	-11.8559
▁ᎦᎧᎲ	-11.8563
ᎬᏩᎪᎲ	-11.8567
ᏃᏁᎸᎯ	-11.8572
ᏕᏋᎯᏍᏗ	-11.8576
ᎾᎿ	-11.8577
ᏍᎩᎦᏔᎭ	-11.858
ᎦᏥᏴ	-11.8589
▁ᏚᏪᎧ	-11.8593
▁ᎤᏂᏲᎰᏎ	-11.8594
ᏓᏂᎸᎨᏍᏗ	-11.8595
ᎵᏎᎭ	-11.8598
▁ᏚᏙᎥᎩ	-11.8603
ᏪᏙᎵᏨᎩ	-11.8605
ᏆᏂᏏ	-11.8608
ᎦᏄᎪᎬᎢ	-11.8609
ᏣᏲᎭ	-11.861
ᎾᏓᏅᏖᎸ	-11.8613
▁ᎤᎵᏠᏯᏍ	-11.8616
ᎵᏍᏚᎶ	-11.8625
▁ᎠᎹᏉ	-11.8625
▁ᏄᏧᏈᏍ	-11.863
▁ᎦᏗᏔ	-11.8632
ᏫᎨᏙᎲ	-11.8633
▁ᏣᏛᏗ	-11.8636
▁ᎠᏥᏍᏚ	-11.8639
ᎮᏍᎬᎾ	-11.864
▁ᎠᎩᏩᏛᏗ	-11.8642
▁ᎠᏂᎾᎷᏍ	-11.8647
ᎨᏓᎵ	-11.8649
ᎩᎡᎴ	-11.8657
▁ᏴᎦᏥᏍᎦ	-11.8659
ᎵᏨ	-11.8659
▁ᎤᎵᏍᎪᎸᏙᏗ	-11.8666
ᏅᏎᎢ	-11.8669
▁ᏂᎬᏂᏏ	-11.8681
▁ᏯᏂᏁ	-11.8683
ᏘᏂᏙᎯ	-11.8686
ᏏᏁᎩ	-11.8687
▁ᎯᏩᏛ	-11.8693
ᏛᏓᎴᎲᏍᎩ	-11.8695
ᎦᏔᎲᎢ	-11.8697
▁ᏩᏂ	-11.8697
▁ᎢᏥᎧᎵᎢ	-11.8703
ᏃᎭᏝ	-11.8708
ᎵᏍᏓᏁᏗ	-11.8712
ᎸᏉᏗᏍᎨᏍᏗ	-11.8714
▁ᎨᏣᏁᎢᏍᏗ	-11.8719
ᎾᏄᎪᎬ	-11.872
▁ᏚᎸᏫᏍᏓᏁ	-11.8723
▁ᏕᎦᏂᏱᏍ	-11.8724
ᏓᏬᎠ	-11.8727
ᎦᎸᏓ	-11.8734
▁ᎠᎾᎵᏥᏙᏂᏙ	-11.8743
ᏓᏁᎵ	-11.876
ᏄᎪᏤ	-11.8764
ᏄᎪᏫᏍᎦ	-11.8766
ᏎᏛ	-11.8767
ᏣᏓᏱᎸ	-11.8767
▁ᎨᏥᏰᎸ	-11.8779
ᏠᏯ	-11.8792
▁ᎲᎾ	-11.8797
ᎦᏙᏍᏕᎢ	-11.88
ᏙᏢᏒᎢ	-11.8803
ᏓᏅᏓᏗᏍᏗᏱ	-11.8812
ᏂᏚᏪᏎᎸᎩ	-11.8819
▁ᎨᏥᏁ	-11.8827
ᎦᏛᎴᎯ	-11.883
ᏥᏓᏍᏗ	-11.8831
ᎡᎾ	-11.8836
ᏆᏕᏘᏴᎲ	-11.8851
ᏰᎲᎾ	-11.8852
ᏲᎩ	-11.8859
▁ᎦᏁᏟᏴ	-11.886
▁ᎠᎵᏍᎪ	-11.8862
▁ᎤᏛᏂᏗ	-11.8864
ᎾᏰᎯ	-11.8864
▁ᏨᏛ	-11.8866
▁ᏧᏍᏆᏂᎪᏙᏗ	-11.8866
ᏑᎵᎪᎬ	-11.8872
ᎩᏠ	-11.8878
ᏱᎵᏙᎭ	-11.888
ᏕᏙᎭ	-11.8882
▁ᎠᎩᏁᏤ	-11.8883
ᏟᏴᎭ	-11.8885
ᏙᎨᏍᏗ	-11.8899
ᏄᎮᎵ	-11.89
▁ᎤᎪᎮᏃ	-11.8903
ᏂᏩᏛᎲ	-11.8904
▁ᏄᏪᎡ	-11.8908
▁ᎦᎾᏍ	-11.8918
▁ᎯᏃᏁᎸ	-11.8935
ᎧᎾᏅ	-11.8936
ᏁᏙᎯ	-11.894
▁ᏥᏚᏄᎪ	-11.8948
▁ᏓᏰᎵ	-11.8957
▁ᎠᏓᏙᎵᏍ	-11.8961
▁ᏓᏥᎶᏍ	-11.8965
▁ᎢᏣᎫᏱᏍ	-11.8967
▁ᏚᏃᏴ	-11.8968
ᎷᎬᎾ	-11.8972
ᏂᏍᎪ	-11.8977
▁ᎢᎦᏓᏅᏓᏗᏍᏗ	-11.9001
▁ᎠᎸᎯ	-11.9002
ᏕᏃ	-11.9011
ᎧᎿᏩᏛᏍᏗ	-11.9013
ᎦᏘᏰᎢ	-11.9014
ᏛᏓᏍᏔᏂ	-11.9019
ᎵᏍᎪᎸᏓᏁᎸᎩ	-11.902
ᎨᎮ	-11.9037
ᎭᏉ	-11.9039
▁ᏕᎬᎩ	-11.9044
ᎧᏁᏥ	-11.9047
ᏂᏍᏘᏰᎬ	-11.9051
▁ᏓᎬᏯ	-11.9056
ᏣᏢ	-11.906
▁ᎬᏴ	-11.9065
▁ᏧᏳ	-11.9065
ᏯᏑᏰᏛ	-11.9072
▁ᎠᏔ	-11.9081
▁ᏛᎪ	-11.9083
▁ᎯᏍᏕᎸᏗ	-11.9086
ᏓᎴᎲᏍᎨ	-11.9086
▁ᎢᏤᏓᏍᏗ	-11.909
▁ᎡᎶᎯᏉ	-11.9091
▁ᏣᏄᏬ	-11.9094
▁ᎢᏤᏲ	-11.9118
ᏁᎵᏙᎸ	-11.9134
▁ᎠᏂᎶᏏᏙ	-11.9136
ᏂᎭ	-11.914
ᏖᏆᎶ	-11.9152
ᏗᏒᏅ	-11.9154
▁ᎤᏂᏁᎦ	-11.9154
ᏂᏔᏲᎴ	-11.9166
▁ᎤᏂᏍᏘᏰ	-11.9167
▁ᏧᎵᏍᏚ	-11.9177
ᏉᎯᏳ	-11.9182
▁ᎬᏔᏅ	-11.9194
▁ᏥᏂᏨ	-11.9196
ᎦᏰᏃ	-11.9197
ᎦᏃᏥ	-11.9197
ᏧᏣ	-11.9203
ᎧᎾᏩᏗᏙ	-11.9209
ᏥᏁᏤᎸᎯ	-11.9213
▁ᏧᎫᏴ	-11.9213
▁ᏕᏧᎪᏗᏍ	-11.9214
ᎩᎡᏗ	-11.9218
ᏤᎵᎦᏯ	-11.922
▁ᏴᏓᎦ	-11.9221
ᎡᎮ	-11.9223
ᏞᏤ	-11.9234
ᎾᎦᏔᎲᏍᎬ	-11.9234
▁ᎤᏍᏆᎸᏗ	-11.9237
▁ᎨᎪ	-11.925
pi	-11.925
ᏴᎭᎦ	-11.9253
ᏓᏑᏴᎢ	-11.9254
ᏦᏱ	-11.9255
ᏛᏛᏅᎩ	-11.9257
▁ᏞᎦᏉ	-11.9262
ᏎᎵᏙ	-11.9263
ᏯᏖᏃ	-11.9266
ᏓᎨᏛ	-11.9267
▁ᏣᏕ	-11.9279
ᎾᏁᏍᎨᏗ	-11.928
ᏣᏁᎵ	-11.9284
▁ᎤᏂᏲᎯᏍᏔ	-11.9287
▁ᎬᏭᎯᏍᏗᏍ	-11.9287
ᏃᎯᏏ	-11.9289
▁ᎠᎧᏔ	-11.9289
▁ᏓᎦᏂ	-11.9291
ᏲᎦᏘ	-11.9291
ᏓᏥᎩᏏ	-11.9298
ᏥᏩᏛᏓ	-11.9304
ᎵᏙᎮᏍᏗ	-11.9311
▁ᎢᏥᎪᏩᏛ	-11.9314
▁ᏘᏏ	-11.9314
▁ᏯᎦᎵ	-11.9323
ᎷᎯᏍᏓᏁ	-11.933
ᏗᏤᎾ	-11.9333
▁ᏥᎨᏣ	-11.9334
ᏓᏂᎸᎦ	-11.9339
ᎵᎥᏂᎵ	-11.9341
ᏨᏉ	-11.9355
ᏓᎴᏅᏓ	-11.9358
ᎾᏯ	-11.9358
ᎵᏗ	-11.9358
ᎾᏕᎪ	-11.9365
▁ᎤᏁᎳᏗᏍ	-11.9369
ᏐᎸ	-11.9372
ᎪᏎᎮᏍᏗ	-11.9373
ᎶᏂ	-11.9375
▁ᏧᎾᏓᏁᎳ	-11.938
ᏩᏘᏍᎬ	-11.9381
ᎪᎸᏒ	-11.9384
ᏂᏲ	-11.9388
ᏃᏴᎬ	-11.9393
▁ᏗᎦᎶᎯᏍᏗ	-11.9394
▁ᎤᏓᎾ	-11.9394
ᎵᏂᎪᎯᏍᏓ	-11.9396
ᏑᎴᏗ	-11.9399
▁ᏗᏆᏓ	-11.9399
▁ᎠᎩᏁᎵᏍ	-11.9413
ᏩᎯᏎᎴᎢ	-11.9423
▁ᎤᏂᎶᎯᏍᏗ	-11.9424
ᎶᏍᎨᏍᏗ	-11.9429
▁ᏳᎾᏗᏅ	-11.9434
▁ᏓᏂᏅ	-11.9434
ᎬᏩᏂ	-11.9434
▁ᎢᏥᎦᎵ	-11.9438
ᏭᎾ	-11.9443
ᎦᏘᏰᏍᏗ	-11.9446
ᎦᏘᏯ	-11.945
ᏆᎵᏍᎪᎸᏓᏁ	-11.945
ᏁᎵᏍᎨ	-11.945
▁ᎠᏂᎦᏗ	-11.9452
▁ᏥᏯᏓᏅᏖᏍ	-11.9453
ᏩᏁᎲ	-11.946
▁ᏧᏂᎸᏫᏍᏓᏁ	-11.9465
ᏩᏐ	-11.9468
▁ᎣᏆ	-11.9488
▁ᎤᎵᏏ	-11.9494
ᎳᏑᎶ	-11.9496
ᏬᎥᎢ	-11.9497
▁ᎠᎦᏘᏃᎮ	-11.9509
ᎧᏅᎩ	-11.9509
▁ᎤᏒᎴ	-11.951
ᏴᏢ	-11.9512
▁ᎢᏣᏍᏗ	-11.9513
ᏥᎪᎥ	-11.9515
ᎩᏂᏆᏘᎯ	-11.9515
▁ᏧᎶ	-11.9518
ᏑᏰᏒᎢ	-11.9519
ᎴᎦ	-11.9525
ᏣᏛᏁᎵ	-11.9528
ᎾᏗᏅ	-11.953
ᏰᎸᎾᏁᏗ	-11.954
ᏓᏅᏒᎭ	-11.9543
ᏓᏙᎵᏍᏓᏁᎮᏍᏗ	-11.9551
ᎡᎲ	-11.9554
ᏩᏕᎨ	-11.9556
ᏦᎯᏳᎲᏍᎦ	-11.9564
ᏒᏗᏍᎬ	-11.9567
ᏕᏘᏴᏛ	-11.9569
ᎦᎵᏱ	-11.9577
▁ᎠᏂᏯᏫᏍ	-11.9579
▁ᏱᏥᏲᏍ	-11.9581
▁ᏳᎾᏚᎵ	-11.9587
ᏗᏕᎬᎢ	-11.959
ᏯᎦᏔᏂ	-11.959
ᎫᏏ	-11.9594
▁ᎠᎩᏁᏤᎸ	-11.9602
ᏂᎰ	-11.9606
ᏖᎳᏗ	-11.9607
ᏘᏃᎯᏏ	-11.9608
ᏍᎦᏅᎪᎢ	-11.961
▁ᏳᏔᏲᏎ	-11.9619
▁ᏭᏭᏓᎸ	-11.9619
ᎩᎵᏲᎢᏍᏙᏗᏱ	-11.9625
ᏗᏫᏎᏗ	-11.9626
▁ᏫᏓᏯᏂᏍ	-11.9636
▁ᏧᏃᎯᏳ	-11.9637
ᏯᎩᏍᎬ	-11.9639
ᏍᏛᏗᏍᎬᎢ	-11.9647
▁ᏧᏬᏎ	-11.965
▁ᎾᎦ	-11.9653
ᏐᏯᏍᏗ	-11.9655
ᎵᎪᏔᏅ	-11.9656
ᏓᎤᎦ	-11.9658
ᏛᏔᏁ	-11.9658
ᎭᎷᎨ	-11.9665
ᏏᏃᎴ	-11.9666
ᎧᎳ	-11.9667
ᏓᏅᎡᏗᏱ	-11.9667
ᏩᏛᎡᎮ	-11.9668
ᏂᎪᎯᏍᏗᏍᎨᏍᏗ	-11.9673
ᏂᏯᏍᏗ	-11.9679
ᎵᏖᎸᎲᏍᎦ	-11.9682
ᏓᏟᏴ	-11.969
ᏂᎩᏏ	-11.9691
▁ᏥᎦᎳ	-11.9693
ᎸᏅᎩ	-11.9694
ᏓᎩᏅ	-11.9705
ᎨᏳᏒᎾ	-11.9709
▁ᎤᎴᎾ	-11.971
ᏪᏍᏗᏱ	-11.9711
▁ᎠᏂᎶᏍᎨ	-11.9714
ᏣᏅᏔ	-11.9717
ᏁᎵᏍᎪ	-11.9719
ᎼᏏ	-11.9719
ᏬᏯᏁᏎᎢ	-11.9721
ᎵᏍᏔᏁᏗ	-11.9721
ᏪᎶ	-11.9721
▁ᎠᏂᎦᏔ	-11.9722
▁ᏱᎨᎦ	-11.9723
▁ᎦᎾᏄᎪᏫᏎ	-11.9724
▁ᏂᏕᎤᏍ	-11.9726
ᏠᏎ	-11.9727
▁ᏳᏂᏁ	-11.9728
ᏕᏯᏙᏓ	-11.9729
▁ᎠᏂᏃᎯ	-11.973
▁ᏚᏛ	-11.973
ᏡᏗᎭ	-11.9735
ᏙᎻ	-11.9742
ᏍᏆᏗᏍᏗ	-11.9746
▁ᎣᎦᎵᏍᏔᏴ	-11.9748
ᎴᎲᏍᎬᎩ	-11.9748
▁ᏕᎦᏥ	-11.9753
ᎵᎪᎲ	-11.9754
ᏈᏴ	-11.9754
ᎵᏍᏔᏴᎾ	-11.9755
ᎳᏃ	-11.9757
▁ᎠᎩᏯ	-11.9758
▁ᎤᎵᏍᏚ	-11.9763
▁ᎢᎾᎯ	-11.9768
ᏂᎶᏒᎯ	-11.9779
▁ᏱᏣᏛᏓᏍᏔ	-11.9779
ᏄᏙᎬ	-11.978
▁ᎠᎿᏬ	-11.978
▁ᏂᏚᎾᏓ	-11.9781
▁ᏝᏰ	-11.9781
ᏗᏥᏂᏴ	-11.9783
▁ᏂᏙᏓ	-11.9794
ᏗᏓᎴᎲᏍᎪᎢ	-11.9794
ᎯᏍᏗᏍᎨᏍᏗ	-11.9795
ᏘᏒᎴᎢ	-11.9796
ᏂᎪᏩᏛ	-11.9796
ᏤᎲᎾ	-11.9799
ᏄᏣ	-11.9807
ᏍᏆᏂᎪᏙᏗ	-11.9819
ᏲᏍᏙᏓᏁᎸᎩ	-11.9819
▁ᏚᎵᏍᏚ	-11.982
▁ᎤᎵᏍᏔᏁ	-11.9822
▁ᎤᏓᏦ	-11.9829
ᏂᏩᏛᎯᏙ	-11.9832
▁ᎥᎠᎩ	-11.9832
ᎾᏗᎾ	-11.984
ᏕᏯᏙᏗᎭ	-11.9844
▁ᏅᏓᏳᏂ	-11.9844
ᎪᎯᏳᏗᏱ	-11.9846
▁ᏫᏚᏃᏁ	-11.9846
ᎮᎴᎢ	-11.985
ᎶᏒᎯ	-11.9853
ᏛᏓᏍᏔᏅ	-11.986
ᏱᏙ	-11.9867
ᏲᏏᏍᎨᎢ	-11.9868
ᏖᏆᎶᎯ	-11.9886
▁ᎣᏍᏕᏙ	-11.9888
ᏍᏓᎥ	-11.9889
▁ᏗᏠᎯᏍ	-11.9893
▁ᎠᎯᏯ	-11.9896
lo	-11.9899
ᏢᏔ	-11.9902
▁ᎠᏍᏆᏂᎪᏗᏍ	-11.9908
ᏗᎦᏔᎭ	-11.9909
ᎵᏍᏙ	-11.992
ᏗᏍᎦᎳ	-11.992
▁ᏣᏓᏅᎦᎸ	-11.9921
▁ᏣᏁᏤ	-11.9923
ᏯᎦᎿᏅ	-11.9934
ᏄᎪᎬᎢ	-11.994
ᎠᏰᎸ	-11.994
ᎴᏉ	-11.9955
ᏣᏪᏐᎸᏍᏙᏗ	-11.9958
▁ᎬᏩᎾᏓ	-11.996
▁ᏫᏥᏂ	-11.9967
▁ᏓᏳᎾ	-11.9968
ᏂᏍᏙᏗᏱ	-11.997
▁ᎢᏥᎶᏁ	-11.9976
ᏥᏳ	-11.9977
▁ᎬᏩᎸᏉᏗ	-11.9979
▁ᎬᏩᏂᎩᎵᏲᎢᏍ	-11.9981
ᏚᎾᏛ	-11.9981
ᏃᎩᏍᏔᏂ	-11.9985
ᏂᏲᎸ	-11.9985
ᎦᏘᏰ	-11.9989
▁ᏕᏣᎸ	-11.9993
ᏌᎴᏓ	-11.9993
ᎪᏩᏘᏍᎪᎢ	-12.0011
ᏥᎸᎯ	-12.0013
ᎮᎵᏍᎬᏉ	-12.0018
ᏣᏓᏑᏯ	-12.0018
ᏓᏔᎶᎯᏍᏗ	-12.0023
ᏰᎸᏁ	-12.0024
ᏚᏓᎳ	-12.0024
▁ᏣᏍᏕᎸ	-12.0026
▁ᎠᎩᎵᏓᏍ	-12.0028
ᎯᎶᎥ	-12.0034
ᏯᏊ	-12.0035
ᎵᏏᏅᏓ	-12.0037
▁ᏗᏥᏲᎯ	-12.0045
ᏂᏬᏂᎭ	-12.0052
▁ᏥᏃᎮ	-12.0054
▁ᏧᏂᎸᏉᏗ	-12.0055
▁ᏗᎦᏔ	-12.0056
ᏓᏒᏂ	-12.0057
ᏩᏘᏍᎪ	-12.0057
ᎶᎸᎯ	-12.0057
ᏮᎩ	-12.0065
▁ᎥᎬ	-12.0065
ᎾᎴᏗ	-12.0066
ᏍᏕᎸᎡᏗᏱ	-12.0081
▁ᏛᎤ	-12.0083
ᏅᏖ	-12.0083
▁ᎤᎵᎪ	-12.0083
▁ᏂᏍᎩᏴ	-12.0084
▁ᎠᏢᏈᏍ	-12.0088
▁ᎡᏦᎢᏳ	-12.009
ᏥᏲᎵᎭ	-12.0091
▁ᎢᏕᏙ	-12.0101
▁ᏳᏙ	-12.0109
ᎵᎥᏂᎸᎩ	-12.011
▁ᏧᏢᏗ	-12.0112
ᎩᏂᏴᏎᏍᏗ	-12.0114
▁ᏱᎪᎯ	-12.0116
ᏰᎸᏒᎩ	-12.0118
ᎸᏉᏗᏍᎪ	-12.0118
ᏍᏚᎮᎢ	-12.0121
ᏟᏴᏗ	-12.0122
ᏣᎦᎸᎮ	-12.0123
ᏔᎲᎾ	-12.0125
ᏩᏛᏔᏅ	-12.0126
▁ᎠᎩᏍᏕᎸᏗ	-12.0131
▁ᎦᎳ	-12.0139
ᎸᏫᏍᏓᏁᎭ	-12.0143
ᏣᎧᏂᏍᎬ	-12.0145
ᏢᏗᏍᎨ	-12.0146
ᏩᏗᏒ	-12.0147
▁ᎤᏂᏍᎪᎸ	-12.0149
▁ᏚᎦᏔ	-12.0153
▁ᏙᏍᏗ	-12.0154
▁ᎤᏩᏙᏗ	-12.0157
▁ᎤᏃᎯᎸ	-12.0158
ᏘᏍᎨ	-12.0165
▁ᏓᏥᏯᏛ	-12.0165
ᏥᏍᎦᏅᏤᎸ	-12.0174
ᏙᎯᏳᎮ	-12.0178
la	-12.0182
ᏲᎯᏎᎴᎢ	-12.0189
▁ᏥᎪᏩᏘ	-12.0194
▁ᎢᏳᎾᏛᏁ	-12.0198
ᏈᎵ	-12.0198
▁ᏯᏆᏓᏅᏔ	-12.0201
▁ᎤᏕᏘ	-12.0205
▁ᎠᎩᎷ	-12.0206
ᏂᏲᎯᏍᏙᏗ	-12.0208
ᏄᏂ	-12.021
ᎸᎲ	-12.0211
ᎧᎿᏅᎩ	-12.022
▁ᏫᏗᎨ	-12.0227
ᎾᏓᏛᏁᎮᏍᏗ	-12.0229
▁ᎠᎩᏍᎦ	-12.0231
ᎦᏖᏃᎭ	-12.0242
ᏓᏥᏩᏛᎯᏃ	-12.0246
ᏗᏙᎵᎩ	-12.0247
ᎸᏅᎭ	-12.025
▁ᏚᎧᏁ	-12.025
▁ᏗᎷ	-12.025
▁ᏧᏓᏅᏖ	-12.0261
▁ᏕᏥᎸᏫᏍᏓᏁ	-12.0263
ᏍᎩᎳ	-12.0263
ᏣᏅᏓᏗᏍ	-12.0266
ᎩᎵᏲᎬᎢ	-12.0267
ᏗᏅᏎ	-12.0268
▁ᎤᏃᎯ	-12.027
▁ᎤᏏᎳᏛ	-12.0274
ᏓᏂᎸᎪᎢ	-12.0276
▁ᎠᏦ	-12.028
▁ᏧᏔ	-12.0282
▁ᎤᏍᏆᎸᎡ	-12.0283
▁ᎢᏥᏯᏅ	-12.0287
ᎳᏍᏓᎸ	-12.0289
ᎾᏙᎴᏆᏍᎬ	-12.029
ᎵᏍᎪᎸᏓᏁᎴ	-12.0291
ᎩᎸᏉᏔᏅ	-12.0292
ᏌᎳᏙᏗ	-12.0292
▁ᎠᏔᏲᎯ	-12.0294
ᏄᎪᏥ	-12.0299
ᎵᎮᎵᏨᎯ	-12.0299
ᏪᎵ	-12.03
▁ᏕᎯᏯ	-12.0305
▁ᎤᎴᏫᏍ	-12.0306
ᏘᏍᎪ	-12.0309
ᏒᎸᎩ	-12.0309
▁ᎤᎾᏕᎰ	-12.031
▁ᎠᏑᏰᏍ	-12.0315
▁ᎠᎵᏖᎸᎮᏍ	-12.0317
▁ᎠᏁᏍᎨ	-12.0317
▁ᎤᏥᏍᏓ	-12.0318
ᏦᎯᏳᏅ	-12.0323
ᎦᏘᏗ	-12.0324
ᏂᎪᏩᏘᏍᎨᎢ	-12.033
ᏕᎲᎦ	-12.0332
ᎸᎪᏫᏍ	-12.0338
▁Ꮬ	-12.0339
▁ᎠᎩᎾᏄᎪᏫᏍᏗ	-12.0342
▁ᏛᏛ	-12.035
▁ᎬᏩᏍᎦ	-12.0352
▁ᏚᏂᏚ	-12.0352
ᏓᏪᎵᎩᏍ	-12.0355
ᎪᏩ	-12.0358
ᏂᎩᏒᎩ	-12.0361
▁ᎣᎩᏍᏛᏗᏍᏗ	-12.0361
ᏲᎵᎦ	-12.0362
▁ᎣᎩᏍᏛᏗᏍ	-12.0362
ᎤᏅᏎ	-12.0362
▁ᎠᏂᎦᏖᏃ	-12.0367
▁ᎡᏥᏄᎪ	-12.037
▁ᎢᏤᏯᏔ	-12.037
ᏓᏅᎵᏰ	-12.0372
ᎦᏘᎸᏍᏗ	-12.0372
ᎯᏴᏁᎸ	-12.0376
ᏩᏛᏛ	-12.0381
▁ᎾᏋᏁ	-12.0385
ᏓᏙᎵᏍᏓᏁᎯ	-12.0385
▁ᎠᏡᏗᏍ	-12.0385
ᎠᏧ	-12.0387
ᎸᎡᎴ	-12.0389
▁ᏥᎧᏁᎢᏍᏗ	-12.039
ᏂᏍᏔᏅ	-12.0392
▁ᏓᎨᏥ	-12.0398
ᏁᎢᏍᏓ	-12.04
ᏓᏘᎾᎥ	-12.0401
▁ᏓᏂᎳᏫ	-12.0403
ᏥᏲᎭ	-12.0408
▁ᏕᎪᏢ	-12.0411
▁ᏥᏂᏣᎵᏍ	-12.0414
ᏍᏛᏗᏍᏗᏱ	-12.0415
ᏥᏬᏁᏙᏗ	-12.0424
ᏰᎵᏒ	-12.0426
▁ᎢᏯᎦ	-12.0426
▁ᎢᏳᏅᏁ	-12.0426
ᎢᎦᏚᎩ	-12.0431
ᎶᏍᎪ	-12.0434
ᎦᏯᎷᏗ	-12.0435
ᎦᏌᏯᏍᏗ	-12.044
▁ᎩᎦᎨᏃ	-12.044
ᏆᏙ	-12.0443
▁ᏧᏭᏓᎴ	-12.0445
ᎦᏓᎡ	-12.0447
ᏓᏍᎦᎨᏍᏗ	-12.0448
▁ᏕᏍᎩᏯ	-12.0451
ᏨᏍᏗ	-12.0452
ᎷᏨᎯ	-12.0455
▁ᎬᏩᏍᏕᎸᎯᏙ	-12.0455
▁ᎢᏯᏥ	-12.0455
▁ᏧᎴᏗ	-12.0456
ᏂᎨᏴ	-12.0457
ᏓᎾᏌᎲᏍᎩ	-12.0458
ᎵᏍᏓᏴᎲᏍᎬᎢ	-12.047
▁ᏯᏂᎸᏉ	-12.0478
ᏥᎸ	-12.048
ᏴᏅ	-12.0481
▁ᎤᎪᎯ	-12.0486
----	-12.0491
▁ᎠᎩᏍᎬ	-12.0495
▁ᏩᏂᏴ	-12.0496
ᏥᏍᎬ	-12.0497
ᎦᏅᎾ	-12.0502
ᏓᏛᎢ	-12.0506
ᏛᏗᏕᎬ	-12.0514
ᏫᏒᏅ	-12.0516
▁ᎤᏏᏔᏕ	-12.0517
▁ᏥᏫᎬ	-12.0519
▁ᎯᏰ	-12.052
▁ᎤᏓᎪᎾᏛ	-12.0523
▁ᎬᏩᏯᏫ	-12.0523
ᎴᎲᏍᎦ	-12.0524
▁ᎠᏂᏃᎮᎵᏙ	-12.053
ᏍᏆᏓᏃ	-12.0532
ᏳᏨ	-12.054
ᏙᎵᏍᏗᏱ	-12.0542
ᏑᎦᎸ	-12.0547
▁ᎤᎵᏖᎸᏂ	-12.0548
ᏓᏖᎸᎮᏍ	-12.0553
▁ᏓᎧᎿᏩᏗᏙᎮ	-12.0556
▁ᏩᏓ	-12.0558
ᏒᎦᎶᏗ	-12.0559
▁ᎢᏨᏯᎵᏥᏙᏁ	-12.0562
ᏩᏘᏃ	-12.0563
ᏂᏆᏘᎲ	-12.057
ᏌᏙᏰ	-12.0576
▁ᎡᏣᎵᏍᎪᎸᏓᏁ	-12.0579
ᎦᎵᏍᎨᎢ	-12.0579
ᏪᏎ	-12.0583
▁ᎦᎸᏉᏗᏳᏍᎩᏂ	-12.0586
ᏯᏅᎮ	-12.0589
ᏁᎢᏍᏓᏁᎭ	-12.0593
ᏍᏚᏟ	-12.0593
ᏲᏍᏙᏓ	-12.0596
ᏂᎨᏳᎯ	-12.0598
ᎵᏂᎬᎬ	-12.0598
▁ᎬᏩᏂᎩ	-12.0601
ᎯᏐ	-12.0602
ᏏᏔᏕᎢ	-12.0605
▁ᏧᎾᏁᏍᎨ	-12.0607
▁ᏚᎾᏕ	-12.0609
ᎱᏁ	-12.0611
▁ᏳᏕᎶᎰ	-12.0612
▁ᏓᏂᏁ	-12.0612
ᏄᎪᏫᏎ	-12.0613
▁ᎢᎦᏚᏓᎴᏍ	-12.0617
ᏳᏩᏂ	-12.0618
ᎦᎵᏍᏓᏗᏍᎩ	-12.062
ᎶᎢᏍᏗᏱ	-12.0621
▁ᎢᏨᏲᏪᎳᏁ	-12.0622
ᏣᏛᎦᏁ	-12.0623
ᎶᎩ	-12.0626
▁ᎢᏙᎯᏳᎲᏍ	-12.0626
ᎵᏌᎳᏓᏅᎩ	-12.0631
▁ᎠᏛᎵ	-12.0638
ᎦᏔᎲᏒᎩ	-12.064
▁ᏥᎾᏆ	-12.0641
ᎪᏢᎭ	-12.0648
▁ᎦᎵᏗ	-12.0652
ᏋᏁᎸᎩ	-12.0653
ᎵᎪᏁᎸᎩ	-12.0653
▁ᏧᎷᏤ	-12.0656
▁ᏓᏗ	-12.0657
▁ᎤᏂᏲᎵ	-12.0663
ᎶᏍᎦ	-12.0664
ᎴᏒ	-12.0667
ᏍᏔᏁᎲ	-12.0668
ᎠᏯᎨ	-12.0669
▁ᎠᎩᏫ	-12.0669
ᎬᏩᏛᏗ	-12.067
▁ᏥᏅᏒ	-12.0671
ᏓᏍᏕᏓᎵᏴᏍᎩ	-12.0685
ᏕᏍᏔ	-12.0686
ᏓᏬᎢ	-12.0688
ᏜᏍᏛ	-12.069
▁ᏣᏕᎲᏍ	-12.0693
▁ᎫᏔ	-12.0694
▁ᏱᏂᎬᏩ	-12.0696
▁ᎾᏲ	-12.07
▁ᎤᏂᏁᏉ	-12.07
ᏍᏆᎶ	-12.0702
ᏘᏃᎮᏗᏱ	-12.0703
ᏣᎷᏤᎵ	-12.0704
ᏃᎮᎴᎢ	-12.0705
ᏓᎷᎸ	-12.0706
ᏐᏢᏗᎭ	-12.0709
ᏂᎶᏍᎨᏍᏗ	-12.0709
ᏚᏂ	-12.0711
▁ᏓᎦᏢ	-12.0713
▁ᏚᎾᏁᎶ	-12.0715
▁ᏄᎾᏓ	-12.0719
ᏅᏩᏅ	-12.072
▁ᏧᏚᎢᏍᏓᏁ	-12.0724
ᎾᏕᏏ	-12.0724
▁ᎢᏣᏠᏯᏍ	-12.0724
▁ᎯᏅᏁ	-12.0725
▁ᎪᏒ	-12.0725
▁ᏗᎦᏄ	-12.0725
ᏍᎪᏎ	-12.0729
ᏂᎰᎢ	-12.0732
ᏥᏍᏕᎸᏗᏱ	-12.0732
▁ᎢᎠᏓ	-12.0735
▁ᏧᏢ	-12.0736
▁ᏗᏧᎪᏓ	-12.0737
ᏯᏓᏱ	-12.074
ᏂᏴᎩ	-12.074
ᏕᎰᏍᎨᏍᏗ	-12.0743
ᏯᎴ	-12.0746
ᎬᏩᏟ	-12.0746
ᏲᏤᎢ	-12.0747
ᏚᎨ	-12.0748
ᎩᎳᎾᎳ	-12.0759
ᏅᏍᎪᎢ	-12.0767
ᎾᏝᎾᎥᎢ	-12.077
▁ᎡᏥᎾᏰᏍ	-12.077
ᏓᏣ	-12.0771
▁ᎤᎾᎵᏍᏗ	-12.0772
▁ᎾᏂᏪ	-12.0773
▁ᏂᎨᏣ	-12.0776
ᎱᏍᏕᏎᎸ	-12.0781
ᎵᏂᎪᎯᏍᏔᏅ	-12.0781
ᎵᏃᎮᏙᏗᏱ	-12.0783
ᏅᏓᏗᏍᎪ	-12.0784
▁ᎠᎩᎶ	-12.0787
ᎾᏁᎴ	-12.0788
ᏥᏍᏕᎸ	-12.0791
ᏟᎶᎡᎸ	-12.0791
ᏬᏯ	-12.0791
ᏍᏉᏟᎢ	-12.0793
ᏓᎷᏯᏛ	-12.0795
ᏃᏍᎩᏛ	-12.0799
ᏑᏰᏎᎢ	-12.08
▁ᎾᎾᏛᏁ	-12.0802
ᏍᏆᎵᏎ	-12.0803
▁ᏛᎾᏓ	-12.0806
▁ᏕᎦᏥᏯ	-12.081
▁ᎤᎾᏘᏲ	-12.0821
ᏑᎴᏍᏗ	-12.0824
▁ᎠᎵᎮᎵᏍ	-12.0826
ᏉᏗᏍᎬ	-12.0828
ᎦᎷᏯ	-12.0831
▁ᎢᎫ	-12.0835
ᏕᏍᏗᏍᎨᏍᏗ	-12.0836
▁ᏱᎦᏅ	-12.0837
ᏣᏓᏅᎦᎸᏛ	-12.0837
▁ᏦᎸ	-12.0839
▁ᎠᎾᎵᏍᏓᏴᏗᏍ	-12.0843
ᎦᏔᎾᎢ	-12.0844
▁ᎤᎦᏌ	-12.0844
▁ᏗᎾᏓᏅᏟᏉ	-12.085
ᏅᎢᏍᏗ	-12.0851
ᏓᏰᎨᏍᏗ	-12.0857
ᏟᏍᏔᏁ	-12.086
ᏌᏛᎥᏍᎬ	-12.0861
▁ᎤᏂᏄᎸ	-12.0861
ᎬᏂᏍᏗ	-12.0863
ᏗᏔᎲᎩ	-12.0863
ᏍᎩᏓᏒᎢ	-12.0866
ᏂᏒᎩ	-12.087
▁ᎢᏧᎳᎭᏉ	-12.0871
ᏁᎵᏒᎢ	-12.0874
ᏒᎴᎢ	-12.0878
▁ᎠᏆᏛᎦ	-12.0879
ᎵᏍᏗᏍᎨᏍᏗ	-12.088
▁ᏧᏥᏍ	-12.088
ᏥᏅᏁᏗ	-12.0882
ᏏᏅᎯ	-12.0882
▁ᎤᎦᏛᎾ	-12.0887
ᎯᏍᏓᏁᎯ	-12.089
ᏓᏙᎵᏍᏔᏁᎢ	-12.0897
▁ᎤᏂᏍᎦ	-12.0897
▁ᏚᏓᏂᎸᏤ	-12.09
ᏂᎴᎢ	-12.09
ᏯᏛᏁᎵ	-12.0905
▁ᏍᎩᏯᏕᎶᏆ	-12.0907
ᏲᏍᏙᏗᏱ	-12.0911
▁ᎨᎶ	-12.0912
ᏅᏗᏍᏗ	-12.0916
▁ᎤᏂᏍᏆ	-12.0921
ᏯᏍᏛᎾ	-12.0921
▁ᎠᏢᏆᏍ	-12.0924
ᏪᎭ	-12.0936
ᏓᏁᎶ	-12.0938
ᏦᎯᏳᏒᎢ	-12.094
▁ᏧᎬᏩ	-12.0941
ᏥᏎᎪᎩ	-12.0946
▁ᏓᎧᎿ	-12.0947
▁ᎣᏥᏃᎮ	-12.0949
ᎦᏌᏬᎢ	-12.095
ᏫᏚᏓᎢᏅ	-12.095
ᏅᏯ	-12.095
ᏯᏙᏤᎮᏍᏗ	-12.0951
ᏲᏏᏌ	-12.0951
ᏄᎪᎢ	-12.0951
▁ᏳᏩᏛ	-12.0953
▁ᎤᏕᏒ	-12.0955
▁ᏗᎦᏂᏴ	-12.0958
▁ᏱᏄᎾᏛᏁ	-12.0958
▁ᏧᎾᎵᎪ	-12.0961
ᏄᏍᏕᎢ	-12.0961
▁ᎠᎾᎵᏍᎪᎸᏗᏍ	-12.0962
ᎴᏂᏙᎸᎢ	-12.0963
▁ᎤᎾᏓᏛᏁ	-12.097
ᏬᏅ	-12.097
ᏩᏕᏁᎴᎢ	-12.0973
ᏁᏟᏴᎡᏗ	-12.0977
▁ᏧᏓᏄ	-12.0977
▁ᏓᏁᎶ	-12.0978
▁ᎤᎸᏌ	-12.0979
▁ᏚᏂᏣᎦ	-12.098
ᏡᏓ	-12.098
ᏟᏍᏗᏍᎪᎢ	-12.0981
ᏴᏈᏛ	-12.0986
▁ᏚᏭᎪᏓᏁ	-12.0986
ᏣᏯᏅ	-12.0988
ᎬᏫᏳ	-12.0989
ᏔᏍᎪᎢ	-12.0992
ᏯᏅᏓᏗᏍᎪ	-12.0992
▁ᏣᎧᎵᎢ	-12.0993
ᏩᏂ	-12.0993
▁ᏱᏫᏨ	-12.0996
▁ᎤᏔᏕ	-12.0996
▁ᎤᏍᏢᏂᏍ	-12.0999
ᏬᎯᏳᏅ	-12.0999
▁ᎤᏁᎵᏤ	-12.1001
ᏃᏁᎸ	-12.1001
ᎩᎸᏂ	-12.1003
ᎯᏳᏒᎾ	-12.1003
▁ᎬᏬᏎ	-12.1008
▁ᎡᏍᏓ	-12.1008
▁ᏚᏟᎶᏍᏓᏁᎴ	-12.101
ᏥᎪᏗ	-12.1015
▁ᎤᏂᏲᎢ	-12.1016
▁ᎾᏅᏁ	-12.1018
▁ᎤᏓᏠᏍ	-12.1018
ᏌᎳᏗ	-12.1019
ᎾᏄᎪᏫ	-12.1021
ᎣᏒ	-12.1022
▁ᏕᏍᏓ	-12.1022
▁ᎤᎾᏙᏓ	-12.1024
ᎱᏍᏕ	-12.1028
▁ᎤᏂᏄᎪᏤ	-12.1028
ᏍᏔᏁᎮ	-12.103
ᏣᎬ	-12.1031
ᏘᏃᎵ	-12.1033
ᏏᏙᎰ	-12.1034
ᏚᎳ	-12.1038
ᎾᏛᏁᏗᏱ	-12.1038
▁ᏣᏚᏓᎴ	-12.1038
ᏰᎵᏒᎩ	-12.1039
▁ᏂᏍᏋᏁ	-12.104
▁ᎦᏰᏥᏙ	-12.1041
▁ᎤᏍᏆᏂ	-12.1042
ᏍᏆᏙᎾ	-12.1043
ᎦᏃᎸ	-12.1044
ᏟᏴᎮᎢ	-12.1044
▁ᎠᏂᏯᎡ	-12.1044
ᎤᏍᏆᏂᎩ	-12.1046
▁ᏂᏍᎩᏪᏎ	-12.1046
▁ᏕᎫᎪᏗ	-12.1048
ᏔᎩᏍᏗ	-12.1048
▁ᎱᏰ	-12.105
ᎧᎵᎵ	-12.1056
▁ᎠᏲᏞ	-12.1056
▁ᎤᎾᎴᎿᏫᏍ	-12.1061
ᏁᏅᏒᎩ	-12.1062
▁ᏂᏓᏛ	-12.1062
ᏁᎳᎩᏉ	-12.1063
▁ᎤᎵᏍᏕᏍᏔ	-12.1064
▁ᎠᏓᏄᏖᏲ	-12.1064
ᎬᏍᎪᎸᏁ	-12.1068
▁ᏚᎾᏄᎪᏫᏎ	-12.1069
▁ᎠᏂᏏᎾ	-12.1071
ᏍᏕᎸᏙᏓ	-12.1071
▁ᎠᎩᏲᎰ	-12.1071
ᎤᏃᎴ	-12.1072
▁ᏚᎾᏚᏫᏍ	-12.1072
▁ᎤᎾᏚᎵ	-12.1072
▁ᏩᎫ	-12.1074
ᏍᏚᎸ	-12.1074
ᏣᏓᏂᎸᎩ	-12.1075
▁ᎢᏓᎴᏂᏙ	-12.1075
ᏓᎦᎵᏍᏙᏔᏂ	-12.108
ᏓᎦᏘᎴ	-12.1084
ᎩᏂᏴᏗ	-12.1088
▁ᎤᏕᏯᏙ	-12.1088
▁ᏥᏩᏂ	-12.1089
ᏂᎬᏎᎲᎢ	-12.1089
▁ᏗᏩᎾᎦᎳ	-12.1089
▁ᎢᏣᏓᏙᎵᏍ	-12.109
▁ᎤᎭᏲ	-12.1091
ᎫᏓᎴᏏ	-12.1091
ᎯᏍᏔᏁᎢ	-12.1091
▁ᎠᎫᏬ	-12.1092
▁ᏓᎦᏛ	-12.1093
ᏍᎫᏕᏍᎬ	-12.1094
ᏖᎳᏕ	-12.1094
ᎿᏩᏗᏒ	-12.1095
▁ᎠᏥᎸᏍᎩᏂ	-12.1096
ᎭᏲᎮ	-12.1096
ᏍᏗᏰᏕ	-12.1098
▁ᏓᎵᏂᎪᎯᏍᏗᏍ	-12.11
ᏲᏎᎲᎩ	-12.11
ᏄᏍᏕ	-12.1101
ᏑᎴᎥ	-12.1102
ᏍᎩᏓᏒ	-12.1104
▁ᏳᏣᏅᏓᏕ	-12.1105
▁ᎠᏂᎦᏘᏗᏍ	-12.1107
ᎿᎷ	-12.1109
▁ᏥᏄᏛᏁ	-12.111
ᏛᏁᎸᎩ	-12.1112
ᏍᎪᏂᎯ	-12.1113
ᎵᏍᏓᏴᏔᏂ	-12.1115
ᏂᎸᏫᏍᏓᏁᎸ	-12.1117
▁ᏗᏥᏯ	-12.1119
▁ᏱᏅᏩ	-12.1121
ᎵᏍᎦᏍᏙᏔᏂ	-12.1123
ᏙᏩᏗᏍ	-12.1123
▁ᏱᏄᎾ	-12.1124
▁ᏓᎩᎸᏫᏍᏓᏁ	-12.1126
▁ᎤᏃᎱ	-12.1126
▁ᏥᏥᏯ	-12.1128
ᏂᎨᎯᏙᎴᎢ	-12.113
▁ᏴᎨᏣ	-12.1131
ᏥᎨᏳᎭ	-12.1131
▁ᏱᏭ	-12.1132
ᏓᏅᏓᏗᏍᏓ	-12.1135
▁ᏄᏛᎾ	-12.1136
ᏦᏕ	-12.1136
▁ᎠᏂᏬᏂᏍᎨ	-12.1137
▁ᏩᏂᏴᎯ	-12.1138
ᏠᏏ	-12.1139
ᎩᏍᏕᎸᎯᏙᎸ	-12.1139
ᎪᎸᏛ	-12.1139
ᏪᏎᎮᎢ	-12.114
ᎬᏆᏛᎦᏁ	-12.1143
ᎵᏙᎰ	-12.1144
ᎵᏍᏚᎸ	-12.1145
ᏂᏪᏍᎨ	-12.1147
▁ᎤᎾᏡ	-12.1149
ᎪᏩᏛᎡᏗ	-12.1149
▁ᏃᎦᎵᏍᏔ	-12.115
ᏃᎮᏢ	-12.1151
ᎸᏉᏙ	-12.1151
▁ᏓᏕᏙ	-12.1152
ᏂᎨᏳ	-12.1153
ᎬᏍᎦᎳ	-12.1154
“	-12.1155
▁ᏂᏥᏯ	-12.1155
ᏓᏛᏁᎲᎩ	-12.1156
ᏴᎡᎲ	-12.1156
ᏓᏁᏣᏍᏚ	-12.1156
ᎦᏙᎨ	-12.1158
ᎼᏂ	-12.1158
ᏅᎦᎸᏗ	-12.1158
ᏴᎯᎲ	-12.1158
▁ᏗᏓᎾ	-12.116
▁ᎤᏂᏲᎰ	-12.116
ᏛᏗᏍᎬ	-12.1164
ᏫᏍᏗᏍᎩ	-12.1167
ᎫᎩ	-12.1171
▁ᏓᎾᏟ	-12.1174
ᏍᏕᎸᎲ	-12.1174
▁ᏂᏍᏆᏛᏁ	-12.1174
▁ᏱᏂᏨ	-12.1175
▁ᏚᏂᏰ	-12.1175
ᏣᏚᎵᏍᎨᏍᏗ	-12.1176
▁ᎢᏣᎨᏳ	-12.1176
▁ᎤᎦᎾᏬ	-12.1177
ᏩᎾᎦᎶ	-12.1177
▁ᏫᎦᎶᎯ	-12.1177
ᎧᏁᏗᏱ	-12.1178
▁ᎤᎾᎴᏫᏍ	-12.1179
ᎪᏓᏁᎯ	-12.1179
ᏰᎸᏍᏗ	-12.118
▁ᎠᏇᎷ	-12.118
ᎭᏂᎸ	-12.1184
ᏟᏴᎡ	-12.1184
ᏧᏁᏍᎨᎮᎢ	-12.1187
ᏚᏂᎳᏫᏤ	-12.1188
▁ᎠᏛᏅᎢᏍᏗ	-12.1188
ᎦᏄᎳᏥ	-12.1188
ᎣᎨᏅ	-12.1189
ᏄᎸᎲ	-12.1189
ᏧᏓᎴᏅ	-12.1191
ᎭᎾᏬ	-12.1191
ᎤᏛᏎᎢ	-12.1191
ᏘᏅᏍᏓ	-12.1192
ᎶᏁᎢ	-12.1193
ᏓᏟᎶᏍᏗᏍᎬ	-12.1195
ᎦᏕᎶᎣᏍ	-12.1196
▁ᎥᏥᏯ	-12.1196
▁ᏗᏤᏍᏙ	-12.1196
ᎾᎾᎵᏍᏗ	-12.1196
ᏂᎨᏐ	-12.1197
ᎩᎪᎲᎯ	-12.1198
ᎿᎥ	-12.1198
ᎬᏬᏎᎸᎩ	-12.1198
ᏣᎪᏍᏗ	-12.1201
ᎩᎶᎯᏍᏗ	-12.1202
ᏓᏍᏔᏅᏅ	-12.1202
ᏍᎩᎾᎾ	-12.1202
ᏓᏰᏙᎳᏛ	-12.1203
ᎤᏁᎫ	-12.1203
ᏣᏅᏓᏕ	-12.1204
▁ᎢᎤᎾᏨᏎ	-12.1205
▁ᏚᎧᎿᏩᏗᏙᎮ	-12.1205
▁ᎤᏅᏩᏁ	-12.1205
▁ᎨᏣᏡᏗᏍᎬ	-12.1205
▁ᏧᎩᏥᏍᎪ	-12.1205
▁ᎠᎾᎵᏅᏢ	-12.1205
ᏄᏩᏂᏌᏅ	-12.1205
ᏕᎾᏓᎪᎲᏳ	-12.1205
▁ᏭᎩᎸᏁ	-12.1205
▁ᏄᏍᏆᏂ	-12.1205
▁ᎤᏍᎦᏅᏥᏙᎸ	-12.1205
▁ᏧᏲᏏᏍᎨ	-12.1206
▁ᎤᏁᎢᏍᏓᏁᎸ	-12.1206
▁ᏗᎦᎸᏫᏍ	-12.1206
ᏙᏯ	-12.1206
ᏬᎯᏳᏁ	-12.1206
ᎠᎾᏓᎪᎾᏗᏍᎬ	-12.1206
ᏄᎾᏓᎴ	-12.1206
ᏍᎪᏂᏍᏗ	-12.1206
ᏚᏳᎪᏛ	-12.1206
▁ᏂᏚᏛᏁᎴ	-12.1207
ᎵᏍᏓᏴᏁ	-12.1207
▁ᏙᏗᎧᏂᏍᎬ	-12.1207
ᏓᎴᏍᎬᎢ	-12.1208
ᏟᏂᎬᏁᎸ	-12.1208
ᎤᏂᎶᏒ	-12.1208
ᎪᎯᏳᎲᏍᎪ	-12.1208
ᎤᏁᎢᏍᏔᏅ	-12.1208
ᎤᎾᏛᎪᏗᏱ	-12.1208
▁ᎢᏥᎾᏰᏍᎬ	-12.1209
ᎤᎵᏍᏙᏔᏅ	-12.121
ᏙᏓᎦᏥ	-12.121
ᏍᎩᏃᎯᏏ	-12.121
▁ᎠᎩᎵᏲᎬ	-12.1211
▁ᎠᎩᏯᎥ	-12.1211
ᎤᎵᏍᎨ	-12.1211
ᏓᏳᎶᏒ	-12.1212
ᎤᎦᏃᏩ	-12.1212
ᎠᏂᎪᏕᏍᎩ	-12.1213
ᏧᏓᎴᏁ	-12.1213
▁ᏫᎬᏩᏴᏔᏁ	-12.1213
ᎠᎦᏴᎵ	-12.1213
▁ᏫᏓᎧᏁ	-12.1213
ᏘᏲᎸ	-12.1213
ᎤᎵᏍᏆᎸᏗ	-12.1213
ᏚᎾᏙᎥ	-12.1213
ᏦᎴᏍᏗ	-12.1213
ᎠᏥᎸᏉᏗᏳ	-12.1214
▁ᎤᏁᎳᏫᏎᎲ	-12.1214
▁ᏕᎦᎸᏫᏍᏓᏁᎸ	-12.1214
▁ᏥᏮᎦᏙ	-12.1214
▁ᏭᏩᎦᏘᏗᏒ	-12.1214
ᏥᏍᏕᏥ	-12.1214
ᏅᏁᎭ	-12.1214
ᎤᎾᏄᎪᏫᏎᎢ	-12.1214
▁ᏄᎾᏛᎿᏕᎬ	-12.1214
▁ᎤᏘᏃᎴ	-12.1214
ᏗᎵᏍᏓᏴᏗᏱ	-12.1214
ᎡᎳᏆᏗ	-12.1214
ᏠᎨᏏ	-12.1214
ᏕᎤᏙᎥ	-12.1214
▁ᎠᎩᏐᏅ	-12.1215
▁ᏧᏂᎳᏫ	-12.1215
▁ᏨᏓᎸ	-12.1215
▁ᏥᏂᎨᏎ	-12.1215
ᏄᎾᏛᏅ	-12.1216
▁ᎣᎩᎪᎲ	-12.1216
ᎢᎪᎯᏓ	-12.1216
▁ᎤᏗᏔᎮ	-12.1216
▁ᏚᏪᎧᏁ	-12.1217
▁ᏕᏥᎧᎿᏩᏗᏒ	-12.1217
ᎨᏥᏍᏕᎸᏗ	-12.1217
ᏂᎪᎯᎸᎾ	-12.1217
▁ᏅᏓᎬᏩᎾ	-12.1217
▁ᎣᏥᏃᎮᏍᎬ	-12.1217
ᎡᏆᎭᎻ	-12.1217
▁ᎤᏅᏓᏗᏗᏒ	-12.1218
▁ᏧᎾᏄᎪᏫᏎᎴ	-12.1218
▁ᏓᏓᏁᎳᏗᏒ	-12.1218
▁ᏱᎪᎵᎨ	-12.1219
ᏓᏗᏍᏗᏱ	-12.1219
▁ᏗᏆᏓᎴᏅ	-12.1219
ᏧᎬᏩᎶᏗ	-12.1219
▁ᏗᏣᎸᏫ	-12.1219
▁ᎤᏛᎦᏍᏔᏁ	-12.1219
ᏂᎬᎾᏛ	-12.122
▁ᎠᎾᏓᏩᏛᎯᏙ	-12.122
ᏍᏛᏗᏍᎨ	-12.122
ᎤᏁᎦ	-12.1221
ᏅᎢᏍᏔᏅᎯ	-12.1221
ᏄᏂᏪᏎᎢ	-12.1221
ᏁᎫᏥᏛ	-12.1221
ᏃᏈᏏ	-12.1221
ᏓᏥᏯᏅᎯ	-12.1221
ᏩᎫ	-12.1222
▁ᎤᏟᏍᏔ	-12.1223
ᏳᏩᏁᎦ	-12.1223
ᎡᏒᎭ	-12.1223
ᏚᎳᏑᏝ	-12.1223
ᏚᏍᏆᏃᏴ	-12.1223
ᎶᏄᎮᏗ	-12.1224
ᏧᏁᎬ	-12.1224
ᏛᏅᎢᏍᏔᏁ	-12.1224
▁ᏚᏠᏒᏎ	-12.1224
▁ᎤᏓᏙᎵᏍᏓᏁᎴ	-12.1224
ᎦᏙᎬᎩ	-12.1224
▁ᎤᏍᏆᏂᎪᏔᏁ	-12.1224
ᏯᏘᏅᏍᏗ	-12.1224
ᎤᎾᏣᏅ	-12.1224
▁ᏕᏣᏓᏘᎾᎥ	-12.1224
▁ᏓᏂᏬᏂᏍᎬ	-12.1224
ᏩᎶᏏ	-12.1225
ᎬᏬᎵ	-12.1225
▁ᎤᏓᏙᎵᏣ	-12.1225
ᏍᎩᏯᏘᏃ	-12.1225
ᎩᎨᏳᏒᎢ	-12.1225
ᎮᎵᎠ	-12.1225
▁ᏧᏂᎦᏴᎵ	-12.1225
▁ᏂᏚᏅᏁᎴ	-12.1226
ᏚᏬᏁᏔᏁᎢ	-12.1226
ᎵᏥᏙᏁᎭ	-12.1227
ᎠᏥᎸ	-12.1227
ᎤᏁᎬ	-12.1228
▁ᎩᎾᎵ	-12.1228
ᏓᏴᎳᏔᏍ	-12.1228
ᎾᏫᏛᏛ	-12.1228
ᎾᏘᏲ	-12.1228
ᎢᏳᏍᏘ	-12.1228
▁ᏚᏚᎪᏔᏅ	-12.1229
ᏗᎪᏢ	-12.1229
ᏅᎥᏍᎩ	-12.1229
▁ᎬᏩᏕᏁᎴ	-12.123
ᎮᏂᎵ	-12.123
▁ᎠᏂᎷᎨ	-12.1231
ᏡᎩ	-12.1231
ᎤᏲᏨ	-12.1232
ᏗᎧᎿᏩᏗᏙᎯ	-12.1232
ᏓᎵᏂᎪᎯᏍᏙᏗ	-12.1232
ᎠᏓᏅᏙ	-12.1233
▁ᎾᏥᏪᏎᎴ	-12.1233
ᏂᏤᎷᎯ	-12.1234
▁ᎠᏥᏰᎸᎾᏁᎴ	-12.1234
▁ᎦᏅᏬ	-12.1234
ᏍᎪᎸᏙᏗ	-12.1234
ᏣᎬᏫᏳᎯ	-12.1234
▁ᏣᎵᏂᎩ	-12.1235
▁ᎬᏩᎪᎮ	-12.1236
▁ᎣᎦᏓ	-12.1236
ᏏᎾᏌᏅ	-12.1236
▁ᎤᏂᏲᏠᎯᏎᎸ	-12.1236
▁ᏂᎦᏥᏪᏎᎸ	-12.1236
ᏖᎸᏂ	-12.1236
ᏧᏓᎴᏅᏓ	-12.1236
ᎦᏂᏴᏛ	-12.1236
▁ᎾᏆᏛᎿᏕᎬ	-12.1237
▁ᏲᏣ	-12.1238
▁ᎯᎦᏍᎦᏂ	-12.1238
ᏓᏙᎵᏣᏘ	-12.1239
▁ᏫᎾᎩ	-12.1239
▁ᎤᏪᏙᎴ	-12.1239
ᏲᏍᏔ	-12.1239
ᎠᎩᎪᏩᏛᏗᏱ	-12.1239
ᏦᏓᎸ	-12.1239
ᎤᎵᎮᎵᏍᏗ	-12.124
ᏍᎦᏅᏥᏙᎸᎢ	-12.124
▁ᏧᏍᏆᏂᎪ	-12.124
ᎾᏛᏁᎮ	-12.1241
ᎩᏍᏕᎸᎯᏓᏍᏗ	-12.1241
ᏌᎳᏛ	-12.1241
ᏁᎥᎭ	-12.1242
▁ᎠᎵᏍᏆᏗᏍᎬ	-12.1242
ᏩᏘᏍᎬᎾ	-12.1242
ᏐᎴᏍᏗ	-12.1243
ᏖᏍᎬ	-12.1243
▁ᎤᏁᏙᎴ	-12.1243
▁ᏗᎦᏙᎨ	-12.1243
▁ᏫᏗᎬᏩ	-12.1243
▁ᏣᏁᎫ	-12.1244
ᎹᏅ	-12.1244
▁ᏚᏍᏓᏩᏛᏎ	-12.1244
▁ᎤᏪᏙ	-12.1244
▁ᎤᎾᏚᎵᏍᎪ	-12.1244
▁ᏓᏰᏙᎳ	-12.1244
ᎵᏍᎦᏂᏍᏛ	-12.1244
▁ᏫᏓᏆᎧᎾᏅ	-12.1244
ᎾᏓᎵᏁᎯᏕ	-12.1244
▁ᎤᏓᏏᏁ	-12.1245
ᎢᏧᎳᎭ	-12.1245
ᎭᏗᎭ	-12.1245
ᎦᎾᏏᏍᎩ	-12.1245
ᏥᎨᏳ	-12.1246
▁ᎤᏂᏍᎦᎴ	-12.1246
▁ᏭᏣᏅ	-12.1246
ᏍᎩᎾᏛ	-12.1246
ᎬᏬᎯᏳ	-12.1246
▁ᎤᏬᏂ	-12.1247
ᏔᎵᏁ	-12.1247
▁ᎡᎦᎫᏴ	-12.1247
▁ᎤᎵᏖᎸ	-12.1247
▁ᎤᏕᏁᎴ	-12.1247
▁ᎤᎾᏓᏙᎵᏍᏓᏁᎸ	-12.1247
ᏓᏪᎳᎩᏍᎬ	-12.1247
ᏍᎩᏙᎵᎩ	-12.1248
▁ᏭᏂᏴᎴ	-12.1248
▁ᎤᏂᏍᏆᏂᎪᏒ	-12.1248
▁ᏄᎾᏛᏁ	-12.1249
▁ᎴᎻ	-12.1249
ᎦᎾᏬᏍᎬ	-12.1249
ᎵᏱᎵᏕ	-12.125
ᏲᎱᏏᏕᎾ	-12.125
ᏗᏥᏁᏟᏴ	-12.125
▁ᎿᏛ	-12.125
▁ᎨᏥᏌ	-12.125
▁ᎣᏤᎲ	-12.125
▁ᎤᎾᎦᏎᏍᏛ	-12.1251
▁ᏂᏚᎵᏍᏔᏅ	-12.1251
▁ᏧᎾᏤ	-12.1251
▁ᎭᏓᏅ	-12.1252
▁ᏚᏬᏢᏅ	-12.1252
ᏄᏩᏁᎴ	-12.1252
▁ᏧᎾᎵᏂ	-12.1253
ᏴᏓᏆᎶᏍᎬ	-12.1253
ᏃᎯᎸᏍᏔ	-12.1254
▁ᏄᎵᏂᎬ	-12.1255
ᎦᏰᎬᏍᏔ	-12.1255
▁ᎤᏁᏟᏴ	-12.1255
ᏅᏍᎦᎸ	-12.1255
ᏨᏏᏰᏗ	-12.1255
▁ᎤᏗᎴᎲ	-12.1255
▁ᎤᎩᏨ	-12.1255
▁ᎤᏬᏪᎳᏅ	-12.1255
ᎵᏠᏯᏍᏕᏍᏗ	-12.1255
ᏆᏓᏅᏖᎸ	-12.1256
ᏗᎦᎶᏗ	-12.1257
ᏴᏓᏆᎶᏍᎩ	-12.1257
ᏩᏗᏎᎢ	-12.1257
▁ᎠᏩᏘᏍᎪ	-12.1257
ᏙᎴᏆᏍ	-12.1258
ᎯᎪᏩᏛ	-12.1258
ᏎᎦᏨ	-12.1258
ᏄᎯᏍᏗᏍᎬ	-12.1259
▁ᎤᎾᎳᏍᏓᎡ	-12.1259
▁ᏥᎧᏁ	-12.1259
▁ᏧᏃᏪᎳᏅ	-12.1259
▁ᏄᏂᏪ	-12.1259
ᏓᎾᏏᏂ	-12.1259
ᏂᏙᎴ	-12.1259
▁ᏓᎾᏕᏲᎲᏍ	-12.126
▁ᏧᏂᎷᏫᏍᏔᏁ	-12.126
▁ᏥᏃᎪ	-12.126
ᎵᏍᏙᏰᏗ	-12.126
▁ᎤᎵᏨᏓᏆ	-12.1261
ᎾᏂᎩᏒ	-12.1261
▁ᎠᎦᎫᏴᎡ	-12.1261
ᎵᏏᎲᏎ	-12.1261
▁ᏚᏅᏩᏅ	-12.1262
ᎦᏟᎮ	-12.1262
▁ᏚᎵᏦ	-12.1262
▁ᏧᎷᏫᏍᏔᏁ	-12.1262
ᏓᏴᎳᏔᏅ	-12.1262
▁ᎬᏩᏛᎦᏁᎸ	-12.1262
ᏗᎦᎶ	-12.1262
▁ᎤᎸᏓᎸᎥᏍ	-12.1263
▁ᎢᏳᏕᏘᏴ	-12.1263
ᏣᎵᏍᎪᎸᏓᏁᎸ	-12.1263
▁ᎭᏙᎴᎰ	-12.1264
ᏌᎺᎵ	-12.1264
▁ᏚᏃᏕ	-12.1264
▁ᎠᏂᏐᏢᎢᏍᏗᏍ	-12.1265
ᎬᎭᎸᏛ	-12.1265
ᎤᎵᎮᎵ	-12.1265
▁ᎭᎵᎮᎵ	-12.1266
ᎾᏕᎲᏍᎬ	-12.1266
▁ᎧᏁᎨ	-12.1266
▁ᎢᎧᏁᏨ	-12.1266
▁ᎬᏩᏂᏴᎲ	-12.1266
ᏬᏍᎩᎵ	-12.1266
ᎵᏍᏗᏰᏓᏁ	-12.1267
▁ᎠᎾᎦ	-12.1267
ᏬᏁᏗᏍᎨ	-12.1267
▁ᎢᏳᏛᏁ	-12.1267
▁ᎤᏘᏴ	-12.1267
▁ᏙᎩᎾᏍᎩᏓᏒ	-12.1268
ᎵᏃᎮᏗᏍᎬ	-12.1268
ᏑᎵᎪᏨᎩ	-12.1268
ᎵᏂᎪᎯᏍᏗ	-12.1268
ᏬᏥ	-12.1268
▁ᏙᏦ	-12.1269
ᎷᎯᏍᏔᏅ	-12.1269
ᏕᏯᏔᏁᎮ	-12.1269
▁ᏗᎦᎳᏫ	-12.1269
ᎠᎦᏛ	-12.127
▁ᏧᏆ	-12.1271
ᏂᏄᎪᏤᎢ	-12.1271
▁ᎬᏯᎵᏃᎮᏙᏗ	-12.1271
ᏫᏌᏅ	-12.1271
ᏗᎩᏯᏍᏗ	-12.1272
▁ᎾᏥᏪᏎ	-12.1272
ᏗᎴᎩ	-12.1272
ᏲᏤᎾ	-12.1272
ᏅᏧᎵᏍᏙᏔᏅ	-12.1273
ᎾᏄᎪᏥ	-12.1273
ᏰᏌᏛᎢ	-12.1273
▁ᏱᏕᏣᏓ	-12.1274
▁ᎢᏥᎩᎵᏲᎢᏍᏗ	-12.1274
ᎬᎭᎷᏯᏍ	-12.1274
ᏣᎢᏒ	-12.1274
▁ᎢᏯᎩᏪᏍᏗ	-12.1274
▁ᏚᏂᎧᏅ	-12.1275
ᎧᏍᎨᏂ	-12.1275
▁ᎻᏗᏂ	-12.1276
▁ᎥᎤ	-12.1276
▁ᎢᎯᏴᏁᏗ	-12.1276
ᏓᏅᏍᎨ	-12.1277
▁ᏗᎪᏑᎴᏗ	-12.1277
ᏭᏂ	-12.1278
ᏛᏓᏍᏓᏁᎮ	-12.1278
▁ᎤᎾᎵᏖᎸ	-12.1278
ᎷᏫᏍᏓᏁᏗ	-12.1278
▁ᎠᎵᏍᎦ	-12.1278
▁ᎣᎾᏫ	-12.1278
ᎾᏓᏑᏰ	-12.1278
▁ᏫᎨᏥᏯᏅ	-12.1278
▁ᏕᎬᏩᎳᏫ	-12.1278
▁ᏗᏣᎵᏂᎪᎯᏍᏙᏗ	-12.1279
▁ᎩᏯᏎ	-12.128
ᎷᏤᎢ	-12.128
ᏅᎵᏰᎥ	-12.128
▁ᎤᎵᏍᏇᏚ	-12.128
▁ᏅᏓᎬᏩᏓᎴ	-12.128
ᏕᎭᏲᎲ	-12.128
▁ᎠᎩᏍᏛᏗ	-12.1281
ᏍᏆᎾᎳᏗᏍᏗ	-12.1281
ᎦᎵᏍᏗᏍᎪᎢ	-12.1281
▁ᎢᏣᏓᏅᏔᏩᏕ	-12.1281
▁ᏚᏓᏓᎴ	-12.1281
ᎨᎳᏗ	-12.1281
ᏍᏓᏩᏕᏒᎭ	-12.1281
▁ᎡᎳᏆ	-12.1281
ᏪᎵᏎᎢ	-12.1281
▁ᎾᏯᏛᎡ	-12.1282
▁ᎥᏓᏗ	-12.1282
ᏬᎯᏤ	-12.1282
▁ᏫᏥᎷᏨ	-12.1282
ᎪᏪᎵᎯ	-12.1282
ᏂᏢᎩ	-12.1282
ᏣᏪᏐᎸᏍᏓ	-12.1283
▁ᏄᏂᎬᏫᏳ	-12.1283
▁ᏚᏬᏢᏔ	-12.1283
ᏍᏓᏲᏒ	-12.1283
▁ᏄᎬᏫ	-12.1283
ᎦᏕᎣᏍᎦ	-12.1284
▁ᎤᏒᎦᎸ	-12.1284
ᎴᏔᏅᎢ	-12.1285
ᏘᏅᏎ	-12.1285
ᏕᏘᏴᏌᏗᏒ	-12.1285
ᏯᏆ	-12.1285
▁ᎤᎵᏍᎪᎸᏔᏅ	-12.1286
▁ᏗᏣᏓᎴᏅ	-12.1286
▁ᎤᎾᏄᎪᏥ	-12.1286
ᏍᏕᎯ	-12.1286
ᏭᎷᏤᎢ	-12.1286
ᏍᏉᏂᎪᏗ	-12.1286
ᎷᎸᏗᏱ	-12.1287
ᏂᏙᎾᎡ	-12.1287
▁ᎤᏣᎴᏍ	-12.1287
▁ᎬᏆᏛᏁᏗ	-12.1288
ᏕᎵᏙ	-12.1288
ᏖᎸᏂᎸ	-12.1288
▁ᎡᏥᏙᎵᏍᏗ	-12.1288
▁ᎤᏍᎦᎸ	-12.1288
ᎦᎫᏴᏓᏁᏗ	-12.1288
ᏙᏣᏁ	-12.1288
▁ᏧᏪᏙᎵᏍᏗ	-12.1289
ᎦᏯᎷᎥᏍᎩ	-12.1289
ᎦᎵᏂᎪᎯ	-12.1289
▁ᎢᏧᏅᏁᏗ	-12.1289
▁ᎠᏆᎴᏂᏓᏍᏗ	-12.1289
ᎾᎥᏂ	-12.1289
ᏅᎵᏰᏗ	-12.129
▁ᎤᏬᏯᏁ	-12.129
▁ᎬᎩᏁᏉᏤ	-12.129
ᏥᎵᏦ	-12.129
▁ᎠᎫᎢᏍᏗᏍ	-12.1291
▁ᏙᏗᏍᎩᏯᏘ	-12.1291
▁ᏫᎨᏥᏲᎵ	-12.1291
ᏃᏍᎩᏒᎢ	-12.1291
▁ᏕᎭᏕᏲᎲᏍ	-12.1292
ᏔᎧᏅᎦ	-12.1292
▁ᎬᏬᎳᏕᏍ	-12.1292
ᏌᎳᏓᏁᎢ	-12.1292
▁ᏳᏣᏅ	-12.1292
▁ᏭᏔᎷ	-12.1293
ᎦᏪᎠ	-12.1293
▁ᎤᏂᏔᎳ	-12.1293
▁ᎠᏓᎾᏫᏗ	-12.1293
▁ᏕᏥᎧᎿᏩᏗ	-12.1293
ᏩᎯᏎᎸ	-12.1293
ᏍᏆᏗᏍᎬᎾ	-12.1293
ᎭᎷᏰ	-12.1294
▁ᏓᎭᏬᎢ	-12.1294
ᏣᎸᏫᏍᏓᏁᎮᏍᏗ	-12.1294
ᏍᏛᏗᏍᏔᏅ	-12.1294
▁ᎡᎻᏂᏓ	-12.1294
ᏥᏍᏓᏱᏕᎵ	-12.1294
▁ᎤᎦᎾᏏ	-12.1294
▁ᎢᏣᎢᏒ	-12.1294
▁ᏁᏓᏂ	-12.1294
▁ᏕᏣᏓᏘᎾ	-12.1294
ᏢᏆᏍᏙᏗ	-12.1295
ᏅᎫᏛᎢ	-12.1296
ᏟᏍᏕ	-12.1296
ᏞᏫᏒ	-12.1296
▁ᎯᏍᎫ	-12.1296
ᎳᏁᎸ	-12.1296
ᏈᎷ	-12.1296
ᏚᏫᏍᏛ	-12.1296
▁ᏕᏣᎧᎿᏩᏗᏙ	-12.1296
ᏯᏘᏅᏍᏔ	-12.1296
▁ᎠᏥᎤᏍᏕᏎᎸ	-12.1296
▁ᎢᏯᎩᏳᏍ	-12.1296
ᏚᏚ	-12.1297
▁ᎦᏕᎶ	-12.1297
ᎵᏓᎩᏛ	-12.1297
ᏔᏕᎩᏍᎨ	-12.1297
ᎾᏫᏛᎯ	-12.1297
ᏍᏓᏩᏕᎦ	-12.1297
ᏪᏐᎸᏍᏔ	-12.1297
▁ᏙᏓᏲ	-12.1298
ᏔᏍᎩᏍᎩ	-12.1298
▁ᏗᎦᏅᏍᎨ	-12.1298
▁ᏱᏗᏧᎪ	-12.1298
ᏛᏛᎲᎦ	-12.1298
▁ᏥᏕᎪᏪ	-12.1298
ᏢᏈᏍᏙᏗ	-12.1299
ᎢᏓᏙᎴᎰ	-12.1299
▁ᎠᏍᏆᏂᎪᎯ	-12.1299
ᏕᏯᏙᏔᏂ	-12.1299
hi	-12.1299
▁ᏚᏟᏂᏆ	-12.13
ᏴᏌᏗᏒ	-12.13
ape	-12.13
ᏓᎿᏍᏆᎶᏍᏗ	-12.13
ᏂᎦᏥᏯᏛᏁᎰ	-12.13
ᏍᎫᏆ	-12.13
▁ᎠᏩᏂᎦᎳ	-12.13
▁ᎤᎾᏙᎴᎨᏎ	-12.13
▁ᏂᏚᏬᏚ	-12.13
▁ᏗᎦᎦᏠᏱᎯ	-12.13
▁ᏚᎷᏆᏗᏅ	-12.13
▁ᏛᎩᏯᏅᎡᎴᏍᏗ	-12.13
▁ᏫᏰᏣᏓᎢ	-12.13
ᎢᏗᎬᏤᎵᏛ	-12.13
ᎤᎸᏕᎦ	-12.13
ᎦᎴᏯᏍᎪ	-12.13
ᎦᏌᏯᏍᏛᎾ	-12.13
ᎨᎪᏪᎶᏔᏅᎯ	-12.13
ᎩᎷᏫᏍᏔᏏ	-12.13
ᎭᎴᏫᏍᏔ	-12.13
ᎭᏓᎾᏫᏓ	-12.13
ᎳᏅᏓᏗᏏ	-12.13
ᎵᏂᎬᏁᎭ	-12.13
ᎵᏍᎫᎭᏴ	-12.13
ᎵᏍᏇᏔᏬ	-12.13
ᎵᏍᏕᎸᏙᏔᎾ	-12.13
ᎺᎵᎩᏌᏕᎩᏃ	-12.13
ᎾᏗᏔᎰᏅ	-12.13
ᎾᏙᎯᏳᎾᏁᏗ	-12.13
ᏂᏅᎦᎴᎰᏅ	-12.13
ᏂᏆᏘᎵ	-12.13
ᏂᏗᏥᏲᏕᏍᏗᏍᎬᎾ	-12.13
ᏃᎯᎵᏣᏁ	-12.13
ᏅᏔᏗᏘᏍᎬ	-12.13
ᏌᏆᏞ	-12.13
ᏍᏆᏂᎪᏎᎴ	-12.13
ᏑᏰᏍᎬ	-12.13
ᏓᎦᏕᎶᎣᏏ	-12.13
ᏓᏓᏏᎾᎲᏍᏙᏗ	-12.13
ᏓᏕᏘᏴᎮᎬ	-12.13
ᏔᏕᎦᏅᎩ	-12.13
ᏕᎦᎵᎩᎡᎮᎢ	-12.13
ᏖᎡᎯᏍᏗᏍᎨᎢ	-12.13
ᏙᏛᎪᏄᎶᏏ	-12.13
ᏚᏂᏍᏔᏲᎳ	-12.13
ᏣᎵᏂᎪᎯᏍᏔᏂ	-12.13
ᏥᏔᏲᎯᎭ	-12.13
ᏥᏥᏃᎯᏍᏓ	-12.13
ᏥᏮᏗᎦᎶᏏ	-12.13
ᏯᏓᏴᎡᎵ	-12.13
ᏲᎰᏎᎵ	-12.13
▁ᎠᎦᎫᏴᏓᏁᎮᏍᏗ	-12.13
▁ᎠᎦᎾᏬᏗᏍ	-12.13
▁ᎠᎦᏔᏔᏅᎥᏍᎩ	-12.13
▁ᎠᎧᏖᏃᎮ	-12.13
▁ᎠᎾᏁᎳᏗᏍᎪᎢ	-12.13
▁ᎠᎾᏁᏢᏔᏂᏒᎢ	-12.13
▁ᎠᏂᎧᏔᎲ	-12.13
▁ᎠᏂᎻᏗᏯᏂ	-12.13
▁ᎠᏂᏃᏔᏂᏙᎯ	-12.13
▁ᎠᏃᏢᏅᎥᏍᎬᎢ	-12.13
▁ᎠᏆᏓᏙᎵᏍᏔᏅ	-12.13
▁ᎠᏍᎪᏂᏗᏢ	-12.13
▁ᎠᏍᎫᏕᏍᎪᎢ	-12.13
▁ᎠᏒᎾᏘᎶᎥᎯ	-12.13
▁ᎠᏛᏒᎥᏍᎩ	-12.13
▁ᎠᏜᏩᏍᏗᏍᎨᏍᏗ	-12.13
▁ᎠᏯᏍᏜᏗᏍᎩ	-12.13
▁ᎡᎵᎣᏈᎦ	-12.13
▁ᎢᎤᏄᎪᏨ	-12.13
▁ᎢᎦᎤᏘᏍᏛ	-12.13
▁ᎢᏍᎩᏃᏁᎵᎸ	-12.13
▁ᎢᏍᎩᏌᏛᎥᏍᎦ	-12.13
▁ᎢᏍᏛᎨᏳᎢ	-12.13
▁ᎢᏣᏚᎸᏗᏱ	-12.13
▁ᎢᏣᏠᎾᏍᏛ	-12.13
▁ᎢᏥᎾᏝᎾᎥ	-12.13
▁ᎢᏨᏰᎳᏗᏙᎮᏍᏗ	-12.13
▁ᎢᏨᏰᏯᏔᏅᎢ	-12.13
▁ᎢᏯᏟᎶᎥᎯ	-12.13
▁ᎢᏰᏣᏛᏁᏗ	-12.13
▁ᎢᏲᏨᏴᏁᏗᏱ	-12.13
▁ᎣᎦᎵᏥᏙᏗᏱ	-12.13
▁ᎣᏁᏏᏉᎳ	-12.13
▁ᎤᎦᏎᏍᏕᎢ	-12.13
▁ᎤᎧᏲᏐᏅ	-12.13
▁ᎤᎩᎳᏫᏎ	-12.13
▁ᎤᎵᎩᏳᏍ	-12.13
▁ᎤᎵᏍᏔᏴᏃᏁᏍᏗ	-12.13
▁ᎤᎷᏦᏅᎯ	-12.13
▁ᎤᎾᎦᎰᏍᏔᏅ	-12.13
▁ᎤᏁᏧᏥᏛ	-12.13
▁ᎤᏂᎪᎯᏙᎸᎯ	-12.13
▁ᎤᏂᎪᏁᎶᎯᏌᏘ	-12.13
▁ᎤᏂᏍᏈᏍᏓ	-12.13
▁ᎤᏂᏐᏢᎢᏍᏔᏅ	-12.13
▁ᎤᏂᏔᎳᏬᏎᎢ	-12.13
▁ᎤᏃᎱᎦᏂᎸ	-12.13
▁ᎤᏐᏢᎢᏍᏔᏅ	-12.13
▁ᎤᏓᏑᏰᎢ	-12.13
▁ᎤᏓᏥᏃᎯᏍᏔᏅ	-12.13
▁ᎤᏓᏩᏗᏍᏛ	-12.13
▁ᎤᏚᏓᏛᏗᏱ	-12.13
▁ᎤᏟᏴᏍᎩᎸᎮ	-12.13
▁ᎤᏧᏈᏍᏙᏒᎯ	-12.13
▁ᎤᏪᏙᎵᎨᎢ	-12.13
▁ᎨᏣᏔᏲᏎ	-12.13
▁ᎨᏤᎳᏗᏙᎭ	-12.13
▁ᎨᏥᏐᏠᎸᎢ	-12.13
▁ᎬᏩᎦᏌᏯᏍᏕ	-12.13
▁ᎬᏩᏂᎾᏄᎪᏫᏎᎮᏍᏗ	-12.13
▁ᎬᏩᏂᏲᏥᏙᎸ	-12.13
▁ᎬᏩᏍᏓᏩᏙᎯ	-12.13
▁ᎭᏆᏥᏂ	-12.13
▁ᎭᏙᏯᏅᎯ	-12.13
▁ᎻᎱᏤᎵ	-12.13
▁ᎻᏏᎴᎻ	-12.13
▁ᎻᏚᏎᎵ	-12.13
▁ᏁᏣᏛᏁᏍᏗᏉ	-12.13
▁ᏂᎦᏅᎦᎸᎲᎾ	-12.13
▁ᏂᎦᏥᏪᏎᎭ	-12.13
▁ᏂᎬᏫᏍᏕ	-12.13
▁ᏂᏕᏣᏓᏛᏁᎮᏍᏗ	-12.13
▁ᏂᏗᏣᏓᏕᎵᏎᎲᎾ	-12.13
▁ᏂᏗᏣᏢᏫᏎᎲᎾ	-12.13
▁ᏂᏗᏥᏁᎲᎾ	-12.13
▁ᏂᏙᏣᎵᏍᏓᏁᎭ	-12.13
▁ᏄᎾᎵᎮᎵᏣᏛᎾ	-12.13
▁ᏄᏂᎷᎶᏤᎲᎾ	-12.13
▁ᏅᎤᏪᏎᎸᎩ	-12.13
▁ᏅᏋᏁᎵᏙᎸᎢ	-12.13
▁ᏅᏓᎦᏪᏏ	-12.13
▁ᏅᏓᏍᎩᏴᏁᎵ	-12.13
▁ᏅᏓᏳᎾᎵᏍᏓᏁᎵ	-12.13
▁ᏅᏓᏳᏍᏗᏗᏒᎩ	-12.13
▁ᏅᏛᏂᏙᎾᎢ	-12.13
▁ᏈᏗᏂᏱ	-12.13
▁ᏍᎩᏯᎵᎡᎵᏍ	-12.13
▁ᏍᎩᏯᏐᎥᎦ	-12.13
▁ᏍᏆᏕᎲᏏ	-12.13
▁ᏐᎵᎼᏅ	-12.13
▁ᏓᎦᎳᏐᏫᏏ	-12.13
▁ᏓᎧᎿᏩᏕᎨᏍᏗ	-12.13
▁ᏓᎨᎯᏛᏔᏂ	-12.13
▁ᏓᎩᏯᏪᏥᏙᎸ	-12.13
▁ᏓᎬᏁᏉᎢ	-12.13
▁ᏓᎬᏍᏓᏩᏗᏙᎵ	-12.13
▁ᏓᎾᏕᏒᎲᏍᎨᎢ	-12.13
▁ᏓᎾᏦᎭᏱᎮ	-12.13
▁ᏓᎿᏬᏍᎨ	-12.13
▁ᏓᏁᏙᎲᎩ	-12.13
▁ᏓᏂᏂᎩᎸ	-12.13
▁ᏓᏂᏥᏍᏔᎳᏍᎬ	-12.13
▁ᏓᏍᎩᏯᏠᏥ	-12.13
▁ᏓᏓᏘᏁᎲᎢ	-12.13
▁ᏓᏥᎴᏐᏂ	-12.13
▁ᏓᏥᏍᏔᏩᏕᏏ	-12.13
▁ᏓᏥᏔᏲᎵ	-12.13
▁ᏓᏨᏲᏎᎵ	-12.13
▁ᏓᏲᏍᏓᏁᎳᏗ	-12.13
▁ᏕᎤᎸᏫᏍᏓᏏ	-12.13
▁ᏕᎩᎾᏦᏒ	-12.13
▁ᏕᎬᏒᎲᏍᎬᎢ	-12.13
▁ᏕᎬᏩᏓᏂᎸᏨᎩ	-12.13
▁ᏕᎬᏯᎫᏴᏓᏁᎮᏍᏗ	-12.13
▁ᏕᎬᏯᏠᎢᏍᏓᏁᎸ	-12.13
▁ᏕᎭᏅᏓᏗᏍᏗᏍᎨᏍᏗ	-12.13
▁ᏕᎯᏯᏓᏂᎸᏨᎭ	-12.13
▁ᏕᏍᏗᏂᏴᎮᏍᏗ	-12.13
▁ᏕᏥᎦᎿᏩᏗᏒ	-12.13
▁ᏗᎦᎵᏯᏅᎯᏛ	-12.13
▁ᏗᎦᎷᏫᏍᏔᏅᏗ	-12.13
▁ᏗᎨᏥᏅᏍᏕᏎᎸᎯ	-12.13
▁ᏗᎩᎾᏓᏛᏙᏗ	-12.13
▁ᏗᎫᏩᎭᏄᏫ	-12.13
▁ᏗᎬᏩᏕᏲᏗ	-12.13
▁ᏗᏂᎳᏍᏓᎳᏩᏗᏒ	-12.13
▁ᏗᏓᏙᏕᎯᎯ	-12.13
▁ᏗᏗᏂᏃᎩᏍᎨᎢ	-12.13
▁ᏗᏴᎦᎴᏴᏓ	-12.13
▁ᏘᏰᎵᎯᏍᏓ	-12.13
▁ᏙᎦᏓᏲᎵᎸ	-12.13
▁ᏙᎵᏓᏍᏆ	-12.13
▁ᏙᏓᎦᏥᏯᏟᎶᏍᏔᏂ	-12.13
▁ᏙᏓᏦᎵᏍᏔᏂ	-12.13
▁ᏙᏘᏴᏔᏂᎵ	-12.13
▁ᏙᏛᎠᎴᎯᏌᏂ	-12.13
▁ᏚᎾᏁᎳᏗᏙᎴ	-12.13
▁ᏚᎾᏁᏍᏓᏝᎰᎢ	-12.13
▁ᏚᎾᏐᏓᎸ	-12.13
▁ᏚᎾᏗᏫᏍᏗᏍᎨ	-12.13
▁ᏚᎾᏦᎭᏱᎸ	-12.13
▁ᏚᏂᎷᏫᏍᏔᏁᎲ	-12.13
▁ᏚᏂᏄᏪᏒ	-12.13
▁ᏚᏌᏬᎴ	-12.13
▁ᏚᏍᏆᎸᏔᏅ	-12.13
▁ᏚᏟᎷᏆᏗᏅᏎ	-12.13
▁ᏚᏥᏍᏠᏨᎩ	-12.13
▁ᏚᏩᏅᎦᏢ	-12.13
▁ᏚᏮᎩᎶᎥᎩ	-12.13
▁ᏚᏯᏍᏜᏛ	-12.13
▁ᏛᎵᏰᎢᎸᏍᏓ	-12.13
▁ᏛᎾᎵᏛᏔᏂ	-12.13
▁ᏛᏋᏍᎦᎸᏂ	-12.13
▁ᏣᏥᏰᎸᎾᏁᎴᎢ	-12.13
▁ᏣᏦᏔᏍᏔᏅ	-12.13
▁ᏥᎦᎧᎰᎢ	-12.13
▁ᏥᎬᎩᎾᎸᏍᏔᏅᎩ	-12.13
▁ᏥᏁᏣᏛᎩᏍᎪᎢ	-12.13
▁ᏥᏂᏕᎯᏪᏎᎸᎩ	-12.13
▁ᏥᏂᏚᏩᏁᎸ	-12.13
▁ᏥᏍᎩᏯᏂᎩᏍᏓ	-12.13
▁ᏥᏓᏅᎿᏗᏍᏙᏗ	-12.13
▁ᏥᏓᏚᏫᏍᏗᎭ	-12.13
▁ᏥᏚᏣᏃᏛᎩ	-12.13
▁ᏥᏫᏗᎦᎸᏌᏓᏗᏍᎪᎢ	-12.13
▁ᏥᏫᏨᏲᏪᎳᏁ	-12.13
▁ᏥᏯᎵᏃᎮᏗᏍᎬᎢ	-12.13
▁ᏥᏯᏓᏁᏟᏴᏍᏓᏁᎸ	-12.13
▁ᏥᏯᏚᏣᎳᏅᎭ	-12.13
▁ᏦᎦᏓᏂᎸᎢᏍᏗᏱ	-12.13
▁ᏦᎩᏲᎱᎯᏍᏗᏱ	-12.13
▁ᏦᏣᎵᏥᏙᏁᏗᏱ	-12.13
▁ᏧᏃᏕᎯᎯ	-12.13
▁ᏧᏣᏬᏓ	-12.13
▁ᏨᏧᎶᏎᎢ	-12.13
▁ᏩᏂᎶᏒᎭ	-12.13
▁ᏩᏆᏘᏅᏍᏔᏅᎩ	-12.13
▁ᏫᎤᏪᏅ	-12.13
▁ᏫᎬᏩᏲᏥᏓᏍᏗ	-12.13
▁ᏫᏂᏚᏩᏁᎴ	-12.13
▁ᏫᏄᎾᏛᏁᎸᎩ	-12.13
▁ᏫᏙᏛᎾᎴᏔᏂ	-12.13
▁ᏫᏙᏛᎾᏓᎡᏏ	-12.13
▁ᏫᏙᏛᏂᏲᎯᏎᎵ	-12.13
▁ᏫᏚᎦᏔᎲᏍᏙᏗᏱ	-12.13
▁ᏫᏱᏣᎧᎲᎦ	-12.13
▁ᏭᏁᎳᏗᏓ	-12.13
▁ᏭᏁᏙᎸᎯ	-12.13
▁ᏭᏓᏬᎥᏍᏗ	-12.13
▁ᏭᏗᏍᎦᏝᏁ	-12.13
▁ᏭᏩᎾᏬ	-12.13
▁ᏭᏩᏯᎸᏥᎴ	-12.13
▁ᏮᏓᏳᏎᎮᎵ	-12.13
▁ᏮᏛᏂᎶᏏ	-12.13
▁ᏯᎩᎷᏤᎴᏍᏗ	-12.13
▁ᏯᎾᏓᏅᏍᎬᎾ	-12.13
▁ᏯᏂᏍᏙᎰᎢ	-12.13
▁ᏯᏕᏠᏆᏍᎦ	-12.13
▁ᏱᏁᏨᎾᏕᎨᏍᏗ	-12.13
▁ᏱᏍᎩᎦᏔᎮᎢ	-12.13
▁ᏱᏍᎩᏲᎢᏳᎲᏍᎦ	-12.13
▁ᏱᏍᎩᏲᎢᏳᏁᎢ	-12.13
▁ᏱᏍᏆᏓᏙᎵᏍᏓᏁᎸ	-12.13
▁ᏱᏓᏂᏍᏓᏩᎦᎦ	-12.13
▁ᏱᏕᏥᎤᏍᏕᏎᎸ	-12.13
▁ᏱᏚᏂᎿᏍᏕᏠᎢ	-12.13
▁ᏱᏣᏍᎦᏅᏤᏍᏗ	-12.13
▁ᏱᏥᎪᏁᎶᏍᎨᏍᏗ	-12.13
▁ᏱᏦᎯᏳᎭ	-12.13
▁ᏱᏦᎯᏳᏁᏍᏗ	-12.13
▁ᏳᎦᏌᏯᏍᏔᏁ	-12.13
▁ᏳᏂᏬᏂᏌ	-12.13
▁ᏴᎦᎬᏴᏕᎩ	-12.13
▁ᏴᎬᏚᏓᎴᏍᏓ	-12.13
▁ᎠᏥᏍᏛᏗᏍᏗᏍᎬᎢ	-12.13
▁ᎤᏄᎶᎸ	-12.13
▁ᏗᏅᏂᎦᎵᏍᏗ	-12.13
ᎦᏙᎴᎰᏍᎦ	-12.13
ᎩᏰᎳᏗᏙᎭ	-12.13
ᏂᎨᎯᏙᎵ	-12.13
ᏥᎦᏖᏃᎮᏍᏗ	-12.13
ᏩᏒᏙᎣᏎ	-12.13
ᏯᏙᎴᎣᎯ	-12.13
▁ᎠᎩᎪᏩᏘᏍᎩ	-12.13
▁ᎠᎵᏖᎸᏂᎮᎢ	-12.13
▁ᎠᏂᏫᏄᏣ	-12.13
▁ᎠᏂᏫᏅᎨᏌᏂ	-12.13
▁ᎠᏄᏖᏍᎨ	-12.13
▁ᎠᏅᏳᏤᎲ	-12.13
▁ᎠᏍᎪᎵᏰᏍᎨ	-12.13
▁ᎠᏍᎫᏕᏍᎩ	-12.13
▁ᎠᏓᏁᏤᎯ	-12.13
▁ᎠᏫᏒᎥᏍᎩ	-12.13
▁ᎡᎵᎡᏌ	-12.13
▁ᎡᏥᏔᏲᏎᎮᏍᏗ	-12.13
▁ᎢᎩᏲᎱᎯᏎᎸ	-12.13
▁ᎢᏍᎩᏍᎦᎦ	-12.13
▁ᎤᎦᏴᎳᏨ	-12.13
▁ᎤᏂᎦᏘᏕᎢ	-12.13
▁ᎤᏂᏩᏒᎥᏍᎩ	-12.13
▁ᎤᏍᏕᏅᏨ	-12.13
▁ᎤᏖᎸᏅ	-12.13
▁ᎥᏆᎨᏅᏛ	-12.13
▁ᎪᏱᏂᏓᏍᏗ	-12.13
▁ᎬᎾᏰᏍᎬ	-12.13
▁ᎬᏩᏕᎰᏔᏁᎢ	-12.13
▁ᎬᏲᎵᏍᏔᏅ	-12.13
▁ᎭᏓᏅᏗᏍᏗᏍᎨᏍᏗ	-12.13
▁ᏂᎦᏥᏯᏛᏁᎸᎩ	-12.13
▁ᏂᎻᎶᏗ	-12.13
▁ᏂᏓᎦᏛᏁᎵ	-12.13
▁ᏂᏙᏓᎬᏩ	-12.13
▁ᏂᏛᏅᏁᎵ	-12.13
▁ᏂᏤᎵᏍᎬᎾ	-12.13
▁ᏂᏥᏪᏍᎨᏍᏗ	-12.13
▁ᏅᏗᎦᎵᏍᏗᏙᏗᏍ	-12.13
▁ᏅᏧᏛᎿᏗᏎ	-12.13
▁ᏓᏂᏄᎪᏫᏍ	-12.13
▁ᏓᏳᎾᏚᎩᏒ	-12.13
▁ᏓᏳᏐᏅᏂ	-12.13
▁ᏕᎤᏬᎡᎢ	-12.13
▁ᏕᎨᎦᏓᏂᎸᏨ	-12.13
▁ᏕᏥᎦᏌᏬᎢᎲᎢ	-12.13
▁ᏕᏥᎳᏫᏦᎯᎲ	-12.13
▁ᏕᏥᏄᎪᏫᏍ	-12.13
▁ᏗᎨᏥᏐᏅᏅᎯ	-12.13
▁ᏗᎩᎾᏢᏗᏱ	-12.13
▁ᏚᎳᏑᏞ	-12.13
▁ᏚᎵᏖᎸᏁ	-12.13
▁ᏚᏂᎵᏰᏗᏍᎬ	-12.13
▁ᏚᏗᎦᎴᏯᏍᏔᏅ	-12.13
▁ᏛᎵᏍᏓᏴᏂ	-12.13
▁ᏛᏃᎵᏥ	-12.13
▁ᏣᏂᏙᎾᎠ	-12.13
▁ᏥᎿᏛᎦ	-12.13
▁ᏥᏕᎾᏦᎯ	-12.13
▁ᏥᏚᏱᎶᎴᎢ	-12.13
▁ᏧᏃᎸᏔᏂᏙᎰ	-12.13
▁ᏫᏗᏍᎩᏯᏘᏅᏍᏔᏅᎩ	-12.13
▁ᏮᎠᎦᏔᎲᏍᏓ	-12.13
▁ᏯᎩᏲᏏᎭ	-12.13
▁ᏯᏉᎯᏳᎮ	-12.13
▁ᏱᎦᎳᏍᏢ	-12.13
▁ᏱᏅᏧᎵᏍᏙᏔᏁ	-12.13
▁ᏱᏗᏥᏍᏆᏂᎪ	-12.13
▁ᏱᏪᏣᏓᎢᏅ	-12.13
▁ᏳᏂᏚᎬᎾ	-12.13
▁ᏳᏰᎵᏛᎾ	-12.13
▁ᏴᎬᏓᏛᎦ	-12.13
ᎨᎩᎩᎵᏲᎢᏍᏗᏍᎬᎩ	-12.13
ᎭᏄᏭ	-12.13
ᎳᏫᏎᎵ	-12.13
ᏍᏚᎢᎡᏗᏱ	-12.13
ᏓᎾᏇᏍᎬ	-12.13
ᏚᏔᎲᎢ	-12.13
ᏣᎬᏩᎳᏅᎯ	-12.13
ᏬᏁᏔᏂ	-12.13
ᏴᎧᏁᎵ	-12.13
ᏴᏍᏓᎩᏍᎩ	-12.13
▁ᎠᎦᏐᎠᏏᎯᎲ	-12.13
▁ᎠᎵᏒᎢᏍᏙᏗ	-12.13
▁ᎠᏅᏳᎬ	-12.13
▁ᎢᏥᏑᎵᎪᎢ	-12.13
▁ᎢᏨᎩᎵᏲᏤᎲ	-12.13
▁ᎤᎵᏍᎩᏃᏘᏍ	-12.13
▁ᎤᎾᏍᏕᏥ	-12.13
▁ᎥᏥᏯᏓᏙᎵᏍᏓᏁᎸᎩ	-12.13
▁ᎥᏥᏯᏛᎦᏁᎸᎩ	-12.13
▁ᎯᏯᎵᏍᎦᏍᏙ	-12.13
▁ᏐᏱᏁᎳ	-12.13
▁ᏕᎦᏓᏬᏍᏗᎭ	-12.13
▁ᏕᏣᏓᏡᏩᏗᏒ	-12.13
▁ᏗᎩᎧᏁᏴᏗᏱ	-12.13
▁ᏙᏨᏅᎢ	-12.13
▁ᏚᏛᏅᎢᏍᏓᏁᎸ	-12.13
▁ᏚᏟᎶᏍᏔᏁᎴ	-12.13
▁ᏛᎾᏓᏅᏓᏗ	-12.13
▁ᏧᎾᎵᏂᎦᏂ	-12.13
▁ᏧᏂᎾᏦᏴᏍᏗ	-12.13
▁ᏧᏄᎪᏨ	-12.13
▁ᏧᏚᎪᏙᏗ	-12.13
▁ᏩᏐᏝ	-12.13
▁ᏫᏂᏚᏅ	-12.13
▁ᏫᏓᏂᏅᎨᎢ	-12.13
▁ᏫᏥᎾᏄᎪᎢᏍᏗᏱ	-12.13
▁ᏭᏓᎩᏅᏒ	-12.13
▁ᏭᏬᎯᎶ	-12.13
▁ᏱᎨᎵᏍᎨ	-12.13
▁ᏳᎬᏫᏳᎭ	-12.13
ᎠᏆᏘᏂᏙ	-12.13
ᏐᏢᎢᏍᏔᏁᎢ	-12.13
ᏕᎭᏓᏟᏴᎲ	-12.13
ᏗᏍᎦᏅᎨᏍᏗ	-12.13
ᏚᎾᏓᏩᏛᏔᏁᎢ	-12.13
▁Ch	-12.13
▁ᎠᎩᎵᏲᎦ	-12.13
▁ᎠᎩᏂᏰᎸ	-12.13
▁ᎠᎵᏍᏛᏧᏍᏗ	-12.13
▁ᎠᎵᏘᏍᎪᎢ	-12.13
▁ᎠᏆᏂᎩᏍᏗᏱ	-12.13
▁ᎠᏓᎿᏍᏆᎶᏍᏗᏍᎩ	-12.13
▁ᎢᎠᏥᏩᏛᎲᏃ	-12.13
▁ᎢᎡᏥᎪᎵᏰ	-12.13
▁ᎣᎦᏢᏆᏒ	-12.13
▁ᎤᎧᏲᏐᏁ	-12.13
▁ᎤᎾᏰᏒᎯ	-12.13
▁ᎤᏂᏲᎸᎢᏍᏔᏅ	-12.13
▁ᎤᏍᏘᏰᏅᎯ	-12.13
▁ᎬᏩᎦᏘᏗᏍᎩ	-12.13
▁ᎭᏇᏅᏍᏗ	-12.13
▁ᎯᎨᏳᎢ	-12.13
▁ᏂᏓᎵᏍᏗᎭ	-12.13
▁ᏂᏚᎳᏍᎬᎢ	-12.13
▁ᏂᏚᎾᏓᏁᎶᏛᎾ	-12.13
▁ᏃᏣᏛᏁᎲ	-12.13
▁ᏕᎨᎦᎴᏗ	-12.13
▁ᏕᏥᏲᏍᎨᏍᏗ	-12.13
▁ᏙᏓᏨᏲᎯᏎᎵ	-12.13
▁ᏣᎶᏅᎮᎭ	-12.13
▁ᏥᏚᏭᏓ	-12.13
▁ᏥᏣᏣᎠ	-12.13
▁ᏦᏪᎳᏅᎩ	-12.13
▁ᏧᏂᏄᎪᏨ	-12.13
▁ᏩᏍᏖᏍᏗ	-12.13
▁ᏯᎪᏩᏘᏍᎨᎢ	-12.13
▁ᏲᏍᏗᎦᏔᎭ	-12.13
▁ᏳᏂᎷᏤᎮ	-12.13
▁ᏳᏩᎨᏫ	-12.13
▁ᎤᎬᏍᏉᎡ	-12.13
ᎧᏙᏴ	-12.13
ᎨᏥᎤᏍᏕᏎᎴᎢ	-12.13
ᎨᏦᏎᎰ	-12.13
ᏁᎶᎲᏍᎩ	-12.13
ᏚᏣᎪᏎ	-12.13
ᏩᏍᎦᎸᏁᎢ	-12.13
ᏫᏚᏘᏅᏍᏔᏅᎩ	-12.13
ᏬᏁᏗᏍᎩ	-12.13
▁ᎠᎾᏓᏛᏍᎬᎢ	-12.13
▁ᎡᏣᏛᏓᏍᏓᏏ	-12.13
▁ᎦᎴᏫᏍᏗ	-12.13
▁ᎬᏇᏅᏍᏗ	-12.13
▁ᎭᏓᏳᎦ	-12.13
▁ᏓᎦᏁᏐ	-12.13
▁ᏕᎦᏃᏣᏢ	-12.13
▁ᏕᎨᎫᎪᏓᏁ	-12.13
▁ᏗᎦᎶᏐᎲᏍᎩ	-12.13
▁ᏗᏍᏇᏲᎲᏍᎩ	-12.13
▁ᏙᎩᏯᏪᏥᏙ	-12.13
▁ᏙᏓᎦᏥᏳᎪᏓᏁᎵ	-12.13
▁ᏚᏂᏍᏆᎸᏔ	-12.13
▁ᏣᏁᏉᎥᎯ	-12.13
▁ᏣᏓᎦᏌ	-12.13
▁ᏥᏂᏓᎦᏔᎰᎢ	-12.13
▁ᏥᏂᏚᏪᏎᎴᎢ	-12.13
▁ᏳᎨᏅᏛ	-12.13
ᎩᏰᏲᏗ	-12.13
ᏂᏒᎳᏍᎨ	-12.13
▁ᎠᏆᏘᏂᏙᎲᎩ	-12.13
▁ᎠᏓᏬᏍᎬ	-12.13
▁ᎠᏓᏴᏍᏕᏍᎩ	-12.13
▁ᎠᏠᏄᎮᏛ	-12.13
▁ᎢᎨᏣᎵᏍᏓᏁᏗ	-12.13
▁ᎣᏂᏏᎹ	-12.13
▁ᎣᏣᏁᏦᎥᏍ	-12.13
▁ᏂᏣᏓᎨᏒ	-12.13
▁ᏓᏇᎷᎬ	-12.13
▁ᏕᎦᏟᎶᏍᏗᏍᎬ	-12.13
▁ᏧᎦᏔᏘ	-12.13
▁ᏧᏂᏨᏍᏙᏗ	-12.13
▁ᏧᏙᎨᏍᎩ	-12.13
▁ᏫᏥᎧᏅᎯ	-12.13
▁ᏱᎫᏩᏂ	-12.13
ᎭᏓᎾᏫᏗᏍ	-12.13
ᏓᎩᎧᎿᏩᏗᏙᎸ	-12.13
▁Po	-12.13
▁ᎠᏂᏫᏒᎥᏍᎩ	-12.13
▁ᎤᏁᏐᎠᎯᏍᏗ	-12.13
▁ᎤᏪᏩᏒᎢᏍᏗ	-12.13
▁ᎨᏥᏍᎦᏂ	-12.13
▁ᎪᏎᎰ	-12.13
▁ᎯᏂᏌᏉ	-12.13
▁ᏂᎨᎵᏍᎪ	-12.13
▁ᏓᎾᎵᏃᎮᎵᏙᎲ	-12.13
▁ᏓᏂᎶᏒᎭ	-12.13
▁ᏓᏥᎵᏬᏥ	-12.13
▁ᏕᏓᏦᏍᎬᎢ	-12.13
▁ᏗᏂᎳᏫᏦᎯᎯ	-12.13
▁ᏚᎾᏘᏔ	-12.13
▁ᏚᏔᏪᏙᏁ	-12.13
▁ᏛᎡᏥ	-12.13
▁ᏣᏰᎸᏎᏍᏗ	-12.13
▁ᏥᎬᏲᏎᎸᎩ	-12.13
▁ᎤᏓᏁᎪᏳᎲ	-12.13
▁ᏓᎬᏯᏎᎮᎵ	-12.13
ᏓᎿᏫ	-12.13
ᏗᏚᎳᏫᎢᏍᏗᏱ	-12.13
ᏚᎾᏄᏩᎡ	-12.13
ᏣᎴᏫᏍᏗᏍᎬ	-12.13
ᏯᏠᎩᏉ	-12.13
▁ᎠᎩᏯᎣᏅ	-12.13
▁ᎠᎾᏙᏂᏍᎩ	-12.13
▁ᎠᏉᏛᎸᎯ	-12.13
▁ᎬᏕᏘᏱᎩ	-12.13
▁ᏂᏨᏯᏛᏁᎸ	-12.13
▁ᏍᏆᏂᏏᎲᏏ	-12.13
▁ᏧᏂᏂᏴᏓ	-12.13
ᎦᏒᎳᏍᎪ	-12.13
ᎩᏁᏟᏴᏏ	-12.13
ᎬᏯᎵᎮᎵᏤᎭ	-12.13
ᏑᎴᏍᎪ	-12.13
ᏚᎦᎴᏅᏔᏁ	-12.13
ᏬᏎᎵ	-12.13
▁ᎠᎩᏲᎮ	-12.13
▁ᎬᏩᎵᏠᏯᏍᏗ	-12.13
▁ᏅᏗᎦᏍᏙᏗᏍᎨ	-12.13
▁ᏕᏣᏓᎦᎵᏍᏓᏗᏍ	-12.13
▁ᏤᏧᎪᏓᏁ	-12.13
▁ᏥᏂᏥᏪᏍᎬᎩ	-12.13
▁ᏱᏗᏦᎯᏳ	-12.13
▁ᎡᏧᎢᏍᏗ	-12.13
▁ᎣᎦᏕᏗᏱ	-12.13
▁ᎤᎦᎶᎬ	-12.13
▁ᎤᏂᏃᏴᎵᏓ	-12.13
▁ᎦᎳᏍᏢ	-12.13
▁ᏕᏛᏁᏍᏗ	-12.13
▁ᏫᎦᏓᎥ	-12.13
▁ᏫᏥᎶᏒᎩ	-12.13
den	-12.13
ᏁᎷᎩᎡᎸ	-12.13
ᏓᏓᏚᎪᏓᏁᎲ	-12.13
ᏙᏧᏄᎪᏫᏎᎢ	-12.13
▁Pri	-12.13
▁ᎠᎾᏍᎩᏓᏒᎥᏍ	-12.13
▁ᎠᏲᏓᏒ	-12.13
▁ᎪᎯᏳᎲᏍᎬ	-12.13
▁ᏅᏗᎠᏥᏪᏎ	-12.13
▁ᏌᏬᏛ	-12.13
▁ᏓᏤᏲᏂ	-12.13
▁ᏘᎻᎾ	-12.13
▁ᏧᏍᏚᎢᎡᎸᎯ	-12.13
▁ᎣᏍᏗᏴᎩ	-12.13
▁ᎬᏇᎸ	-12.13
▁ᎺᎠ	-12.13
▁ᏂᎬᎩᏲᎸᎾ	-12.13
▁ᏥᎯᏃᏁᎵ	-12.13
▁ᏦᏌᏯ	-12.13
▁ᏫᏙᏓᎨ	-12.13
▁ᏰᏣᏛᏓ	-12.13
ᎠᎦᏍᎦᏃ	-12.13
▁ᎡᏥᏩᏛᎲᎭ	-12.13
▁ᎤᏄᏓᎴᏍᎩ	-12.13
▁ᎤᏕᎯᏴ	-12.13
▁ᎫᎭᏟ	-12.13
▁ᏥᏕᎨᏥ	-12.13
▁ᏧᏍᏕᎸᏛ	-12.13
ᎦᎾᏬᏒ	-12.13
▁ᎠᏂᏴᏍᏗᏍᎩ	-12.13
▁ᎠᏥᏓᎦᎸᎢᏒᎯ	-12.13
▁ᏚᏁᏲᏁ	-12.13
▁ᏚᏰᏍᏛ	-12.13
▁ᏥᎬᏩᏂᏛᏔᏁ	-12.13
▁ᏥᏙᏣᏠᎯ	-12.13
▁ᏧᏐᏱᎭ	-12.13
▁ᏫᏱᏣᏴ	-12.13
▁ᎠᎾᎵᏖᎸᎲᏍᎬ	-12.13
▁ᏗᎦᎷᏥᏒ	-12.13
ᏓᏡᏫᏍᏕᎢ	-12.13
ᏗᏫᏎᎸᎩ	-12.13
▁ᎠᏆᏂᏏᏗᏱ	-12.13
▁ᎠᏌᏱᎵ	-12.13
▁ᎠᏑᏯᎩᏛ	-12.13
▁ᎠᏣᎩᏍᎩ	-12.13
▁ᎡᏐᏏ	-12.13
▁ᎤᎦᎾᏅ	-12.13
▁ᎤᎵᏍᎩᏃᎳ	-12.13
▁ᎧᏁᎮᏛ	-12.13
▁ᏧᎨᏅᏛ	-12.13
▁ᏧᏎᎪᎩᏍᏗᏱ	-12.13
▁ᏫᎾᏴᎯ	-12.13
▁ᏯᏗᏔᏍᎨ	-12.13
▁ᏱᏂᎦᏪᎭ	-12.13
▁ᎤᏍᎩᏅᏕ	-12.13
▁ᏕᏥᎦᏅᎩ	-12.13
▁ᏚᏂᎳᏫᏛ	-12.13
▁ᏚᏒᎦᎸᎩ	-12.13
▁ᏥᏂᏌᏅᎩ	-12.13
▁ᏱᏨᏃᏁᎴᎢ	-12.13
▁ᎠᏆᏍᎪᏒᎯ	-12.13
▁ᎦᏄᏓᎴᎩ	-12.13
▁ᎬᏯᏛᎦᏁᎸ	-12.13
▁ᎭᏛᏅᎭ	-12.13
▁ᏗᏓᎢᏒᎢ	-12.13
▁ᏙᏛᏂᏴᎳᏏ	-12.13
▁ᏫᎫᏩᏂᎶᎯᏍᏗ	-12.13
▁ᎢᏣᏢᏆᏍᎬ	-12.13
▁ᎤᏐᏓᎸ	-12.13
▁ᎤᏗᏍᏚᏅ	-12.13
▁ᎤᏣᏃᏛᎩ	-12.13
▁ᏙᏓᏲᎩᎸᏫᏍᏓᏁ	-12.13
▁ᏚᎾᏗᏍᏚ	-12.13
▁ᏥᏂᏕᎤ	-12.13
▁ᏥᏛᏦ	-12.13
▁ᏱᎫᏩᎾ	-12.13
▁ᏉᏗᏆ	-12.13
▁ᏧᎵᏯᏏ	-12.13
ᏣᎵᎮᎵᎪᎢ	-12.13
ᏥᏍᏝ	-12.13
▁ᎠᎪᏩᏘᏍᎨᎢ	-12.13
▁ᎠᎵᏍᏔᏴᎲᏍᎨ	-12.13
▁ᎠᏂᎯᏲᎲᎢ	-12.13
▁ᎣᎦᏛᏅᎢᏍᏓᏁᎸ	-12.13
▁ᎦᏃᎴᏍᎬ	-12.13
▁ᎦᏲᎩᏂ	-12.13
▁ᏙᏗᏂᎧᏁᎢ	-12.13
▁ᏚᏓᎴᏅᏔᏅ	-12.13
▁ᏥᏂᏨᏪᏏ	-12.13
▁ᏩᏕᏗᏱ	-12.13
▁ᏫᎬᏩᏘᏅᏍᏔᏅᎩ	-12.13
▁ᏱᏂᎦᏔᎮ	-12.13
▁ᏳᎬᏩ	-12.13
ᏜᏅᏓᏕ	-12.13
▁ᎢᏣᎵᏥᏙᎲᏍᎨᏍᏗ	-12.13
▁ᎢᏳᏅᏂᏐᏗᏱ	-12.13
▁ᎬᏩᎩᏨᏗ	-12.13
▁ᎬᏬᏱ	-12.13
▁ᏚᎵᏥᏍ	-12.13
▁ᏱᏗᏓᏓᏂᎸᎦ	-12.13
▁ᎠᏌᎻᏛ	-12.13
▁ᎠᏍᏚᏟᏍᎩ	-12.13
▁ᎾᏆᎵᏍᏓᏁᎵᏙᎲᎢ	-12.13
▁ᏟᏍᏆ	-12.13
▁ᏩᏓᏬᏣ	-12.13
▁ᏭᏟᏫᏛ	-12.13
ᏁᎢᏍᏓᏁᎲᎩ	-12.13
ᏏᏄᏴ	-12.13
▁ᎢᎦᏠᏯᏍᏔᏅ	-12.13
▁ᎢᎨᎬᎾᏕᎩ	-12.13
▁ᎤᏃᎱᏲᎵ	-12.13
▁ᏄᏚᏪᏎᎸᎩ	-12.13
▁ᏚᎾᏓᏟᏴᎲ	-12.13
▁ᏳᏚᏓᎴᏍᏔᏁ	-12.13
ᎵᏛᏗᏍᎬᎾ	-12.13
▁ᎤᎦᏎᏍᏗᏕ	-12.13
▁ᏙᏓᏣᏠᏏ	-12.13
▁ᏛᏥᎸᏉᏔᏂ	-12.13
▁ᏥᏕᎯᎾᏄᎪᏫᏎᎸ	-12.13
▁ᏳᎦᏙᎥᏎᎢ	-12.13
▁ᎤᏂᏍᏔᏩᏛ	-12.13
▁ᎤᏍᎫᏓᏛᎢ	-12.13
▁ᏕᎬᏩᎾᏍᏗᏍᎨᎢ	-12.13
▁ᏫᏄᏪᏒᎩ	-12.13
ᏍᏔᏩᏗᏎ	-12.13
▁ᎡᏍᏗᏍᏓᏩᏕᏒᎭ	-12.13
▁ᎢᏣᏛᎩᏍᎩ	-12.13
▁ᎤᎸᏉᏔᏅᎯ	-12.13
▁ᎤᏅᏩᏅᎩ	-12.13
▁ᎧᏴᏌᏛ	-12.13
▁ᎬᏩᏓᏡᏫᏍᏔᏁᎢ	-12.13
▁ᏕᎩᎾᏓᎨᏳᏒᎢ	-12.13
▁ᏗᏥᎾᏌ	-12.13
ᏚᎵᏥᏙᏁᎴ	-12.13
▁ᏏᏂᎹᏂ	-12.13
▁ᏓᏂᎪᏩᏗᏍᎨ	-12.13
▁ᏚᎩᎸᏨ	-12.13
▁ᏥᏚᎸᏫᏍᏓᏁᎸ	-12.13
▁ᏯᎩᏲᎱᏒ	-12.13
▁ᏯᏆᎴᏂᏙᎸ	-12.13
ᏐᏯᎦ	-12.13
▁ᎠᎱᏃᎲ	-12.13
▁ᎤᏴᏜ	-12.13
▁ᏕᎦᎦᏎᏍ	-12.13
▁ᏕᎰᏢᏔᏅᎭ	-12.13
▁ᏚᏪᏌᏍᏔᏁ	-12.13
▁ᏧᎵᏃᎯᏴᎯ	-12.13
▁ᏨᎩᏅᏒ	-12.13
▁ᏱᎨᎨᎭ	-12.13
▁ᎠᎦᏎᏍᏙᏗ	-12.13
▁ᎠᏗᏅᏗᏉ	-12.13
▁ᎬᏉᎯᏳᎲᏍᎩ	-12.13
▁ᏂᏪᏒᎭ	-12.13
▁ᏕᎪᏪᎵᏍ	-12.13
▁ᏚᏴᏒᎩ	-12.13
▁ᏰᏥᎦᏔᎮ	-12.13
▁ᎠᎾᏠᎾᏍᏗᏍᎬ	-12.13
▁ᎠᏂᏅᏜᎡᎢ	-12.13
▁ᎠᏨᏏᏰᏍᎨ	-12.13
▁ᎥᎶᏱ	-12.13
▁ᏍᎪᏂᏴ	-12.13
▁ᏖᏲᎲᏍᎩ	-12.13
▁ᏥᎦᎶᏒᏍᏗᎭ	-12.13
ᏧᎾᏄᎪᏨ	-12.13
▁ᎠᏣᎾᏉᎯ	-12.13
▁ᏗᏔᎸᎢ	-12.13
▁ᏥᏂᏕᏣᏛᏁ	-12.13
ᏁᏉᎡᎵ	-12.13
ᏥᎦᎿᏩᏗᏙ	-12.13
▁ᎠᏃᏚᎢᏍᏗᏍᎬ	-12.13
▁ᏦᎩᏂᎸᏫᏍᏓᏁᎯ	-12.13
▁ᏧᏪᏚᏁᎯ	-12.13
▁ᎤᏁᎳᏗᏙᎲ	-12.13
▁ᏓᏥᏲᎤᏏ	-12.13
▁ᏕᎨᏥᏂᏌᎲ	-12.13
▁ᏙᏥᏴᎬ	-12.13
▁ᏯᏍᎦᎦ	-12.13
ᏲᎢᎱᎯ	-12.13
▁ᎹᏓᏯᏃ	-12.13
▁ᎺᎮ	-12.13
▁ᏓᏰᏥᏄᎪᏫᏏ	-12.13
ᎨᏲᎲᏍᎦ	-12.13
ᏓᏛᏳᏤ	-12.13
▁ᎦᎬᏩᏂᏐᏢ	-12.13
▁ᏙᎩᏲᏐᏅ	-12.13
▁ᏚᏂᏲᎱᏎᎢ	-12.13
▁ᏳᎯᏐᏓᏁ	-12.13
ᏓᎵᏁᎯᏗᏍ	-12.13
▁ᎤᏁᏌᏴ	-12.13
▁ᏘᏔᎴ	-12.13
▁ᏥᎡᏥ	-12.13
▁ᎤᎵᏃᎮᏔᏁ	-12.13
▁ᏧᎪᎵᏰᏗᏱ	-12.13
ᏟᎶᏍᏓᏁᎭ	-12.13
▁ᏣᎦᎵᏍᏓᏴᎾᏁᏗᏱ	-12.13
▁ᏱᏂᏣᏍᏕᏍᏗ	-12.13
▁ᏱᏗᏥᏬᏂᎭ	-12.13
▁ᏚᏗᏔᏍᏔᏅ	-12.13
▁ᏯᏂᏏᎾ	-12.13
ᎩᎾᏄᎪᏥᎸᎩ	-12.13
▁ᏓᏗᏍᏆᏂᎪᏔᏂ	-12.13
▁ᏗᎩᎷᏫᏍᏔᏁᏗ	-12.13
▁ᏫᏗᎦᏅᎪ	-12.13
▁ᏄᏙᎯᏳᏒ	-12.13
▁ᎤᏂᎿᎸᏨ	-12.13
▁ᎲᏁᏍᏗ	-12.13
▁ᏓᏥᏔᏲᏎᎵ	-12.13
▁ᏥᏕᏥᏙᎦ	-12.13
▁ᎠᎩᎵᏴ	-12.13
ᏄᏲᎢᏯ	-12.13
▁ᎤᎩᎵᏲᏤᎢ	-12.13
▁ᏂᎨᎬᏁᎲᎢ	-12.13
▁ᏓᎬᏩᏍᎪᏂᎵ	-12.13
▁ᏧᏃᏴᎪ	-12.13
▁ᏬᎩᏴᎸ	-12.13
▁ᏓᎦᏎᎵ	-12.13
ps	-12.13
▁ᏂᎨᎬᏁᎮ	-12.13
▁ᏂᎬᏅᎪᏪᎳ	-12.13
▁ᏗᎬᏩᎾᏓᏁᏟᏴᎡᏗ	-12.13
▁ᏧᏴᏣ	-12.13
▁ᏮᏓᏥᎷᏤᎵ	-12.13
▁ᎠᎫᎷᏤᏗ	-12.13
▁ᎠᏣᏅᏙᏗ	-12.13
▁ᏓᏢᎥᏍᎬ	-12.13
▁ᏱᏙᎸᏫᏍᏓᏁᎭ	-12.13
ᎵᏃᎮᏗᏍᎨᎢ	-12.13
ᏔᎸᎩᏍᏗ	-12.13
▁ᎠᏔᎸᎦᏒ	-12.13
▁ᎤᏪᏩᏒᏤ	-12.13
▁ᎭᏓᏬᏣ	-12.13
▁ᏓᎾᏓᏱᎵᏙᎲ	-12.13
▁ᏥᎾᏰᏍᎦᏰᏃ	-12.13
ᏌᎳᏙᏓ	-12.13
ᎯᏲᎯᏍᏓ	-12.13
▁ᎠᏆᏘᏂ	-12.13
▁ᎢᎭᏛᏁᎯ	-12.13
▁ᏕᎨᎦᏨᏍᏔ	-12.13
▁ᎤᎬᎭᏓ	-12.13
▁ᏕᏨᏯᏬᏍᏗᎭ	-12.13
▁ᏗᏂᎧᏅᎢ	-12.13
▁ᏩᏆᏗᏅᏒ	-12.13
▁ᏫᏯᏴᎯᎮᏍᏗ	-12.13
ᎨᏣᎫᏴᏏ	-12.13
▁ᎢᏳᏩᏓᏗ	-12.13
▁ᏅᏓᎬᏩᏪᏎᎵ	-12.13
▁ᏗᎨᏥᏴᎩᏅᎯ	-12.13
▁ᏙᏓᎦᏘᏃᎵ	-12.13
▁ᏭᎾᎵᏃᎮ	-12.13
▁ᎢᏓᏓᏅᏓᏓ	-12.13
▁ᎧᎹᎹ	-12.13
▁ᎨᏣᏕᏯᏙᏗᏍᎩ	-12.13
▁ᏂᏚᏁᎶᏛᎾ	-12.13
▁ᏓᎬᎾᏄᎪᏫᏎᎵ	-12.13
▁ᏗᏤᎵᏛ	-12.13
▁ᏳᏁᏤᎢ	-12.13
ᏘᏁᏏ	-12.13
ᏧᏘᏍᏓᏁᏗᏱ	-12.13
▁ᏙᏗᏫᏒᎢ	-12.13
ᏊᎪᏓᏁᎸ	-12.13
▁ᏅᏓᏣᏄᎪᏫᏒᎯ	-12.13
▁ᏥᎧᏃᎮᏍ	-12.13
▁ᏱᏂᎦᏪᏍᎨ	-12.13
▁ᎤᏴᏍᏕᏍᎩ	-12.13
▁ᏚᏯᏅᎡᎴᎢ	-12.13
▁ᏳᏣᎩᏒᎾ	-12.13
▁ᏱᏓᏲᎩᏍᏆᏂᎪᏔᏂ	-12.13
▁ᎠᎦᏠᏯᏍᏔᏅᎩ	-12.13
▁ᎣᏣᎵᏍᏔᏴᎲᏍᎬ	-12.13
▁ᏄᏍᏆᎸᎲᎾ	-12.13
▁ᏦᏥᏚᎩ	-12.13
ᎨᏬᏗ	-12.13
ᏠᏒᏒᎩ	-12.13
ᏯᏕᎥᏏ	-12.13
▁ᎦᏄᏲᎯ	-12.13
▁ᎩᏃᎯᏳᏅ	-12.13
▁ᏫᏘᏯᏅ	-12.13
▁ᏱᏚᏪᎵᏎ	-12.13
▁ᏱᏩᎦᏓᎢᏅ	-12.13
ᎦᏙᏌᏗᏍᏛ	-12.13
ᏁᎩᏰᏍᏗ	-12.13
▁ᎠᏄᏖᏍᎬ	-12.13
▁ᏃᎦᏠᎾᏍᏛᎾ	-12.13
▁ᎠᏥᏁᎢᏍᏔᏅ	-12.13
▁ᎴᎠᎹ	-12.13
▁ᏓᏓᏌᎳᏗᏍ	-12.13
▁ᏙᎩᎸᏫᏍᏓᏁᎸ	-12.13
▁ᏧᏪᎵᏏᏯ	-12.13
▁ᎷᏏᏯ	-12.13
▁ᏥᏯᏛᎦᏁᎸᎢ	-12.13
▁ᏳᏩᏂᏍᏔᏅ	-12.13
ᏆᏦᎥ	-12.13
▁ᎤᎵᏍᎫᏪ	-12.13
▁ᏘᏍᏆᏂᎪᏓᏁᏗᏱ	-12.13
▁ᏲᎩᏂᎭ	-12.13
▁ᎬᏩᎵᏍᏚ	-12.13
▁ᏕᎬᎦᏆ	-12.13
▁ᏕᏣᏓᏙᎯᏳ	-12.13
▁ᏦᎦᏓᏅᏙ	-12.13
ᎧᎾᏬᎨ	-12.13
ᏴᎩᏅᎯ	-12.13
▁ᏅᏓᏨᏰ	-12.13
▁ᏗᏍᏛᏗᏍᏗᏍᎩ	-12.13
▁ᏚᎧᎿᏩᏗᏙᎲᎢ	-12.13
▁ᏯᎩᏍᏛᏓ	-12.13
ᏥᏂᎬᏎᎲ	-12.13
▁ᏗᎫᏢᏔᏅᎯ	-12.13
▁ᏗᏂᏅᏍᎨᏂ	-12.13
ᎾᏰᏏ	-12.13
▁ᏚᏅᏂᎦᎸᎲᎩ	-12.13
▁ᏯᏆᏘᏝ	-12.13
▁ᏴᏛᏂᎶᏐᏂ	-12.13
ᎵᎪᏁᎲᎾ	-12.13
▁ᎿᏛᏁᎮᏍᏗ	-12.13
▁ᎠᎾᏓᏎᎪᎩᏍᎬᎩ	-12.13
▁ᎤᏓᏴᎳᏔᏁ	-12.13
▁ᎤᏲᏞᏒᎢ	-12.13
▁ᎤᏦᎢᏎᏗ	-12.1301
ᎩᎧᎿᏩᏗᏙᎰᎢ	-12.1301
▁ᏓᏆᏓᏘᎾᎥ	-12.1301
▁ᏌᎨᎢᏳ	-12.1301
▁ᏥᎦᎶᎨᏎᎢ	-12.1301
ᏂᎭᎷᎥᏍ	-12.1301
▁ᏚᎿᎸᏤ	-12.1301
▁ᏱᎬᏩᏲᎱᏎ	-12.1301
▁ᏗᎾᎦᎴᏅᏗᏍᎩ	-12.1301
▁ᏚᏭᏓᎴᏒ	-12.1301
ᎬᏩᎳᏁ	-12.1301
ᎾᎵᏍᎪᎸᏗᏍᎨᎢ	-12.1301
ᏨᏏᏰᏍᎬ	-12.1301
▁ᎤᏓᏅᏓᏛᎢ	-12.1301
▁ᏗᏠᏗ	-12.1301
▁ᏠᏗᏯ	-12.1301
▁ᎠᏘᏍᏙᏗ	-12.1301
▁ᎤᏂᏁᏉᏨᎯ	-12.1301
▁ᎤᏅᏓᏒ	-12.1301
▁ᎻᏈᏌ	-12.1301
▁ᎢᏣᏅᏨ	-12.1301
▁ᏱᏅᎬᏛᎦ	-12.1301
▁ᎤᏂᏄᎯ	-12.1301
▁ᏃᏥᏪᎭ	-12.1301
▁ᏅᏓᏳᎾᏨ	-12.1301
▁ᏗᏦᏑᎵ	-12.1301
▁ᏚᎾᏓᏠᎲ	-12.1301
▁ᏥᏕᎦᎶᏄᎮ	-12.1301
▁ᏭᎳᎩᏎ	-12.1301
▁ᏂᏚᎸᏫᏍᏓᏁ	-12.1301
▁ᏧᏓᎴᎾᎢ	-12.1301
▁ᎬᏛᏍᎨᏍᏗ	-12.1301
▁ᎿᎵᏍᏓ	-12.1301
▁ᏂᎦᎵᏍᏘᏍᎬ	-12.1301
▁ᏓᎧᏂᏍᎬᎢ	-12.1301
▁ᎠᎾᏔᏍᎩ	-12.1301
ᏄᎶᎴᎢ	-12.1301
▁ᎢᏓᎵᏍᏓᏴᏗᏍᎬᎢ	-12.1301
▁ᎯᏁᎨᏍᏗ	-12.1301
▁ᏚᏰᎸᏒ	-12.1301
ᏓᏳᏓᎴᏅᎯ	-12.1301
▁ᏕᎨᏥᏲᎯᏏ	-12.1301
ᏓᏟᏃᎮᏗᏍᎨ	-12.1301
▁ᎠᏂᏬᏂᏍᎪ	-12.1301
ᏣᏪᎢᏍᏔ	-12.1301
▁ᎡᎾᎢᏓᏍᏗᏱ	-12.1301
▁ᏱᏅᎦᎦᏛᎦ	-12.1301
▁ᏧᏟᎷᏆ	-12.1301
▁ᏭᏓᏬᎡ	-12.1301
ᏤᏬᏤ	-12.1301
▁ᎤᎾᎦᏎᏍᏕᎢ	-12.1301
ᏁᏢᏗᎭ	-12.1301
▁ᎤᏂᏍᏆᏂᎪᏕ	-12.1301
▁ᏳᏙᎯᏳᎲᎾ	-12.1301
▁ᎠᏓᏁᏣᏍ	-12.1301
▁ᎥᎩᏴᎩᏅᎯ	-12.1301
ᎦᏗᏙᎯ	-12.1301
▁ᏅᏓᏳᏪᏅ	-12.1301
▁ᏙᏛᏕᏯᏙᏔᏂ	-12.1301
▁ᎠᎾᏙᎩᏯᏍ	-12.1301
ᏙᏑᎴᎥᎩ	-12.1301
▁ᏓᎫᎪᏓᏁ	-12.1301
▁ᏥᏨᏲᏪᎳᏁᎭ	-12.1301
▁ᏦᎩᎸᏫᏍᏓᏁᎸᎯ	-12.1301
▁ᏗᎬᏅᏃᏛ	-12.1301
▁ᏓᎦᏥᏄᎪᏫᏏ	-12.1301
▁ᏕᎬᏩᏂᏂᏴ	-12.1301
▁ᏕᎬᏩᏲᏒ	-12.1301
ᎯᏎᎵ	-12.1301
▁ᎤᏅᎨᏫᏒ	-12.1301
▁ᎧᏳᎦ	-12.1301
▁ᎠᏂᏲᎯᎮᏍᏗ	-12.1301
▁ᎤᏓᏠᏍᏕᎢ	-12.1301
▁ᏓᏂᎾᏄᎪᏫᏍᎪᎢ	-12.1301
ᏓᏚᏓᏔ	-12.1301
▁ᎤᏩᏓᎷᎦ	-12.1301
▁ᏂᏄᎾ	-12.1301
▁ᏅᏗᎬᏩ	-12.1301
ᏃᏨᏁᎭ	-12.1301
▁ᎢᎯᎩᎵᏲ	-12.1301
▁ᎤᏂᏁᎩᎸᏗ	-12.1301
▁ᏳᎾᏓᏅᏔ	-12.1301
▁ᏕᎯᏍᏓᏩᏗᏎᏍᏗ	-12.1301
▁ᏗᏓᏱᎵᏓᏍᏗᏱ	-12.1301
▁ᎤᏯᎣᎢ	-12.1301
▁ᎤᏱᎸᏒᎩ	-12.1301
▁ᎤᎵᏍᎦᏰᎬᏍᏔᏁᎢ	-12.1301
[...]
