<unk>	0
<s>	0
</s>	0
,	-2.70448
▁the	-2.96417
▁and	-3.31041
.	-3.38803
▁of	-3.6442
▁to	-4.15265
▁that	-4.30853
▁in	-4.34943
▁And	-4.38665
▁he	-4.45858
▁a	-4.46949
▁I	-4.56557
;	-4.70678
:	-4.75765
▁unto	-4.76395
s	-4.77578
▁him	-4.85715
▁his	-4.86444
▁be	-4.93645
▁is	-4.94821
▁for	-4.97879
▁they	-5.00366
▁not	-5.00821
▁shal	-5.01432
▁it	-5.03823
▁was	-5.0613
l	-5.06162
▁with	-5.10265
▁them	-5.13344
▁said	-5.20083
▁	-5.23814
▁all	-5.40185
▁you	-5.40817
ing	-5.42399
ed	-5.4401
▁God	-5.46808
▁ye	-5.52894
▁as	-5.56757
▁me	-5.58225
’	-5.60767
▁from	-5.61944
▁thou	-5.62389
▁my	-5.69392
?	-5.71798
▁but	-5.74729
▁have	-5.75517
▁are	-5.76864
t	-5.76903
▁on	-5.77037
▁were	-5.77291
▁Lord	-5.80956
▁had	-5.81677
▁which	-5.8204
▁when	-5.82237
▁“	-5.87233
▁their	-5.87552
▁man	-5.92017
▁one	-5.93852
▁out	-5.94664
▁this	-5.9589
▁will	-5.96694
▁we	-5.97387
▁up	-6.01313
▁by	-6.02226
▁into	-6.03015
▁thy	-6.03901
▁The	-6.05566
▁thee	-6.06833
▁But	-6.11863
▁there	-6.13373
▁came	-6.1564
▁Jesus	-6.16847
▁who	-6.1686
▁her	-6.19945
▁at	-6.22571
▁things	-6.24756
▁also	-6.27804
▁upon	-6.29842
▁your	-6.31937
d	-6.32124
▁us	-6.33832
▁For	-6.34764
▁no	-6.35137
▁come	-6.36251
▁she	-6.41818
▁if	-6.43075
▁hath	-6.43904
▁do	-6.45667
▁He	-6.50553
▁made	-6.51949
▁an	-6.55454
▁went	-6.55656
▁day	-6.58105
▁down	-6.59902
▁saying	-6.60273
▁so	-6.60764
▁our	-6.62475
▁even	-6.63061
▁say	-6.63197
▁men	-6.63839
▁people	-6.64534
▁before	-6.64995
▁or	-6.68317
▁these	-6.69641
▁may	-6.69781
▁Christ	-6.7089
▁go	-6.72377
-	-6.72663
▁what	-6.73576
eth	-6.74892
'	-6.76346
ly	-6.77634
▁did	-6.77719
▁after	-6.79403
▁know	-6.79739
▁make	-6.799
▁every	-6.81366
▁let	-6.81571
▁through	-6.8357
▁Wilbur	-6.85593
▁son	-6.86872
▁land	-6.87077
cause	-6.87346
▁therefore	-6.87407
▁would	-6.87564
▁then	-6.88661
▁away	-6.88976
▁good	-6.90501
▁children	-6.90818
▁hand	-6.92934
▁over	-6.93014
▁about	-6.94659
▁Moses	-6.9577
”	-6.96541
▁two	-6.96905
▁called	-6.97286
▁am	-6.97744
▁earth	-6.9784
▁house	-6.99841
▁should	-7.00042
th	-7.02394
▁any	-7.02599
▁father	-7.03152
▁name	-7.03276
▁great	-7.03803
y	-7.04585
▁put	-7.0482
▁now	-7.04933
▁like	-7.06076
▁days	-7.07831
▁against	-7.08443
▁whom	-7.08821
▁saw	-7.08981
▁been	-7.09807
▁where	-7.10039
▁heard	-7.10787
▁saith	-7.10974
e	-7.11562
▁more	-7.11974
▁see	-7.13679
▁many	-7.1393
▁took	-7.15704
▁give	-7.15916
▁pass	-7.18389
▁Israel	-7.18466
▁Now	-7.19572
▁forth	-7.20036
▁time	-7.2017
▁life	-7.2062
▁take	-7.20946
▁again	-7.21638
▁brethren	-7.22077
▁another	-7.22845
▁heaven	-7.23348
▁himself	-7.26202
st	-7.27232
▁word	-7.27696
▁might	-7.2843
▁way	-7.28875
▁world	-7.2891
▁sons	-7.29791
▁Then	-7.3063
▁first	-7.30872
▁own	-7.31256
▁behold	-7.32066
▁other	-7.32084
▁how	-7.32109
se	-7.33092
.”	-7.33995
!	-7.34473
▁among	-7.34585
▁brought	-7.36246
▁law	-7.36627
▁Father	-7.36669
▁little	-7.37957
▁place	-7.39748
▁some	-7.40559
▁could	-7.41416
▁eat	-7.41772
▁than	-7.42763
▁old	-7.43239
▁back	-7.43281
▁Jacob	-7.43705
▁Egypt	-7.4508
▁sent	-7.4509
▁accord	-7.45569
▁years	-7.4582
▁Spirit	-7.46477
▁brother	-7.46948
f	-7.47286
▁Pharaoh	-7.47418
▁love	-7.48777
▁gave	-7.48856
▁disciples	-7.49915
▁cast	-7.50242
▁Abraham	-7.50784
▁water	-7.51129
▁faith	-7.51254
▁Mr	-7.51372
▁found	-7.51757
▁set	-7.52097
▁wife	-7.52268
▁voice	-7.52412
▁They	-7.5265
▁A	-7.52846
▁O	-7.52932
▁yet	-7.53107
▁It	-7.53839
▁under	-7.54265
▁glory	-7.54324
▁dead	-7.55285
▁hast	-7.56286
▁having	-7.56314
▁Charlotte	-7.56357
?”	-7.56398
!”	-7.56431
▁being	-7.56648
▁done	-7.57398
▁answered	-7.57446
▁spake	-7.57875
▁Joseph	-7.58401
▁bring	-7.58501
▁together	-7.59463
▁night	-7.59768
▁heart	-7.60061
▁city	-7.62721
▁Son	-7.63306
m	-7.63402
▁eyes	-7.64594
r	-7.64791
▁work	-7.65955
▁neither	-7.66077
▁only	-7.66267
▁both	-7.66526
▁speak	-7.66579
▁three	-7.66649
▁flesh	-7.67223
▁When	-7.67262
▁What	-7.67944
▁can	-7.68203
▁thereof	-7.68414
▁nor	-7.68467
▁same	-7.68989
▁fire	-7.69014
▁given	-7.69028
▁much	-7.69067
▁without	-7.69171
I	-7.69439
▁right	-7.70623
▁seven	-7.70645
▁Thi	-7.71318
▁left	-7.71945
▁blood	-7.71953
▁hear	-7.7274
▁face	-7.72945
▁LORD	-7.73772
▁thing	-7.73959
▁asked	-7.74005
▁long	-7.74049
▁off	-7.75352
▁evil	-7.7627
▁words	-7.76352
est	-7.76854
▁art	-7.76902
▁head	-7.77483
▁well	-7.7779
▁hands	-7.78191
▁sat	-7.78209
▁death	-7.7947
▁So	-7.7965
▁kingdom	-7.80124
▁Thou	-7.81444
▁Jews	-7.82242
▁th	-7.82714
▁mother	-7.82787
▁while	-7.82788
▁nothing	-7.84146
▁unti	-7.84146
▁bear	-7.84255
▁light	-7.84667
very	-7.85395
▁stood	-7.86216
▁ever	-7.88305
▁themselves	-7.89034
▁Paul	-7.8904
▁gold	-7.89741
▁lay	-7.90321
▁Let	-7.90536
▁keep	-7.90963
ose	-7.91051
▁Zuckerman	-7.91089
▁sea	-7.91092
▁side	-7.91902
▁Behold	-7.91947
▁Fern	-7.92719
soever	-7.92854
▁s	-7.9349
▁looked	-7.93692
er	-7.93934
▁Jerusalem	-7.94182
▁Peter	-7.94182
▁seen	-7.94338
▁Ye	-7.94823
▁sin	-7.95082
▁thine	-7.95722
▁cometh	-7.96171
▁Be	-7.96217
▁woman	-7.96475
▁certain	-7.9648
▁ground	-7.96483
▁end	-7.97018
▁chief	-7.97247
▁She	-7.97333
▁body	-7.97397
▁We	-7.97775
▁knew	-7.98029
▁In	-7.98153
▁fear	-7.98207
▁just	-7.98501
▁power	-7.98755
▁feet	-7.98816
▁morning	-7.98816
▁such	-7.9882
n	-7.99773
▁pig	-8.00344
▁tree	-8.00376
▁hundred	-8.01139
▁sheep	-8.01219
▁holy	-8.01223
▁whole	-8.01295
▁bread	-8.01934
▁Aaron	-8.02029
▁began	-8.02048
▁must	-8.02856
▁John	-8.03675
▁servant	-8.03699
▁receive	-8.04228
▁multitude	-8.04509
▁told	-8.04561
a	-8.04681
▁toward	-8.04934
▁written	-8.05349
▁die	-8.06229
▁There	-8.06476
▁seed	-8.06521
▁peace	-8.06726
▁going	-8.07029
▁here	-8.07265
▁servants	-8.07936
▁believe	-8.08418
▁new	-8.08761
▁live	-8.09096
▁works	-8.09191
▁truth	-8.09663
ll	-8.10268
▁fell	-8.10562
▁spirit	-8.10591
re	-8.10608
▁grace	-8.11439
▁high	-8.12253
▁S	-8.12315
▁witness	-8.12321
▁get	-8.12336
▁mouth	-8.12337
▁four	-8.13149
▁tabernacle	-8.13276
▁concern	-8.14195
▁each	-8.15092
▁coming	-8.15117
▁near	-8.16025
▁Isaac	-8.16026
▁commanded	-8.16142
▁pray	-8.16994
▁find	-8.17813
▁Charley	-8.17921
▁five	-8.17937
▁web	-8.18027
▁tell	-8.18517
▁still	-8.18884
▁spoken	-8.18894
▁become	-8.18903
▁hour	-8.18968
▁white	-8.19057
—	-8.19136
▁part	-8.19268
een	-8.19348
▁F	-8.19681
▁sight	-8.1987
▁laid	-8.20914
▁received	-8.2108
▁though	-8.21576
▁child	-8.21816
▁round	-8.21846
▁mine	-8.22828
▁betw	-8.22834
▁seek	-8.23018
▁Who	-8.23831
▁altar	-8.23834
▁manner	-8.23835
▁never	-8.23843
▁full	-8.24786
▁temple	-8.24937
▁walk	-8.25024
▁river	-8.25027
▁drink	-8.25311
▁stand	-8.26369
▁send	-8.26934
▁righteousness	-8.26941
▁field	-8.27113
▁think	-8.2855
ther	-8.28588
▁Holy	-8.29056
▁around	-8.29088
▁died	-8.29305
▁king	-8.29319
▁save	-8.29935
▁stone	-8.30232
▁daughter	-8.3037
▁living	-8.31206
▁Wherefore	-8.3121
▁Arable	-8.31431
▁angel	-8.31522
▁cried	-8.32306
▁cause	-8.32488
▁door	-8.32622
▁judgment	-8.33664
▁priest	-8.33704
▁enter	-8.34017
▁gospel	-8.3454
▁taken	-8.34652
▁known	-8.34709
▁young	-8.3573
▁mind	-8.36403
▁mercy	-8.36826
▁Gentiles	-8.36831
▁blessed	-8.36998
▁C	-8.37167
▁few	-8.37948
▁All	-8.38172
▁ask	-8.38326
▁bare	-8.39052
▁kill	-8.39313
▁look	-8.3982
▁hold	-8.39913
▁rest	-8.39973
▁hard	-8.40347
▁money	-8.40355
▁opened	-8.4053
▁believed	-8.40615
▁lord	-8.40691
▁second	-8.41564
▁gone	-8.41576
▁Templeton	-8.41597
▁un	-8.41632
▁hope	-8.42626
▁Pharisees	-8.42898
▁call	-8.43322
▁show	-8.43508
▁My	-8.44111
▁entered	-8.44476
▁Esau	-8.4653
▁last	-8.46533
▁don	-8.4675
▁gathered	-8.46751
ter	-8.475
▁daughters	-8.47514
▁Go	-8.47729
▁born	-8.47742
▁twelve	-8.47812
▁wise	-8.47819
ce	-8.47907
▁able	-8.48199
▁walked	-8.48336
▁got	-8.48364
▁minister	-8.48651
▁third	-8.49111
▁always	-8.49117
▁lest	-8.49117
▁none	-8.49135
▁delivered	-8.49376
▁sake	-8.49583
▁dwell	-8.49814
▁As	-8.4997
▁too	-8.50266
▁righteous	-8.5028
▁yourselves	-8.50426
▁country	-8.50432
▁cannot	-8.50433
▁sure	-8.50438
▁became	-8.50446
▁raised	-8.50501
▁Avery	-8.50541
▁whe	-8.50934
▁prophets	-8.51125
▁above	-8.5176
▁barn	-8.51761
▁followed	-8.52073
▁You	-8.52185
▁beast	-8.5231
▁thought	-8.52697
▁priests	-8.52763
▁mount	-8.53115
▁judge	-8.53263
▁offering	-8.53854
▁cattle	-8.54481
▁angels	-8.55536
▁women	-8.55868
▁food	-8.5587
▁looking	-8.56407
▁fruit	-8.56415
▁year	-8.56619
▁joy	-8.57271
▁half	-8.57278
▁true	-8.57279
▁midst	-8.57325
▁How	-8.57426
▁soul	-8.5788
▁fine	-8.58634
▁indeed	-8.58718
▁anything	-8.58734
▁To	-8.58795
▁most	-8.58814
▁filled	-8.58821
▁elders	-8.58846
▁wood	-8.59435
▁serve	-8.59871
▁covenant	-8.60156
▁remember	-8.60156
▁ten	-8.61028
▁fall	-8.61049
▁small	-8.61589
▁dark	-8.61606
▁Simon	-8.61627
▁silver	-8.61629
▁Every	-8.61676
▁Egyptians	-8.61798
es	-8.62494
▁sun	-8.62607
▁ran	-8.63165
▁sins	-8.63271
▁returned	-8.63325
▁church	-8.64616
▁Smith	-8.64634
▁sabbath	-8.64635
▁Lurvy	-8.64647
▁lived	-8.64964
rose	-8.65154
▁waters	-8.65278
ness	-8.65318
▁fathers	-8.65766
▁fish	-8.66129
▁strong	-8.66175
▁thousand	-8.66874
▁myself	-8.67757
▁turned	-8.68142
▁prophet	-8.68485
▁kept	-8.69323
▁alone	-8.69326
▁darkness	-8.69341
▁Why	-8.69408
▁far	-8.6941
▁One	-8.69429
▁That	-8.69484
▁sign	-8.70853
▁home	-8.70933
▁why	-8.70952
▁ready	-8.70984
▁ears	-8.71478
▁feast	-8.71625
▁turn	-8.71707
▁sleep	-8.72005
▁eternal	-8.72575
en	-8.72685
▁didn	-8.72829
▁saved	-8.72877
▁spider	-8.73387
▁big	-8.74235
▁straightway	-8.74246
▁others	-8.74329
▁along	-8.7433
▁departed	-8.7443
▁rat	-8.75846
▁wilderness	-8.75937
▁wisdom	-8.75937
▁Abram	-8.75937
▁ark	-8.75967
▁whatsoever	-8.76211
▁passed	-8.76239
▁seeing	-8.76476
▁loved	-8.76708
▁need	-8.7744
▁something	-8.77662
▁except	-8.77663
▁better	-8.77664
▁till	-8.77669
▁wine	-8.77669
▁within	-8.78084
ve	-8.78111
ers	-8.78514
▁wind	-8.78563
▁commandment	-8.78575
gat	-8.78688
You	-8.78857
▁seem	-8.79337
▁linen	-8.79428
out	-8.79568
us	-8.7992
▁nations	-8.80081
▁its	-8.80153
▁standing	-8.80172
▁leave	-8.8032
▁follow	-8.80335
▁write	-8.80714
▁T	-8.80925
▁beginning	-8.81201
▁sitting	-8.81207
▁saints	-8.81209
erily	-8.81213
▁His	-8.81254
▁appeared	-8.8138
▁goose	-8.81502
▁mountains	-8.81863
▁reason	-8.82482
▁top	-8.82923
▁deep	-8.82956
▁present	-8.83019
▁fulfilled	-8.8302
▁knowledge	-8.83035
▁Come	-8.83076
▁scribes	-8.83151
▁ought	-8.83166
an	-8.83257
▁air	-8.83468
▁tent	-8.84402
▁David	-8.84871
▁Laban	-8.84871
▁authority	-8.84871
▁rather	-8.84875
▁thyself	-8.84878
▁Bless	-8.84879
▁wilt	-8.84883
▁sh	-8.85257
▁cut	-8.85476
▁husband	-8.85881
▁meet	-8.8631
▁wrath	-8.86758
▁behind	-8.86758
▁pure	-8.86766
▁yea	-8.87603
▁want	-8.87651
If	-8.87676
▁destroy	-8.88214
▁Chap	-8.88678
▁afraid	-8.88681
▁congregation	-8.88681
▁baptized	-8.88708
▁foot	-8.88754
▁generations	-8.89247
▁leaves	-8.89594
▁kind	-8.89624
▁throne	-8.89769
▁help	-8.90398
▁visit	-8.90637
hall	-8.90691
▁apostles	-8.90934
▁master	-8.91818
▁sick	-8.92614
▁Canaan	-8.92626
▁bound	-8.92638
▁next	-8.92642
▁Galilee	-8.92642
▁replied	-8.92644
▁try	-8.92666
▁wherein	-8.92709
▁cup	-8.92803
▁soldiers	-8.92824
▁garments	-8.9306
▁teaching	-8.93065
or	-8.93092
▁E	-8.931
▁watch	-8.93207
▁woods	-8.93696
▁boy	-8.93846
▁friend	-8.93855
▁p	-8.94122
▁deliver	-8.94259
le	-8.94443
▁deal	-8.94679
▁sockets	-8.94694
▁Take	-8.94719
▁worthy	-8.94744
▁beloved	-8.94825
▁therein	-8.94865
▁bed	-8.95122
▁boys	-8.95536
▁thence	-8.95642
▁knoweth	-8.95671
▁hair	-8.95796
▁preach	-8.95978
▁meat	-8.96044
▁arose	-8.96259
▁six	-8.96333
▁f	-8.96396
▁knowing	-8.96409
▁has	-8.96424
▁nigh	-8.96472
▁twenty	-8.96768
▁salvation	-8.96771
▁Noah	-8.96771
▁rain	-8.96773
▁thus	-8.9682
▁held	-8.96916
▁fast	-8.97565
▁signs	-8.97856
▁suffer	-8.98008
▁At	-8.98095
▁teach	-8.98271
▁eye	-8.98392
▁blind	-8.98399
▁smell	-8.98416
▁clean	-8.98675
▁M	-8.98714
▁curtain	-8.98893
▁testimony	-8.98893
▁straw	-8.98894
▁everything	-8.98897
▁blue	-8.98897
▁firstborn	-8.98898
▁Bear	-8.98915
▁sit	-8.98993
▁free	-8.99005
▁soon	-8.99017
▁cubits	-8.99248
▁desire	-8.99264
p	-8.99863
▁hearts	-9.00109
▁honor	-9.01058
▁Pilate	-9.01067
▁enough	-9.01068
▁Therefore	-9.01092
▁lifted	-9.01312
▁once	-9.01588
▁demons	-9.01596
▁Indians	-9.01597
▁perfect	-9.02328
▁nation	-9.02452
▁doeth	-9.0255
What	-9.02734
▁Do	-9.02897
▁No	-9.02986
▁abide	-9.03195
▁Rachel	-9.03289
▁Even	-9.03292
▁bega	-9.03317
▁By	-9.0354
▁forty	-9.03767
▁Jud	-9.03839
▁red	-9.03877
drew	-9.03901
▁sacrifice	-9.04514
▁P	-9.04539
▁court	-9.04669
▁sister	-9.04677
▁cloud	-9.04684
▁named	-9.047
▁table	-9.04721
▁mountain	-9.04727
▁answer	-9.05023
▁alive	-9.05564
▁Judah	-9.05568
▁camp	-9.05577
▁moved	-9.0575
▁greater	-9.05831
▁evening	-9.05936
▁dream	-9.06034
al	-9.06176
ous	-9.06688
▁matter	-9.0702
▁month	-9.07045
▁verily	-9.07888
▁Mary	-9.07893
▁broken	-9.07905
able	-9.07931
▁lie	-9.08177
▁Yea	-9.08928
▁sound	-9.08961
▁promise	-9.09201
▁Where	-9.09239
▁boat	-9.09384
cross	-9.09716
S	-9.09837
▁gather	-9.09854
▁ate	-9.10098
▁book	-9.10264
▁After	-9.10269
▁dwelt	-9.10269
▁enemies	-9.10269
▁faithful	-9.10286
▁Of	-9.10775
▁mighty	-9.10813
▁prison	-9.11705
▁tongue	-9.1187
▁kings	-9.12167
▁wait	-9.12278
▁multitudes	-9.12707
▁presence	-9.12708
▁taught	-9.12708
▁grew	-9.12712
▁carried	-9.12715
▁since	-9.12738
▁sold	-9.12744
▁hanging	-9.12888
▁almo	-9.12917
▁led	-9.1299
▁preached	-9.13208
▁cross	-9.13286
▁start	-9.13317
ies	-9.13492
It	-9.13496
less	-9.13738
▁walking	-9.13782
▁journey	-9.13834
▁synagogue	-9.14358
▁rock	-9.14367
as	-9.1468
▁worship	-9.14797
▁lo	-9.15132
▁purple	-9.15208
▁Sarah	-9.15208
▁felt	-9.15208
▁hearken	-9.15208
▁sweet	-9.15209
▁thirty	-9.15244
▁oil	-9.15338
sought	-9.16197
▁times	-9.16267
▁war	-9.16509
▁goeth	-9.16518
▁re	-9.16648
▁crate	-9.16774
▁point	-9.16873
▁understand	-9.17191
▁stones	-9.1721
▁rich	-9.17232
▁please	-9.17608
▁eight	-9.17732
▁loud	-9.17732
▁resurrection	-9.17772
▁least	-9.17772
▁trees	-9.17882
▁early	-9.17882
▁burnt	-9.18034
ion	-9.18393
▁measure	-9.18491
▁sword	-9.19454
▁fellow	-9.19463
▁egg	-9.19552
▁offer	-9.19702
▁Herod	-9.20402
▁Littlefish	-9.20403
▁ourselves	-9.20403
▁branches	-9.2041
▁neck	-9.2047
▁warm	-9.205
▁brass	-9.20573
▁rings	-9.20708
▁vain	-9.20814
▁blessing	-9.20875
▁speaketh	-9.20941
▁killed	-9.2135
▁souls	-9.21983
in	-9.22102
▁service	-9.22115
on	-9.22272
▁ear	-9.22368
▁N	-9.2247
fore	-9.23061
▁wives	-9.23106
▁else	-9.23107
▁herself	-9.23115
▁younger	-9.23212
▁arise	-9.23253
▁rulers	-9.23642
ment	-9.2369
▁boards	-9.23816
▁See	-9.23857
▁B	-9.24293
▁bless	-9.24979
▁prayer	-9.25132
▁continue	-9.25809
▁strength	-9.25863
▁fifty	-9.25884
▁beyond	-9.25884
▁milk	-9.25884
▁lead	-9.25908
▁morrow	-9.26005
▁healed	-9.26068
▁open	-9.27566
body	-9.27916
▁generation	-9.27927
▁names	-9.27993
▁On	-9.2819
▁manifest	-9.28323
▁false	-9.28605
▁Thu	-9.28679
▁scarlet	-9.28741
▁apart	-9.28741
▁quit	-9.28742
▁Teacher	-9.28743
▁James	-9.28743
▁spread	-9.28766
▁fled	-9.28773
▁judged	-9.29189
▁number	-9.3025
▁black	-9.30288
▁gift	-9.30834
▁read	-9.3106
▁smoke	-9.31477
▁rejoice	-9.31487
▁poor	-9.31537
▁buried	-9.31682
▁grey	-9.31682
▁wrought	-9.31683
▁dry	-9.31695
▁already	-9.31702
▁soil	-9.31724
▁front	-9.31742
▁abideth	-9.31808
▁age	-9.31811
▁appointed	-9.31815
▁Lot	-9.31902
▁pillars	-9.32228
▁horses	-9.32262
▁pieces	-9.32423
▁means	-9.32429
▁friends	-9.32916
▁break	-9.33151
▁build	-9.33807
▁order	-9.33821
▁apple	-9.33843
▁speaking	-9.34065
Well	-9.34145
▁weak	-9.34176
▁houses	-9.34213
▁pen	-9.34226
▁crown	-9.34259
▁return	-9.34294
▁low	-9.34387
▁Satan	-9.34713
▁making	-9.34713
▁Leah	-9.34713
▁Fair	-9.34714
▁Nation	-9.34722
▁dust	-9.34731
▁east	-9.34749
▁gain	-9.34794
▁Thy	-9.34817
▁gods	-9.34924
▁sinners	-9.34987
▁shew	-9.3544
▁fat	-9.35601
ward	-9.35929
it	-9.36133
one	-9.36781
▁gate	-9.3704
ty	-9.37043
rom	-9.37158
▁comfort	-9.37398
▁places	-9.37551
▁corn	-9.37818
▁shame	-9.37844
▁worshipped	-9.3789
▁fallen	-9.37897
▁stopped	-9.379
▁vessels	-9.38148
▁thanks	-9.38382
▁heavens	-9.38625
▁giveth	-9.38717
▁bad	-9.38873
▁stay	-9.40156
▁tomb	-9.40184
much	-9.40438
▁length	-9.40585
▁anoint	-9.40631
▁close	-9.40692
▁praise	-9.40843
▁draw	-9.41028
▁unclean	-9.41046
▁grow	-9.4105
▁Wolf	-9.41063
▁beautiful	-9.41063
▁crucified	-9.41063
▁ephod	-9.41063
▁kiss	-9.41063
▁circumcision	-9.41063
▁trough	-9.41066
▁cold	-9.41066
▁justified	-9.41072
▁Give	-9.41096
▁course	-9.41128
▁King	-9.41129
▁finished	-9.41154
▁lost	-9.41159
▁climbed	-9.41168
▁animals	-9.41384
with	-9.41661
ation	-9.41702
el	-9.42336
▁run	-9.42585
▁famine	-9.43398
h	-9.43517
▁board	-9.43632
▁command	-9.43838
▁feel	-9.43918
▁exceeding	-9.44304
▁rise	-9.44382
▁wrong	-9.44394
▁Philip	-9.44397
▁abroad	-9.44397
▁Rebekah	-9.44397
▁devil	-9.44397
▁shut	-9.44402
▁south	-9.44405
▁past	-9.44409
▁Judas	-9.44414
▁moment	-9.44415
▁itself	-9.44432
▁prepared	-9.44475
▁talked	-9.44635
▁often	-9.44744
▁seventh	-9.44938
▁offered	-9.4495
▁suffered	-9.45068
▁Not	-9.45144
▁seat	-9.45913
▁commandments	-9.46037
▁working	-9.46041
▁burn	-9.4664
ur	-9.46763
▁sorrow	-9.46846
▁scripture	-9.46991
▁Indian	-9.47015
▁dis	-9.47247
▁perish	-9.47285
▁best	-9.47289
▁grass	-9.47732
▁office	-9.47797
▁foolish	-9.47828
▁Cherokee	-9.47845
▁asleep	-9.47845
▁beseech	-9.47845
▁staves	-9.47845
▁summer	-9.47847
▁reward	-9.47857
▁passover	-9.47863
▁speech	-9.47871
▁room	-9.47875
▁conceived	-9.47875
▁Amen	-9.47878
▁green	-9.47885
▁crowd	-9.47898
A	-9.48096
▁pleased	-9.48104
▁covered	-9.48165
▁believeth	-9.48229
▁understanding	-9.48451
▁flocks	-9.48638
▁tongues	-9.49059
▁members	-9.49673
▁met	-9.49703
▁season	-9.50086
▁smite	-9.50219
▁counsel	-9.50418
▁hearing	-9.5044
▁edge	-9.50477
▁bow	-9.50494
▁image	-9.50495
▁captain	-9.50522
▁parable	-9.50541
▁tribe	-9.50552
▁piece	-9.50581
am	-9.50733
gotten	-9.5084
▁sharp	-9.51267
▁reign	-9.5127
▁care	-9.51291
▁bright	-9.51363
▁subject	-9.5141
▁patience	-9.51416
▁salute	-9.51416
▁writing	-9.51416
▁fornication	-9.51416
▁sky	-9.51416
▁wept	-9.51418
▁swim	-9.51418
▁guard	-9.51421
▁buy	-9.51425
▁slay	-9.51426
▁divided	-9.51534
▁beheld	-9.51537
▁eaten	-9.51559
▁troubled	-9.51611
▁dur	-9.51765
▁legs	-9.51794
▁crying	-9.51799
▁riches	-9.52022
▁hid	-9.52085
▁loveth	-9.52145
▁wanted	-9.52217
▁forward	-9.52239
▁e	-9.52365
▁prayed	-9.53042
ng	-9.53208
▁committe	-9.53451
▁depart	-9.53853
ful	-9.53892
▁duke	-9.54254
▁creature	-9.54265
▁flock	-9.54277
▁b	-9.54527
▁lift	-9.54701
▁repent	-9.54967
▁short	-9.55
▁strange	-9.55065
▁forgive	-9.55078
▁eating	-9.55091
▁ox	-9.55104
▁incense	-9.5512
▁large	-9.5512
▁account	-9.5512
▁truck	-9.5512
▁spiritual	-9.55121
▁Adam	-9.55122
▁glorified	-9.55124
▁Sodom	-9.55127
▁pay	-9.55128
ittim	-9.55132
▁Lamb	-9.55132
▁immediately	-9.55135
▁circumcised	-9.55162
▁churches	-9.55166
▁yard	-9.5522
▁poured	-9.55336
▁clothes	-9.55337
▁Th	-9.55394
▁closed	-9.55395
▁thereon	-9.55449
▁raise	-9.55507
▁touched	-9.55531
▁breadth	-9.55562
▁bowed	-9.55565
▁receiveth	-9.55576
▁sore	-9.55606
▁rod	-9.55629
▁besought	-9.56145
▁bit	-9.56262
ir	-9.56291
▁putt	-9.564
▁wax	-9.565
▁mean	-9.57868
▁disciple	-9.58134
▁stranger	-9.58167
▁touch	-9.58433
▁carry	-9.58514
▁wash	-9.588
▁glad	-9.58831
▁quiet	-9.58883
▁lawful	-9.58896
▁council	-9.58966
▁Barnabas	-9.58966
▁Woe	-9.58966
▁iniquity	-9.58966
▁garden	-9.58966
▁hurt	-9.58966
▁whither	-9.58966
▁cities	-9.58967
▁tried	-9.58968
▁empty	-9.58981
▁deny	-9.58996
▁lad	-9.59
▁bought	-9.59003
▁exceedingly	-9.59101
▁pulled	-9.59124
▁pit	-9.59144
▁happened	-9.59193
▁longer	-9.59196
▁charged	-9.59217
▁hated	-9.59252
▁manifested	-9.59541
▁knowest	-9.59673
▁worketh	-9.59766
▁less	-9.59778
▁greatly	-9.60463
▁sac	-9.60537
▁reach	-9.60934
taking	-9.61662
▁breastplate	-9.61969
▁garment	-9.6214
of	-9.62198
▁t	-9.62399
▁multiply	-9.62442
▁obey	-9.62524
▁car	-9.62545
▁Some	-9.62601
ri	-9.62666
ted	-9.62764
▁h	-9.62808
▁Lo	-9.62924
▁road	-9.62964
▁Jackson	-9.62966
▁couple	-9.62966
▁guess	-9.62966
▁spent	-9.62967
▁bondage	-9.62968
at	-9.62977
▁created	-9.62978
▁built	-9.62979
▁brown	-9.62981
▁swear	-9.62984
▁quickly	-9.62997
giving	-9.63003
▁self	-9.63006
o	-9.6302
▁nine	-9.63144
▁stretched	-9.63183
▁trouble	-9.63235
▁Are	-9.6324
▁couldn	-9.63302
▁wonders	-9.63303
▁touching	-9.63435
▁stars	-9.63556
sar	-9.63645
▁purpose	-9.64083
▁gifts	-9.64138
▁heads	-9.64396
and	-9.64504
is	-9.64731
day	-9.64866
ear	-9.65601
▁D	-9.65698
ped	-9.65788
▁afternoon	-9.66184
▁foundation	-9.66206
▁appear	-9.66234
▁Jew	-9.66471
▁cry	-9.66749
▁rule	-9.6675
▁wall	-9.66884
▁spirits	-9.66909
▁straight	-9.67131
▁Abimelech	-9.67133
▁bottom	-9.67133
▁caught	-9.67133
▁conscience	-9.67133
▁twin	-9.67133
▁unleavened	-9.67133
▁Elijah	-9.67133
▁hungry	-9.67135
▁story	-9.67136
▁winter	-9.67137
▁teeth	-9.67139
▁catch	-9.67141
▁household	-9.67151
▁sinned	-9.67154
▁With	-9.67169
▁really	-9.67178
▁risen	-9.67179
▁learned	-9.67494
▁beat	-9.67564
▁sides	-9.67737
▁ways	-9.67765
▁watched	-9.68031
▁skins	-9.68109
▁ones	-9.68112
im	-9.68536
▁calling	-9.68679
▁months	-9.68686
▁faces	-9.68755
▁horse	-9.68945
i	-9.69059
▁H	-9.69093
for	-9.69261
▁state	-9.70489
▁tail	-9.70541
▁creek	-9.70576
▁ruler	-9.70689
▁act	-9.70739
Oh	-9.70903
▁parts	-9.70907
▁feed	-9.71012
▁count	-9.71194
▁double	-9.71254
▁secret	-9.71331
▁abound	-9.71332
▁loose	-9.71364
▁wild	-9.71382
▁thin	-9.71451
▁spoke	-9.71459
▁Levi	-9.71477
▁hither	-9.71478
▁raiment	-9.71481
▁glorify	-9.71481
▁afar	-9.71481
▁vineyard	-9.71481
▁Ridge	-9.71483
▁space	-9.71483
▁pigpen	-9.71486
▁goats	-9.71488
▁wrote	-9.71495
▁suddenly	-9.71508
▁creep	-9.71512
▁forgiven	-9.71524
▁outside	-9.71535
▁maid	-9.71537
▁golden	-9.7158
▁hot	-9.71595
▁witnesses	-9.7161
▁officers	-9.71698
▁ends	-9.71864
▁heed	-9.72024
▁birds	-9.72047
▁wet	-9.72126
▁mayest	-9.72369
▁eateth	-9.7264
▁heavenly	-9.72878
▁synagogues	-9.72989
▁Whi	-9.73022
ar	-9.73236
▁feared	-9.73897
▁L	-9.74108
▁beasts	-9.74303
▁skin	-9.7468
▁charge	-9.74905
rew	-9.74971
w	-9.75086
▁pleasure	-9.75144
▁pillar	-9.75182
He	-9.75349
either	-9.75462
▁remain	-9.75481
▁play	-9.75518
▁sail	-9.75655
▁report	-9.75683
ake	-9.75894
▁confess	-9.76017
▁inherit	-9.76021
▁Benjamin	-9.76026
▁Isaiah	-9.76026
▁haply	-9.76026
▁remembrance	-9.76026
▁womb	-9.76026
▁array	-9.76026
▁Timothy	-9.76027
▁mystery	-9.76027
▁daily	-9.76027
▁hail	-9.76028
▁tired	-9.76028
▁fence	-9.76028
▁likewise	-9.76029
▁inheritance	-9.76031
▁arrived	-9.7606
▁Put	-9.76161
▁Have	-9.76196
▁inside	-9.76305
▁talking	-9.76373
▁camels	-9.76389
▁weight	-9.76403
▁lose	-9.76411
ah	-9.76698
▁breath	-9.7682
▁heareth	-9.76919
▁willing	-9.76964
▁d	-9.76989
▁g	-9.77151
rs	-9.7755
▁spring	-9.77928
ity	-9.7803
▁c	-9.78057
▁fight	-9.7871
▁—	-9.78802
▁candlestick	-9.79894
▁village	-9.79918
▁lamb	-9.7993
▁cover	-9.79948
▁coat	-9.79955
▁finger	-9.79988
adventure	-9.80101
▁song	-9.80168
Yes	-9.80194
▁W	-9.80254
▁bury	-9.80312
▁fashion	-9.80328
▁establish	-9.80354
▁thank	-9.80446
▁possess	-9.80598
▁stumble	-9.80699
▁flee	-9.80701
▁ashamed	-9.80788
▁dominion	-9.80788
▁flood	-9.80788
▁knife	-9.80788
▁trail	-9.80788
▁devour	-9.80789
▁precious	-9.80789
▁vail	-9.80789
▁Saviour	-9.80789
▁happy	-9.80789
▁marry	-9.80789
▁further	-9.80789
▁Perry	-9.8079
▁possible	-9.808
▁elect	-9.80804
▁adultery	-9.80816
▁smote	-9.80824
▁sware	-9.80835
▁amazed	-9.80836
▁stick	-9.80854
▁slowly	-9.80865
▁scattered	-9.80904
▁sort	-9.80933
▁hardened	-9.80936
▁sixth	-9.81014
▁hire	-9.8102
▁bones	-9.81104
▁borne	-9.81143
▁hence	-9.81208
▁liveth	-9.81322
▁burned	-9.81386
▁feeling	-9.81482
ily	-9.81712
▁notice	-9.81774
▁destroyed	-9.81863
▁strangers	-9.81866
▁doing	-9.82823
▁Is	-9.82944
▁R	-9.8297
▁perceive	-9.84465
▁Salut	-9.84662
▁hole	-9.84889
▁Hebrew	-9.84924
▁cubit	-9.84947
▁ship	-9.85018
▁sanctif	-9.85079
▁curse	-9.8564
▁grave	-9.85754
▁naked	-9.8577
▁supper	-9.85786
▁Macedonia	-9.85788
▁Spearfinger	-9.85788
▁behalf	-9.85788
▁ignorant	-9.85788
▁thither	-9.85788
▁bottle	-9.85788
▁crawl	-9.85788
▁idea	-9.85789
▁Saul	-9.85789
▁loaves	-9.85789
▁reproach	-9.85797
▁cheer	-9.858
▁moon	-9.85801
▁Arise	-9.85804
▁tidings	-9.85813
▁handmaid	-9.85825
▁decided	-9.85833
▁horns	-9.85874
▁wide	-9.85938
▁idols	-9.8603
▁fly	-9.86072
▁shoes	-9.86118
▁knees	-9.86169
▁bonds	-9.86295
▁washed	-9.86367
▁goods	-9.86409
ate	-9.86416
▁either	-9.86418
▁letters	-9.86429
▁use	-9.86851
▁move	-9.87225
▁eggs	-9.87447
▁tables	-9.87714
▁sacrifices	-9.87719
g	-9.87938
▁thinking	-9.87968
▁form	-9.88265
▁needs	-9.88322
nto	-9.88489
k	-9.89017
▁accuse	-9.89134
▁bearing	-9.89339
▁question	-9.89637
▁demon	-9.89762
▁affliction	-9.90059
▁governor	-9.90103
▁root	-9.90149
▁possession	-9.90168
▁neighbor	-9.90177
▁wheel	-9.9021
▁host	-9.90218
▁corner	-9.90259
▁afterward	-9.90327
▁clear	-9.90452
How	-9.90495
But	-9.90498
▁worry	-9.90556
▁regard	-9.9058
▁proceed	-9.90594
nt	-9.90636
▁forbid	-9.90846
▁shoulder	-9.90849
▁wicked	-9.90884
▁grievous	-9.90925
▁late	-9.91027
▁Cain	-9.9105
▁Claire	-9.91051
▁Jordan	-9.91051
▁abode	-9.91051
▁breakfast	-9.91051
▁centurion	-9.91051
▁company	-9.91051
▁marriage	-9.91051
▁neighbour	-9.91051
▁flies	-9.91051
▁parents	-9.91051
▁families	-9.91052
▁struck	-9.91052
▁nought	-9.91053
▁business	-9.91055
▁repentance	-9.91058
▁subjection	-9.91066
▁brake	-9.91072
▁Most	-9.91073
▁fill	-9.91083
▁tiny	-9.91093
▁cock	-9.91094
▁begin	-9.91098
▁direction	-9.91103
▁sell	-9.91119
▁robe	-9.91133
▁anger	-9.91152
▁marvelled	-9.9118
▁Art	-9.91182
▁tied	-9.9122
ting	-9.91281
▁reckoned	-9.91317
▁Here	-9.91418
▁covering	-9.91573
ever	-9.91609
▁lusts	-9.91682
▁served	-9.9177
▁fully	-9.91778
▁height	-9.91863
▁corners	-9.91946
▁journeyed	-9.91974
▁hate	-9.92024
▁faint	-9.92233
▁Her	-9.92376
▁scriptures	-9.9238
▁gates	-9.92523
▁declare	-9.92657
▁falling	-9.92708
▁treasure	-9.93229
the	-9.9329
▁commit	-9.93491
▁G	-9.93575
ance	-9.94428
▁voices	-9.94885
▁labor	-9.95093
ish	-9.95232
▁tribulation	-9.95611
red	-9.95614
▁join	-9.95664
▁arm	-9.95738
▁apostle	-9.95803
The	-9.95897
times	-9.95951
That	-9.9605
▁profit	-9.96126
▁utter	-9.96148
▁strip	-9.96161
▁change	-9.96191
▁leaven	-9.96286
▁stop	-9.96394
▁refuse	-9.9641
▁plain	-9.96483
▁natural	-9.96495
▁chose	-9.96577
▁Again	-9.96607
▁Brethren	-9.96607
▁Grace	-9.96607
▁Nazareth	-9.96607
▁beneath	-9.96607
▁geese	-9.96607
▁middle	-9.96607
▁woe	-9.96607
▁fourteen	-9.96607
▁fair	-9.96608
▁respect	-9.96609
▁spoil	-9.9662
▁Asia	-9.96625
▁abundantly	-9.9663
▁Nay	-9.96636
▁drove	-9.9665
▁wish	-9.96662
▁lying	-9.96667
▁Know	-9.96697
▁rent	-9.96735
▁revealed	-9.96741
▁Dr	-9.96857
▁spin	-9.96919
▁talents	-9.96927
▁clothed	-9.9694
▁ago	-9.97021
▁persons	-9.97126
▁remained	-9.97134
ill	-9.97136
▁fourth	-9.97211
▁stayed	-9.97358
▁wouldest	-9.97569
▁creatures	-9.97915
▁following	-9.98052
▁perceiv	-9.98103
▁drive	-9.98153
▁rocks	-9.98562
▁rush	-9.991
▁race	-9.99572
▁star	-9.99766
▁nights	-9.99973
▁trust	-10.0005
▁ass	-10.0023
▁wear	-10.0068
▁pain	-10.0126
▁oath	-10.0149
▁snow	-10.015
▁vision	-10.0154
▁ram	-10.0155
▁fowl	-10.0157
▁miracle	-10.0157
▁male	-10.0158
▁serpent	-10.0158
▁learn	-10.0159
▁talk	-10.0162
▁widow	-10.0163
▁border	-10.0163
ry	-10.017
▁won	-10.0193
▁redeem	-10.0204
▁escape	-10.023
▁several	-10.0238
he	-10.0239
▁lot	-10.0239
▁Antioch	-10.0249
▁Crockett	-10.0249
▁Ishmael	-10.0249
▁Reuben	-10.0249
▁Washington	-10.0249
▁baptism	-10.0249
▁cunning	-10.0249
▁everlasting	-10.0249
▁language	-10.0249
▁leaving	-10.0249
▁truly	-10.0249
▁Sarai	-10.0249
▁Sinai	-10.0249
▁astray	-10.0249
▁dawn	-10.0249
▁slew	-10.0249
▁nature	-10.0249
▁sitteth	-10.0249
▁colonel	-10.0249
▁swallow	-10.0249
▁Shechem	-10.0249
▁Howbeit	-10.0249
▁sanctuary	-10.0249
▁tarried	-10.025
▁grain	-10.025
▁bitter	-10.025
▁yellow	-10.025
▁interpretation	-10.0251
▁sanctified	-10.0251
▁oxen	-10.0252
▁sorry	-10.0255
▁wheat	-10.0255
▁fishes	-10.0256
▁farm	-10.0262
▁sown	-10.0263
▁pail	-10.0264
▁exalted	-10.0269
▁weeping	-10.0281
▁Te	-10.0281
▁loosed	-10.0282
▁line	-10.0285
▁Look	-10.0287
▁lower	-10.0288
▁tears	-10.0288
▁wipe	-10.0289
ory	-10.0292
▁sailed	-10.0305
▁calleth	-10.0307
▁counted	-10.0307
▁comforted	-10.0331
▁lines	-10.0335
▁borders	-10.0335
▁north	-10.0363
▁noise	-10.0371
▁watching	-10.0395
▁turning	-10.0417
▁st	-10.0427
▁doest	-10.043
▁Br	-10.0444
▁cr	-10.0512
▁nose	-10.0514
▁con	-10.0523
▁spiders	-10.0564
▁inso	-10.0565
▁Oh	-10.0575
▁offerings	-10.0634
▁thoughts	-10.0638
▁r	-10.0643
▁per	-10.0662
▁hide	-10.0684
▁cabin	-10.0774
▁exhort	-10.0777
▁fig	-10.0779
▁hill	-10.0787
to	-10.0791
Charlotte	-10.0818
Now	-10.0819
▁lack	-10.0821
ch	-10.0828
▁Ha	-10.0836
▁dirt	-10.0865
▁swam	-10.0866
▁overcome	-10.0866
▁building	-10.0874
▁Asmeret	-10.0874
▁Ephesus	-10.0874
▁Hittite	-10.0874
▁Nahor	-10.0874
▁Simeon	-10.0874
▁cellar	-10.0874
▁harlot	-10.0874
▁rope	-10.0874
▁yield	-10.0874
▁running	-10.0874
▁Damascus	-10.0874
▁different	-10.0874
▁drank	-10.0874
▁godliness	-10.0874
▁common	-10.0874
▁wings	-10.0875
▁shook	-10.0875
▁compassion	-10.0876
▁grant	-10.0876
▁beaten	-10.0876
▁pick	-10.0877
▁bigge	-10.0877
▁chosen	-10.0878
▁pool	-10.0878
▁thorns	-10.0882
▁asses	-10.0883
▁An	-10.0883
▁tempted	-10.0891
▁jumped	-10.0892
▁Did	-10.0892
▁chains	-10.0894
▁row	-10.0895
▁Hear	-10.0898
▁mourning	-10.0899
men	-10.0901
▁wor	-10.0914
▁goodness	-10.0917
▁herds	-10.0917
▁pipe	-10.0922
ants	-10.0929
▁bowls	-10.0938
▁pale	-10.0941
▁lamps	-10.0944
▁breaking	-10.097
▁arms	-10.0971
▁lambs	-10.0989
▁sayest	-10.1013
▁Shem	-10.1039
▁de	-10.1052
▁withal	-10.1058
▁prayers	-10.1084
▁heal	-10.1134
▁drinking	-10.116
▁commun	-10.1185
▁judges	-10.1251
▁fruits	-10.1275
▁roll	-10.1305
▁desert	-10.1391
▁bringing	-10.1437
▁girdle	-10.1442
▁cave	-10.1443
age	-10.1445
▁stream	-10.1446
▁week	-10.1452
▁Greek	-10.1455
▁bird	-10.1456
▁glorying	-10.1463
▁reap	-10.1473
Good	-10.1478
▁flow	-10.1487
▁render	-10.1488
laid	-10.1504
▁letter	-10.1516
▁flat	-10.1528
▁haste	-10.1529
▁Man	-10.1531
ollow	-10.1539
▁stumbling	-10.1541
▁Almighty	-10.1541
▁anxious	-10.1541
▁bodies	-10.1541
▁bridegroom	-10.1541
▁damsel	-10.1541
▁disobedient	-10.1541
▁divers	-10.1541
▁necessary	-10.1541
▁obedience	-10.1541
▁prosper	-10.1541
▁screamed	-10.1541
▁silence	-10.1541
▁uncircumcision	-10.1541
▁diligence	-10.1541
▁iron	-10.1541
▁trumpet	-10.1541
▁harvest	-10.1541
▁Stephen	-10.1541
▁lips	-10.1541
▁slain	-10.1541
▁Haran	-10.1541
▁honey	-10.1541
▁rising	-10.1541
▁Nancy	-10.1541
▁acceptable	-10.1541
▁spare	-10.1541
▁boldness	-10.1542
▁overlay	-10.1542
▁temptation	-10.1542
▁lodge	-10.1543
▁steal	-10.1545
▁worse	-10.1547
▁Can	-10.1549
▁hypocrites	-10.155
ite	-10.1552
▁Sure	-10.1553
▁ceased	-10.1555
▁removed	-10.1555
▁Sir	-10.1555
▁defiled	-10.1559
▁goslings	-10.1562
▁henceforth	-10.1562
▁shortly	-10.1563
▁obtained	-10.1566
THE	-10.1568
▁hell	-10.1568
wo	-10.1576
▁onto	-10.1578
▁stared	-10.1593
▁sacrificed	-10.16
▁soft	-10.1609
▁frogs	-10.1615
▁Greeks	-10.1627
▁pro	-10.1639
▁widows	-10.1639
▁Sen	-10.1669
▁comes	-10.1698
▁needed	-10.1712
ors	-10.1718
▁seeth	-10.1733
▁prove	-10.1757
▁sad	-10.1804
▁rebuke	-10.1814
▁holding	-10.1818
▁ill	-10.1908
ge	-10.1943
rolled	-10.1969
▁liked	-10.198
score	-10.1983
▁fore	-10.1996
▁occasion	-10.2044
No	-10.2111
▁happen	-10.2113
▁lust	-10.2116
▁burden	-10.2119
▁add	-10.2141
▁revelation	-10.2155
▁region	-10.216
▁supplication	-10.2164
▁shepherd	-10.2167
▁blanket	-10.2168
c	-10.217
▁Egyptian	-10.2171
▁mark	-10.2178
ris	-10.2186
▁dog	-10.2187
▁beside	-10.2192
F	-10.2197
▁salt	-10.2206
▁laugh	-10.2209
▁inhabit	-10.2209
▁interest	-10.221
▁condemn	-10.2211
▁betray	-10.2212
▁pour	-10.2216
▁heat	-10.2217
▁defile	-10.2223
ary	-10.2226
▁je	-10.2227
▁release	-10.2234
▁despise	-10.2234
▁taste	-10.2236
▁store	-10.2236
▁slow	-10.2247
▁vine	-10.2255
▁America	-10.2255
▁Lazarus	-10.2255
▁Manasseh	-10.2255
▁Sadducees	-10.2255
▁Sequoyah	-10.2255
▁awoke	-10.2255
▁confidence	-10.2255
▁countenance	-10.2255
▁doctrine	-10.2255
▁dumb	-10.2255
▁multiplied	-10.2255
▁ointment	-10.2255
▁recompense	-10.2255
▁substance	-10.2255
▁tarry	-10.2255
▁Hagar	-10.2255
▁crep	-10.2255
▁digged	-10.2255
▁contrary	-10.2255
▁gander	-10.2255
▁fellowship	-10.2255
▁loins	-10.2255
▁pretty	-10.2255
▁Zion	-10.2256
▁understood	-10.2256
▁continually	-10.2256
▁unrighteousness	-10.2256
▁ungodly	-10.2256
▁loss	-10.2257
▁wickedness	-10.2257
▁price	-10.2257
▁trade	-10.2258
▁exactly	-10.2258
▁married	-10.2259
▁heap	-10.2259
▁rejected	-10.226
▁doorway	-10.226
▁stedfastly	-10.2261
▁carefully	-10.2261
▁fruitful	-10.2261
▁shot	-10.2263
▁stirred	-10.2263
▁descended	-10.2266
▁spit	-10.2268
▁kindness	-10.2268
▁hunger	-10.2269
▁prevailed	-10.2269
▁thick	-10.2272
▁dying	-10.2273
▁ring	-10.2276
▁manure	-10.2277
▁quietly	-10.2277
▁loops	-10.2277
▁bars	-10.2279
▁town	-10.2281
▁final	-10.2286
▁pond	-10.2293
▁divide	-10.2297
xcept	-10.23
▁chariots	-10.2303
▁rejoiced	-10.2303
▁condemned	-10.2305
▁cleanse	-10.2308
▁powers	-10.2313
▁promised	-10.2318
▁consider	-10.2326
time	-10.2347
ke	-10.2351
▁fasten	-10.2353
▁desired	-10.2362
ach	-10.2362
▁m	-10.2377
▁dreamed	-10.2393
▁seasons	-10.2433
▁Well	-10.2437
▁Re	-10.2438
▁lives	-10.244
unto	-10.2489
ight	-10.2498
▁mo	-10.2544
▁ca	-10.255
▁parted	-10.2588
▁praying	-10.2614
▁intend	-10.2666
▁west	-10.2697
▁laying	-10.2727
▁tr	-10.2737
▁shed	-10.2745
▁favor	-10.2762
▁desir	-10.2774
▁rivers	-10.2891
▁hang	-10.291
▁custom	-10.2929
▁case	-10.2932
▁frog	-10.2938
▁lamp	-10.2938
▁trap	-10.2942
▁prophesy	-10.2969
what	-10.2969
though	-10.2973
▁fetch	-10.2975
▁stretch	-10.2982
▁Say	-10.2984
that	-10.299
▁Rabbi	-10.2991
▁endure	-10.2998
▁owner	-10.3002
▁complete	-10.3003
ug	-10.3004
▁hung	-10.3009
▁proud	-10.3009
▁commend	-10.3011
▁eleven	-10.3013
▁content	-10.3013
▁branch	-10.3022
sarea	-10.3024
▁Babylon	-10.3024
▁Capernaum	-10.3024
▁English	-10.3024
▁Nevertheless	-10.3024
▁Remember	-10.3024
▁Titus	-10.3024
▁cousin	-10.3024
▁enemy	-10.3024
▁fifteen	-10.3024
▁ghost	-10.3024
▁thief	-10.3024
▁travail	-10.3024
▁Festus	-10.3024
▁epistle	-10.3024
▁calf	-10.3024
▁Moreover	-10.3024
▁broad	-10.3024
▁compass	-10.3024
▁excellent	-10.3024
▁void	-10.3024
▁stuff	-10.3024
▁particular	-10.3024
▁famous	-10.3024
▁Edom	-10.3024
▁bidden	-10.3024
▁prophecy	-10.3025
▁heavy	-10.3025
▁family	-10.3025
▁nay	-10.3025
▁Which	-10.3025
▁palm	-10.3025
▁single	-10.3025
▁ashes	-10.3026
▁Abel	-10.3026
▁jealousy	-10.3026
▁husbandmen	-10.3026
▁bind	-10.3026
▁kindred	-10.3027
▁Hello	-10.3027
▁trial	-10.3027
▁beforehand	-10.3027
▁shaken	-10.3027
bee	-10.3028
▁cherubims	-10.3028
▁determined	-10.3028
▁wander	-10.3029
▁driven	-10.303
▁Homer	-10.3031
▁portion	-10.3031
▁later	-10.3032
▁required	-10.3033
▁everywhere	-10.3033
▁ball	-10.3034
▁fit	-10.3039
▁wrapp	-10.3041
ier	-10.3044
▁remaineth	-10.3045
▁increased	-10.3045
▁pitched	-10.3046
▁hateth	-10.3047
▁anybody	-10.305
▁hooks	-10.3053
▁planted	-10.3054
▁stool	-10.3054
▁youngest	-10.3055
▁hunting	-10.3058
▁publicans	-10.3063
b	-10.3067
▁withered	-10.3068
▁likeness	-10.307
▁stead	-10.307
▁betrayed	-10.3071
▁en	-10.3073
▁special	-10.3074
▁does	-10.3075
▁fugitives	-10.3076
▁tall	-10.3078
▁aside	-10.3084
Many	-10.3085
▁standeth	-10.3119
▁findeth	-10.3123
▁builded	-10.3137
▁greatest	-10.314
▁numbered	-10.3142
▁gotten	-10.3153
▁hosts	-10.3153
▁reading	-10.3154
▁Zuckermans	-10.3158
▁Hebrews	-10.316
▁waited	-10.3165
▁sounded	-10.3172
▁shoulders	-10.3196
ought	-10.3211
▁tribes	-10.3217
▁meeting	-10.3228
▁sleeping	-10.3247
if	-10.3268
ned	-10.3274
stead	-10.3365
▁masters	-10.3373
all	-10.3397
nder	-10.3433
reached	-10.3465
▁thousands	-10.3474
▁Heth	-10.3498
▁yours	-10.3503
▁seal	-10.3521
ened	-10.361
▁Du	-10.3682
ic	-10.37
▁forget	-10.3746
▁paper	-10.3763
▁shadow	-10.3768
▁animal	-10.3773
▁vessel	-10.3773
▁Pharisee	-10.3774
▁band	-10.3776
▁elder	-10.3776
▁sack	-10.3777
▁shekel	-10.3779
▁bond	-10.3782
▁color	-10.3785
▁herb	-10.379
▁prisoner	-10.3795
Do	-10.3797
Can	-10.3801
▁doubt	-10.3805
▁swing	-10.3805
▁proclaim	-10.3814
▁reckon	-10.3815
▁press	-10.3817
▁suck	-10.3817
▁weep	-10.382
▁deed	-10.3825
▁restore	-10.384
▁observe	-10.3841
▁memorial	-10.3843
▁broke	-10.3854
id	-10.3855
ncle	-10.3857
▁Calhoun	-10.3857
▁Ephraim	-10.3857
▁Finally	-10.3857
▁Gomorrah	-10.3857
▁Goshen	-10.3857
▁High	-10.3857
▁Lichen	-10.3857
▁Solomon	-10.3857
▁asunder	-10.3857
▁buttermilk	-10.3857
▁creation	-10.3857
▁female	-10.3857
▁longsuffering	-10.3857
▁school	-10.3857
▁slept	-10.3857
▁twice	-10.3857
▁idle	-10.3857
▁spend	-10.3857
▁hidden	-10.3857
▁crieth	-10.3857
▁oak	-10.3858
▁alms	-10.3858
▁destruction	-10.3858
▁dried	-10.3858
▁wroth	-10.3858
▁forehead	-10.3858
▁steward	-10.3858
▁colt	-10.3858
▁Dorian	-10.3858
▁stole	-10.3858
▁sang	-10.3858
▁dump	-10.3858
▁scratch	-10.3858
▁pasture	-10.3858
▁corruption	-10.3858
▁lawyer	-10.3858
▁size	-10.3858
▁fun	-10.3859
▁denied	-10.3859
▁tender	-10.3859
▁kine	-10.3859
▁trespasses	-10.3859
▁sow	-10.3859
▁expect	-10.3859
▁thanksgiving	-10.3859
▁pitcher	-10.3859
▁astonished	-10.386
▁discern	-10.386
▁ministration	-10.386
▁merciful	-10.386
▁dash	-10.3861
▁cook	-10.3861
▁worth	-10.3862
▁deer	-10.3862
▁error	-10.3863
elah	-10.3863
▁getting	-10.3864
▁thirst	-10.3866
▁mill	-10.3867
▁whispered	-10.3867
▁bath	-10.3867
▁drawn	-10.3868
▁persuaded	-10.3869
▁dirty	-10.387
▁floor	-10.387
▁wonderful	-10.3872
▁warned	-10.3876
▁belly	-10.388
▁partakers	-10.3887
▁separate	-10.389
▁Just	-10.3893
▁attention	-10.3895
▁highest	-10.39
▁Canaanites	-10.3901
▁cows	-10.3902
▁string	-10.3903
▁sufferings	-10.3908
▁bowl	-10.3911
▁Don	-10.3922
▁drunken	-10.3926
▁o	-10.3933
▁str	-10.3934
▁dwelleth	-10.3936
▁reported	-10.3939
▁shekels	-10.3945
▁West	-10.395
▁carrying	-10.3959
▁burdens	-10.396
▁hiding	-10.3965
▁canst	-10.3971
▁burning	-10.3972
▁anointed	-10.3974
z	-10.3974
▁rams	-10.3983
ew	-10.4001
be	-10.4014
▁heir	-10.4038
▁fo	-10.4046
reby	-10.405
▁dukes	-10.406
ied	-10.4061
▁Andrew	-10.4115
ad	-10.413
ine	-10.4144
▁sing	-10.4146
aw	-10.4157
▁rested	-10.4176
▁net	-10.4177
▁La	-10.4203
ably	-10.4237
▁minded	-10.4244
▁co	-10.4265
▁ex	-10.4292
▁claim	-10.4327
O	-10.4341
hi	-10.435
▁spra	-10.4403
ive	-10.4452
▁mov	-10.4489
▁w	-10.4501
ard	-10.4507
▁Je	-10.4509
wn	-10.4538
minded	-10.4541
▁cloth	-10.4585
▁fillet	-10.461
▁person	-10.4649
▁leg	-10.4665
▁thread	-10.4667
▁log	-10.4674
▁hatchet	-10.4674
▁J	-10.4682
▁sinner	-10.4685
▁soldier	-10.4692
▁teacher	-10.4695
▁chamber	-10.4697
ring	-10.4708
bye	-10.4709
Look	-10.471
C	-10.471
Let	-10.4711
which	-10.4711
▁interpret	-10.4715
And	-10.4717
▁travel	-10.4717
▁sojourn	-10.4717
▁veil	-10.4721
▁inter	-10.4727
▁appoint	-10.4731
▁humble	-10.4746
▁cease	-10.4747
▁prepare	-10.4747
te	-10.475
▁nice	-10.4753
▁pleasant	-10.4753
▁direct	-10.476
um	-10.4761
▁unrighteous	-10.4765
erhaps	-10.4765
▁equal	-10.4766
▁fulfil	-10.4766
▁suggest	-10.4766
▁Axe	-10.4767
▁Agrippa	-10.4767
▁Baptist	-10.4767
▁Featherstone	-10.4767
▁Iscariot	-10.4767
▁Lamech	-10.4767
▁Martha	-10.4767
▁Midian	-10.4767
▁Wasseton	-10.4767
▁Zebedee	-10.4767
▁abiding	-10.4767
▁absent	-10.4767
▁crucify	-10.4767
▁desolate	-10.4767
▁exercise	-10.4767
▁laurel	-10.4767
▁leap	-10.4767
▁savour	-10.4767
▁smooth	-10.4767
▁swine	-10.4767
▁trembling	-10.4767
▁Also	-10.4767
▁Ephron	-10.4767
▁atonement	-10.4767
▁merry	-10.4767
▁fulness	-10.4767
▁lean	-10.4767
▁dragon	-10.4767
▁resist	-10.4767
▁Sidon	-10.4767
▁choice	-10.4767
▁token	-10.4767
▁defence	-10.4767
▁Ross	-10.4767
▁dinner	-10.4767
▁trip	-10.4767
▁Enoch	-10.4767
▁Wayah	-10.4767
▁chair	-10.4767
▁uttermost	-10.4767
▁plow	-10.4767
▁lake	-10.4767
▁kid	-10.4767
▁Ham	-10.4767
▁Master	-10.4767
▁coast	-10.4767
▁horsemen	-10.4767
▁condemnation	-10.4768
▁distance	-10.4768
▁Hamor	-10.4768
▁pluck	-10.4768
▁plann	-10.4768
▁yourself	-10.4769
▁roof	-10.477
▁prize	-10.477
▁snare	-10.4771
▁post	-10.4772
▁radiant	-10.4773
▁whereby	-10.4773
▁shone	-10.4774
▁sixty	-10.4776
▁sober	-10.4777
▁grown	-10.4777
▁pile	-10.4778
▁robbers	-10.4779
▁murmured	-10.4781
ixt	-10.4782
▁consumed	-10.4785
▁shouted	-10.4785
▁Edith	-10.4786
▁terrific	-10.4786
man	-10.4791
▁cleansed	-10.4793
▁favoured	-10.4794
▁failed	-10.4798
▁refused	-10.4799
▁Hav	-10.48
ne	-10.4804
▁everybody	-10.4805
▁Rabbit	-10.4806
▁wondered	-10.4807
▁Ch	-10.4807
▁St	-10.4809
joined	-10.4813
▁pressed	-10.4814
ure	-10.4815
▁laughed	-10.4823
▁Beer	-10.4826
▁speaker	-10.4831
▁plagues	-10.4838
▁Per	-10.4851
▁established	-10.4852
▁party	-10.4857
▁glass	-10.4871
▁blankets	-10.488
old	-10.49
▁dozen	-10.4911
▁forest	-10.4912
not	-10.4917
▁villages	-10.4939
▁fingers	-10.4939
▁hit	-10.4945
▁Beth	-10.4959
▁shape	-10.496
▁walls	-10.496
ns	-10.4968
▁goest	-10.4968
▁strive	-10.4995
▁gr	-10.4998
▁apples	-10.5044
▁ha	-10.5054
▁showing	-10.5122
▁Dan	-10.5124
ched	-10.5156
ain	-10.5186
▁wr	-10.5191
▁husbands	-10.5212
▁telling	-10.5228
▁fact	-10.5246
most	-10.5257
math	-10.5285
em	-10.5327
▁vi	-10.539
ank	-10.5425
▁bade	-10.5445
▁Get	-10.5468
ber	-10.5475
▁worked	-10.5511
▁tro	-10.5536
▁wonder	-10.5574
▁fields	-10.5591
loved	-10.5653
▁earthquake	-10.5667
▁thigh	-10.5672
▁minute	-10.5674
▁window	-10.5675
▁knop	-10.5676
▁ordinance	-10.5678
▁prince	-10.5678
▁basket	-10.5679
▁meal	-10.5683
▁figure	-10.5687
where	-10.5695
▁corrupt	-10.5702
Why	-10.5711
▁consent	-10.5712
un	-10.5712
Don	-10.5713
There	-10.5717
▁accept	-10.5719
▁pull	-10.5726
seat	-10.5738
▁healing	-10.5742
▁increase	-10.5747
▁awake	-10.5749
▁earnest	-10.5752
▁hunt	-10.5753
▁suppose	-10.5753
▁ride	-10.5755
sheba	-10.5766
▁fool	-10.5766
▁Amalek	-10.5767
▁Hivite	-10.5767
▁Jethro	-10.5767
▁Magdalene	-10.5767
▁Mamre	-10.5767
▁Peace	-10.5767
▁Philadelphia	-10.5767
▁Philistines	-10.5767
▁Samaria	-10.5767
▁Silas	-10.5767
▁apparel	-10.5767
▁bacon	-10.5767
▁believing	-10.5767
▁coupling	-10.5767
▁dishonor	-10.5767
▁enjoy	-10.5767
▁fault	-10.5767
▁fountain	-10.5767
▁liberty	-10.5767
▁lieutenant	-10.5767
▁ministry	-10.5767
▁plenty	-10.5767
▁stomach	-10.5767
▁strife	-10.5767
▁taches	-10.5767
▁thrice	-10.5767
▁tribute	-10.5767
▁underneath	-10.5767
▁aught	-10.5767
▁barren	-10.5767
▁imitat	-10.5767
▁shirt	-10.5767
▁Ananias	-10.5767
▁bosom	-10.5767
▁firmament	-10.5767
▁Bethany	-10.5767
▁JE	-10.5767
▁shining	-10.5767
▁staff	-10.5767
▁curious	-10.5767
wels	-10.5767
▁weather	-10.5767
▁Speak	-10.5767
▁chicken	-10.5767
▁remission	-10.5767
▁cool	-10.5767
▁meekness	-10.5767
▁fog	-10.5767
▁George	-10.5767
▁dropped	-10.5767
▁Terah	-10.5767
▁decomposers	-10.5768
▁bunch	-10.5768
▁fighting	-10.5768
▁dew	-10.5768
▁armies	-10.5769
▁darkened	-10.5769
▁shake	-10.5769
▁span	-10.577
▁testified	-10.577
▁upper	-10.577
ueen	-10.577
▁nakedness	-10.577
▁motion	-10.5771
▁exhortation	-10.5771
▁approved	-10.5772
▁seize	-10.5772
▁moreover	-10.5772
▁busy	-10.5773
▁Henry	-10.5776
▁boldly	-10.5777
▁Perhaps	-10.5777
▁flame	-10.5779
▁endureth	-10.578
▁overcometh	-10.5783
▁butler	-10.5783
▁Pig	-10.5783
▁agreed	-10.5784
▁accomplished	-10.5787
▁pushed	-10.5787
▁spices	-10.579
▁someone	-10.5792
Run	-10.5793
▁separated	-10.5793
▁pack	-10.5798
▁anyone	-10.5798
▁listening	-10.5798
▁blow	-10.58
hick	-10.5802
▁dragg	-10.5802
owed	-10.5802
▁escaped	-10.5803
▁searched	-10.5806
▁guide	-10.5809
▁lieth	-10.5813
▁supposed	-10.5816
▁Though	-10.5817
▁proclaimed	-10.582
▁Wom	-10.5823
▁thunders	-10.5827
▁brush	-10.5839
▁tenth	-10.5842
▁streets	-10.5845
▁judgeth	-10.5847
▁falleth	-10.5852
▁shine	-10.5865
▁teachers	-10.5872
▁sacks	-10.5873
▁deeds	-10.5877
▁perished	-10.5899
▁formed	-10.5901
▁ru	-10.5919
▁neighbors	-10.5939
▁force	-10.5945
▁hoped	-10.5945
▁beam	-10.5987
▁Ma	-10.6026
ant	-10.6058
▁simple	-10.6063
▁sha	-10.6091
thrown	-10.6126
▁ministering	-10.6144
▁bell	-10.615
land	-10.6156
▁promises	-10.6158
▁matters	-10.6166
▁dwelling	-10.6167
▁dreams	-10.617
▁sprinkl	-10.6171
▁Pr	-10.6183
▁Pa	-10.6188
▁Me	-10.6197
▁share	-10.6222
▁kinds	-10.6243
▁thrones	-10.6243
▁Ga	-10.6272
u	-10.6293
▁winds	-10.6301
▁par	-10.6307
les	-10.631
ra	-10.6326
▁Cap	-10.6379
me	-10.6427
▁rode	-10.6455
ump	-10.646
led	-10.6479
▁sakes	-10.6487
▁Wil	-10.6513
▁declar	-10.6537
ot	-10.6579
▁wave	-10.6641
▁hat	-10.6655
▁hu	-10.666
▁knee	-10.6686
▁tin	-10.6686
ments	-10.6687
od	-10.6697
ery	-10.6701
dded	-10.6773
▁drunk	-10.6776
▁captive	-10.6783
▁habitation	-10.6783
▁game	-10.6783
▁mourn	-10.6785
▁effort	-10.6785
▁nest	-10.6786
▁virgin	-10.6787
▁flower	-10.6789
▁street	-10.679
▁plague	-10.6791
ware	-10.6792
▁drop	-10.6792
▁search	-10.6797
▁scribe	-10.6798
▁girl	-10.68
▁path	-10.6804
▁rubb	-10.6805
▁youth	-10.6807
pleasing	-10.6811
▁marvel	-10.6816
▁twist	-10.682
▁ninet	-10.6827
▁pot	-10.6827
▁testify	-10.683
▁delight	-10.6832
▁due	-10.6834
▁obtain	-10.6835
special	-10.6836
▁mad	-10.6837
▁real	-10.6838
▁den	-10.6844
▁preserve	-10.6855
▁bid	-10.6856
▁consume	-10.6859
▁bold	-10.6865
▁entire	-10.6865
Thi	-10.6868
We	-10.6873
laver	-10.6874
eople	-10.6875
▁trespass	-10.6876
▁public	-10.6876
▁danger	-10.6876
▁agree	-10.6877
▁tight	-10.6877
▁Padan	-10.6877
▁Beaver	-10.6878
▁Bethuel	-10.6878
▁Charlie	-10.6878
▁Japheth	-10.6878
▁Joppa	-10.6878
▁Joshua	-10.6878
▁Zacharias	-10.6878
▁altogether	-10.6878
▁bundle	-10.6878
▁diligently	-10.6878
▁disobedience	-10.6878
▁fifth	-10.6878
▁furnace	-10.6878
▁future	-10.6878
▁grieved	-10.6878
▁group	-10.6878
▁guile	-10.6878
▁indignation	-10.6878
▁iniquities	-10.6878
▁kitchen	-10.6878
▁leaf	-10.6878
▁midnight	-10.6878
▁nevertheless	-10.6878
▁offended	-10.6878
▁practise	-10.6878
▁publish	-10.6878
▁sanctification	-10.6878
▁silk	-10.6878
▁slops	-10.6878
▁speckled	-10.6878
▁stoop	-10.6878
▁surname	-10.6878
▁sweat	-10.6878
▁venison	-10.6878
▁violence	-10.6878
▁wove	-10.6878
▁Charleston	-10.6878
▁abyss	-10.6878
▁devout	-10.6878
▁Apollos	-10.6878
▁angry	-10.6878
▁brimstone	-10.6878
▁smitten	-10.6878
▁slaves	-10.6878
▁gracious	-10.6878
▁Bilhah	-10.6878
▁degree	-10.6878
▁magicians	-10.6878
▁below	-10.6878
▁bride	-10.6878
▁blew	-10.6878
▁trick	-10.6878
▁easier	-10.6878
▁Everything	-10.6878
▁wages	-10.6878
▁lightning	-10.6878
▁harm	-10.6878
▁privily	-10.6878
▁Seir	-10.6878
▁mix	-10.6878
▁unbelief	-10.6879
▁issue	-10.6879
▁mingled	-10.6879
▁usual	-10.6879
▁New	-10.6879
▁choose	-10.6879
▁sentence	-10.6879
▁Hono	-10.6879
▁Chapman	-10.6879
▁upright	-10.688
▁Anah	-10.688
▁innocent	-10.688
▁roast	-10.688
▁confession	-10.688
▁assembly	-10.688
▁unbelieving	-10.6881
▁print	-10.6882
▁rear	-10.6882
▁bondservant	-10.6883
▁muskets	-10.6883
▁crickets	-10.6883
▁City	-10.6884
▁foolishness	-10.6884
▁honorable	-10.6884
▁appeal	-10.6884
▁somewhere	-10.6885
▁Way	-10.6885
▁bag	-10.6885
▁sighed	-10.6886
▁dart	-10.6887
▁mention	-10.6888
owbeit	-10.6888
▁Seven	-10.6888
▁earnestly	-10.6891
▁boots	-10.6893
▁locusts	-10.6894
▁maybe	-10.6895
▁dove	-10.6898
▁persecuted	-10.6901
▁hinder	-10.6903
▁Sit	-10.6907
▁afflicted	-10.6911
▁listened	-10.6912
▁mocked	-10.6912
▁br	-10.6917
▁peril	-10.6917
▁entreated	-10.6917
▁sand	-10.6917
▁Fer	-10.6921
▁changed	-10.6922
▁hunters	-10.6926
▁Doth	-10.6931
▁interpreted	-10.6932
▁pocket	-10.6934
ttach	-10.6939
▁valu	-10.6943
▁breasts	-10.6945
▁soli	-10.6949
▁kindly	-10.695
▁beans	-10.6954
▁miles	-10.6956
▁suit	-10.6959
▁...	-10.6965
ix	-10.697
▁leavened	-10.6971
▁baskets	-10.6977
▁kneel	-10.6987
▁cloths	-10.6988
▁prisoners	-10.7006
▁bestow	-10.7008
▁besides	-10.7019
▁says	-10.7033
▁beating	-10.7037
▁mess	-10.7043
▁lots	-10.705
▁exalt	-10.7052
op	-10.7081
▁coats	-10.7093
▁stoned	-10.7104
▁salutation	-10.7104
mah	-10.7148
▁fearful	-10.7161
▁parables	-10.7167
▁lands	-10.717
▁Ho	-10.7197
▁ward	-10.7198
▁tombs	-10.7199
▁god	-10.7228
▁reasoning	-10.7228
▁sp	-10.7316
fully	-10.7321
▁aim	-10.7329
ans	-10.7337
▁clouds	-10.7339
▁today	-10.7363
ia	-10.7372
ture	-10.7383
ol	-10.739
▁haven	-10.7438
na	-10.7453
▁puff	-10.7513
▁rebuk	-10.762
▁arrow	-10.7624
godly	-10.7657
▁stepp	-10.7669
▁Repe	-10.7675
formed	-10.7689
▁avenge	-10.7724
▁po	-10.7735
▁withstand	-10.7738
dal	-10.7772
▁looks	-10.7777
▁rattl	-10.7779
▁step	-10.7818
ern	-10.7824
▁judgments	-10.7837
▁inward	-10.7847
▁Arables	-10.786
▁doors	-10.7878
morrow	-10.7891
ries	-10.7892
▁ho	-10.7909
▁bush	-10.7914
▁Abi	-10.7955
ered	-10.7958
▁cove	-10.7961
▁watered	-10.7968
ent	-10.7972
▁hem	-10.7987
gged	-10.8007
nother	-10.8016
▁fail	-10.8021
▁tradition	-10.8028
▁Cas	-10.8031
kins	-10.8034
▁trunk	-10.8038
▁climb	-10.8038
▁fugitive	-10.8041
▁chariot	-10.8041
▁mile	-10.8042
▁bras	-10.8045
▁toil	-10.8046
▁shoe	-10.8049
K	-10.8066
aram	-10.8071
you	-10.8072
Fern	-10.8073
▁fold	-10.8074
▁bone	-10.8076
▁rail	-10.8078
▁tear	-10.8078
▁torment	-10.8082
▁dress	-10.8084
▁entreat	-10.8085
down	-10.809
▁baptize	-10.8096
rust	-10.8099
some	-10.8101
▁provoke	-10.8106
doing	-10.8109
▁becoming	-10.8113
▁patient	-10.8114
▁crow	-10.8116
▁Maj	-10.8122
▁murder	-10.8122
aithful	-10.8126
eathen	-10.8127
▁vari	-10.8127
▁Barabbas	-10.8128
▁Caiaphas	-10.8128
▁Cephas	-10.8128
▁Cilicia	-10.8128
▁Naphtali	-10.8128
▁Rejoice	-10.8128
▁Return	-10.8128
▁Stretch	-10.8128
▁Zebulun	-10.8128
▁abundance	-10.8128
▁advantage	-10.8128
▁anguish	-10.8128
▁attempt	-10.8128
▁beauty	-10.8128
▁capital	-10.8128
▁cloak	-10.8128
▁coffee	-10.8128
▁courage	-10.8128
▁dancing	-10.8128
▁desperate	-10.8128
▁example	-10.8128
▁expedient	-10.8128
▁experience	-10.8128
▁necessity	-10.8128
▁ninth	-10.8128
▁nourish	-10.8128
▁olive	-10.8128
▁ouches	-10.8128
▁perdition	-10.8128
▁pledge	-10.8128
▁renew	-10.8128
▁stories	-10.8128
▁supply	-10.8128
▁terribl	-10.8128
▁uncircumcised	-10.8128
▁valley	-10.8128
▁wolf	-10.8128
▁almonds	-10.8128
▁mitre	-10.8128
▁Bethlehem	-10.8128
▁Dinah	-10.8128
▁Scot	-10.8128
▁easy	-10.8128
▁snake	-10.8128
▁stiff	-10.8128
▁Think	-10.8128
▁blank	-10.8128
▁narrow	-10.8128
▁baby	-10.8128
▁calm	-10.8128
▁Mark	-10.8128
▁dispute	-10.8128
▁pattern	-10.8128
▁redemption	-10.8128
▁Rome	-10.8128
▁abomination	-10.8128
▁conversation	-10.8128
▁yoke	-10.8128
▁tunnel	-10.8128
▁provide	-10.8128
▁townhouse	-10.8128
▁chance	-10.8128
▁Gerar	-10.8128
▁coals	-10.8128
▁Great	-10.8128
▁Adah	-10.8128
▁division	-10.8128
▁blameless	-10.8128
▁disgust	-10.8128
▁lump	-10.8128
▁impossible	-10.8128
▁Tyre	-10.8128
▁zealous	-10.8128
▁blasphemy	-10.8128
▁covetousness	-10.8128
▁miserable	-10.8129
▁admonish	-10.8129
▁signet	-10.8129
▁Jake	-10.8129
▁torn	-10.8129
▁Eber	-10.8129
▁sufficien	-10.813
▁spies	-10.813
▁partake	-10.813
▁profitable	-10.813
▁sorrowful	-10.8131
▁dish	-10.8131
▁dear	-10.8131
▁kindled	-10.8132
▁privately	-10.8132
▁clay	-10.8132
▁Lowan	-10.8132
▁clerk	-10.8132
▁skull	-10.8132
▁shift	-10.8132
▁fresh	-10.8132
▁scourge	-10.8133
▁Love	-10.8133
▁vast	-10.8133
▁weakness	-10.8133
▁doesn	-10.8134
▁cheek	-10.8134
▁firstfruits	-10.8135
▁uncleanness	-10.8135
ook	-10.8135
▁track	-10.8136
▁ordained	-10.8137
▁grabbed	-10.8137
▁discover	-10.8138
▁anyway	-10.8139
▁hopeless	-10.814
▁hay	-10.8141
▁entirely	-10.8141
▁wasn	-10.8143
▁selves	-10.8146
▁fist	-10.8147
▁health	-10.8148
▁descending	-10.815
▁farther	-10.815
▁waved	-10.8151
▁Soon	-10.8151
▁stripes	-10.8151
light	-10.8152
▁contain	-10.8153
▁clearly	-10.8158
▁smaller	-10.8162
up	-10.8162
line	-10.8162
▁yelled	-10.8163
▁endured	-10.8165
▁disappeared	-10.8166
▁pearls	-10.8169
▁ridges	-10.8169
▁diseases	-10.8169
ul	-10.8175
▁pins	-10.818
▁porch	-10.8181
▁limbs	-10.8181
▁babes	-10.8181
▁music	-10.8183
▁corrupted	-10.8184
▁openly	-10.8184
▁bugs	-10.8185
mote	-10.8188
▁dressed	-10.8192
▁wagons	-10.8193
▁transgressions	-10.8193
▁clothing	-10.8194
▁shade	-10.8195
▁proved	-10.8199
▁wit	-10.8199
▁quarter	-10.8202
▁freely	-10.8203
▁teacheth	-10.8203
▁sowed	-10.8211
pa	-10.8213
▁island	-10.8219
▁poke	-10.8228
▁drops	-10.8229
▁pigs	-10.824
▁ordinances	-10.8241
▁princes	-10.8241
ab	-10.8256
ping	-10.8258
▁ra	-10.8265
▁barely	-10.8265
lee	-10.8271
▁obeyed	-10.8273
▁judgest	-10.8273
▁nets	-10.8286
ites	-10.8287
▁shepherds	-10.8289
▁towns	-10.8289
▁preacher	-10.8292
ctually	-10.8301
▁weeks	-10.8301
▁beholding	-10.8302
▁hills	-10.8313
▁sawest	-10.8316
▁Seth	-10.8318
▁seeme	-10.8342
▁handle	-10.8356
▁acknowledge	-10.836
▁Write	-10.8362
▁opening	-10.8366
▁songs	-10.8374
▁perfected	-10.8394
ions	-10.8427
▁rods	-10.8443
ee	-10.8479
iel	-10.8481
▁lights	-10.8483
▁ti	-10.8523
▁lover	-10.8535
aved	-10.8537
▁strike	-10.8541
cy	-10.8584
▁Ar	-10.8641
tuck	-10.8652
▁sisters	-10.8656
▁principal	-10.8699
ree	-10.8819
▁Al	-10.8821
▁dra	-10.883
hu	-10.883
▁Z	-10.8844
▁Les	-10.8848
▁Whe	-10.8855
pe	-10.887
ft	-10.8881
ush	-10.8884
▁thereby	-10.8904
mer	-10.8904
▁settl	-10.8908
▁ended	-10.8909
▁saidst	-10.8912
ated	-10.8929
▁admir	-10.8958
▁camest	-10.8969
▁liken	-10.9
dden	-10.9032
▁bus	-10.9079
▁wa	-10.9097
▁du	-10.9103
ver	-10.9147
way	-10.9154
ice	-10.9179
▁distress	-10.9203
▁butter	-10.9279
ings	-10.9313
▁hearted	-10.9316
▁Am	-10.9333
▁plan	-10.9337
ade	-10.9361
rash	-10.9363
▁Ja	-10.9374
ut	-10.938
ash	-10.9381
ipped	-10.9389
▁Wa	-10.9397
▁”	-10.9412
il	-10.942
W	-10.9422
house	-10.9427
▁Er	-10.943
over	-10.9438
▁bullock	-10.9447
▁platter	-10.9449
▁plant	-10.945
▁mock	-10.9455
▁tale	-10.9458
▁bank	-10.9458
▁blade	-10.9462
▁dance	-10.9464
▁listen	-10.9466
▁thunder	-10.9468
▁clothe	-10.9468
▁talent	-10.9471
▁breast	-10.9474
▁weigh	-10.9483
▁envy	-10.9491
Just	-10.9498
▁forbear	-10.9499
stool	-10.9499
deep	-10.95
Where	-10.9501
but	-10.9501
So	-10.9503
▁suppos	-10.9503
Go	-10.9503
My	-10.9507
▁afflict	-10.9511
▁disappear	-10.9512
▁favour	-10.9513
▁hatch	-10.9513
▁jump	-10.9514
▁finish	-10.9514
▁harp	-10.9525
same	-10.9527
▁pea	-10.9528
▁persecute	-10.953
▁harden	-10.9535
▁plot	-10.9537
▁silent	-10.9543
▁quick	-10.9545
pon	-10.9546
▁adulter	-10.9547
▁careful	-10.9548
▁fade	-10.9549
▁potato	-10.9554
▁engrav	-10.9555
▁forsake	-10.9555
▁birth	-10.9555
▁speed	-10.9556
▁affection	-10.9556
▁Galil	-10.9556
▁Achaia	-10.9556
▁Aholibamah	-10.9556
▁Arphaxad	-10.9556
▁Beelzebub	-10.9556
▁Children	-10.9556
▁Cornelius	-10.9556
▁Cyprus	-10.9556
▁Cyren	-10.9556
▁Eliphaz	-10.9556
▁Felix	-10.9556
▁Fussy	-10.9556
▁Grounds	-10.9556
▁Hezron	-10.9556
▁Lieutenant	-10.9556
▁Melchizedek	-10.9556
▁Milcah	-10.9556
▁Zilpah	-10.9556
▁Zoar	-10.9556
▁accompan	-10.9556
▁adversaries	-10.9556
▁carnal	-10.9556
▁enormous	-10.9556
▁frozen	-10.9556
▁furniture	-10.9556
▁grandchildren	-10.9556
▁grapes	-10.9556
▁honour	-10.9556
▁infirmity	-10.9556
▁mediator	-10.9556
▁midwives	-10.9556
▁mischief	-10.9556
▁obedient	-10.9556
▁opportunity	-10.9556
▁outdoors	-10.9556
▁refuge	-10.9556
▁ringstraked	-10.9556
▁runners	-10.9556
▁storm	-10.9556
▁strove	-10.9556
▁woke	-10.9556
▁wolves	-10.9556
▁Elisabeth	-10.9556
▁Galatia	-10.9556
▁aloud	-10.9556
▁beckon	-10.9556
▁slaughter	-10.9556
▁steep	-10.9556
▁Olives	-10.9556
▁clever	-10.9556
▁gnash	-10.9556
▁pertain	-10.9556
▁adversary	-10.9556
▁occupied	-10.9556
▁myrrh	-10.9556
▁Korah	-10.9556
▁consecrate	-10.9556
▁regular	-10.9556
▁important	-10.9556
▁doctor	-10.9556
▁stockade	-10.9556
▁punishment	-10.9556
▁Enos	-10.9556
▁sinneth	-10.9556
▁birthright	-10.9556
▁holiness	-10.9556
▁stedfast	-10.9556
▁offspring	-10.9557
▁frame	-10.9557
▁Hades	-10.9557
▁train	-10.9557
▁mercies	-10.9557
▁freedom	-10.9557
▁litter	-10.9557
▁comment	-10.9557
▁reins	-10.9557
▁grate	-10.9557
▁check	-10.9557
▁Bash	-10.9558
▁flight	-10.9558
▁imagination	-10.9558
▁useful	-10.9558
▁lame	-10.9559
▁Asher	-10.9559
▁human	-10.9559
▁rejecteth	-10.9559
▁hundredfold	-10.9559
▁err	-10.956
▁Bar	-10.956
▁sense	-10.956
▁perplexed	-10.956
▁evermore	-10.956
▁fever	-10.956
▁Him	-10.956
▁spear	-10.956
▁swarm	-10.956
▁southward	-10.956
▁chest	-10.956
▁books	-10.956
▁Cainan	-10.9561
▁eastward	-10.9561
▁adorn	-10.9561
▁bake	-10.9561
▁throat	-10.9561
▁onyx	-10.9561
▁lend	-10.9562
zale	-10.9563
▁fourscore	-10.9563
▁recent	-10.9563
▁gladness	-10.9563
▁frost	-10.9565
▁menservants	-10.9566
▁view	-10.9567
▁sickle	-10.9567
▁box	-10.9568
▁pursued	-10.9568
▁march	-10.9569
▁Watch	-10.957
▁shineth	-10.957
▁ham	-10.9572
▁managed	-10.9572
▁ascended	-10.9573
▁deceived	-10.9573
▁refreshed	-10.9574
▁passage	-10.9575
▁tithes	-10.9577
▁soweth	-10.9578
▁Hast	-10.9578
▁loaded	-10.958
▁strengthened	-10.9582
der	-10.9582
▁Gad	-10.9582
▁axe	-10.9585
▁convict	-10.9588
▁manna	-10.959
ked	-10.959
tial	-10.9591
▁scared	-10.9592
▁restored	-10.9592
▁realize	-10.9601
skins	-10.9601
▁observed	-10.9603
▁gladly	-10.9604
▁pe	-10.9605
▁tasted	-10.9608
▁climbing	-10.9611
▁Amorites	-10.9619
▁Only	-10.962
▁higher	-10.9621
▁wondering	-10.9626
ue	-10.9629
▁weary	-10.9638
▁answereth	-10.9639
▁hanged	-10.9643
▁mid	-10.9647
▁rust	-10.9647
▁plans	-10.9648
▁sealed	-10.9652
▁incorruptible	-10.9654
▁beware	-10.9657
▁Hai	-10.9659
▁trunks	-10.966
▁therewith	-10.9663
▁steps	-10.9663
▁noon	-10.967
▁redeemed	-10.967
▁baker	-10.9673
▁doves	-10.9674
▁learning	-10.9677
L	-10.9678
▁fainted	-10.9683
▁upward	-10.9687
tion	-10.9708
▁shadows	-10.9717
▁tempt	-10.9721
▁herbs	-10.9728
▁feeding	-10.9738
immed	-10.9744
▁dogs	-10.9744
▁castle	-10.9745
▁accus	-10.9747
▁meant	-10.9749
▁wouldn	-10.9789
▁attend	-10.9794
▁suffering	-10.981
▁possessions	-10.9815
stroke	-10.9818
▁sixt	-10.9819
▁reed	-10.9823
▁spot	-10.9824
ack	-10.9832
▁candlesticks	-10.9843
▁pitch	-10.989
do	-10.9937
▁captains	-10.9943
▁imagine	-10.9948
▁lovely	-10.9957
▁seats	-10.9967
more	-10.9975
▁temper	-10.9983
▁blot	-11.0013
▁Roman	-11.0019
go	-11.0047
ins	-11.006
▁killing	-11.0065
▁keeper	-11.0102
▁wars	-11.0104
▁Will	-11.0137
▁boats	-11.0145
▁sounds	-11.0148
om	-11.0163
ith	-11.0166
▁courts	-11.0174
lock	-11.0182
▁cow	-11.0201
▁Ad	-11.0212
▁El	-11.0252
she	-11.0295
▁Bo	-11.0311
▁tents	-11.0321
ified	-11.0334
▁herd	-11.0352
▁De	-11.0353
ship	-11.0373
nd	-11.0381
▁fan	-11.0385
▁worm	-11.0406
ni	-11.0408
▁base	-11.041
▁dippe	-11.0411
▁comest	-11.0444
dge	-11.0449
▁pai	-11.0489
liness	-11.0564
▁prov	-11.0632
▁sa	-11.064
ble	-11.0675
▁yell	-11.07
▁va	-11.0708
br	-11.0711
ster	-11.0717
don	-11.0756
▁n	-11.0771
▁fro	-11.0801
pers	-11.0805
▁com	-11.0814
▁gun	-11.0827
ane	-11.0845
ally	-11.0846
ay	-11.0923
▁befall	-11.0926
test	-11.0947
▁pre	-11.0962
head	-11.0975
▁Yes	-11.0986
set	-11.0997
ough	-11.1021
servant	-11.1043
pped	-11.1059
▁hours	-11.1072
▁scrap	-11.1084
▁Sa	-11.1098
▁balloon	-11.1099
▁webs	-11.1102
▁scatter	-11.111
▁whoso	-11.1112
▁labour	-11.1113
sh	-11.1114
fold	-11.1123
▁sepulchre	-11.1124
▁brick	-11.1124
ations	-11.1125
▁lion	-11.1126
▁statute	-11.1128
▁provision	-11.1128
▁liar	-11.1128
▁persecution	-11.1128
▁cha	-11.113
▁messenger	-11.1131
▁maidservant	-11.1133
▁murderer	-11.1133
▁wound	-11.1134
▁wagon	-11.1135
▁transgression	-11.1135
▁idol	-11.1136
ced	-11.1138
▁publican	-11.1139
lk	-11.1143
▁Canaanite	-11.1144
H	-11.1153
control	-11.1155
Please	-11.1156
ists	-11.1159
▁stir	-11.116
▁receiv	-11.116
May	-11.1163
▁pound	-11.1163
▁officer	-11.1165
chamber	-11.1165
▁gnaw	-11.1165
Some	-11.1167
▁tabernacles	-11.1167
Come	-11.1167
Templeton	-11.1167
▁boil	-11.1168
She	-11.1171
▁attain	-11.1174
▁confirm	-11.1175
▁oppress	-11.1176
▁bark	-11.118
li	-11.1182
icken	-11.1185
▁reveal	-11.1186
▁eviden	-11.1188
All	-11.1191
▁Y	-11.1193
▁fin	-11.1194
▁deceive	-11.1196
▁peri	-11.1201
▁mud	-11.1201
▁gird	-11.1201
▁inquire	-11.1203
▁require	-11.1204
rough	-11.1207
bor	-11.1207
▁remove	-11.1208
▁fierce	-11.121
▁assured	-11.121
▁glorious	-11.1213
uffer	-11.1215
▁knock	-11.1217
▁Syria	-11.1219
gers	-11.122
▁gentle	-11.122
▁sc	-11.1221
urthermore	-11.1221
▁sect	-11.1221
▁correct	-11.1222
stitute	-11.1222
▁abst	-11.1223
▁effect	-11.1223
▁extra	-11.1223
torium	-11.1223
▁Alexander	-11.1223
▁Aquila	-11.1223
▁Believe	-11.1223
▁Creek	-11.1223
▁Eleazar	-11.1223
▁Hebron	-11.1223
▁Iconium	-11.1223
▁Issachar	-11.1223
▁Jericho	-11.1223
▁KING	-11.1223
▁Laodicea	-11.1223
▁Lystra	-11.1223
▁Machpelah	-11.1223
▁Mahalaleel	-11.1223
▁Methuselah	-11.1223
▁Nazarene	-11.1223
▁Peleg	-11.1223
▁Reu	-11.1223
▁Sunday	-11.1223
▁Troas	-11.1223
▁Zibeon	-11.1223
▁audience	-11.1223
▁autumn	-11.1223
▁baptizing	-11.1223
▁blemish	-11.1223
▁bracelets	-11.1223
▁breeze	-11.1223
▁ceiling	-11.1223
▁cleave	-11.1223
▁conditions	-11.1223
▁desolation	-11.1223
▁eldest	-11.1223
▁enmity	-11.1223
▁ensample	-11.1223
▁execute	-11.1223
▁foreordained	-11.1223
▁foreskin	-11.1223
▁ignorance	-11.1223
▁jasper	-11.1223
▁majesty	-11.1223
▁merchandise	-11.1223
▁mirror	-11.1223
▁muscle	-11.1223
▁newspaper	-11.1223
▁opinion	-11.1223
▁plenteous	-11.1223
▁rejoicing	-11.1223
▁relief	-11.1223
▁reprobate	-11.1223
▁reserved	-11.1223
▁roar	-11.1223
▁rotten	-11.1223
▁savor	-11.1223
▁serving	-11.1223
▁studie	-11.1223
▁taskmasters	-11.1223
▁tetrarch	-11.1223
▁tobacco	-11.1223
▁treasury	-11.1223
▁unprofitable	-11.1223
▁wool	-11.1223
▁Army	-11.1223
▁Word	-11.1223
▁downhill	-11.1223
▁overshadow	-11.1223
▁paused	-11.1223
▁queer	-11.1223
▁represent	-11.1223
▁shield	-11.1223
▁stink	-11.1223
▁magic	-11.1223
▁scorch	-11.1223
▁spell	-11.1223
▁Eden	-11.1223
▁existence	-11.1223
▁Alph	-11.1223
▁soap	-11.1223
▁success	-11.1223
▁needlework	-11.1223
▁excellenc	-11.1223
▁limit	-11.1223
▁estate	-11.1223
▁grind	-11.1223
▁magnified	-11.1223
▁Jesse	-11.1223
▁triumph	-11.1223
▁foursquare	-11.1223
▁Tamar	-11.1223
▁vinegar	-11.1223
▁quail	-11.1223
▁brave	-11.1223
▁displease	-11.1223
▁unfruitful	-11.1223
▁aforetime	-11.1223
▁Government	-11.1223
▁situation	-11.1223
▁folk	-11.1223
▁serious	-11.1223
▁squatted	-11.1223
▁Salah	-11.1223
▁fame	-11.1223
▁doughnut	-11.1223
▁encamp	-11.1223
▁herdmen	-11.1223
▁government	-11.1223
▁message	-11.1224
▁omer	-11.1224
▁Jared	-11.1224
▁object	-11.1224
▁readiness	-11.1224
▁Reuel	-11.1224
▁Rain	-11.1224
▁hypocrisy	-11.1224
▁tenons	-11.1224
▁center	-11.1224
▁Moon	-11.1224
▁barnyard	-11.1225
▁melt	-11.1225
▁dangerous	-11.1225
▁proof	-11.1225
▁dy	-11.1225
▁depth	-11.1225
▁match	-11.1225
▁Rise	-11.1225
▁saving	-11.1226
▁Shelah	-11.1227
▁Syrian	-11.1227
▁Old	-11.1227
▁squash	-11.1228
▁range	-11.1228
▁recover	-11.1228
▁thrash	-11.1229
▁study	-11.1229
▁Without	-11.123
▁spotted	-11.123
▁mass	-11.1231
▁laden	-11.1231
▁convert	-11.1232
▁whiskers	-11.1232
▁prophesied	-11.1232
▁purchased	-11.1232
▁justice	-11.1234
ext	-11.1234
▁lonely	-11.1235
▁surety	-11.1235
▁eighth	-11.1235
▁repeated	-11.1235
▁sniffed	-11.1235
▁vexed	-11.1235
▁prof	-11.1236
▁reproved	-11.1236
▁edifying	-11.1236
foot	-11.1236
workers	-11.1238
▁pair	-11.1239
▁ripe	-11.1239
▁sickness	-11.124
▁sum	-11.124
▁nurse	-11.1241
▁sinful	-11.1241
▁sway	-11.1242
▁Hur	-11.1243
▁fixed	-11.1244
cut	-11.1245
ael	-11.1245
▁circle	-11.1246
▁couch	-11.1247
▁inquired	-11.1248
muel	-11.125
▁blaspheme	-11.1251
▁setting	-11.1251
▁instructed	-11.1252
▁collected	-11.1252
▁covet	-11.1252
▁exten	-11.1253
▁nodded	-11.1255
▁softly	-11.1255
▁groaning	-11.1257
▁evident	-11.1257
▁backward	-11.126
▁plainly	-11.1262
▁riding	-11.1262
▁Other	-11.1264
▁somebody	-11.1265
▁wounded	-11.1269
▁despised	-11.1273
▁released	-11.1273
▁lace	-11.1274
▁marvell	-11.1275
▁pervert	-11.1279
▁Cret	-11.128
▁murmurings	-11.1281
▁distressed	-11.1283
▁forbidd	-11.1293
▁distan	-11.1295
▁cursed	-11.1296
▁searching	-11.1297
▁testifying	-11.1297
▁hogs	-11.1298
▁Samaritans	-11.1298
▁marketplaces	-11.1298
▁questionings	-11.1299
▁May	-11.1301
▁accepted	-11.1301
▁openeth	-11.1301
▁intent	-11.1304
▁hairy	-11.1306
▁laws	-11.1308
▁sojourned	-11.131
▁ju	-11.131
▁pounds	-11.1314
▁maidservants	-11.1315
▁ours	-11.132
▁housetop	-11.132
▁plants	-11.133
sive	-11.1333
robably	-11.1333
▁begged	-11.1337
▁workers	-11.1337
uffle	-11.1348
▁coves	-11.1349
▁exhorted	-11.1352
▁paths	-11.1364
▁virgins	-11.1364
▁waves	-11.1365
▁uttered	-11.1367
▁labored	-11.1369
▁speakest	-11.137
mit	-11.1371
▁knops	-11.1381
Not	-11.1383
▁shapes	-11.1383
▁clearing	-11.1385
▁Good	-11.1388
▁hundreds	-11.1393
▁entertain	-11.1398
▁burying	-11.1402
▁Mo	-11.1404
▁beach	-11.141
▁bands	-11.1414
▁Mi	-11.1419
▁pots	-11.1419
▁Eli	-11.1421
▁appearing	-11.1429
ech	-11.1438
▁drinketh	-11.1442
▁supplications	-11.1448
▁occasions	-11.1453
▁Sometime	-11.1459
iness	-11.1459
▁Co	-11.1461
gging	-11.1469
▁di	-11.1487
▁rac	-11.1494
▁serpents	-11.1499
ide	-11.1506
▁En	-11.1519
▁roots	-11.1533
▁fasting	-11.1534
▁Ou	-11.1547
▁holes	-11.155
nce	-11.1578
▁constrain	-11.159
▁creeks	-11.1601
▁Pi	-11.1607
▁char	-11.1616
▁bother	-11.1623
▁sayings	-11.164
▁smelling	-11.1641
▁dreaming	-11.165
▁seest	-11.1657
▁examin	-11.1663
▁helping	-11.1669
▁lone	-11.1672
▁Ne	-11.1691
▁pop	-11.1695
▁Sin	-11.1707
▁process	-11.1731
ha	-11.1738
▁gra	-11.1743
▁sta	-11.1782
▁tangle	-11.1795
uch	-11.1876
how	-11.1897
by	-11.1922
longeth	-11.1967
ig	-11.1973
trusted	-11.1992
▁nuts	-11.2032
▁hairs	-11.2038
v	-11.2038
pic	-11.2068
lushed	-11.2082
Is	-11.2086
tur	-11.2104
▁Con	-11.2105
▁signifie	-11.2109
lic	-11.2111
pensation	-11.2139
▁member	-11.2147
ious	-11.2148
▁spi	-11.2148
▁Ari	-11.2183
son	-11.2195
▁Jo	-11.2218
▁mere	-11.2241
▁Le	-11.2243
N	-11.2284
▁win	-11.2293
▁cur	-11.2302
tic	-11.2307
os	-11.2332
treated	-11.2338
▁sub	-11.234
da	-11.2356
▁welcome	-11.2363
are	-11.237
▁treasures	-11.2377
ign	-11.2385
▁im	-11.2391
▁bas	-11.24
▁ease	-11.2405
ancy	-11.2413
▁sprinkle	-11.2422
lah	-11.2424
▁throw	-11.2439
▁pie	-11.2456
▁dodg	-11.2512
ale	-11.255
▁fain	-11.2584
▁lords	-11.2622
▁cutt	-11.2629
cession	-11.2636
io	-11.2674
▁imagin	-11.268
bal	-11.2683
▁simpl	-11.2684
llen	-11.2705
▁examine	-11.2711
▁shave	-11.2717
▁longing	-11.2718
▁cor	-11.2719
shed	-11.2725
▁heave	-11.2725
▁Sheba	-11.2745
pping	-11.279
pots	-11.2818
nas	-11.2819
▁Gree	-11.2821
▁min	-11.2835
tained	-11.2865
▁cap	-11.289
▁flu	-11.2925
own	-11.2957
ving	-11.2974
long	-11.2978
▁Sha	-11.2978
ged	-11.298
▁Ju	-11.2994
▁Ten	-11.3013
like	-11.3028
M	-11.3058
right	-11.3065
cept	-11.308
hold	-11.3084
▁rid	-11.3091
▁ga	-11.3092
held	-11.3094
ccord	-11.3109
▁tumult	-11.3114
▁Na	-11.3115
▁trans	-11.3126
▁eunuch	-11.3131
▁shilling	-11.3131
▁chestnut	-11.3131
corruptible	-11.3132
▁sheet	-11.3132
▁plate	-11.3132
▁Samaritan	-11.3132
▁marketplace	-11.3132
▁Day	-11.3132
▁Amorite	-11.3134
▁babe	-11.3135
worker	-11.3136
▁hunter	-11.3143
▁push	-11.3152
wear	-11.3153
▁hog	-11.3154
▁limb	-11.3155
▁instruction	-11.3162
Will	-11.3164
color	-11.3166
When	-11.3168
Wilbur	-11.3168
▁includ	-11.3169
midst	-11.3169
▁pin	-11.317
▁accomplish	-11.3179
Of	-11.318
▁prevail	-11.318
▁Late	-11.318
▁hind	-11.3182
▁charg	-11.3182
▁handful	-11.3187
yard	-11.319
▁dim	-11.3192
▁K	-11.3202
▁decide	-11.3204
▁conceive	-11.3204
▁circumcise	-11.3205
lace	-11.3206
▁lunch	-11.3208
ursed	-11.3208
▁confident	-11.3209
▁fervent	-11.3209
▁brief	-11.321
▁mouths	-11.3211
▁shout	-11.3211
▁deceitful	-11.3211
▁difficult	-11.3213
uddenly	-11.3213
▁warn	-11.3215
▁overthrow	-11.3219
▁rend	-11.3221
▁purse	-11.3222
▁zeal	-11.3222
▁confus	-11.3222
▁deceit	-11.3222
▁cruel	-11.3222
▁pant	-11.3223
▁Corinth	-11.3223
▁Bethsaida	-11.3223
▁Boudinot	-11.3223
▁Chedorlaomer	-11.3223
▁Chief	-11.3223
▁Deliver	-11.3223
▁Friend	-11.3223
▁Nadab	-11.3223
▁Pamphylia	-11.3223
▁Philippi	-11.3223
▁Serug	-11.3223
▁Tarsus	-11.3223
▁Thomas	-11.3223
▁Tychicus	-11.3223
▁YHWH	-11.3223
▁abolish	-11.3223
▁accurately	-11.3223
▁affrighted	-11.3223
▁amazement	-11.3223
▁anathema	-11.3223
▁attitude	-11.3223
▁beguile	-11.3223
▁betrothed	-11.3223
▁borrow	-11.3223
▁bridle	-11.3223
▁carriage	-11.3223
▁cornmeal	-11.3223
▁cotton	-11.3223
▁cream	-11.3223
▁dissolved	-11.3223
▁furlongs	-11.3223
▁grandmother	-11.3223
▁grandstand	-11.3223
▁grinned	-11.3223
▁heretofore	-11.3223
▁hospitality	-11.3223
▁hurry	-11.3223
▁infirmities	-11.3223
▁insurrection	-11.3223
▁leather	-11.3223
▁magazine	-11.3223
▁mandrakes	-11.3223
▁muttered	-11.3223
▁nutrients	-11.3223
▁organisms	-11.3223
▁perfume	-11.3223
▁racket	-11.3223
▁regret	-11.3223
▁religion	-11.3223
▁spinnerets	-11.3223
▁strict	-11.3223
▁stunned	-11.3223
▁task	-11.3223
▁terrified	-11.3223
▁thieves	-11.3223
▁thoroughly	-11.3223
▁ungodliness	-11.3223
▁upstairs	-11.3223
▁vanity	-11.3223
▁vengeance	-11.3223
▁whisky	-11.3223
closing	-11.3223
▁avoid	-11.3223
▁cheese	-11.3223
▁consecration	-11.3223
▁deaf	-11.3223
▁decision	-11.3223
▁excess	-11.3223
▁flavor	-11.3223
▁grief	-11.3223
▁indoors	-11.3223
▁kinsmen	-11.3223
▁lascivious	-11.3223
▁orchard	-11.3223
▁powder	-11.3223
▁progress	-11.3223
▁secur	-11.3223
▁sweep	-11.3223
▁swelling	-11.3223
▁thumb	-11.3223
▁worried	-11.3223
▁Diana	-11.3223
▁Nathanael	-11.3223
▁alien	-11.3223
▁burst	-11.3223
▁polish	-11.3223
▁sneak	-11.3223
▁rumor	-11.3223
▁slumber	-11.3223
▁Hosanna	-11.3223
▁neglect	-11.3223
▁Aholi	-11.3223
▁Like	-11.3223
▁gravity	-11.3223
▁crumbs	-11.3223
▁difference	-11.3223
▁citizenship	-11.3223
Sleep	-11.3223
▁choke	-11.3223
▁heavily	-11.3223
▁snout	-11.3223
▁continuing	-11.3223
▁fables	-11.3223
Humble	-11.3223
▁Deep	-11.3223
▁delay	-11.3223
▁tag	-11.3223
▁odor	-11.3223
▁overtake	-11.3223
▁bald	-11.3223
diment	-11.3223
▁Gaius	-11.3223
▁Zerah	-11.3223
▁Jason	-11.3223
▁bowels	-11.3223
▁Heaven	-11.3223
▁Depart	-11.3223
▁support	-11.3223
▁babies	-11.3223
▁straitened	-11.3223
▁consolation	-11.3223
▁bucket	-11.3223
▁riverboat	-11.3223
▁seventeen	-11.3223
▁graft	-11.3223
▁Tru	-11.3223
▁bleed	-11.3223
▁urgent	-11.3223
▁brook	-11.3223
▁stewardship	-11.3223
▁uncertain	-11.3223
▁sincerity	-11.3223
▁dig	-11.3223
▁gentlemen	-11.3223
▁dollar	-11.3224
▁buck	-11.3224
▁wallet	-11.3224
▁partner	-11.3224
▁property	-11.3224
▁crook	-11.3224
▁assign	-11.3224
▁accusation	-11.3224
▁otherwise	-11.3224
▁Herodias	-11.3224
▁confusion	-11.3224
▁provender	-11.3224
▁scales	-11.3224
▁stem	-11.3224
▁victory	-11.3224
▁attack	-11.3224
▁tower	-11.3224
▁envie	-11.3224
▁assay	-11.3224
▁hys	-11.3224
▁landscape	-11.3224
▁wot	-11.3224
▁duty	-11.3224
▁liquor	-11.3224
▁chew	-11.3224
▁lice	-11.3224
▁shamefully	-11.3225
▁carton	-11.3225
▁split	-11.3225
Bee	-11.3225
▁dung	-11.3225
▁shortened	-11.3225
▁utterance	-11.3225
▁distinction	-11.3225
▁friendship	-11.3225
▁expectation	-11.3225
▁raw	-11.3225
▁behave	-11.3225
▁motionless	-11.3225
▁square	-11.3225
▁offence	-11.3226
▁appearance	-11.3226
▁potatoes	-11.3226
▁westward	-11.3226
▁firm	-11.3226
▁filthy	-11.3226
▁dizzy	-11.3226
▁memory	-11.3226
▁pepper	-11.3226
▁spilled	-11.3226
▁peach	-11.3227
▁tossed	-11.3227
▁potter	-11.3227
▁argument	-11.3227
▁Save	-11.3228
▁election	-11.3228
▁cris	-11.3228
▁punished	-11.3229
▁frightened	-11.3229
▁booth	-11.3229
▁ladies	-11.323
agement	-11.323
▁Jonah	-11.3231
▁Keep	-11.3231
neck	-11.3232
▁boast	-11.3232
▁wake	-11.3232
▁priesthood	-11.3233
▁glanc	-11.3234
▁squirrels	-11.3234
▁relieved	-11.3234
▁Onan	-11.3235
tual	-11.3238
▁chuckled	-11.3238
▁explained	-11.3238
▁trembled	-11.3239
▁comfortable	-11.3239
▁Sam	-11.3239
▁gainsaying	-11.3239
▁Over	-11.3239
▁graven	-11.324
▁slight	-11.3241
R	-11.3242
▁stage	-11.3243
▁pine	-11.3245
▁moth	-11.3247
lapped	-11.3247
▁pretend	-11.3247
▁noble	-11.3248
ross	-11.3249
▁chastening	-11.325
▁scar	-11.325
▁upside	-11.3252
▁weave	-11.3253
▁however	-11.3253
▁Fall	-11.3253
▁damp	-11.3254
▁whispering	-11.3254
▁tares	-11.3254
▁warriors	-11.3254
▁idolaters	-11.3254
▁swo	-11.3255
▁blasphemed	-11.3255
servants	-11.3255
▁entr	-11.3255
▁stern	-11.3256
▁liver	-11.3258
▁closer	-11.3259
▁laborers	-11.3261
▁Anna	-11.3267
▁ax	-11.3268
▁severally	-11.3269
▁position	-11.327
▁key	-11.3271
▁Nothing	-11.3271
▁humbled	-11.3272
▁assembled	-11.3273
▁Jebusites	-11.3275
▁fornicators	-11.3275
▁shelters	-11.3275
▁Perizzites	-11.3275
▁grievously	-11.3275
▁throwing	-11.3277
▁forthwith	-11.3277
▁ma	-11.3278
▁news	-11.3278
▁chase	-11.3278
▁girded	-11.3279
▁bug	-11.328
▁barking	-11.3282
▁flatter	-11.3283
▁sir	-11.3285
▁spinn	-11.3286
▁stack	-11.3287
▁passions	-11.3289
▁lid	-11.3291
▁scattering	-11.3291
▁thereunto	-11.3292
▁seethe	-11.3292
▁fi	-11.3292
▁droppings	-11.3295
▁joints	-11.3295
▁sparrows	-11.3295
▁personal	-11.3299
▁tormented	-11.33
▁perisheth	-11.3303
▁mocking	-11.3304
▁failing	-11.3304
bed	-11.3305
▁closely	-11.3309
▁starv	-11.331
▁delighted	-11.331
▁fatherless	-11.331
▁deck	-11.3311
Thank	-11.3312
▁eunuchs	-11.3316
▁shillings	-11.3316
▁chestnuts	-11.3316
▁plates	-11.3316
▁thinkest	-11.3321
som	-11.3322
▁stopp	-11.3324
▁treated	-11.3325
▁veiled	-11.3331
▁questioning	-11.3334
▁invisible	-11.3337
▁messengers	-11.3337
▁Whom	-11.3339
arley	-11.3346
▁singing	-11.3348
▁firstling	-11.335
▁wont	-11.3353
ole	-11.3354
sop	-11.3357
▁considered	-11.3358
▁inhabited	-11.3362
▁mist	-11.337
ton	-11.3375
▁manif	-11.3377
▁interesting	-11.3377
▁prophesying	-11.3378
▁serveth	-11.3383
iest	-11.3383
▁ahead	-11.3383
▁needeth	-11.3384
▁exhorting	-11.3392
II	-11.3395
ature	-11.3397
▁efforts	-11.3399
▁cart	-11.341
vile	-11.341
▁proceeded	-11.3412
▁older	-11.3416
▁minutes	-11.342
▁filling	-11.342
▁windows	-11.342
ards	-11.3425
▁believest	-11.3429
▁fashioned	-11.3434
▁ja	-11.3436
▁dec	-11.3439
▁fle	-11.344
▁hatchets	-11.3441
his	-11.3448
▁breathing	-11.3453
▁heirs	-11.3461
▁awful	-11.3479
▁seals	-11.3488
ible	-11.3501
alam	-11.352
side	-11.353
▁tooth	-11.3537
▁divine	-11.3544
▁forever	-11.355
mp	-11.3557
▁pri	-11.3565
▁fowls	-11.3567
▁miracles	-11.3567
▁males	-11.3568
revious	-11.3596
▁sco	-11.3608
▁wheels	-11.361
▁afterwards	-11.361
▁questions	-11.3611
▁Se	-11.362
▁remind	-11.3622
▁cane	-11.3633
▁Bu	-11.366
co	-11.3672
▁pleasures	-11.3674
▁helper	-11.3679
nath	-11.368
ff	-11.3682
▁tails	-11.3695
▁Cana	-11.3711
bah	-11.3728
dom	-11.3748
▁helped	-11.3752
ran	-11.3755
▁accuser	-11.3756
▁pa	-11.3761
uth	-11.3779
▁images	-11.3803
▁ash	-11.3807
row	-11.3813
hin	-11.385
▁scorn	-11.3865
▁doll	-11.3873
ded	-11.3902
urge	-11.3909
▁orders	-11.3911
gy	-11.3912
▁shell	-11.3972
eph	-11.4007
▁points	-11.4036
ise	-11.4057
▁peaceful	-11.4065
ears	-11.4078
▁trac	-11.4099
▁su	-11.4104
▁sy	-11.4106
▁lur	-11.4111
▁intreat	-11.4118
ias	-11.413
ast	-11.4162
▁tip	-11.4165
▁decompose	-11.4224
tal	-11.4225
▁bl	-11.4236
ork	-11.4252
aph	-11.4257
▁helps	-11.4306
▁ver	-11.4315
▁puffe	-11.4344
▁empt	-11.4385
▁runt	-11.4389
ating	-11.4413
rushed	-11.4435
▁steppe	-11.4444
por	-11.4456
▁commune	-11.4458
▁decompos	-11.4487
▁bees	-11.4508
nched	-11.454
▁mar	-11.456
ify	-11.4606
ull	-11.4625
cked	-11.4635
▁layer	-11.466
als	-11.4672
▁tu	-11.4684
▁tool	-11.4696
phe	-11.4727
ile	-11.4741
▁Ti	-11.4754
▁Si	-11.4757
▁bar	-11.478
▁Whit	-11.479
rim	-11.4833
pture	-11.4845
▁val	-11.4856
▁mol	-11.4881
angled	-11.4887
▁qua	-11.4895
erah	-11.4897
▁kn	-11.501
pen	-11.5012
rous	-11.5018
iv	-11.5032
▁dip	-11.5068
▁Wi	-11.5069
▁distribute	-11.5118
▁doer	-11.5122
com	-11.513
▁Ah	-11.5141
▁settle	-11.5148
▁Di	-11.5157
dull	-11.5165
▁camel	-11.5192
bout	-11.5222
▁whit	-11.524
ere	-11.5265
▁rag	-11.5302
▁Ca	-11.531
ians	-11.5333
ock	-11.5336
▁injur	-11.5349
lations	-11.5351
rated	-11.5371
▁overthr	-11.5375
eak	-11.5378
unt	-11.5378
board	-11.5394
ung	-11.5401
onsider	-11.5409
eez	-11.542
▁cake	-11.5421
uck	-11.5442
▁using	-11.5461
▁Bela	-11.5465
ower	-11.5478
▁Mu	-11.5539
round	-11.555
work	-11.5554
▁prefer	-11.5569
▁vow	-11.557
▁skill	-11.5576
▁Set	-11.5578
visible	-11.558
antic	-11.5605
ttention	-11.5609
▁candle	-11.5611
▁invent	-11.5619
cerning	-11.5621
▁exp	-11.5622
▁groan	-11.5622
▁nail	-11.5624
▁debtor	-11.5625
▁rank	-11.5626
▁pomegranate	-11.5628
▁weapon	-11.5628
▁murmur	-11.563
ngel	-11.563
▁sparrow	-11.5631
▁dropping	-11.5631
▁deceiver	-11.5632
stone	-11.5633
▁disease	-11.5634
▁perver	-11.5636
▁descend	-11.5637
▁gosling	-11.5637
▁cla	-11.5638
took	-11.5638
▁loop	-11.564
▁pearl	-11.5642
aged	-11.5644
▁partaker	-11.5648
▁chain	-11.5649
course	-11.565
ined	-11.5653
tled	-11.5655
▁prais	-11.566
Stop	-11.5661
Nothing	-11.5662
▁judg	-11.5662
Edith	-11.5665
terrific	-11.5665
▁despair	-11.5666
bow	-11.5667
front	-11.5667
Who	-11.5667
worthy	-11.5668
gave	-11.5668
Did	-11.5669
▁purify	-11.5671
▁waste	-11.5671
master	-11.5671
fell	-11.5672
face	-11.5673
For	-11.5673
▁load	-11.5674
▁jo	-11.5676
thirst	-11.5676
▁instruct	-11.5676
▁threaten	-11.5677
▁collect	-11.5677
▁ridge	-11.568
▁Kno	-11.5682
▁murmuring	-11.5682
nets	-11.5685
Then	-11.5689
ouched	-11.5696
▁strengthen	-11.5696
▁preten	-11.5697
rent	-11.5698
key	-11.5698
▁excite	-11.5701
▁arrange	-11.5702
▁tremble	-11.5702
▁surprise	-11.5702
▁reprove	-11.5702
▁approve	-11.5704
▁swa	-11.5704
▁general	-11.5709
ounded	-11.5709
▁vague	-11.571
▁clan	-11.571
ps	-11.571
▁Ke	-11.5711
▁exact	-11.5711
▁abundant	-11.5711
▁immediate	-11.5711
▁bruise	-11.5712
▁supplie	-11.5712
▁greas	-11.5713
▁map	-11.5714
▁cheerful	-11.5714
▁glorie	-11.5715
▁sur	-11.5716
hood	-11.5716
▁bon	-11.5717
They	-11.5717
▁ski	-11.5718
▁safe	-11.5719
spect	-11.5719
weed	-11.5719
▁railing	-11.572
▁transgress	-11.572
belief	-11.5721
they	-11.5721
▁debt	-11.5721
▁riot	-11.5721
▁express	-11.5722
▁cherub	-11.5722
▁proper	-11.5722
▁flour	-11.5722
▁yo	-11.5722
▁strait	-11.5723
nswere	-11.5723
bby	-11.5723
Listen	-11.5723
Terrific	-11.5723
latchet	-11.5723
tarsus	-11.5723
▁Amminadab	-11.5723
▁Aristarchus	-11.5723
▁Comforter	-11.5723
▁Congress	-11.5723
▁Cranshaw	-11.5723
▁Derbe	-11.5723
▁Dishon	-11.5723
▁Ephrath	-11.5723
▁Euphrates	-11.5723
▁GOD	-11.5723
▁Havilah	-11.5723
▁Hearken	-11.5723
▁Hogsucker	-11.5723
▁Ishmeelites	-11.5723
▁Kohath	-11.5723
▁Nicodemus	-11.5723
▁PIG	-11.5723
▁Receive	-11.5723
▁Succoth	-11.5723
▁Would	-11.5723
▁Zohar	-11.5723
▁absence	-11.5723
▁adoption	-11.5723
▁afford	-11.5723
▁assurance	-11.5723
▁blowgun	-11.5723
▁bounty	-11.5723
▁cabbage	-11.5723
▁century	-11.5723
▁chapiters	-11.5723
▁cinnamon	-11.5723
▁convenient	-11.5723
▁correspond	-11.5723
▁demanded	-11.5723
▁devise	-11.5723
▁emerald	-11.5723
▁engine	-11.5723
▁foxes	-11.5723
▁glutton	-11.5723
▁greeting	-11.5723
▁handkerchief	-11.5723
▁hereafter	-11.5723
▁incorruption	-11.5723
▁insects	-11.5723
▁level	-11.5723
▁mysterious	-11.5723
▁necessities	-11.5723
▁nostrils	-11.5723
▁obeisance	-11.5723
▁perform	-11.5723
▁picture	-11.5723
▁pilgrims	-11.5723
▁president	-11.5723
▁proconsul	-11.5723
▁pronounce	-11.5723
▁propitiation	-11.5723
▁province	-11.5723
▁raspberr	-11.5723
▁request	-11.5723
▁response	-11.5723
▁restitution	-11.5723
▁restrained	-11.5723
▁reviling	-11.5723
▁revived	-11.5723
▁sapphire	-11.5723
▁sardius	-11.5723
▁scrivener	-11.5723
▁showbread	-11.5723
▁shrank	-11.5723
▁smiled	-11.5723
▁solemn	-11.5723
▁straddle	-11.5723
▁survive	-11.5723
▁sworn	-11.5723
▁terror	-11.5723
▁twig	-11.5723
▁unloose	-11.5723
▁unmarried	-11.5723
▁unusual	-11.5723
▁whiskey	-11.5723
▁Brother	-11.5723
▁Servant	-11.5723
▁concubine	-11.5723
▁diminish	-11.5723
▁element	-11.5723
▁emerge	-11.5723
▁haught	-11.5723
▁horizon	-11.5723
▁impart	-11.5723
▁latter	-11.5723
▁occur	-11.5723
▁orange	-11.5723
▁queen	-11.5723
▁riverbank	-11.5723
▁roam	-11.5723
▁swift	-11.5723
▁Gilead	-11.5723
▁Ithamar	-11.5723
▁Likewise	-11.5723
▁disappoint	-11.5723
▁discreet	-11.5723
▁fraction	-11.5723
▁leprosy	-11.5723
▁mammon	-11.5723
▁merchant	-11.5723
▁mule	-11.5723
▁mysteries	-11.5723
▁raven	-11.5723
▁reproof	-11.5723
▁unimagin	-11.5723
▁clipping	-11.5723
▁giant	-11.5723
▁impress	-11.5723
▁knuckle	-11.5723
▁middling	-11.5723
▁circum	-11.5723
▁crystal	-11.5723
▁holler	-11.5723
▁noodle	-11.5723
▁Potiph	-11.5723
▁adulteress	-11.5723
▁bereaved	-11.5723
▁bondwoman	-11.5723
▁exchange	-11.5723
▁instru	-11.5723
▁beggar	-11.5723
▁kicked	-11.5723
▁Christmas	-11.5723
▁buryingplace	-11.5723
▁refrain	-11.5723
▁title	-11.5723
▁Salmon	-11.5723
▁liberality	-11.5723
▁turban	-11.5723
▁enchantments	-11.5723
▁workmanship	-11.5723
▁occupation	-11.5723
▁sackcloth	-11.5723
▁flash	-11.5723
▁Preparation	-11.5723
▁bodily	-11.5723
▁gorge	-11.5723
▁Count	-11.5723
▁snapp	-11.5723
▁stumblingblock	-11.5723
▁Joses	-11.5723
▁Buddy	-11.5723
▁arrival	-11.5723
▁blasphemies	-11.5723
▁blossoms	-11.5723
▁freewoman	-11.5723
▁fungus	-11.5723
▁covetous	-11.5723
access	-11.5723
▁Abb	-11.5723
▁palsied	-11.5723
▁winepress	-11.5723
▁Walk	-11.5723
▁digging	-11.5723
▁nap	-11.5723
▁decree	-11.5723
▁Drink	-11.5723
▁paddle	-11.5723
▁Moab	-11.5723
▁foggy	-11.5723
▁job	-11.5723
▁reverence	-11.5723
▁Italy	-11.5723
▁confe	-11.5723
▁Goodbye	-11.5723
▁Little	-11.5723
▁principalities	-11.5723
▁thicket	-11.5723
▁tonight	-11.5723
▁cursing	-11.5723
▁gently	-11.5724
▁Shur	-11.5724
▁pink	-11.5724
kay	-11.5724
nquire	-11.5724
▁permit	-11.5724
▁Haden	-11.5724
▁announcement	-11.5724
▁lane	-11.5724
▁Shinar	-11.5724
▁adj	-11.5724
▁towel	-11.5724
▁flick	-11.5724
▁scoop	-11.5724
▁tempest	-11.5724
▁Gran	-11.5724
▁patch	-11.5724
▁package	-11.5724
▁midday	-11.5724
▁conceal	-11.5724
▁candy	-11.5724
ntil	-11.5724
▁apostleship	-11.5724
▁halt	-11.5724
▁entangle	-11.5724
▁Elam	-11.5724
▁guilty	-11.5724
▁loving	-11.5724
▁crime	-11.5725
▁malice	-11.5725
▁countries	-11.5725
▁heathen	-11.5725
▁awkwardly	-11.5725
▁crash	-11.5725
▁Miz	-11.5725
▁shore	-11.5725
ndy	-11.5725
ville	-11.5725
▁main	-11.5726
▁pillow	-11.5726
▁claw	-11.5726
▁furthermore	-11.5726
▁satisfied	-11.5726
▁defer	-11.5726
▁thistles	-11.5726
▁stedfastness	-11.5726
no	-11.5727
▁vo	-11.5727
▁Weep	-11.5727
▁barbarian	-11.5727
▁bill	-11.5727
▁communicate	-11.5727
▁husbandman	-11.5728
▁Abib	-11.5728
▁cleansing	-11.5728
▁nearby	-11.5728
▁operat	-11.5729
▁sheepfold	-11.5729
▁easily	-11.5729
▁super	-11.573
▁blast	-11.573
pro	-11.573
▁jar	-11.573
▁violent	-11.573
▁armor	-11.5731
▁forsaken	-11.5731
▁gambl	-11.5731
▁grunted	-11.5731
chol	-11.5731
eedy	-11.5731
▁crushed	-11.5732
▁phone	-11.5732
▁whiteman	-11.5732
▁disturb	-11.5733
▁skirt	-11.5733
▁grease	-11.5733
▁wealth	-11.5733
▁supplieth	-11.5733
▁Jam	-11.5734
ently	-11.5734
▁blame	-11.5735
▁difficulty	-11.5736
▁agreement	-11.5736
▁contend	-11.5736
▁vaguely	-11.5736
▁Else	-11.5736
▁needful	-11.5736
▁weaving	-11.5737
▁wrist	-11.5737
▁dare	-11.5737
▁cheerfully	-11.5737
▁cost	-11.5737
▁trott	-11.5737
▁curv	-11.5738
▁acres	-11.5738
▁magistrates	-11.5738
▁ribs	-11.5738
▁Lotan	-11.5739
▁knot	-11.5739
▁candie	-11.5739
▁briefly	-11.574
sual	-11.574
▁deceitfully	-11.574
▁persecutest	-11.574
▁maple	-11.5743
▁ability	-11.5743
▁fiercely	-11.5743
▁dr	-11.5743
▁vanished	-11.5743
▁sink	-11.5744
▁overhead	-11.5744
▁arranged	-11.5744
▁slipp	-11.5745
▁sower	-11.5747
▁silently	-11.5747
▁clang	-11.5749
quil	-11.575
▁float	-11.575
▁stalk	-11.575
ode	-11.5751
▁Summ	-11.5751
▁block	-11.5752
▁wink	-11.5752
▁quake	-11.5752
▁reconciled	-11.5753
▁platt	-11.5753
▁shovel	-11.5754
▁thirsty	-11.5755
▁soup	-11.5756
▁Never	-11.5757
▁remark	-11.5757
▁overthrown	-11.5757
▁Men	-11.5757
▁steady	-11.5758
ration	-11.5761
▁sincere	-11.5763
▁slopes	-11.5764
▁physicians	-11.5764
▁killers	-11.5765
▁action	-11.5766
▁dad	-11.5766
▁louder	-11.5767
irst	-11.5767
▁endless	-11.5768
▁commendeth	-11.5769
▁groaned	-11.577
▁card	-11.5771
▁manservant	-11.5772
▁anew	-11.5772
▁joint	-11.5773
▁sever	-11.578
▁stumbleth	-11.5785
▁pushing	-11.5787
▁naturally	-11.5788
▁flip	-11.5791
▁earrings	-11.5791
▁lepers	-11.5791
▁boughs	-11.5791
▁transgressors	-11.5792
azed	-11.5792
▁faithless	-11.5794
▁invented	-11.5794
▁shit	-11.5794
▁trapper	-11.5795
▁sojourners	-11.5796
▁oppressed	-11.5797
▁confirmed	-11.5797
▁Remov	-11.5798
▁melted	-11.5799
▁urge	-11.5802
▁yester	-11.5802
▁wildly	-11.5806
▁particle	-11.5807
▁completed	-11.5807
▁whoring	-11.5807
▁companions	-11.5808
▁Hous	-11.5812
ev	-11.5814
▁hon	-11.5818
▁pomegranates	-11.5818
▁weapons	-11.5818
▁wond	-11.5819
▁actions	-11.582
▁overmuch	-11.5821
▁hatched	-11.5822
▁Teman	-11.583
▁continueth	-11.5831
▁commandeth	-11.5832
▁rep	-11.5834
alutations	-11.5836
▁mourned	-11.5838
▁extortioner	-11.5839
this	-11.584
▁thereto	-11.5842
▁mudd	-11.5842
▁wh	-11.5842
aid	-11.5842
▁sen	-11.5844
▁ci	-11.5848
king	-11.5851
▁department	-11.5852
position	-11.5864
erable	-11.5864
▁comb	-11.5865
▁rider	-11.5866
In	-11.5866
▁richly	-11.5866
rops	-11.587
ac	-11.587
lessly	-11.5872
▁liars	-11.5873
▁statutes	-11.5873
▁provisions	-11.5873
▁persecutions	-11.5873
▁guns	-11.5876
▁murderers	-11.5877
za	-11.5878
▁sucked	-11.5879
▁chin	-11.5879
▁needy	-11.5886
▁transform	-11.5888
▁Romans	-11.5891
▁wanton	-11.5893
▁finest	-11.5894
▁driver	-11.5896
▁preacheth	-11.5899
▁dances	-11.59
▁squa	-11.5915
oc	-11.5924
▁deeply	-11.5926
▁smoked	-11.5929
ups	-11.593
▁lacked	-11.5934
gered	-11.5936
cum	-11.5937
its	-11.5942
unny	-11.5945
▁mete	-11.595
▁pi	-11.5953
▁goes	-11.5953
▁nests	-11.5956
▁games	-11.5956
▁captives	-11.5956
▁habitations	-11.5956
▁girls	-11.5956
ep	-11.5956
▁profited	-11.5961
▁flowers	-11.5963
vice	-11.5965
ction	-11.5972
▁trapp	-11.5973
▁regarded	-11.5974
▁thighs	-11.5983
tty	-11.5986
▁worrying	-11.5989
T	-11.6002
▁amount	-11.6004
▁righteously	-11.6007
▁logs	-11.6011
▁willeth	-11.6024
▁killeth	-11.6035
mong	-11.6038
▁colors	-11.6039
▁papers	-11.6039
cakes	-11.6041
▁tea	-11.6045
ius	-11.6054
▁customs	-11.6067
oth	-11.6079
▁regions	-11.6095
▁forgett	-11.6096
ric	-11.6097
che	-11.6098
▁embrace	-11.6101
▁seasoned	-11.6102
bs	-11.6103
▁Abid	-11.6107
▁tomorrow	-11.6119
▁streams	-11.6123
▁Christian	-11.6124
▁worshipp	-11.6131
▁style	-11.6132
full	-11.6147
▁figs	-11.6151
▁aged	-11.6152
▁buildings	-11.6155
▁meaning	-11.6166
▁staying	-11.6168
▁crowned	-11.6181
▁visions	-11.619
▁owners	-11.6193
▁mon	-11.6229
▁Fe	-11.6231
▁governors	-11.6236
▁sus	-11.6247
uz	-11.6265
▁ships	-11.6271
figur	-11.6271
▁Par	-11.6281
et	-11.6305
ives	-11.6315
▁treat	-11.6317
arm	-11.6318
inning	-11.6319
▁charges	-11.6326
compelled	-11.6356
▁afternoons	-11.638
▁Eph	-11.638
▁doings	-11.6413
enable	-11.6416
ok	-11.6434
▁penn	-11.6462
▁wanting	-11.6487
▁edges	-11.6496
fe	-11.6496
▁rehears	-11.6497
racles	-11.6501
▁favorabl	-11.652
▁ink	-11.652
▁writer	-11.6523
mma	-11.6584
▁rattle	-11.6594
tent	-11.6612
inner	-11.6633
anke	-11.6639
▁conce	-11.6714
▁busi	-11.6729
▁smit	-11.6731
▁perp	-11.674
▁shower	-11.6754
▁Was	-11.6755
▁earthy	-11.6765
ons	-11.6775
▁Stop	-11.6785
▁swords	-11.6794
▁fellows	-11.6794
bone	-11.6796
▁entice	-11.6807
ave	-11.6822
▁belong	-11.6849
▁journeys	-11.6853
▁lap	-11.6858
▁differ	-11.6871
▁prisons	-11.6884
▁heel	-11.6895
x	-11.6896
ema	-11.6899
eral	-11.6902
▁curl	-11.6905
vil	-11.6926
Be	-11.6935
born	-11.6946
▁beard	-11.6951
ich	-11.6954
ular	-11.6974
ddle	-11.6992
▁Ben	-11.7022
aking	-11.7037
▁afore	-11.7042
ban	-11.7048
▁lashe	-11.7053
▁earthly	-11.7078
▁Ph	-11.708
van	-11.7087
▁ch	-11.7103
▁meats	-11.7105
ore	-11.7239
bel	-11.7264
wled	-11.7325
dder	-11.7333
▁Phi	-11.7333
wood	-11.7337
▁argu	-11.7352
▁mus	-11.7384
ond	-11.7413
▁gaz	-11.7498
▁interrupt	-11.7501
▁feasts	-11.7524
her	-11.7526
wardly	-11.7528
▁struggle	-11.76
nut	-11.7636
▁parting	-11.7648
ai	-11.7673
▁inch	-11.7706
lation	-11.7763
▁owe	-11.777
pringtime	-11.7788
▁ob	-11.7803
▁Shal	-11.7809
▁driv	-11.7832
dding	-11.7843
▁hug	-11.7891
▁strik	-11.7899
ro	-11.7989
▁breathe	-11.8033
▁temperat	-11.8044
▁Pra	-11.8067
mortal	-11.8124
rred	-11.8137
uni	-11.814
▁pur	-11.8149
▁j	-11.8156
ities	-11.8181
lings	-11.8191
▁ascend	-11.8191
▁striv	-11.8194
nic	-11.8199
itches	-11.8204
▁cares	-11.8207
uring	-11.8208
▁calls	-11.8208
▁Ass	-11.8222
▁crack	-11.8241
uddle	-11.8241
doers	-11.8261
▁mis	-11.828
urn	-11.8295
ener	-11.8296
lab	-11.8311
ten	-11.833
fare	-11.8342
fire	-11.8352
▁bre	-11.8369
ca	-11.8401
▁Ro	-11.8423
mus	-11.8445
rian	-11.8462
▁oppos	-11.8478
▁Eu	-11.8501
eyed	-11.8506
we	-11.8513
▁Eve	-11.852
▁embrac	-11.8552
tting	-11.856
ati	-11.8563
mmed	-11.861
tery	-11.8632
tops	-11.8645
▁fla	-11.8664
lia	-11.8676
▁resid	-11.8686
rance	-11.8691
▁fre	-11.8711
pher	-11.873
▁temples	-11.8746
eries	-11.8751
▁chi	-11.8755
▁Sal	-11.8758
ak	-11.8768
▁backs	-11.8769
▁hasted	-11.877
sha	-11.8817
▁bu	-11.8821
unted	-11.8841
▁fir	-11.8852
aimed	-11.8858
ized	-11.8868
Th	-11.8878
ega	-11.888
handed	-11.8883
▁extortion	-11.8897
ading	-11.8902
▁wrest	-11.8904
▁Mes	-11.8907
doer	-11.8916
gg	-11.8918
▁compel	-11.8921
▁bough	-11.8932
nceforth	-11.8938
orted	-11.8939
▁chasten	-11.8947
▁benefit	-11.8947
▁patriarch	-11.8947
▁guest	-11.8948
▁result	-11.8948
▁bishop	-11.8948
▁ewe	-11.8949
will	-11.8949
▁faction	-11.8952
rches	-11.8955
come	-11.8958
▁psalm	-11.8958
▁senator	-11.8958
▁pigeon	-11.8958
▁whisper	-11.8958
▁eagle	-11.8958
▁repute	-11.8958
▁section	-11.896
▁Levite	-11.8961
dressed	-11.8961
▁leper	-11.8962
unch	-11.8963
▁transgressor	-11.8964
▁bla	-11.8964
▁Jebusite	-11.8964
▁Perizzite	-11.8964
▁fornicator	-11.8964
hand	-11.8965
▁bo	-11.8968
▁earring	-11.8968
▁shelter	-11.8968
▁hook	-11.8974
▁peoples	-11.8974
upon	-11.8977
▁stab	-11.8978
▁spice	-11.8979
▁sojourner	-11.8979
quench	-11.8984
▁gir	-11.8984
witch	-11.8984
load	-11.8987
▁needle	-11.8988
bbed	-11.899
▁farmer	-11.899
eas	-11.899
Certainly	-11.8991
warm	-11.8991
owing	-11.8994
bas	-11.8994
Y	-11.8994
stood	-11.8996
ridge	-11.8996
hearted	-11.8998
Pig	-11.8998
floor	-11.8999
prisoner	-11.8999
Ho	-11.8999
hooks	-11.8999
learned	-11.9
legs	-11.9
quiet	-11.9
pieces	-11.9
break	-11.9
thirty	-11.9001
closed	-11.9001
blood	-11.9001
finger	-11.9001
wife	-11.9001
ick	-11.9002
Take	-11.9002
ground	-11.9002
looking	-11.9002
▁encounter	-11.9002
▁remov	-11.9002
▁assembl	-11.9005
Sure	-11.9005
▁loos	-11.9007
▁affirm	-11.9007
▁buffet	-11.9007
Every	-11.9009
▁refresh	-11.9012
speak	-11.9013
▁fix	-11.9016
volut	-11.9018
sembled	-11.9018
que	-11.9019
back	-11.902
An	-11.9025
hath	-11.9025
five	-11.9026
ocked	-11.9026
▁Alexandria	-11.9031
Here	-11.9032
Te	-11.9032
▁Right	-11.9033
▁miss	-11.9033
▁cree	-11.9033
▁enlarge	-11.9034
▁relieve	-11.9036
▁prophesie	-11.9036
▁purchase	-11.9036
▁bore	-11.9037
▁determine	-11.9037
▁excuse	-11.9038
▁marrie	-11.9038
▁pursue	-11.9039
posed	-11.9039
▁arrive	-11.904
▁meek	-11.904
▁pierce	-11.9041
▁delicate	-11.9041
▁nervous	-11.9043
▁app	-11.9043
cient	-11.9044
▁private	-11.9045
ocia	-11.9045
alvation	-11.9047
▁possibl	-11.9047
▁jealous	-11.9047
atic	-11.9048
ju	-11.9049
ected	-11.905
upp	-11.9051
istles	-11.9052
▁brim	-11.9054
roi	-11.9054
▁gener	-11.9054
▁mirac	-11.9055
ossum	-11.9055
▁forgot	-11.9055
ntity	-11.9055
▁princip	-11.9055
▁meditat	-11.9055
▁announce	-11.9055
orthy	-11.9055
appy	-11.9056
▁author	-11.9056
olonel	-11.9056
▁desp	-11.9056
oyal	-11.9056
Congratu	-11.9056
▁avail	-11.9056
▁esteem	-11.9056
Play	-11.9056
wilight	-11.9056
zziah	-11.9056
▁Adullamite	-11.9056
▁Ahaz	-11.9056
▁Aranea	-11.9056
▁Bartholomew	-11.9056
▁Bernice	-11.9056
▁Bethphage	-11.9056
▁Boaz	-11.9056
▁Boston	-11.9056
▁Breakfast	-11.9056
▁Chaldees	-11.9056
▁Chesapeake	-11.9056
▁Crawdaddy	-11.9056
▁Decapolis	-11.9056
▁Demetrius	-11.9056
▁Echota	-11.9056
▁Eliezer	-11.9056
▁Epaphras	-11.9056
▁Galway	-11.9056
▁Gennesaret	-11.9056
▁Gershon	-11.9056
▁Golgotha	-11.9056
▁Hallelujah	-11.9056
▁Hezekiah	-11.9056
▁Horeb	-11.9056
▁Jeremiah	-11.9056
▁Joktan	-11.9056
▁Jotham	-11.9056
▁Jupiter	-11.9056
▁Kadesh	-11.9056
▁Kenaz	-11.9056
▁Luke	-11.9056
▁Matthew	-11.9056
▁Merari	-11.9056
▁Nahshon	-11.9056
▁Nebajoth	-11.9056
▁Nellie	-11.9056
▁Notwithstanding	-11.9056
▁Olivet	-11.9056
▁Peabody	-11.9056
▁Pentecost	-11.9056
▁Perez	-11.9056
▁Perga	-11.9056
▁Pharez	-11.9056
▁Phrygia	-11.9056
▁Pontus	-11.9056
▁Prince	-11.9056
▁Priscilla	-11.9056
▁Psalms	-11.9056
▁Rehoboth	-11.9056
▁Rephidim	-11.9056
▁Sardis	-11.9056
▁Shealtiel	-11.9056
▁Siddim	-11.9056
▁Silvanus	-11.9056
▁Street	-11.9056
▁Symeon	-11.9056
▁Tarshish	-11.9056
▁Thessalonica	-11.9056
▁Trophimus	-11.9056
▁Twelve	-11.9056
▁Zillah	-11.9056
▁Zipporah	-11.9056
▁addition	-11.9056
▁advance	-11.9056
▁aeronaut	-11.9056
▁affairs	-11.9056
▁anxiety	-11.9056
▁apiece	-11.9056
▁apprecia	-11.9056
▁attire	-11.9056
▁balsam	-11.9056
▁bountifully	-11.9056
▁canvas	-11.9056
▁captivity	-11.9056
▁chickadee	-11.9056
▁colours	-11.9056
▁column	-11.9056
▁compact	-11.9056
▁conclusion	-11.9056
▁conduct	-11.9056
▁conflict	-11.9056
▁congealed	-11.9056
▁constructed	-11.9056
▁contrariwise	-11.9056
▁contributi	-11.9056
▁corpse	-11.9056
▁crazy	-11.9056
▁curiosity	-11.9056
▁deacons	-11.9056
▁desperation	-11.9056
▁destiny	-11.9056
▁disorderly	-11.9056
▁disputing	-11.9056
▁dissension	-11.9056
▁distinguish	-11.9056
▁district	-11.9056
▁draught	-11.9056
▁dungeon	-11.9056
▁edifieth	-11.9056
▁embarrass	-11.9056
▁exhausted	-11.9056
▁exotic	-11.9056
▁farewell	-11.9056
▁fascinating	-11.9056
▁feeble	-11.9056
▁fetters	-11.9056
▁fifties	-11.9056
▁forewarn	-11.9056
▁fragments	-11.9056
▁frankincense	-11.9056
▁furnished	-11.9056
▁handbreadth	-11.9056
▁hayloft	-11.9056
▁hymn	-11.9056
▁immortality	-11.9056
▁increasing	-11.9056
▁jailor	-11.9056
▁journals	-11.9056
▁kinsfolk	-11.9056
▁knothole	-11.9056
▁leanfleshed	-11.9056
▁lodging	-11.9056
▁lucre	-11.9056
▁machine	-11.9056
▁maintain	-11.9056
▁major	-11.9056
▁matrix	-11.9056
▁meadow	-11.9056
▁mistress	-11.9056
▁moisture	-11.9056
▁mosquitoes	-11.9056
▁opposition	-11.9056
▁pilgrimage	-11.9056
▁pistol	-11.9056
▁poison	-11.9056
▁poverty	-11.9056
▁predator	-11.9056
▁produce	-11.9056
▁rabbit	-11.9056
▁recognize	-11.9056
▁rectang	-11.9056
▁remnant	-11.9056
▁replenish	-11.9056
▁representatives	-11.9056
▁retrieve	-11.9056
▁sermon	-11.9056
▁shewbread	-11.9056
▁shoot	-11.9056
▁shotgun	-11.9056
▁subsistence	-11.9056
▁swept	-11.9056
▁swipe	-11.9056
▁tavern	-11.9056
▁terrain	-11.9056
▁territory	-11.9056
▁throng	-11.9056
▁titmouse	-11.9056
▁tread	-11.9056
▁unawares	-11.9056
▁unceasing	-11.9056
▁undefiled	-11.9056
▁unexpected	-11.9056
▁unjust	-11.9056
▁unknown	-11.9056
▁unreasonable	-11.9056
▁unveiled	-11.9056
▁uproar	-11.9056
▁vehemently	-11.9056
▁vertical	-11.9056
▁virtue	-11.9056
▁waterproof	-11.9056
▁yesternight	-11.9056
▁Ethiopia	-11.9056
▁antichrist	-11.9056
▁dowry	-11.9056
▁oblig	-11.9056
▁oven	-11.9056
▁philosoph	-11.9056
▁unloaded	-11.9056
▁Asshur	-11.9056
▁Demas	-11.9056
▁Jehovah	-11.9056
▁Zeboi	-11.9056
▁achieve	-11.9056
▁clover	-11.9056
▁congress	-11.9056
▁conquer	-11.9056
▁dusk	-11.9056
▁freeze	-11.9056
▁gnat	-11.9056
▁pitfall	-11.9056
▁proverb	-11.9056
▁satisfy	-11.9056
▁smart	-11.9056
▁topaz	-11.9056
▁Dishan	-11.9056
▁Glory	-11.9056
▁Latin	-11.9056
▁agony	-11.9056
▁conclud	-11.9056
▁dedicat	-11.9056
▁overwhelm	-11.9056
▁quiver	-11.9056
▁succeed	-11.9056
▁superscription	-11.9056
satisfact	-11.9056
▁Bind	-11.9056
▁Serve	-11.9056
▁cedar	-11.9056
▁desk	-11.9056
▁loaf	-11.9056
▁oats	-11.9056
▁saddlebag	-11.9056
dopted	-11.9056
▁Erastus	-11.9056
▁Talk	-11.9056
▁moaned	-11.9056
▁profess	-11.9056
▁Besides	-11.9056
▁backbit	-11.9056
vaga	-11.9056
timber	-11.9056
▁approaching	-11.9056
▁consult	-11.9056
▁undone	-11.9056
▁Dedan	-11.9056
▁procur	-11.9056
▁Arabia	-11.9056
▁Shobal	-11.9056
▁authorities	-11.9056
▁limp	-11.9056
havi	-11.9056
Could	-11.9056
▁brawle	-11.9056
ND	-11.9056
▁Jobab	-11.9056
▁River	-11.9056
▁Welch	-11.9056
▁wafer	-11.9056
alley	-11.9056
▁abated	-11.9056
▁surround	-11.9056
▁united	-11.9056
▁emotion	-11.9056
▁Balaam	-11.9056
▁delicious	-11.9056
▁dread	-11.9056
▁abuse	-11.9056
▁Marah	-11.9056
▁engage	-11.9056
▁swimming	-11.9056
▁Syr	-11.9056
▁mumbled	-11.9056
▁tanner	-11.9056
▁Tiberias	-11.9057
▁Phoenicia	-11.9057
▁assistance	-11.9057
▁ceasing	-11.9057
▁pottage	-11.9057
▁tape	-11.9057
▁trading	-11.9057
▁chide	-11.9057
▁rebelled	-11.9057
▁slanderers	-11.9057
▁Territories	-11.9057
▁prophetess	-11.9057
▁sheaf	-11.9057
▁Prisc	-11.9057
▁glow	-11.9057
▁grownups	-11.9057
▁terrify	-11.9057
▁vote	-11.9057
▁quill	-11.9057
▁brink	-11.9057
▁Creator	-11.9057
▁midway	-11.9057
▁pestilence	-11.9057
▁route	-11.9057
▁slant	-11.9057
▁luck	-11.9057
▁stock	-11.9057
▁nobleman	-11.9057
OM	-11.9057
▁device	-11.9057
choni	-11.9057
iletus	-11.9057
▁scent	-11.9057
ella	-11.9057
▁contentious	-11.9057
▁cords	-11.9057
▁Shuah	-11.9057
▁smear	-11.9057
▁Zeal	-11.9057
▁Paradise	-11.9057
▁stubble	-11.9057
▁indig	-11.9057
▁Ezer	-11.9057
▁Luz	-11.9057
clock	-11.9057
▁bolt	-11.9057
▁Fift	-11.9057
▁destitute	-11.9057
kling	-11.9057
▁Lys	-11.9057
▁crafti	-11.9057
▁spun	-11.9057
▁amiss	-11.9057
everal	-11.9057
▁prun	-11.9057
▁mistake	-11.9057
▁locks	-11.9057
▁pouches	-11.9058
▁safety	-11.9058
▁birch	-11.9058
▁variet	-11.9058
east	-11.9058
▁lounge	-11.9058
phath	-11.9058
▁responsibilit	-11.9058
▁affectionate	-11.9058
▁bondman	-11.9058
▁possum	-11.9058
▁Herodians	-11.9058
▁lobby	-11.9058
▁moonlight	-11.9058
▁harness	-11.9058
▁shorn	-11.9058
▁poking	-11.9058
▁birthday	-11.9058
▁lawlessness	-11.9058
▁Corn	-11.9058
▁errand	-11.9058
▁cruse	-11.9058
▁favorite	-11.9058
noch	-11.9058
▁spru	-11.9058
▁stank	-11.9058
▁Big	-11.9058
▁jerky	-11.9059
▁hireling	-11.9059
▁garnet	-11.9059
▁lowliness	-11.9059
▁hatred	-11.9059
▁justification	-11.9059
▁Still	-11.9059
▁correction	-11.9059
▁modest	-11.9059
▁sideboards	-11.9059
▁advertisement	-11.9059
▁imprisonment	-11.9059
▁peel	-11.9059
▁Pass	-11.9059
▁weaned	-11.9059
▁lain	-11.9059
▁Meat	-11.9059
▁beryl	-11.9059
▁Elon	-11.9059
▁pallet	-11.9059
▁equality	-11.9059
▁Hard	-11.906
▁departure	-11.906
▁ladder	-11.906
▁population	-11.906
▁Esh	-11.906
▁womenservants	-11.906
ulous	-11.906
▁scarce	-11.906
▁harmless	-11.9061
▁Bethel	-11.9061
▁withereth	-11.9061
▁moss	-11.9061
pparent	-11.9061
▁braid	-11.9061
▁observation	-11.9061
▁forks	-11.9061
▁heritage	-11.9062
▁trance	-11.9062
▁hateful	-11.9062
▁Mother	-11.9062
▁weaknesses	-11.9063
▁decease	-11.9063
▁cele	-11.9063
▁Cush	-11.9064
▁lofty	-11.9064
▁thoughtfully	-11.9064
▁specifi	-11.9064
▁practic	-11.9064
circling	-11.9064
▁resolv	-11.9065
▁boundary	-11.9065
▁joyful	-11.9065
▁owest	-11.9065
▁Canaanit	-11.9065
▁visitors	-11.9066
▁More	-11.9066
▁cust	-11.9066
▁Dog	-11.9066
▁purser	-11.9066
▁bay	-11.9067
little	-11.9067
▁broth	-11.9067
▁deliverance	-11.9067
▁Ram	-11.9067
▁engraver	-11.9067
▁Life	-11.9067
▁hoisted	-11.9067
▁enlightened	-11.9067
▁Lif	-11.9067
▁Timnath	-11.9067
mates	-11.9068
▁lingere	-11.9068
▁sevenfold	-11.9068
▁exist	-11.9068
▁rare	-11.9069
lves	-11.9069
▁bitterness	-11.907
▁treaty	-11.907
▁nervously	-11.907
▁alleg	-11.907
▁reviled	-11.907
▁thefts	-11.907
▁overhear	-11.907
ubtle	-11.907
▁Five	-11.9071
▁fur	-11.9071
▁swoop	-11.9071
▁waist	-11.9071
▁rifle	-11.9071
▁smoking	-11.9071
▁drift	-11.9071
▁ridden	-11.9071
▁barrel	-11.9071
▁collection	-11.9071
▁wishes	-11.9071
▁Any	-11.9072
▁Really	-11.9072
▁sobbed	-11.9072
▁clu	-11.9073
▁maiden	-11.9073
▁Ski	-11.9073
lick	-11.9073
▁slice	-11.9073
▁Away	-11.9073
▁interpreter	-11.9074
▁Amram	-11.9074
▁costly	-11.9075
▁safely	-11.9075
▁stall	-11.9076
▁avenger	-11.9076
▁quietness	-11.9077
▁dishes	-11.9077
roughly	-11.9077
▁plantation	-11.9077
▁forgiveness	-11.9078
▁Athens	-11.9078
▁Horites	-11.9078
▁stairs	-11.9078
▁Ephesians	-11.9078
▁buttocks	-11.9078
▁malefactors	-11.9078
▁ornaments	-11.9078
▁spoons	-11.9078
▁reflect	-11.9078
▁mounds	-11.9078
▁enlarged	-11.9079
▁plead	-11.9079
▁discour	-11.9079
▁sowest	-11.9079
▁prey	-11.9079
▁workman	-11.9079
▁builders	-11.908
makers	-11.908
▁confidently	-11.908
▁fervently	-11.908
▁passway	-11.9081
▁sport	-11.9081
▁Obed	-11.9081
gar	-11.9082
▁blasphemeth	-11.9084
▁blackness	-11.9084
bib	-11.9084
▁sup	-11.9084
▁fadeth	-11.9085
▁knocketh	-11.9086
▁quenched	-11.9086
▁confounded	-11.9086
▁hallowed	-11.9087
▁unfe	-11.9087
▁excited	-11.9087
▁balloonist	-11.9088
▁signifying	-11.9088
▁threshing	-11.9088
▁basin	-11.9088
▁blink	-11.909
▁faithfulness	-11.909
▁lit	-11.9091
uci	-11.9093
quet	-11.9094
▁passion	-11.9094
▁compli	-11.9094
▁trout	-11.9094
▁source	-11.9096
▁patiently	-11.9097
▁referr	-11.9097
cated	-11.9097
▁surprised	-11.9098
▁bruised	-11.9098
▁consideration	-11.9099
▁Ash	-11.9099
llaba	-11.9102
▁diam	-11.9102
▁uprightly	-11.9102
▁address	-11.9102
▁pans	-11.9102
▁fishers	-11.9103
▁tie	-11.9104
aster	-11.9105
▁affirmed	-11.9106
▁buffeted	-11.9106
▁chastened	-11.9107
▁eighteen	-11.9107
▁outwardly	-11.9107
uit	-11.9107
▁mash	-11.9107
▁squat	-11.9107
▁childless	-11.9107
▁pierced	-11.9109
▁contention	-11.9109
onge	-11.9109
▁hor	-11.911
▁joke	-11.911
▁beheaded	-11.9111
▁eleventh	-11.9112
▁pleasantly	-11.9113
ament	-11.9115
stance	-11.9115
▁brimm	-11.9115
▁strands	-11.9116
▁anchors	-11.9117
▁features	-11.9117
▁sorcerers	-11.9117
▁None	-11.9117
▁basons	-11.9117
▁peaceable	-11.9118
did	-11.9119
▁defilement	-11.9121
▁memorialize	-11.9123
mission	-11.9124
▁purifie	-11.9127
▁Certainly	-11.9127
▁Hunt	-11.9127
▁army	-11.9129
avan	-11.9129
▁purifying	-11.9129
▁bidd	-11.9131
▁preserved	-11.9132
hair	-11.9134
▁provoked	-11.9134
▁reapeth	-11.9135
▁har	-11.9138
▁outhouse	-11.9138
gate	-11.9138
▁control	-11.914
▁Herm	-11.9141
▁destroyer	-11.9143
▁boo	-11.9143
▁wrestl	-11.9146
▁threatening	-11.9147
Egg	-11.9147
▁pals	-11.915
▁impen	-11.9152
gars	-11.9153
▁Lib	-11.9154
▁pigeons	-11.9156
▁psalms	-11.9156
▁senators	-11.9156
▁Levites	-11.9156
▁eagles	-11.9156
▁sections	-11.9156
▁stirr	-11.9158
▁...”	-11.9159
▁ruleth	-11.9161
oming	-11.9165
cob	-11.9166
▁Timna	-11.9167
▁farmers	-11.9168
▁cured	-11.9168
▁wounding	-11.9171
▁fleeth	-11.9171
ical	-11.9172
▁lawless	-11.9175
▁metal	-11.9186
attered	-11.9186
▁remarks	-11.9193
RE	-11.9194
▁heels	-11.9195
▁nails	-11.9195
▁agate	-11.9196
▁meaneth	-11.9196
▁debtors	-11.9196
▁vows	-11.9196
▁cards	-11.9197
▁loads	-11.9197
▁deceivers	-11.9197
▁Pat	-11.9197
▁tur	-11.9198
▁fewer	-11.92
▁moveth	-11.92
▁scraping	-11.92
▁Please	-11.9202
▁attained	-11.921
▁cu	-11.9213
▁possessor	-11.9214
▁envying	-11.9225
traightway	-11.923
▁slime	-11.9231
▁lowly	-11.9233
▁handfuls	-11.9236
▁Days	-11.9236
▁lu	-11.9238
▁falsely	-11.9243
▁pants	-11.9244
ways	-11.9244
edent	-11.9246
xa	-11.9247
ndered	-11.9251
▁patt	-11.9254
▁handled	-11.9261
▁traveled	-11.9264
▁understandeth	-11.9267
▁doubled	-11.9269
▁ruled	-11.927
▁justif	-11.9271
killet	-11.9271
▁bricks	-11.9276
▁sepulchres	-11.9276
▁scraps	-11.9277
▁lions	-11.9277
▁worms	-11.9281
▁fastings	-11.9282
▁pleasing	-11.9284
▁livers	-11.9285
▁def	-11.9285
▁swinging	-11.9296
▁doubting	-11.9297
▁favored	-11.9301
strain	-11.9301
▁k	-11.9303
▁fetched	-11.9304
▁seemly	-11.9308
▁alike	-11.931
▁careth	-11.9311
▁frie	-11.9312
▁goal	-11.9315
▁blades	-11.9316
▁banks	-11.9316
▁tales	-11.9316
▁Saying	-11.9319
▁spl	-11.9319
▁salted	-11.9324
▁rate	-11.9325
▁burdened	-11.9326
▁harps	-11.933
ference	-11.9343
▁flowed	-11.9343
sia	-11.9347
▁deserted	-11.9347
ronic	-11.9348
mal	-11.9353
▁folds	-11.9356
▁traditions	-11.9357
▁inv	-11.9359
ads	-11.9375
▁inwards	-11.9378
▁jell	-11.9394
▁rubbe	-11.9399
changers	-11.9401
phan	-11.9405
▁beg	-11.9411
▁chil	-11.9421
▁piti	-11.9429
▁guides	-11.9435
enness	-11.9437
▁figures	-11.9438
▁earthquakes	-11.9438
▁healings	-11.9441
▁fightings	-11.9441
▁outward	-11.9447
zah	-11.945
coal	-11.946
▁dine	-11.946
▁sop	-11.9468
▁posts	-11.9475
▁scal	-11.9476
▁chambers	-11.9479
▁threads	-11.9479
▁washing	-11.9485
▁daze	-11.9497
▁seeds	-11.9501
▁playing	-11.9512
skinned	-11.9513
stern	-11.9537
sea	-11.9542
▁Za	-11.955
▁cases	-11.9562
uts	-11.9562
lax	-11.9568
▁multiplying	-11.9578
ograph	-11.9597
▁wail	-11.9604
▁revelations	-11.9604
▁happens	-11.9606
▁departing	-11.9625
▁adventure	-11.9631
▁pal	-11.9634
ause	-11.9645
▁caves	-11.9646
▁girdles	-11.9647
▁deserts	-11.9648
bach	-11.9661
—-	-11.9663
▁fr	-11.9667
▁oppose	-11.967
▁hens	-11.9686
ittle	-11.9687
▁cabins	-11.9688
▁War	-11.9692
▁Sea	-11.9712
▁occasional	-11.9718
▁oaths	-11.973
▁snows	-11.973
▁cau	-11.9734
oking	-11.9757
▁bushe	-11.9763
AN	-11.9765
omp	-11.9767
▁tribulations	-11.9773
▁labors	-11.9776
▁gallo	-11.9788
raise	-11.9796
▁afflictions	-11.9816
stable	-11.983
▁Hol	-11.985
uff	-11.9853
imate	-11.9872
▁Gre	-11.9872
▁hearer	-11.99
▁la	-11.9935
▁class	-11.9946
ium	-11.9948
▁states	-11.9988
▁rightly	-11.9997
▁blinded	-12.0009
▁fasted	-12.0017
cu	-12.0022
▁res	-12.0026
ui	-12.0027
▁perfecting	-12.003
lent	-12.003
▁foundations	-12.0048
▁Sh	-12.0049
▁Sett	-12.0056
ON	-12.0056
oli	-12.0063
▁breastplates	-12.0076
amped	-12.0077
rah	-12.0081
▁gat	-12.0085
▁Ab	-12.0103
▁crackl	-12.0128
▁Med	-12.0144
ecting	-12.0154
▁shove	-12.0161
▁counsels	-12.0209
▁needles	-12.0211
▁sorrows	-12.0245
oned	-12.0248
▁Haz	-12.0253
eady	-12.0263
▁Hush	-12.0267
▁inte	-12.027
▁Hid	-12.0276
▁famines	-12.0298
▁Gat	-12.0299
ye	-12.0304
▁sel	-12.0329
▁workings	-12.0329
▁socia	-12.0345
▁snatch	-12.0354
▁wil	-12.0367
yst	-12.0374
▁persuad	-12.0387
damn	-12.04
▁uses	-12.0439
▁breaks	-12.0443
...”	-12.0471
▁numbers	-12.0485
▁Almo	-12.049
▁Zi	-12.0516
Che	-12.0538
▁services	-12.0619
▁fe	-12.0636
▁reform	-12.0646
▁weari	-12.0646
▁crates	-12.0713
MO	-12.072
▁allow	-12.0731
cord	-12.0741
▁uncle	-12.0744
nigh	-12.0748
▁struggl	-12.076
arrows	-12.0761
▁rou	-12.0768
▁admire	-12.078
eigne	-12.0829
▁Ber	-12.0984
B	-12.1
ander	-12.1003
allowed	-12.102
▁gaze	-12.1023
mar	-12.1049
herein	-12.1069
▁blackberr	-12.1075
▁uneas	-12.1075
▁argue	-12.1097
ching	-12.1101
claimed	-12.1118
wist	-12.1131
▁pace	-12.1135
tended	-12.1163
vi	-12.1176
▁cat	-12.1208
▁elevate	-12.1214
▁Jet	-12.1226
▁Jac	-12.1234
empti	-12.1236
▁Pen	-12.1257
▁loft	-12.1264
actic	-12.1272
ray	-12.1281
▁da	-12.1283
▁sole	-12.1415
berries	-12.1435
▁mood	-12.1453
top	-12.1476
▁pat	-12.1582
spir	-12.1586
epho	-12.1586
shell	-12.1611
illy	-12.1633
▁blu	-12.1635
▁Car	-12.1662
▁Command	-12.1684
▁gall	-12.1708
lashes	-12.1715
▁sacr	-12.1779
▁trace	-12.1786
▁wi	-12.1799
▁commo	-12.1803
iles	-12.1922
hai	-12.1943
orn	-12.1943
▁waxe	-12.1947
▁invit	-12.2062
came	-12.2067
▁Jer	-12.21
Isn	-12.2115
▁Hi	-12.2122
▁tast	-12.2126
▁che	-12.2137
ud	-12.2153
lasses	-12.2155
▁slu	-12.2156
onster	-12.2183
▁Pu	-12.2244
ame	-12.2246
▁inde	-12.2275
oved	-12.2337
ows	-12.2338
ieth	-12.2369
▁contr	-12.2387
▁Ri	-12.2442
▁pr	-12.2447
▁rehearse	-12.2489
lids	-12.2568
▁Sep	-12.2581
rity	-12.2612
zo	-12.2615
ow	-12.266
rench	-12.2668
▁Sou	-12.267
ncy	-12.2773
ence	-12.2801
igure	-12.2813
▁constraine	-12.2849
congratu	-12.2859
oon	-12.2892
ano	-12.2915
▁pu	-12.2933
▁rage	-12.2933
met	-12.2952
hew	-12.2956
nah	-12.2988
▁Sho	-12.2996
tie	-12.3003
asped	-12.3024
bi	-12.3031
tening	-12.3047
▁Amon	-12.3048
han	-12.3057
asty	-12.3062
▁considerabl	-12.3083
eek	-12.3101
vious	-12.3104
zens	-12.313
▁strok	-12.3133
husks	-12.3147
loo	-12.3147
▁spat	-12.3161
▁rais	-12.3166
To	-12.3176
▁scra	-12.3194
▁port	-12.3221
▁wag	-12.3241
▁chal	-12.3247
ace	-12.3247
▁rec	-12.326
mbled	-12.3273
▁actual	-12.3282
▁troubl	-12.3315
rie	-12.3331
awfully	-12.3352
ench	-12.336
laus	-12.3396
rable	-12.3406
ron	-12.3465
cial	-12.3471
roth	-12.3494
▁li	-12.3496
▁divid	-12.3523
P	-12.3558
▁stripe	-12.3576
ER	-12.3617
any	-12.3652
obably	-12.3675
▁plo	-12.3682
giver	-12.3682
amo	-12.3709
oiled	-12.3712
amia	-12.3732
▁hum	-12.374
TH	-12.374
ivity	-12.3746
wish	-12.3757
E	-12.3766
self	-12.3767
nger	-12.377
▁attendan	-12.3777
▁slim	-12.3778
▁ston	-12.3798
ging	-12.3801
itable	-12.3814
AR	-12.3837
ib	-12.384
minate	-12.3851
sided	-12.3855
▁magn	-12.3856
▁rob	-12.3863
▁companion	-12.3866
inch	-12.387
icles	-12.3871
Hey	-12.3873
j	-12.3878
ounding	-12.3896
headed	-12.39
▁impe	-12.3902
never	-12.3902
▁Tra	-12.391
▁arch	-12.3913
mobil	-12.3913
struction	-12.3915
▁slap	-12.3917
ips	-12.3917
▁wrap	-12.3922
▁convi	-12.3923
him	-12.3927
▁Tim	-12.3929
▁bite	-12.3929
▁horn	-12.393
▁explo	-12.3934
▁complain	-12.3946
oving	-12.3947
▁impo	-12.3947
▁scorpion	-12.3949
▁elbow	-12.3949
▁poplar	-12.3949
▁apron	-12.3949
▁impla	-12.3951
▁hillside	-12.3951
▁sorcerer	-12.3958
▁anchor	-12.3958
▁feature	-12.3959
worm	-12.3962
▁bason	-12.3962
▁slope	-12.3963
▁physician	-12.3963
▁Sanct	-12.3965
use	-12.3965
▁strand	-12.3965
▁warrior	-12.3965
hereabouts	-12.3965
▁highway	-12.3966
▁idolater	-12.3967
▁locust	-12.397
▁payment	-12.397
▁speci	-12.3971
▁tithe	-12.3971
orry	-12.3971
▁hypocrite	-12.3971
▁selve	-12.3971
▁robber	-12.3973
▁tare	-12.3974
▁observ	-12.3977
▁thorn	-12.3978
▁tran	-12.3981
▁sigh	-12.3981
▁mil	-12.3982
▁revile	-12.3983
agger	-12.3983
jected	-12.3984
continu	-12.3985
rag	-12.3985
citizen	-12.3985
Wash	-12.3986
uncle	-12.3987
corn	-12.399
tions	-12.3991
source	-12.3991
pathetic	-12.3992
▁excus	-12.3992
handled	-12.3992
draft	-12.3993
float	-12.3994
stalk	-12.3994
limb	-12.3995
block	-12.3995
Summ	-12.3995
hog	-12.3996
Never	-12.3996
▁pierc	-12.3997
▁bro	-12.3997
▁persecut	-12.3997
gird	-12.3997
stedfast	-12.3998
box	-12.3998
Watch	-12.3998
None	-12.3998
cloth	-12.3998
▁sid	-12.3998
search	-12.3998
Seven	-12.3999
dad	-12.3999
Get	-12.3999
Henry	-12.3999
keeper	-12.3999
soldier	-12.3999
J	-12.3999
Perhaps	-12.3999
shekel	-12.3999
fields	-12.3999
shot	-12.4
kindness	-12.4
condemned	-12.4
Homer	-12.4
▁whistl	-12.4
please	-12.4
Hur	-12.4
horse	-12.4
witnesses	-12.4001
pleasure	-12.4001
bade	-12.4001
spread	-12.4001
Give	-12.4001
bush	-12.4001
ounted	-12.4001
friend	-12.4001
myself	-12.4001
Lurvy	-12.4001
wheel	-12.4001
aa	-12.4001
With	-12.4001
perfect	-12.4001
room	-12.4001
pans	-12.4001
generation	-12.4002
while	-12.4002
burnt	-12.4002
▁reject	-12.4002
nothing	-12.4002
knowledge	-12.4002
push	-12.4003
▁dismiss	-12.4003
▁Gi	-12.4003
serve	-12.4003
coat	-12.4003
One	-12.4004
trap	-12.4004
whe	-12.4004
sail	-12.4004
▁thresh	-12.4005
▁lum	-12.4005
green	-12.4005
ertainly	-12.4005
Say	-12.4006
place	-12.4006
▁confound	-12.4007
▁hallow	-12.4008
▁gainsay	-12.4008
▁signify	-12.401
▁edify	-12.401
▁vanish	-12.401
▁explain	-12.4011
eeches	-12.4011
▁kno	-12.4011
only	-12.4011
▁sniff	-12.4012
▁vex	-12.4012
▁repeat	-12.4012
▁exceed	-12.4012
▁chuckl	-12.4013
▁ordain	-12.4013
▁grabb	-12.4013
bond	-12.4013
▁flam	-12.4014
▁threat	-12.4014
▁amaz	-12.4015
Put	-12.4015
See	-12.4016
pri	-12.4017
▁shear	-12.4017
portion	-12.4017
▁laborer	-12.4018
lead	-12.4018
▁citizen	-12.4019
seeing	-12.402
▁plea	-12.4021
Wa	-12.4022
oasty	-12.4023
nything	-12.4024
▁App	-12.4026
▁kin	-12.4031
made	-12.4031
▁tame	-12.4034
▁boot	-12.4036
▁testifie	-12.4037
▁create	-12.4037
run	-12.4037
▁boar	-12.4038
▁Israelite	-12.4038
tant	-12.4042
olved	-12.4043
▁flourish	-12.4043
hod	-12.4044
▁continual	-12.4045
▁genealog	-12.4045
phos	-12.4045
▁sudden	-12.4045
sparag	-12.4046
ufficien	-12.4046
oldiers	-12.4047
▁dizz	-12.4047
▁choos	-12.4047
▁filth	-12.4047
trong	-12.4047
▁snar	-12.4047
▁reconcile	-12.4047
▁communicat	-12.4047
▁memor	-12.4048
▁twent	-12.4048
hould	-12.4048
angel	-12.4049
▁distinct	-12.405
bur	-12.405
ification	-12.4052
▁Amra	-12.4052
▁import	-12.4053
▁mir	-12.4053
rink	-12.4054
▁merci	-12.4054
▁persuasi	-12.4054
▁tee	-12.4054
path	-12.4054
▁Mattha	-12.4054
▁appro	-12.4055
aradise	-12.4055
aughter	-12.4055
neys	-12.4055
▁stubb	-12.4055
▁subtil	-12.4055
▁Govern	-12.4055
▁attract	-12.4055
▁habit	-12.4055
▁situat	-12.4055
▁pouch	-12.4055
▁abomina	-12.4055
ecomposers	-12.4055
estroy	-12.4055
ntreat	-12.4056
xcellent	-12.4056
attering	-12.4056
ontrary	-12.4056
▁gloom	-12.4056
ontinue	-12.4056
venture	-12.4056
urmur	-12.4056
ilbur	-12.4056
epart	-12.4056
istened	-12.4056
▁excel	-12.4056
▁Apoll	-12.4056
▁Ponti	-12.4056
▁esp	-12.4056
▁succ	-12.4056
arvel	-12.4056
▁chryso	-12.4056
▁Antipa	-12.4056
▁Secret	-12.4056
▁compound	-12.4056
▁employ	-12.4056
▁pollut	-12.4056
▁renounce	-12.4056
▁ridiculous	-12.4056
▁roost	-12.4056
▁suffice	-12.4056
▁thirteen	-12.4056
Crunchy	-12.4056
Phoebe	-12.4056
Slowly	-12.4056
acinth	-12.4056
bulus	-12.4056
cian	-12.4056
continency	-12.4056
gullible	-12.4056
hippoorwill	-12.4056
ietly	-12.4056
languish	-12.4056
mphas	-12.4056
petitions	-12.4056
roduction	-12.4056
ummim	-12.4056
zziel	-12.4056
▁Agabus	-12.4056
▁Ancih	-12.4056
▁Assyria	-12.4056
▁August	-12.4056
▁Baalzephon	-12.4056
▁Babel	-12.4056
▁Baptizer	-12.4056
▁Beautiful	-12.4056
▁Beroea	-12.4056
▁Bigfish	-12.4056
▁Bithynia	-12.4056
▁Carmi	-12.4056
▁Circumcision	-12.4056
▁Cotton	-12.4056
▁Cowee	-12.4056
▁Crispus	-12.4056
▁Crucify	-12.4056
▁Dalma	-12.4056
▁Dorcas	-12.4056
▁Ellasar	-12.4056
▁Epaphroditus	-12.4056
▁Florida	-12.4056
▁Fulfil	-12.4056
▁Gabriel	-12.4056
▁Gerasenes	-12.4056
▁Gershom	-12.4056
▁Gethsemane	-12.4056
▁Girgas	-12.4056
▁Increase	-12.4056
▁Izhar	-12.4056
▁Jehoshaphat	-12.4056
▁Jenny	-12.4056
▁Jokshan	-12.4056
▁Joram	-12.4056
▁Lebanon	-12.4056
▁Lydda	-12.4056
▁Lydia	-12.4056
▁Matthias	-12.4056
▁Mehujael	-12.4056
▁Melchi	-12.4056
▁Methusael	-12.4056
▁Millipede	-12.4056
▁Mississippi	-12.4056
▁Nico	-12.4056
▁Nimrod	-12.4056
▁Nineveh	-12.4056
▁Onesiphorus	-12.4056
▁Pergamum	-12.4056
▁Pisidia	-12.4056
▁Potomac	-12.4056
▁Prophesy	-12.4056
▁Publius	-12.4056
▁Rabboni	-12.4056
▁Radiant	-12.4056
▁Rahab	-12.4056
▁Rameses	-12.4056
▁Rephaims	-12.4056
▁Rufus	-12.4056
▁Sabaoth	-12.4056
▁Sacrifice	-12.4056
▁Salome	-12.4056
▁School	-12.4056
▁Search	-12.4056
▁Seba	-12.4056
▁Shaveh	-12.4056
▁Siloam	-12.4056
▁Smyrna	-12.4056
▁Sosthenes	-12.4056
▁Squirrel	-12.4056
▁Supreme	-12.4056
▁Tavern	-12.4056
▁Theophilus	-12.4056
▁Thessalonians	-12.4056
▁Tubalcain	-12.4056
▁Zachariah	-12.4056
▁Zerubbabel	-12.4056
▁absolute	-12.4056
▁acquired	-12.4056
▁advise	-12.4056
▁ammunition	-12.4056
▁apothecary	-12.4056
▁appetizing	-12.4056
▁apprehend	-12.4056
▁armpits	-12.4056
▁assumption	-12.4056
▁beefsteak	-12.4056
▁bison	-12.4056
▁bomb	-12.4056
▁boulder	-12.4056
▁brilliant	-12.4056
▁bureau	-12.4056
▁burial	-12.4056
▁busybodies	-12.4056
▁calico	-12.4056
▁centipede	-12.4056
▁clamor	-12.4056
▁companies	-12.4056
▁conspiracy	-12.4056
▁convocation	-12.4056
▁cornbread	-12.4056
▁craftsmen	-12.4056
▁crawfish	-12.4056
▁cumber	-12.4056
▁delusion	-12.4056
▁denarius	-12.4056
▁detail	-12.4056
▁dictionary	-12.4056
▁discarded	-12.4056
▁divorcement	-12.4056
▁doorframes	-12.4056
▁downstream	-12.4056
▁elaborate	-12.4056
▁eloquent	-12.4056
▁emperor	-12.4056
▁evangelist	-12.4056
▁expense	-12.4056
▁experiment	-12.4056
▁extreme	-12.4056
▁fatfleshed	-12.4056
▁fathoms	-12.4056
▁foreknew	-12.4056
▁frail	-12.4056
▁fullgrown	-12.4056
▁fumbling	-12.4056
▁futile	-12.4056
▁garner	-12.4056
▁gleam	-12.4056
▁goddess	-12.4056
▁grasshopper	-12.4056
▁gravy	-12.4056
▁grisled	-12.4056
▁gulped	-12.4056
▁gutted	-12.4056
▁gutters	-12.4056
▁happie	-12.4056
▁happiness	-12.4056
▁hominy	-12.4056
▁humiliation	-12.4056
▁immutab	-12.4056
▁implements	-12.4056
▁inconvenient	-12.4056
▁infield	-12.4056
▁influen	-12.4056
▁ingathering	-12.4056
▁interlude	-12.4056
▁kinswoman	-12.4056
▁kneadingtroughs	-12.4056
▁lamentation	-12.4056
▁lantern	-12.4056
▁leisure	-12.4056
▁lintel	-12.4056
▁mankind	-12.4056
▁material	-12.4056
▁medicine	-12.4056
▁millipedes	-12.4056
▁moccasins	-12.4056
▁mudflat	-12.4056
▁muzzle	-12.4056
▁napkin	-12.4056
▁negotiat	-12.4056
▁nerve	-12.4056
▁nipple	-12.4056
▁oink	-12.4056
▁oysters	-12.4056
▁pellets	-12.4056
▁penknife	-12.4056
▁porcupine	-12.4056
▁portrait	-12.4056
▁preeminence	-12.4056
▁prejudice	-12.4056
▁preparing	-12.4056
▁presumptuous	-12.4056
▁problem	-12.4056
▁promptly	-12.4056
▁provocation	-12.4056
▁rabble	-12.4056
▁rapid	-12.4056
▁religious	-12.4056
▁restraineth	-12.4056
▁revelling	-12.4056
▁rigour	-12.4056
▁sandwich	-12.4056
▁scru	-12.4056
▁scruples	-12.4056
▁skelet	-12.4056
▁slog	-12.4056
▁slothful	-12.4056
▁smiling	-12.4056
▁sobriety	-12.4056
▁soothsay	-12.4056
▁sorceries	-12.4056
▁sorcery	-12.4056
▁squeal	-12.4056
▁stimulate	-12.4056
▁stupor	-12.4056
▁subdue	-12.4056
▁sumptuous	-12.4056
▁supreme	-12.4056
▁survival	-12.4056
▁television	-12.4056
▁terrestrial	-12.4056
▁theoretical	-12.4056
▁thereafter	-12.4056
▁thistledown	-12.4056
▁timbrel	-12.4056
▁tomatoes	-12.4056
▁traffic	-12.4056
▁traitor	-12.4056
▁trample	-12.4056
▁trinket	-12.4056
▁unaccountabl	-12.4056
▁unfair	-12.4056
▁univers	-12.4056
▁unruly	-12.4056
▁unthankful	-12.4056
▁unwashen	-12.4056
▁vesture	-12.4056
▁vicinity	-12.4056
▁victim	-12.4056
▁victual	-12.4056
▁woodpile	-12.4056
▁yawned	-12.4056
▁zero	-12.4056
consequen	-12.4056
shrunk	-12.4056
significan	-12.4056
▁Areopag	-12.4056
▁Death	-12.4056
▁Frankl	-12.4056
▁altercat	-12.4056
▁assault	-12.4056
▁beho	-12.4056
▁calculat	-12.4056
▁clown	-12.4056
▁clutter	-12.4056
▁copy	-12.4056
▁delud	-12.4056
▁disannul	-12.4056
▁drool	-12.4056
▁executi	-12.4056
▁expanse	-12.4056
▁flags	-12.4056
▁grove	-12.4056
▁license	-12.4056
▁lilies	-12.4056
▁morter	-12.4056
▁pastille	-12.4056
▁plaster	-12.4056
▁ribbon	-12.4056
▁snuffdishes	-12.4056
▁surmis	-12.4056
▁terms	-12.4056
olog	-12.4056
▁Jann	-12.4056
▁Mattath	-12.4056
▁Phoeni	-12.4056
▁accommodat	-12.4056
▁crafty	-12.4056
▁cripple	-12.4056
▁enact	-12.4056
▁gabbl	-12.4056
▁grandfather	-12.4056
▁humility	-12.4056
▁ignore	-12.4056
▁lamented	-12.4056
▁lungs	-12.4056
▁magnificen	-12.4056
▁narrat	-12.4056
▁smack	-12.4056
▁spark	-12.4056
▁stove	-12.4056
▁tremen	-12.4056
▁twirl	-12.4056
▁unsettle	-12.4056
▁wrinkle	-12.4056
▁Towers	-12.4056
▁circuit	-12.4056
▁expert	-12.4056
▁foaming	-12.4056
▁fragran	-12.4056
▁overflow	-12.4056
▁whicker	-12.4056
▁withdraw	-12.4056
▁risk	-12.4056
xtort	-12.4056
▁Baal	-12.4056
▁Galeed	-12.4056
▁Malch	-12.4056
▁basketfuls	-12.4056
▁daddy	-12.4056
▁garnish	-12.4056
▁glid	-12.4056
▁initial	-12.4056
▁motor	-12.4056
▁scourging	-12.4056
▁surpass	-12.4056
▁suspicio	-12.4056
versatile	-12.4056
▁wobbl	-12.4056
spouts	-12.4056
▁dazzling	-12.4056
▁effectual	-12.4056
▁opus	-12.4056
▁balance	-12.4056
▁purification	-12.4056
▁waistcoat	-12.4056
▁Joanna	-12.4056
▁Pontiac	-12.4056
▁Sabt	-12.4056
▁dragline	-12.4056
▁hobbl	-12.4056
▁numer	-12.4056
▁runneth	-12.4056
▁Hirah	-12.4056
▁assessment	-12.4056
▁loathe	-12.4056
▁superlative	-12.4056
▁persistent	-12.4056
▁rude	-12.4056
▁Amoz	-12.4056
▁uphill	-12.4056
ilacs	-12.4056
▁approached	-12.4056
▁billows	-12.4056
▁globe	-12.4056
▁hazard	-12.4056
▁option	-12.4056
▁rescue	-12.4056
▁Josiah	-12.4056
▁balm	-12.4056
▁councillor	-12.4056
▁forefather	-12.4056
▁frying	-12.4056
▁nursing	-12.4056
▁sentiment	-12.4056
▁ambassage	-12.4056
▁enchant	-12.4056
▁grandson	-12.4056
▁shiver	-12.4056
▁consist	-12.4056
▁eventide	-12.4056
▁filthiness	-12.4056
▁reclin	-12.4056
pproximately	-12.4056
▁dignities	-12.4056
▁peaks	-12.4056
▁Slug	-12.4056
▁superfluity	-12.4056
▁stroll	-12.4056
▁aloft	-12.4056
▁furious	-12.4056
▁Raamah	-12.4056
▁divinity	-12.4056
▁slats	-12.4056
▁pride	-12.4056
▁Doctor	-12.4057
▁caution	-12.4057
▁cautiously	-12.4057
▁ginger	-12.4057
▁precede	-12.4057
▁welfare	-12.4057
▁appeti	-12.4057
▁babblings	-12.4057
▁befitting	-12.4057
▁leasing	-12.4057
▁splash	-12.4057
▁outfit	-12.4057
▁spoonful	-12.4057
▁bacteria	-12.4057
▁uniform	-12.4057
azin	-12.4057
▁Corinthians	-12.4057
▁usury	-12.4057
▁display	-12.4057
▁salon	-12.4057
▁battle	-12.4057
▁turtle	-12.4057
▁vomit	-12.4057
substan	-12.4057
▁manger	-12.4057
▁Calah	-12.4057
▁stanched	-12.4057
▁chaise	-12.4057
▁vaunt	-12.4057
▁exhal	-12.4057
▁translat	-12.4057
▁britches	-12.4057
▁guiltless	-12.4057
▁travers	-12.4057
▁owl	-12.4057
▁fuss	-12.4057
▁Salem	-12.4057
▁acquaintance	-12.4057
▁Gaza	-12.4057
▁Mizraim	-12.4057
▁allotted	-12.4057
▁soaked	-12.4057
▁suet	-12.4057
▁droop	-12.4057
▁primar	-12.4057
▁clash	-12.4057
▁gloomily	-12.4057
▁vouch	-12.4057
▁Rhod	-12.4057
▁decay	-12.4057
▁loyal	-12.4057
▁Julius	-12.4057
Meeting	-12.4057
▁dripping	-12.4057
▁enforc	-12.4057
▁partiality	-12.4057
▁kidding	-12.4057
▁enrolment	-12.4057
Nice	-12.4057
tude	-12.4057
▁popover	-12.4057
▁eaves	-12.4057
▁legitima	-12.4057
▁Tert	-12.4057
▁laz	-12.4057
▁Claudius	-12.4057
▁poet	-12.4057
NK	-12.4057
▁streak	-12.4057
▁flake	-12.4057
sabba	-12.4057
▁okay	-12.4057
▁tube	-12.4057
▁cinder	-12.4057
▁railhead	-12.4057
▁anti	-12.4057
▁Poor	-12.4057
▁Jeze	-12.4057
▁pulse	-12.4057
jah	-12.4057
churn	-12.4057
▁Javan	-12.4057
▁subtilty	-12.4057
▁Job	-12.4057
▁Lud	-12.4057
agic	-12.4057
▁factious	-12.4057
▁whale	-12.4057
▁edified	-12.4057
▁blunt	-12.4057
iggled	-12.4057
▁decade	-12.4057
▁Maha	-12.4057
tenance	-12.4057
▁hammer	-12.4057
▁rhythmic	-12.4057
▁Kid	-12.4057
▁concourse	-12.4057
bited	-12.4057
zzling	-12.4057
▁Zac	-12.4057
▁coco	-12.4057
▁earshot	-12.4057
▁Dead	-12.4058
▁hencefor	-12.4058
▁horseback	-12.4058
▁Teach	-12.4058
▁oilcloth	-12.4058
▁Elisha	-12.4058
▁Padanaram	-12.4058
▁spectac	-12.4058
▁sheath	-12.4058
▁severity	-12.4058
▁embroiderer	-12.4058
▁Naaman	-12.4058
▁impu	-12.4058
▁recall	-12.4058
▁stew	-12.4058
bia	-12.4058
▁flute	-12.4058
▁ownership	-12.4058
▁Irad	-12.4058
▁ancest	-12.4058
▁suggestions	-12.4058
▁foreship	-12.4058
bula	-12.4058
ember	-12.4058
▁Massa	-12.4058
osity	-12.4058
▁persuasive	-12.4058
▁Carry	-12.4058
▁Lyc	-12.4058
▁rig	-12.4058
▁tripod	-12.4058
urvey	-12.4058
▁instant	-12.4058
▁Merc	-12.4058
▁meditation	-12.4058
▁trump	-12.4058
▁trench	-12.4058
▁Edomites	-12.4058
▁Bridge	-12.4058
hites	-12.4058
enser	-12.4058
▁detest	-12.4058
▁thankfulness	-12.4058
▁Beersheba	-12.4058
▁calam	-12.4058
AT	-12.4058
▁cookery	-12.4059
▁tackl	-12.4059
▁piss	-12.4059
▁scalp	-12.4059
▁wavering	-12.4059
▁missionar	-12.4059
▁rebel	-12.4059
▁removal	-12.4059
▁drear	-12.4059
▁Kir	-12.4059
▁eff	-12.4059
▁Kar	-12.4059
▁wakeful	-12.4059
▁partial	-12.4059
egion	-12.4059
▁grid	-12.4059
▁speedily	-12.4059
▁justifieth	-12.4059
▁expression	-12.4059
▁beget	-12.4059
▁variance	-12.4059
cade	-12.4059
▁cruelty	-12.4059
erceive	-12.4059
▁Naph	-12.406
▁Hog	-12.406
▁pomp	-12.406
▁riotous	-12.406
▁thunderings	-12.406
▁history	-12.406
▁funny	-12.406
▁transit	-12.406
Easy	-12.406
▁theatre	-12.406
▁confirmation	-12.406
▁roadway	-12.406
▁boyhood	-12.406
▁Hermon	-12.406
▁mineral	-12.406
▁fuck	-12.406
▁Hori	-12.406
naim	-12.406
▁bondmen	-12.406
▁rocket	-12.406
▁policy	-12.406
▁unholy	-12.406
▁unseemly	-12.406
▁hop	-12.406
▁gallery	-12.406
apolis	-12.4061
▁wavered	-12.4061
▁phoe	-12.4061
▁encourage	-12.4061
nkle	-12.4061
▁alternate	-12.4061
▁Beriah	-12.4061
▁State	-12.4061
▁cling	-12.4061
▁skirmish	-12.4061
▁parings	-12.4061
▁wariness	-12.4061
ndron	-12.4061
▁Bow	-12.4061
▁Matthan	-12.4061
▁axle	-12.4061
▁Aram	-12.4061
polis	-12.4061
ilver	-12.4061
▁Lie	-12.4061
ccent	-12.4061
▁carrie	-12.4062
▁politely	-12.4062
▁similarly	-12.4062
▁sparingly	-12.4062
▁doubleminded	-12.4062
▁wrongfully	-12.4062
▁Shim	-12.4062
▁noisy	-12.4062
ulation	-12.4062
gage	-12.4062
▁bump	-12.4062
▁suppertime	-12.4062
▁arising	-12.4062
▁nea	-12.4062
nnels	-12.4062
abies	-12.4062
guiltiness	-12.4062
▁alongside	-12.4062
▁dough	-12.4062
uda	-12.4063
onia	-12.4063
ddling	-12.4063
▁acceptation	-12.4063
▁humm	-12.4063
▁grand	-12.4063
▁Hadar	-12.4063
▁Onesi	-12.4063
▁chaste	-12.4063
eously	-12.4064
▁rill	-12.4064
▁fitting	-12.4064
acter	-12.4064
▁crunch	-12.4064
▁crust	-12.4064
▁gentleness	-12.4064
▁Rhe	-12.4064
▁gum	-12.4064
▁promi	-12.4064
▁mockers	-12.4065
▁lam	-12.4065
▁hitherto	-12.4065
▁scabb	-12.4065
▁disbelieved	-12.4065
▁collapsed	-12.4065
▁confi	-12.4065
▁surre	-12.4065
▁eag	-12.4066
▁hello	-12.4066
▁Jah	-12.4066
▁attachment	-12.4066
▁china	-12.4066
▁boxes	-12.4066
▁identi	-12.4066
▁thankful	-12.4066
▁Tab	-12.4067
oper	-12.4067
▁attraction	-12.4067
▁stings	-12.4067
▁freeman	-12.4067
▁genealogy	-12.4067
▁bull	-12.4067
▁tighten	-12.4068
▁shaven	-12.4068
▁team	-12.4068
▁Gomer	-12.4068
▁mire	-12.4068
▁ta	-12.4068
▁fearfulness	-12.4068
▁gorgeous	-12.4068
riah	-12.4068
▁fume	-12.4068
geon	-12.4068
▁honest	-12.4068
▁seduc	-12.4069
▁homeland	-12.4069
lene	-12.4069
▁incl	-12.4069
▁station	-12.4069
▁Tryph	-12.4069
▁alo	-12.407
▁approvedness	-12.407
▁earnestness	-12.407
▁Cover	-12.407
▁tones	-12.407
▁normal	-12.407
▁agent	-12.407
▁flourisheth	-12.4071
chant	-12.4071
▁soberness	-12.4071
▁pew	-12.4071
pilled	-12.4072
▁bedtime	-12.4072
▁backbone	-12.4072
educ	-12.4072
horus	-12.4072
▁Ken	-12.4073
retty	-12.4073
rubs	-12.4073
rged	-12.4073
Are	-12.4073
▁reconcil	-12.4073
▁assist	-12.4074
▁dau	-12.4075
▁chast	-12.4075
▁foes	-12.4075
▁ledge	-12.4075
▁scare	-12.4075
cientist	-12.4075
▁dreamily	-12.4075
▁belonging	-12.4076
▁drowned	-12.4076
▁embalmed	-12.4076
▁hesitated	-12.4076
▁butchered	-12.4076
orci	-12.4076
▁underwear	-12.4077
▁cobbler	-12.4077
▁Mish	-12.4077
voca	-12.4077
Goodness	-12.4077
isc	-12.4078
▁gloriest	-12.4078
▁meta	-12.4078
▁Near	-12.4078
▁Apple	-12.4079
▁sym	-12.408
▁delicately	-12.408
▁meekly	-12.408
▁laughter	-12.4081
▁tamed	-12.4081
▁chasteneth	-12.4081
▁flapped	-12.4081
▁Elim	-12.4082
▁dealings	-12.4082
▁acquaint	-12.4082
▁Mib	-12.4082
▁tailor	-12.4082
▁blaze	-12.4083
▁familiar	-12.4083
▁ordinary	-12.4083
▁wreck	-12.4083
▁Wind	-12.4084
amous	-12.4084
eneration	-12.4085
▁cure	-12.4085
▁thump	-12.4085
▁Fight	-12.4085
anim	-12.4086
▁firelight	-12.4086
▁defende	-12.4086
bsolution	-12.4086
▁Majest	-12.4086
▁watchful	-12.4086
▁overboard	-12.4086
allel	-12.4087
▁saddle	-12.4087
▁Obe	-12.4087
luc	-12.4088
affl	-12.4088
▁worshippeth	-12.4088
arge	-12.4089
oic	-12.4089
blossom	-12.4089
▁generally	-12.409
▁sunris	-12.4091
▁ruff	-12.4091
yway	-12.4092
rban	-12.4093
▁perfection	-12.4093
▁joyfully	-12.4094
▁lightened	-12.4094
▁striker	-12.4094
rsel	-12.4094
Avery	-12.4094
anging	-12.4095
▁unity	-12.4095
▁copies	-12.4096
willing	-12.4096
▁morals	-12.4096
▁endeavors	-12.4096
▁feathers	-12.4096
▁palaces	-12.4096
▁politics	-12.4096
▁proselytes	-12.4096
▁symbols	-12.4096
▁convers	-12.4096
▁Mana	-12.4097
▁rambl	-12.4097
siah	-12.4097
hepherd	-12.4098
▁Alexandrian	-12.4098
▁mites	-12.4099
▁bored	-12.4099
ighteous	-12.4099
eyond	-12.41
▁Boy	-12.41
▁scour	-12.4101
▁unbeliever	-12.4102
▁explod	-12.4102
▁thereupon	-12.4103
▁cult	-12.4104
sorry	-12.4106
▁penny	-12.4106
planted	-12.4106
▁fisherm	-12.4106
jack	-12.4107
▁decrease	-12.4107
esis	-12.4107
▁gloriously	-12.4109
▁assuredly	-12.4109
col	-12.411
▁scattereth	-12.411
▁licked	-12.411
▁dismissed	-12.411
▁drunkard	-12.411
▁complained	-12.411
▁carcase	-12.4111
▁reviler	-12.4112
▁lackest	-12.4112
▁whistling	-12.4113
▁contem	-12.4113
burger	-12.4113
▁complaining	-12.4113
▁mom	-12.4115
▁Had	-12.4115
▁baptizeth	-12.4116
▁pyr	-12.4117
▁project	-12.4117
▁wedding	-12.4118
▁Joy	-12.4118
inter	-12.4119
ripe	-12.4121
▁lick	-12.4121
evolution	-12.4122
▁mouthful	-12.4123
▁dries	-12.4124
▁spy	-12.4126
lunta	-12.4126
▁constant	-12.4126
▁quench	-12.4127
▁Ach	-12.4128
▁pathetic	-12.4128
▁becomingly	-12.4129
▁faileth	-12.4129
▁draft	-12.413
▁dar	-12.413
▁summ	-12.4131
▁Shil	-12.4131
▁sling	-12.4131
▁TH	-12.4131
▁compare	-12.4134
▁Wash	-12.4134
▁earlie	-12.4135
▁abhorre	-12.4135
xplosion	-12.4137
▁local	-12.4137
quality	-12.4139
qui	-12.4139
▁heartily	-12.4139
arsely	-12.414
▁Aren	-12.4141
ffer	-12.4141
▁Phu	-12.4143
ouching	-12.4144
▁encountered	-12.4145
▁mansion	-12.4147
esture	-12.4149
▁thereabout	-12.4149
▁missing	-12.4151
▁excused	-12.4151
▁fastness	-12.4151
▁swamp	-12.4152
▁brightest	-12.4155
▁nicely	-12.4158
urning	-12.4159
▁Ze	-12.416
▁glare	-12.416
▁Nan	-12.4162
rks	-12.4162
▁ramp	-12.4163
rped	-12.4164
▁elbows	-12.4165
▁hillsides	-12.4165
▁poplars	-12.4165
▁scorpions	-12.4165
▁aprons	-12.4165
▁citizens	-12.4165
controlled	-12.4166
▁belongings	-12.4166
non	-12.4167
▁payments	-12.417
▁outright	-12.4171
▁highways	-12.4171
ymen	-12.4171
year	-12.4172
▁legion	-12.4172
▁ref	-12.4172
ffed	-12.4172
venge	-12.4175
▁proudly	-12.4178
▁readest	-12.4178
▁witch	-12.4178
lunchtime	-12.4178
▁hangeth	-12.4178
▁archer	-12.4179
▁remarked	-12.4179
▁someday	-12.4181
Alon	-12.4182
▁vowed	-12.4182
▁stare	-12.4186
▁lesson	-12.4186
mely	-12.4186
▁despairing	-12.4188
▁inventing	-12.4188
▁ev	-12.4191
woods	-12.4192
nuts	-12.4192
▁wrestling	-12.4192
▁sadly	-12.4193
▁weakling	-12.4194
▁gear	-12.4198
▁faster	-12.4201
▁Phil	-12.4201
▁impos	-12.4203
▁hasn	-12.4203
▁miser	-12.4203
ngular	-12.4204
▁stunt	-12.4204
▁Beor	-12.4205
▁uncover	-12.4207
▁awaked	-12.4209
▁paces	-12.4211
▁Rest	-12.4211
▁admoni	-12.4213
▁consol	-12.4213
▁Israelites	-12.4214
▁included	-12.4216
▁plu	-12.4225
ball	-12.4231
orehouses	-12.4235
▁guests	-12.4236
▁benefits	-12.4236
▁bishops	-12.4236
▁patriarchs	-12.4236
▁results	-12.4236
▁ewes	-12.4236
▁wickedly	-12.4236
▁factions	-12.4238
▁dispos	-12.4241
▁reput	-12.4241
▁washings	-12.4242
▁nast	-12.4247
boards	-12.4249
stones	-12.4251
works	-12.4254
fied	-12.4258
TER	-12.426
▁dissipat	-12.4261
▁decomposed	-12.4263
▁gnawing	-12.4263
▁coveting	-12.4266
determin	-12.4267
▁grassy	-12.4269
▁Spid	-12.4271
▁Ked	-12.4273
▁aboundeth	-12.4275
▁secretly	-12.4276
allows	-12.4276
band	-12.4278
▁boiled	-12.428
tay	-12.4285
▁Nor	-12.4287
▁dre	-12.4301
▁bin	-12.4302
▁blasphemer	-12.4308
▁candles	-12.4308
▁ranks	-12.4309
▁Tir	-12.4309
▁railings	-12.431
▁repenteth	-12.4314
▁sorely	-12.4315
▁departeth	-12.4316
▁cries	-12.432
▁reigneth	-12.4323
lay	-12.4324
▁sharply	-12.4325
▁stag	-12.4325
▁forbearing	-12.4336
▁weeds	-12.4337
▁Dis	-12.4342
hips	-12.4345
▁lawfully	-12.4351
▁Hot	-12.4355
aves	-12.4359
▁warmth	-12.4362
▁breaketh	-12.4377
▁twisting	-12.4378
▁sheets	-12.4381
▁tumults	-12.4382
▁instructions	-12.4383
▁poorly	-12.4385
gree	-12.4393
▁consented	-12.4397
▁aboard	-12.4411
▁preferr	-12.4414
wailed	-12.4415
▁rouse	-12.4426
▁jet	-12.443
▁Cos	-12.444
▁fou	-12.4449
▁planning	-12.4452
▁labours	-12.4455
▁balloons	-12.4457
▁belt	-12.4467
shearer	-12.4468
▁airy	-12.447
▁duel	-12.4471
▁Arch	-12.4484
▁clapp	-12.4486
▁activit	-12.4488
▁test	-12.4504
▁sleepy	-12.4518
▁signal	-12.4523
▁plots	-12.4526
▁vig	-12.4528
▁bullocks	-12.453
▁enjoin	-12.4532
▁platters	-12.4535
▁bloo	-12.4541
▁lusted	-12.4548
▁seedling	-12.4551
▁killings	-12.4552
▁retain	-12.4552
▁Abia	-12.4555
▁ge	-12.4556
▁Hada	-12.456
▁reaped	-12.4581
▁rendered	-12.4584
▁kne	-12.4647
vity	-12.4649
▁Sm	-12.4672
▁praised	-12.4691
arcel	-12.4692
▁dism	-12.4718
▁Pau	-12.4735
consider	-12.4752
▁popula	-12.4773
▁marking	-12.4773
▁farth	-12.4775
chem	-12.4778
▁residen	-12.478
actors	-12.4799
acked	-12.4817
there	-12.4818
porter	-12.4838
AB	-12.484
sters	-12.4851
La	-12.4854
had	-12.4866
umbled	-12.4893
▁agenc	-12.4902
raggle	-12.4928
gation	-12.4933
▁sanctifie	-12.4971
city	-12.4972
▁radian	-12.5
udg	-12.5025
balanc	-12.503
ency	-12.5036
▁lengthen	-12.5045
▁husk	-12.5083
▁blur	-12.5092
▁weaken	-12.5109
fallen	-12.5133
tac	-12.5173
tines	-12.5181
▁mini	-12.5199
▁gunfi	-12.5216
twee	-12.525
hip	-12.5345
lative	-12.5358
rich	-12.5373
rake	-12.5381
escend	-12.5389
gratulation	-12.5411
journ	-12.5434
▁distresse	-12.544
▁kni	-12.544
▁paint	-12.5502
▁Mesh	-12.551
▁ripp	-12.5559
▁distribut	-12.558
▁gar	-12.5704
▁Alva	-12.5705
▁blo	-12.5717
▁trou	-12.5731
ral	-12.5754
ays	-12.5773
▁morta	-12.5788
Ever	-12.5798
ex	-12.5864
rock	-12.591
▁watche	-12.5932
▁carpe	-12.6021
▁quali	-12.6046
▁contra	-12.6062
informed	-12.6064
lets	-12.6149
▁dainti	-12.6155
▁unmo	-12.6178
▁ba	-12.6191
nches	-12.6192
gi	-12.6226
gin	-12.6226
air	-12.625
▁sla	-12.6257
Try	-12.6334
nish	-12.634
ttle	-12.6351
▁relat	-12.6368
▁aveng	-12.6376
par	-12.6419
och	-12.6477
fighters	-12.648
▁obs	-12.6504
▁non	-12.6504
▁naviga	-12.6529
▁invite	-12.6539
view	-12.6557
composed	-12.6632
efraud	-12.6678
▁sca	-12.6825
hen	-12.6899
orseshoe	-12.6967
rang	-12.6972
▁Cre	-12.698
▁welcom	-12.7072
▁protect	-12.7095
iving	-12.7148
ust	-12.7156
ormwood	-12.729
ana	-12.7394
▁dam	-12.742
▁dep	-12.7439
opping	-12.7462
bag	-12.7532
clusive	-12.7628
tasting	-12.7746
aving	-12.7924
▁impr	-12.7952
▁pac	-12.7958
▁elevat	-12.7993
nuel	-12.8009
nstead	-12.8034
▁Mel	-12.8105
▁compensat	-12.8131
oz	-12.8165
▁exclu	-12.8217
add	-12.8243
phras	-12.8498
ether	-12.8516
▁principalit	-12.8723
formation	-12.8758
hereunto	-12.8762
▁prote	-12.8799
evil	-12.8804
ize	-12.8852
shoe	-12.8913
▁epi	-12.8997
▁Creat	-12.9002
awl	-12.9009
wed	-12.9086
llows	-12.909
udder	-12.9116
pot	-12.9118
bat	-12.9125
▁protecti	-12.9132
bon	-12.9137
▁Rep	-12.9283
▁entic	-12.9295
fraud	-12.9326
▁endur	-12.9365
▁compose	-12.9497
▁navigati	-12.9521
ioch	-12.9526
move	-12.9637
▁persuade	-12.9681
▁Po	-12.9794
omantic	-12.9865
▁snatche	-12.988
▁conc	-12.9948
ck	-12.9952
unic	-12.9987
vo	-12.9993
rk	-12.9995
▁daint	-13.004
ushim	-13.0119
lotted	-13.0143
phra	-13.0189
AM	-13.0223
▁measur	-13.0258
bits	-13.0272
▁purpos	-13.0314
elect	-13.0317
▁Revi	-13.0342
arrow	-13.0369
▁enrol	-13.0457
mali	-13.0461
oneliness	-13.0611
LO	-13.067
ignity	-13.0703
▁na	-13.0848
▁treati	-13.0901
ripping	-13.0966
arba	-13.099
acle	-13.1044
olent	-13.1109
scend	-13.1132
▁adjo	-13.1157
▁slack	-13.122
▁bewail	-13.131
▁Bac	-13.1374
▁grip	-13.1407
▁compelle	-13.1412
▁exalte	-13.1421
tching	-13.1452
nction	-13.1471
▁Writ	-13.1507
▁acknowledg	-13.1531
▁gla	-13.1569
▁mode	-13.1583
▁lin	-13.1747
▁vainglor	-13.1786
kite	-13.1818
▁mids	-13.1863
▁pudd	-13.1877
▁radia	-13.1912
▁divin	-13.1926
Pre	-13.1938
ammi	-13.194
styles	-13.195
▁rele	-13.1965
▁temp	-13.1986
▁Immediate	-13.2044
▁guid	-13.2045
tographe	-13.2053
ruption	-13.2105
▁hi	-13.2124
easing	-13.2135
▁nois	-13.2167
trot	-13.2232
mble	-13.2266
ggle	-13.2276
vah	-13.2333
▁deci	-13.2348
▁squ	-13.2375
hab	-13.247
▁Li	-13.2518
teller	-13.2604
▁reli	-13.2614
▁heav	-13.2738
now	-13.2754
pops	-13.2794
▁refer	-13.2797
▁Mac	-13.2858
▁blasphem	-13.287
▁Byron	-13.2923
▁loc	-13.2942
▁proposi	-13.2953
emarkable	-13.3028
bakers	-13.3038
▁separat	-13.3081
gro	-13.309
▁Ex	-13.3097
Spring	-13.312
Jach	-13.3155
uc	-13.3173
quarters	-13.3174
shares	-13.3213
pockets	-13.3292
▁nu	-13.3321
▁Straight	-13.3325
reaching	-13.3344
rley	-13.3367
plicat	-13.3389
▁plac	-13.3402
dresse	-13.3427
▁Atta	-13.3431
racker	-13.3435
maker	-13.3435
cca	-13.3448
covered	-13.345
wise	-13.3468
▁Dio	-13.3469
gger	-13.3475
▁Tema	-13.3478
arry	-13.3482
pine	-13.3485
Ti	-13.3502
piders	-13.3515
counting	-13.3524
mount	-13.353
▁spo	-13.3551
▁Earth	-13.3561
sipate	-13.3567
▁Whoso	-13.3587
uddy	-13.3602
▁simpli	-13.3603
▁esc	-13.3625
omen	-13.3627
▁chang	-13.3628
admonit	-13.3655
maids	-13.3664
thrus	-13.3668
ickle	-13.3678
ooted	-13.3707
▁northw	-13.3715
▁Arc	-13.3724
▁Step	-13.3765
gaining	-13.3765
hanging	-13.3772
emon	-13.3788
ppers	-13.3788
▁circ	-13.3819
pecial	-13.3823
uary	-13.3833
▁plat	-13.3837
ticks	-13.3841
▁unfo	-13.3844
ekah	-13.3845
uckle	-13.3849
▁priv	-13.3852
▁abhor	-13.3857
Ba	-13.3859
▁hoar	-13.3861
▁comp	-13.3861
ual	-13.3861
▁reconcili	-13.3866
▁conver	-13.388
nstantly	-13.388
▁rub	-13.3884
pra	-13.3891
▁unbeliev	-13.3898
▁fac	-13.3902
lute	-13.3906
change	-13.3907
pti	-13.3913
▁contemp	-13.3913
▁carcas	-13.3918
bearing	-13.3919
vented	-13.392
▁Buck	-13.3923
wake	-13.3924
eaten	-13.3925
▁clap	-13.3941
burg	-13.3944
▁bruis	-13.3946
creased	-13.3946
ppoint	-13.3947
G	-13.3977
Z	-13.4002
D	-13.4003
q	-14.7754
“	-14.7755
