{
  "src_word2id": {
    "<pad>": 0,
    "<s>": 1,
    "</s>": 2,
    "<unk>": 3,
    ",": 4,
    ".": 5,
    "\u2581\u13a0\u13b4": 6,
    "\u2581\u13be\u13cd\u13a9": 7,
    ";": 8,
    "\u13c3": 9,
    "\u2581\u13af\u13a0": 10,
    "\u2581\u13a8\u13d2": 11,
    "\u2581": 12,
    "\u13a2": 13,
    "\u2581\u13a5\u13dd": 14,
    "\u2581\u13a8\u13d2\u13a2": 15,
    "\u13f0\u13c3": 16,
    "\u13a9": 17,
    "\u2581\u13a8\u13ce\u13cd\u13d7": 18,
    "\u2581\u13a4\u13c1\u13b3\u13c5\u13af": 19,
    "\u2581\u13c3\u13b4": 20,
    "\u2581\u13a4": 21,
    "?": 22,
    "\u2581\u13a0": 23,
    "\u2581\u13f4\u13eb": 24,
    "\u13c9": 25,
    "\u13d7": 26,
    "\u13af": 27,
    "\u2581\u13a9\u13b6": 28,
    "\u2581\u13be\u13cd\u13c9": 29,
    "\u2581\u13a2\u13f3\u13cd\u13d7": 30,
    "\u2581\u13be\u13bf": 31,
    "\u2581\u13be\u13cd\u13a9\u13ef": 32,
    "\u2060": 33,
    "\u2581\u13a0\u13ce\u13c3": 34,
    "\u2581\u13a0\u13f4": 35,
    "\u13ad": 36,
    "\u2581\u13f1\u13a9": 37,
    "\u2581\u13be": 38,
    "-": 39,
    "\u2581\u13e5\u13a9": 40,
    "\u2581\u13f1\u13b0\u13e9": 41,
    "\u2581\u13aa\u13b1\u13cd\u13d7": 42,
    "\u2581\u13c2\u13a6\u13db": 43,
    "\u2581\u13c2\u13af": 44,
    "\u2581\u13a2\u13a6": 45,
    "\u2581\u13a4\u13ac\u13eb\u13f3\u13af": 46,
    "\u2581\u13e5\u13cc": 47,
    "\u2581\u13c2\u13a8\u13d2\u13be": 48,
    "\u13f1": 49,
    "\u2581\u201c": 50,
    "\u13be": 51,
    "\u13cd\u13a9\u13c2": 52,
    "\u2581\u13a3\u13cd\u13db": 53,
    "\u2581\u13af\u13a0\u13c3": 54,
    "\u13db": 55,
    "\u13cd\u13d7": 56,
    "\u2581\u13a4\u13ea\u13e5": 57,
    "\u2581\u13e7": 58,
    "\u2581\u13d7": 59,
    "\u2581\u13a2\u13f3\u13c3": 60,
    "\u2581\u13be\u13cd\u13a9\u13c3": 61,
    "\u2581\u13e7\u13ea\u13e5": 62,
    "\u2581\u13a6\u13b6\u13c1\u13db": 63,
    "\u13d3": 64,
    "\u2581\u13c4\u13ea\u13ce\u13a2": 65,
    "\u2581\u13bf\u13c9": 66,
    "\u2581\u13a1\u13b6\u13af": 67,
    "\u2581\u13de\u13cd\u13d7": 68,
    "\u2581\u13e5": 69,
    "\u2581\u13a0\u13c2": 70,
    "\u2581\u13a8\u13cd\u13d7": 71,
    "\u2581\u13bf\u13c9\u13c3": 72,
    "\u2581\u13a4\u13f2": 73,
    "\u13a6": 74,
    "\u2581\u13a4\u13db\u13c1": 75,
    "\u2581\u13e3": 76,
    "\u2581\u13a4\u13e3\u13d8": 77,
    "\u2581\u13a0\u13e5\u13b8": 78,
    "\u2581\u201d": 79,
    "\u2581\u13f1": 80,
    "\u2581\u13da": 81,
    "\u2581\u13eb\u13b5\u13bb": 82,
    ",\u201d": 83,
    "\u2581\u13be\u13af\u13f3": 84,
    "\u2581\u13c2\u13a6\u13a5": 85,
    "\u2581\u13ac\u13c2\u13a8\u13d2": 86,
    "\u2581\u13a0\u13cd\u13a6\u13ef": 87,
    "\u2581\u13a6\u13b8\u13c9\u13d7\u13f3": 88,
    "\u2581\u13ac\u13c2\u13f3\u13c9": 89,
    "\u2581\u13c4\u13cd\u13db": 90,
    "\u13c2": 91,
    "\u2581\u13a6\u13d9": 92,
    "\u2581\u13a7\u13c3\u13ae\u13db": 93,
    "\u2581\u13a1\u13af": 94,
    "\u2581\u13a4\u13e9\u13d2": 95,
    "\u2581\u13a0\u13c1\u13af": 96,
    "\u2581\u13a6\u13b8\u13b3\u13d7": 97,
    "\u13c5": 98,
    "\u2581\u13a0\u13f0\u13b5": 99,
    "\u2581\u13a0\u13d5\u13b8": 100,
    "\u2581\u13a8\u13ce\u13a2": 101,
    "\u2581\u13a4\u13e4\u13b5": 102,
    "\u2581\u13cc\u13c9": 103,
    "\u2581\u13f0\u13b5": 104,
    "\u2581\u13a4\u13e4\u13b5\u13a6": 105,
    "\u13a8": 106,
    "\u2581\u13a0\u13b9": 107,
    "\u2581\u13a2\u13f4\u13db": 108,
    "\u13b8": 109,
    "\u13cf": 110,
    "\u2581\u13a2\u13e3": 111,
    "\u13d7\u13f1": 112,
    "\u2581\u13a4\u13c2": 113,
    "\u13b5": 114,
    "\u2581\u13a2": 115,
    "\u2581\u13be\u13c2\u13a5": 116,
    "\u2581\u13a3\u13cf\u13f3": 117,
    "\u2581\u13a0\u13ce": 118,
    "\u13f3": 119,
    "\u2581\u13a6\u13d9\u13af": 120,
    "\u2581\u13d4\u13b5": 121,
    "\u2581\u13a2\u13cf\u13b5": 122,
    "\u2581[": 123,
    "\u13b4": 124,
    "\u2581\u13a4\u13df": 125,
    "\u2581\u13aa\u13af": 126,
    "\u2581\u13d7\u13a7\u13bf\u13e9\u13db\u13cd\u13d7": 127,
    "\u2581\u13af": 128,
    "\u2581\u13a0\u13d3\u13c5\u13d9": 129,
    "\u2581\u13a3\u13cd\u13d3": 130,
    "\u2581\u13a0\u13c2\u13cd\u13a6\u13ef": 131,
    "\u13d2": 132,
    "\u2581\u13d3": 133,
    "\u2581\u13a8\u13ce": 134,
    "\u2581\u13a2\u13e5\u13c8\u13f1": 135,
    ".\u201d": 136,
    "\u2581\u13d4\u13b5\u13c1": 137,
    "\u2581\u13bc\u13cf": 138,
    "\u13b2": 139,
    "\u13cd\u13aa": 140,
    "\u2581\u13a6": 141,
    "\u2581\u13a2\u13f3": 142,
    "\u2581\u13a8\u13d2\u13a9": 143,
    "\u2581\u13ac\u13e9": 144,
    "\u2581\u2060": 145,
    "\u2581\u13a4\u13cd\u13d7": 146,
    "\u2581\u13a2\u13ac\u13f1": 147,
    "\u2581\u13e4\u13a6\u13c8": 148,
    "\u2581\u13da\u13f3\u13aa\u13db": 149,
    "]": 150,
    "\u2581\u13a4\u13c2\u13e3\u13d8": 151,
    "\u2581\u13a1\u13b3\u13d7": 152,
    "\u2581\u13f3": 153,
    "!": 154,
    "\u2581\u13a1\u13c6\u13ad\u13bb": 155,
    "\u2581\u13a2\u13f3\u13b5\u13cd\u13d9\u13d7\u13f1": 156,
    "\u2581\u13a6\u13d9\u13c3": 157,
    "\u2581\u13a0\u13eb": 158,
    ":": 159,
    "\u13a8\u13cd\u13d7": 160,
    "\u2581\u13a2\u13d7\u13e2": 161,
    "\u13cd\u13a9": 162,
    "\u2581\u13e9\u13a6": 163,
    "\u13a0": 164,
    "\u2581\u13c7\u13b5\u13f2": 165,
    "\u2581\u13eb": 166,
    "\u2581\u13cf\u13c6": 167,
    "\u2581\u13a0\u13a8\u13f4": 168,
    "\u2581\u13f2\u13be": 169,
    "\u13ac": 170,
    "\u2581\u13a4\u13be": 171,
    "\u2581\u13e6\u13e9": 172,
    "\u2581\u13cc\u13b3\u13d3": 173,
    "\u13aa": 174,
    "\u2581\u13a0\u13cf": 175,
    "\u2581\u13be\u13a5": 176,
    "!\u201d": 177,
    "\u13d9\u13d7": 178,
    "\u2581\u13c4\u13ea\u13d2\u13a9": 179,
    "\u2581\u13c5\u13a9": 180,
    "?\u201d": 181,
    "\u2581\u13c4\u13ea\u13ce\u13b4\u13a2": 182,
    "\u2581\u13ed": 183,
    "\u2581\u13c2\u13a6\u13d3": 184,
    "\u2581\u13e7\u13d3\u13b4\u13c5\u13db": 185,
    "\u2581\u13f1\u13a8\u13ce\u13cd\u13d7": 186,
    "\u2581\u13e6\u13a2": 187,
    "\u13ef": 188,
    "\u2581\u13a2\u13e5": 189,
    "\u2581\u13a4\u13d9\u13af\u13f3\u13af\u13ef": 190,
    "\u2581\u13e5\u13cc\u13c3": 191,
    "\u2581\u13c5\u13ef": 192,
    "\u13e5": 193,
    "\u13c1": 194,
    "\u2581\u13c2\u13da\u13ea\u13ce\u13b4\u13a2": 195,
    "\u2581\u13ef": 196,
    "\u2581\u13a6\u13da": 197,
    "\u2581\u13d0\u13c8\u13b5": 198,
    "\u2581\u13dd\u13cd\u13aa": 199,
    "\u2581\u13a0\u13c2\u13e7\u13cf": 200,
    "\u2581\u13c4": 201,
    "\u2581\u13e3\u13ac\u13eb\u13f3\u13af": 202,
    "\u2581\u13a4\u13ac\u13e9\u13b5": 203,
    "\u13ce": 204,
    "\u2581\u13e7\u13e4\u13b5": 205,
    "\u2581\u13c2": 206,
    "\u2581\u13a6\u13b5\u13c9\u13a9": 207,
    "\u2581\u13d3\u13b6\u13c2\u13a8": 208,
    "\u2581\u13ac": 209,
    "\u2581\u13ac\u13e9\u13cd\u13d3\u13e9\u13d7\u13d9\u13af": 210,
    "\u2581\u13c4\u13ea\u13ce\u13b8\u13a9": 211,
    "\u13cd\u13ac": 212,
    "\u2581\u13a1\u13cd\u13a6": 213,
    "\u2581\u13a6\u13aa": 214,
    "\u2581\u13c2\u13a6\u13d7\u13f3": 215,
    "\u2581\u13a2\u13e7\u13b3\u13ad": 216,
    "\u2581\u13ac\u13d7": 217,
    "\u2581\u13c2\u13aa\u13af\u13b8": 218,
    "\u2581\u13f0\u13b5\u13c9": 219,
    "\u13ae": 220,
    "\u2581\u13a6\u13d3": 221,
    "\u13b3": 222,
    "\u2581\u13a8": 223,
    "\u2581\u13a0\u13c6": 224,
    "\u2581\u13a0\u13d3": 225,
    "\u2581\u13a4\u13d9\u13d3": 226,
    "\u2581\u13da\u13c2": 227,
    "\u2581\u13c8\u13d3": 228,
    "\u2581\u13a3\u13c2": 229,
    "\u2581\u13c4\u13ea\u13ce\u13b4": 230,
    "\u2581\u13a4\u13e4\u13cd\u13d9": 231,
    "\u2581\u13d5": 232,
    "\u2581\u13e5\u13b7\u13cf\u13b5\u13bb": 233,
    "\u2581\u13c2\u13da\u13ea\u13ce\u13b8\u13a9": 234,
    "\u2581\u13a0\u13cf\u13c9": 235,
    "\u2581\u13e3\u13c2": 236,
    "\u2581\u13a6\u13da\u13b2": 237,
    "\u2581\u13c5\u13d7\u13a6\u13b5\u13cd\u13d9\u13d7\u13ad": 238,
    "\u2581\u13a0\u13c2\u13a8\u13f4": 239,
    "\u2581\u13ac\u13c2": 240,
    "\u2581\u13a4\u13c5\u13d2": 241,
    "\u2581\u13a2\u13a9": 242,
    "\u2581\u13aa\u13ea\u13b5": 243,
    "\u2581\u13c9\u13b3": 244,
    "\u2581\u13e7\u13be\u13d3\u13b4\u13c5\u13db": 245,
    "\u2581\u13f1\u13a8\u13ce": 246,
    "\u2581\u13a2\u13ef\u13c2\u13db": 247,
    "\u2581\u13ac\u13c2\u13db": 248,
    "\u2581\u13a0\u13a9": 249,
    "\u2581\u13a1\u13d9\u13d3": 250,
    "\u2581\u13c4\u13ac\u13eb\u13f3\u13d2": 251,
    "\u2581\u13c2\u13ac\u13be\u13db": 252,
    "\u13d8": 253,
    "\u2581\u13a2\u13a6\u13a2": 254,
    "\u2581\u13cd\u13a9": 255,
    "\u2581\u13be\u13cd\u13a9\u13ef\u13a2": 256,
    "\u2581\u13d0\u13c9": 257,
    "\u2581\u13e3\u13b5": 258,
    "\u2581\u13a1": 259,
    "\u2581\u13aa\u13af\u13f3\u13d7": 260,
    "\u13d4\u13c5\u13af": 261,
    "\u2581\u13a0\u13c2\u13d4\u13b5": 262,
    "\u13f4": 263,
    "\u2581\u13be\u13a5\u13c2": 264,
    "\u2581\u13a1\u13b3\u13c2": 265,
    "\u13b0": 266,
    "\u2581\u13a4\u13b5\u13c2\u13a9\u13db": 267,
    "\u2581\u13c4\u13b5\u13cd\u13d4\u13c1\u13a2": 268,
    "\u2581\u13a2\u13f4": 269,
    "\u2581\u13a4\u13c1\u13e8": 270,
    "\u2581\u13a4\u13d9\u13af\u13f3\u13af": 271,
    "\u2581\u13bc\u13cf\u13c3": 272,
    "\u2581\u13a4\u13d3\u13b5\u13a2": 273,
    "\u2581\u13d7\u13a6\u13b3\u13eb\u13a2\u13cd\u13d7\u13f1": 274,
    "\u13b8\u13a9": 275,
    "\u2581\u13e7\u13c2": 276,
    "\u2581\u13a2\u13ac\u13f1\u13d7\u13e2": 277,
    "\u2581\u13a4\u13d3\u13d9\u13b5\u13cd\u13d7": 278,
    "\u2581\u13a0\u13e3\u13d7": 279,
    "\u2581\u13c4\u13c2\u13ea\u13ce\u13a2": 280,
    "\u2581\u13e5\u13aa": 281,
    "\u13b8\u13af": 282,
    "\u13b4\u13a2": 283,
    "\u2581\u13ad": 284,
    "\u13cd\u13a8\u13cd\u13d7": 285,
    "\u2581\u13a2\u13a8\u13ce\u13cd\u13d7": 286,
    "\u13ae\u13cd\u13d7": 287,
    "\u2581\u13d7\u13a7\u13bf\u13e9\u13d7\u13d9\u13af": 288,
    "\u13a5": 289,
    "\u2581\u13a7": 290,
    "\u2581\u13d9": 291,
    "\u2581\u13af\u13cd\u13a9": 292,
    "\u2581\u13d7\u13a6\u13b8\u13eb\u13cd\u13d3\u13c1\u13d7": 293,
    "\u2581\u13a0\u13ef": 294,
    "\u2581\u13a2\u13e7\u13b3": 295,
    "\u2581\u13a4\u13db\u13c5": 296,
    "\u2581\u13a1\u13cf\u13a9": 297,
    "\u2581\u13a0\u13be\u13b5\u13c5\u13df": 298,
    "\u2581\u13cc\u13cc": 299,
    "\u2581\u13d7\u13e3": 300,
    "\u2581\u13a9\u13a6\u13a8": 301,
    "\u2581\u13b0\u13bb": 302,
    "\u2581\u13a6\u13b6\u13af\u13cd\u13d7\u13f1": 303,
    "\u2581\u13c5\u13e9\u13d3\u13b4": 304,
    "\u2581\u13ad\u13eb\u13c2": 305,
    "\u2581\u13d1\u13be\u13b4": 306,
    "\u2581\u13e7\u13be": 307,
    "\u2581\u13a0\u13b5\u13cd\u13d3\u13f4\u13d7": 308,
    "\u13d4\u13c5": 309,
    "\u2581\u13cd\u13a9\u13be\u13be": 310,
    "\u13e8": 311,
    "\u2581\u13c5\u13d9": 312,
    "\u13eb": 313,
    "\u2581\u13d2\u13c3\u13f1": 314,
    "\u2581\u13a2\u13ac\u13f1\u13f1": 315,
    "\u2581\u13a2\u13be\u13a8": 316,
    "\u2581\u13ac\u13e9\u13a6\u13d8\u13ef": 317,
    "\u2581\u13a4\u13c3\u13d5\u13be": 318,
    "\u2581\u13a0\u13e7\u13e3": 319,
    "\u2581\u13a4\u13e9\u13cc": 320,
    "\u2581\u13d4\u13b3\u13da": 321,
    "\u13e2": 322,
    "\u2581\u13a4\u13e5": 323,
    "\u2581\u13a6\u13b8\u13b6\u13a2": 324,
    "\u2581\u13f1\u13a8\u13ce\u13a2": 325,
    "\u2581\u13a3": 326,
    "\u2581\u13e7\u13ac\u13e9\u13b6\u13d7": 327,
    "\u2581\u13a9\u13b3": 328,
    "\u2581\u13a4\u13d3": 329,
    "\u13cc": 330,
    "\u2581\u13a4\u13be\u13e4\u13b5\u13a6": 331,
    "\u13c5\u13af": 332,
    "\u2581\u13da\u13d9\u13a5": 333,
    "\u2581\u13da\u13be": 334,
    "\u13e3": 335,
    "\u2581\u13a2\u13e4": 336,
    "\u2581\u13a6\u13f2\u13df": 337,
    "\u2581\u13c5\u13e9\u13d9\u13af\u13ef\u13db": 338,
    "\u2581\u13a0\u13cf\u13f4\u13eb": 339,
    "\u2581\u13a5": 340,
    "\u13cd\u13db": 341,
    "\u13c9\u13cd\u13a9\u13c2": 342,
    "\u2581\u13a2\u13b8\u13af\u13f3": 343,
    "\u2581\u13a2\u13d3\u13b5\u13c5\u13df": 344,
    "\u2581\u13e7\u13be\u13c1\u13b6\u13d7": 345,
    "\u13cd\u13a9\u13c2\u13c3\u13c5": 346,
    "\u13d9": 347,
    "\u2581\u13f1\u13a8\u13d2\u13be": 348,
    "\u2581\u13a4\u13cd\u13c6\u13c2\u13aa\u13d7": 349,
    "\u2581\u13a4\u13da\u13a9": 350,
    "\u2581\u13d7\u13a6": 351,
    "\u2581\u13a0\u13c6\u13e4\u13b5": 352,
    "\u2581\u13a2\u13aa\u13af\u13db": 353,
    "\u2581\u13a0\u13ac\u13f1": 354,
    "\u13cd": 355,
    "\u2581\u13a3\u13a9": 356,
    "\u2581\u13a0\u13f0\u13b8": 357,
    "\u2581\u13c4\u13b5\u13cd\u13d4\u13c5": 358,
    "\u2581\u13a1\u13c6": 359,
    "\u2581\u13ad\u13eb\u13c2\u13d7\u13e2": 360,
    "\u2581\u13a0\u13c7\u13e5": 361,
    "\u13d5": 362,
    "\u2581\u13e7\u13e4\u13b5\u13a6": 363,
    "\u2581\u13a9\u13b3\u13c9": 364,
    "\u2581\u13c5\u13d3\u13f3\u13d3\u13b4\u13c5\u13af": 365,
    "\u2581\u13c2\u13e8\u13ea\u13ce\u13ad": 366,
    "\u2581\u13c4\u13c2\u13ea\u13d2\u13a9": 367,
    "\u2581\u13a6\u13d3\u13ad": 368,
    "\u2581\u13a4\u13c7\u13d3\u13b5": 369,
    "\u2581\u13a6\u13f3\u13b3": 370,
    "\u2581\u13a4\u13be\u13d3\u13c5\u13d8": 371,
    "\u13d4": 372,
    "\u13ce\u13a2": 373,
    "\u2581\u13a2\u13f3\u13e9\u13c2\u13cc\u13db": 374,
    "\u2581\u13a2\u13f3\u13f0\u13c3": 375,
    "\u2581\u13a2\u13d0": 376,
    "\u2581\u13e5\u13f3": 377,
    "\u2581\u13c3\u13d7": 378,
    "\u2581\u13a2\u13a6\u13db": 379,
    "\u2581\u13a4\u13c1\u13b3\u13a9": 380,
    "\u2581\u13a4\u13d5\u13b5\u13db": 381,
    "\u2581\u13e7\u13d9\u13a2\u13db": 382,
    "\u2581\u13c4\u13ea\u13d2": 383,
    "\u2581\u13c4\u13cd\u13d7": 384,
    "\u2581\u13a2\u13ef\u13a6\u13f4\u13b5": 385,
    "\u2581\u13e7\u13cd\u13c6\u13f4\u13cd\u13d7": 386,
    "\u2581\u13db": 387,
    "\u2581\u13a4\u13db\u13db\u13c1": 388,
    "\u2581\u13d7\u13aa\u13e2\u13d4\u13c5\u13af": 389,
    "\u2581\u13d3\u13c2": 390,
    "\u2581\u13cd\u13c9": 391,
    "\u2581\u13a0\u13c1\u13b2": 392,
    "\u13c1\u13a2": 393,
    "\u2581\u13a6\u13b5\u13e6\u13db": 394,
    "\u13ae\u13a2": 395,
    "\u2581\u13c4\u13b5\u13cd\u13d4\u13c1": 396,
    "\u2581\u13e9": 397,
    "\u13cd\u13d7\u13f1": 398,
    "\u2581\u13c4\u13d3\u13b4\u13d2": 399,
    "\u13b8\u13a2": 400,
    "\u2581\u13e6": 401,
    "\u2581\u13a0\u13c1\u13b2\u13a2": 402,
    "\u13d2\u13a9": 403,
    "\u2581\u13a0\u13cd\u13d3\u13ef": 404,
    "\u13c5\u13a9": 405,
    "\u2581\u13a4\u13be\u13e4\u13b5": 406,
    "\u2581\u13a2\u13f3\u13b5\u13cd\u13d9\u13d7": 407,
    "\u2581\u13a0\u13be\u13d9\u13b4\u13b0\u13cd\u13a9": 408,
    "\u2581\u13a6\u13c1\u13b8": 409,
    "\u2581\u13d0\u13a2": 410,
    "\u2581\u13e6\u13a2\u13c1": 411,
    "\u13d9\u13d7\u13f1": 412,
    "\u2581\u13c3\u13c9": 413,
    "\u2581\u13a0\u13cd\u13aa\u13af\u13e7\u13c8": 414,
    "\u2581\u13a1\u13b3\u13c6\u13d7": 415,
    "\u2581\u13e7\u13c5\u13cf\u13d3\u13cd\u13d7": 416,
    "\u2581\u13a9\u13ac": 417,
    "\u13a8\u13a2": 418,
    "\u2581\u13c4\u13b5\u13cd\u13d4\u13c5\u13a9": 419,
    "\u13b2\u13a2": 420,
    "\u2581\u13dd": 421,
    "\u2581\u13cc\u13e9\u13c2": 422,
    "\u2581\u13a0\u13c2\u13c6\u13b5\u13cf": 423,
    "\u2581\u13e0\u13a8\u13cf": 424,
    "\u2581\u13a0\u13f2\u13b1\u13af\u13cd\u13d7": 425,
    "\u2581\u13a0\u13d3\u13c1\u13b8": 426,
    "\u2581\u13a7\u13c5\u13c2\u13cd\u13a9": 427,
    "\u2581\u13a0\u13a6\u13f4\u13b5\u13a8": 428,
    "\u2581\u13a0\u13ba\u13c9\u13af": 429,
    "\u2581\u13c4\u13c2\u13ac\u13eb\u13f3\u13d2": 430,
    "\u2581\u13e7\u13d5\u13d8\u13f4\u13db": 431,
    "\u2581\u13a4\u13c2\u13c3\u13d5\u13be": 432,
    "\u2581\u13e5\u13f3\u13af": 433,
    "\u2581\u13a4\u13c1\u13ac": 434,
    "\u2581\u13a4\u13d2\u13af": 435,
    "\u2581\u13cf": 436,
    "\u2581\u13a4\u13c2\u13ac\u13eb\u13f3\u13af": 437,
    "\u2581\u13a4\u13c3\u13b4": 438,
    "\u13aa\u13a2": 439,
    "\u2581\u13a2\u13a6\u13e4\u13b5": 440,
    "\u2581\u13a0\u13d9\u13b4\u13b0\u13cd\u13a9": 441,
    "\u2581\u13a0\u13cd\u13aa\u13b5": 442,
    "\u2581\u13d5\u13e5": 443,
    "\u2581\u13d7\u13c2\u13a7\u13bf\u13e9\u13d7\u13d9\u13af": 444,
    "\u2581\u13e3\u13c4\u13cf": 445,
    "\u2581\u13c5\u13e9\u13be\u13d3\u13b4": 446,
    "\u2581\u13c2\u13af\u13cd\u13a9\u13c2": 447,
    "\u2581\u13a0\u13cd\u13a6\u13c2": 448,
    "\u13e4": 449,
    "\u2581\u13be\u13bf\u13c2": 450,
    "\u13a8\u13b6\u13af": 451,
    "\u2581\u13a1\u13e3": 452,
    "\u2581\u13a4\u13d3\u13c5\u13d8": 453,
    "\u2581\u13e7\u13c2\u13cd\u13c6\u13c2\u13aa\u13d9\u13d7": 454,
    "\u2581\u13a5\u13a5": 455,
    "\u13b6": 456,
    "\u2581\u13d7\u13c2\u13f2\u13b5": 457,
    "\u2581\u13c2\u13ac": 458,
    "\u2581\u13a4\u13ec\u13f0\u13c2": 459,
    "\u2581\u13a1\u13c6\u13bb": 460,
    "\u2581\u13a4\u13b5\u13c2\u13a9\u13d7\u13f3": 461,
    "\u2581\u13a1\u13dd\u13ea\u13af": 462,
    "\u2581\u13c2\u13ac\u13c5": 463,
    "\u2581\u13a0\u13a6\u13f4\u13b5\u13a8\u13a2": 464,
    "\u13c1\u13b8": 465,
    "\u2581\u13a4\u13b5\u13cf\u13a9": 466,
    "\u2581\u13aa\u13b0\u13cd\u13d7": 467,
    "\u13ac\u13a2": 468,
    "\u2581\u13e8\u13d2": 469,
    "\u2581\u13a2\u13e8\u13d2": 470,
    "\u13c6": 471,
    "\u2581\u13a1\u13e5": 472,
    "\u2581\u13a6\u13b8\u13b6": 473,
    "\u2581\u13a0\u13f2\u13b5": 474,
    "\u2581\u13e4\u13e5": 475,
    "\u13cd\u13d9\u13d7": 476,
    "\u2581\u13a6\u13be\u13dd\u13a2": 477,
    "\u2581\u13d4\u13b5\u13c1\u13c3": 478,
    "\u2581\u13a0\u13d3\u13a8\u13f3\u13d7": 479,
    "\u2581\u13a8\u13b5\u13b5": 480,
    "\u2581\u13e5\u13a8\u13d2\u13a9": 481,
    "\u2581\u13e5\u13a8\u13ce\u13a2": 482,
    "\u2581\u13a8\u13d0\u13a2": 483,
    "\u13a0\u13c1\u13b6\u13af": 484,
    "\u13a4": 485,
    "\u13a3": 486,
    "\u2581\u13d5\u13a6": 487,
    "\u2581\u13a2\u13ef\u13a9\u13f3\u13cd\u13c8\u13db": 488,
    "\u2581\u13ad\u13be": 489,
    "\u2581\u13a4\u13c1\u13b3\u13c5\u13af\u13c3": 490,
    "\u2581\u13a2\u13e8": 491,
    "\u13cd\u13a6": 492,
    "\u2581\u13a0\u13c4\u13ec": 493,
    "\u2581\u13d7\u13c3\u13ea\u13b5\u13cd\u13a9": 494,
    "\u2581\u13a0\u13cd\u13a9\u13be": 495,
    "\u2581\u13a4\u13e4\u13b5\u13aa\u13af": 496,
    "\u2581\u13a4\u13c5\u13cf\u13d3\u13cd\u13d7": 497,
    "\u2581\u13d5\u13eb": 498,
    "\u2581\u13a2\u13d7": 499,
    "\u13e7": 500,
    "\u2581\u13a6\u13f0\u13aa\u13a9": 501,
    "\u13cd\u13ac\u13a2": 502,
    "\u2581\u13a0\u13c2\u13f4\u13eb\u13ef": 503,
    "\u2581\u13a2\u13aa\u13af\u13d3": 504,
    "\u2581\u13a0\u13a6\u13d4\u13b2\u13a2": 505,
    "\u2581\u13ad\u13c2": 506,
    "\u2581\u13a3\u13d3\u13b8": 507,
    "\u2581\u13d8": 508,
    "\u2581(": 509,
    "\u2581\u13d7\u13e5": 510,
    "\u13c8": 511,
    "\u2581\u13a6\u13b8\u13c9\u13d7": 512,
    "\u13a1": 513,
    "\u13a7": 514,
    "\u13a6\u13b5": 515,
    "\u13d2\u13a2": 516,
    "\u2581\u13d7\u13c6\u13e4\u13b5": 517,
    "\u2581\u13a4\u13f4\u13cd\u13d7": 518,
    "\u2581\u13b4\u13c6\u13c2": 519,
    "\u2581\u13a0\u13c3\u13af\u13f3\u13b2\u13cd\u13a9": 520,
    "\u2581\u13d3\u13c6\u13b4\u13b3": 521,
    "\u2581\u13a4\u13e3\u13d4\u13c5\u13af": 522,
    "\u2581\u13e5\u13cd\u13d5\u13e5": 523,
    "\u2581\u13a0\u13f0\u13b3\u13cd\u13d7": 524,
    "\u2581\u13a4\u13ac\u13eb\u13f3\u13cc\u13d5\u13a9": 525,
    "\u2581\u13a7\u13c1\u13cc\u13a2": 526,
    "\u2581\u13c4\u13cd\u13d5\u13cd\u13d7": 527,
    "\u2581\u13a8\u13d0": 528,
    "\u13d4\u13c5\u13a9": 529,
    "\u13e9": 530,
    "\u2581\u13c4\u13d3\u13b4": 531,
    "\u2581\u13e3\u13e4\u13b5": 532,
    "\u2581\u13aa\u13a2": 533,
    "\u2581\u13a0\u13db": 534,
    "\u2581\u13a7\u13c1\u13cd\u13a6": 535,
    "\u2581\u13a0\u13c2\u13cd\u13a9\u13be": 536,
    "\u2581\u13d7\u13a6\u13d9\u13b5": 537,
    "\u13cd\u13a8\u13a2": 538,
    "\u2581\u13a0\u13a9\u13be": 539,
    "\u2581\u13a8\u13b3\u13cd\u13d7\u13f1": 540,
    "\u2581\u13a4\u13f0\u13b8\u13d7": 541,
    "\u2581\u13a4\u13db\u13a6\u13c5": 542,
    "\u2581\u13eb\u13e5": 543,
    "\u2581\u13a6\u13da\u13b2\u13a2": 544,
    "\u2581\u13d7\u13c2\u13f2\u13df": 545,
    "\u2581\u13a0\u13cc\u13bb\u13d3": 546,
    "\u2581\u13a8\u13e5\u13c5\u13cf\u13db": 547,
    "\u2581\u13ba\u13b5": 548,
    "\u2581\u13a0\u13d7\u13be": 549,
    "\u2581\u13e7\u13c1\u13e5": 550,
    "\u2581\u13a0\u13c2\u13cf\u13f4\u13eb\u13ad": 551,
    "\u2581\u13a4\u13f2\u13b1\u13d2": 552,
    "\u2581\u13a2\u13a6\u13db\u13c3": 553,
    "\u2581\u13e8": 554,
    "\u2581\u13a0\u13be": 555,
    "\u2581\u13a4\u13f0\u13b8\u13db": 556,
    "\u2581\u13e5\u13a8\u13d2": 557,
    "\u2581\u13a4\u13aa\u13b2": 558,
    "\u2581\u13a0\u13e5": 559,
    "\u2581\u13d7\u13e3\u13e4\u13b5": 560,
    "\u2581\u13a2\u13b8\u13af\u13e2": 561,
    "\u2581\u13a6\u13e9\u13d2\u13a9": 562,
    "\u2581\u13e7\u13c2\u13f2\u13b1\u13d2\u13af": 563,
    "\u2581\u13a2\u13f3\u13d5\u13d8\u13f4\u13db": 564,
    "\u2581\u13a4\u13d5\u13c1\u13b4\u13a2": 565,
    "\u2581\u13aa\u13e2\u13d4\u13c5\u13af": 566,
    "\u2581\u13a2\u13ef": 567,
    "\u2581\u13d1\u13d3\u13b5": 568,
    "\u2581\u13a0\u13cd\u13aa\u13af": 569,
    "\u2581\u13a0\u13ce\u13c9": 570,
    "\u13e7\u13c8": 571,
    "\u2581\u13a2\u13f3\u13cd\u13a9\u13c2": 572,
    "\u13f2": 573,
    "\u2581\u13e5\u13a8\u13ce": 574,
    "\u2581\u13ac\u13c5": 575,
    "\u2581\u13b1": 576,
    "\u2581\u13c5\u13d3\u13ac\u13e9\u13d3\u13b4\u13c5\u13db": 577,
    "\u2581\u13e3\u13c1\u13b3\u13c5\u13af": 578,
    "\u2581\u13c2\u13aa\u13af\u13b8\u13a2": 579,
    "\u2581\u13a2\u13f3\u13be\u13cd\u13d7": 580,
    "\u2581\u13a0\u13a6\u13d9\u13a5\u13af\u13cd\u13d7": 581,
    "\u13cd\u13a8": 582,
    "\u2581\u13a4\u13d2": 583,
    "\u13ac\u13be": 584,
    "\u13d7\u13a6\u13b3\u13eb\u13a2\u13cd\u13d7\u13f1": 585,
    "\u13b2\u13a9": 586,
    "\u2581\u13a4\u13be\u13d3\u13e1\u13ac": 587,
    "\u2581\u13a7\u13c1\u13ac": 588,
    "\u2581\u13f4": 589,
    "\u13cd\u13aa\u13a2": 590,
    "\u13d4\u13c1\u13a2": 591,
    "\u2581\u13c5": 592,
    "\u2581\u13d7\u13d3\u13cd\u13da\u13d7\u13f1": 593,
    "\u2581\u13c3\u13ef": 594,
    "\u2581\u13c5\u13f2\u13af": 595,
    "\u13c1\u13d7\u13f1": 596,
    "\u2581\u13e5\u13a6\u13d4\u13ad": 597,
    "\u13cd\u13d4\u13c5": 598,
    "\u13df": 599,
    "o": 600,
    "\u2581\u13c4\u13ea\u13ce": 601,
    "\u2581\u13c5\u13d7\u13a6\u13b5\u13cd\u13d9\u13d7\u13cd\u13a8": 602,
    "\u13ad\u13e9": 603,
    "\u2581\u13a8\u13f4": 604,
    "\u2581\u13d4\u13d5\u13f2\u13b2\u13cd\u13a9": 605,
    "\u2581\u13c6\u13b4\u13d7": 606,
    "\u2581\u13d7\u13e4\u13e5": 607,
    "\u2581\u13a5\u13e3\u13f1": 608,
    "\u2581\u13a4\u13be\u13e4\u13b5\u13aa\u13af": 609,
    "\u2581\u13d7\u13be\u13d3\u13c5\u13df": 610,
    "\u2581\u13a4\u13d0\u13c5": 611,
    "\u2581\u13a4\u13b5": 612,
    "\u2581\u13a4\u13c5\u13d7": 613,
    "\u2581\u13a4\u13be\u13db\u13a6\u13c5": 614,
    "\u2581\u13c2\u13a6": 615,
    "\u13d2\u13af": 616,
    "\u2581\u13a0\u13b2": 617,
    "\u2581\u13b0\u13e9": 618,
    "\u2581\u13b0": 619,
    "\u2581\u13c5\u13a6\u13cd\u13aa\u13af": 620,
    "\u2581\u13a4\u13b5\u13ae\u13b5\u13cd\u13d7": 621,
    "\u2581\u13d7\u13c2": 622,
    "\u2581\u13a4\u13b4\u13c5\u13ae": 623,
    "\u2581\u13c5\u13d3\u13a6\u13b5\u13cd\u13d9\u13d7\u13cd\u13ac\u13a9": 624,
    "\u2581\u13a4\u13f2\u13a2\u13f3": 625,
    "\u2581\u13a0\u13b3\u13c2": 626,
    "\u2581\u13ac\u13d8": 627,
    "\u2581\u13da\u13ec\u13a1\u13a2": 628,
    "\u2581\u13a1\u13b6\u13db": 629,
    "\u2581\u13a4\u13e0\u13f1": 630,
    "\u2581\u13a0\u13c2\u13ef\u13eb\u13cd\u13a9": 631,
    "\u13ce\u13cd\u13d7": 632,
    "\u13f0": 633,
    "\u2581\u13a4\u13c5": 634,
    "\u2581\u13d3\u13d4\u13b4\u13d2": 635,
    "\u2581\u13a0\u13c2\u13d0\u13a2": 636,
    "\u2581\u13a4\u13b7\u13e8": 637,
    "\u2581\u13a6\u13c1\u13b8\u13a2": 638,
    "\u2581\u13a6\u13b5\u13e6\u13db\u13a2": 639,
    "\u2581\u13a4\u13d9\u13af\u13f3": 640,
    "\u2581-": 641,
    "\u13d4\u13c1": 642,
    "\u2581\u13a4\u13a7\u13db": 643,
    "\u13be\u13cd\u13a9": 644,
    "\u2581\u13cc\u13c9\u13c9": 645,
    "\u2581\u13d7\u13c5\u13c3\u13db": 646,
    "\u2581\u13c2\u13af\u13c3": 647,
    "\u2581\u13a1\u13ba\u13c5": 648,
    "\u2581\u13ac\u13e9\u13da\u13eb\u13db": 649,
    "\u2581\u13a0\u13c2\u13e7\u13e3": 650,
    "\u2581\u13a9\u13b3\u13c8\u13f4": 651,
    "\u2581\u13a0\u13ac\u13f1\u13e3": 652,
    "\u2581\u13ad\u13eb\u13c2\u13e3": 653,
    "\u2581\u13a3\u13af\u13cd\u13d9\u13d7": 654,
    "\u2581\u13ac\u13d4\u13c5\u13af": 655,
    "\u2581\u13be\u13cd\u13a9\u13cd\u13a9\u13c2": 656,
    "\u13d0": 657,
    "\u2581\u13ab": 658,
    "\u2581\u13ac\u13c2\u13a8": 659,
    "\u2581\u13a3\u13c2\u13c3": 660,
    "\u2581\u13a6\u13cd\u13a9\u13b8": 661,
    "\u2581\u13c2\u13da\u13ea\u13ce\u13b4": 662,
    "\u2581\u13a4\u13d9\u13b4\u13b0\u13d2": 663,
    "\u2581\u13e5\u13da": 664,
    "\u2581\u13b4\u13e5\u13b5": 665,
    "\u2581\u13a4\u13e3\u13b4\u13cd\u13d7": 666,
    "\u2581\u13c2\u13e3": 667,
    "\u2581\u13a6\u13b8\u13b3\u13d7\u13e2": 668,
    "\u2581\u13ad\u13e2": 669,
    "\u2581\u13e4": 670,
    "\u13a8\u13b3\u13cd\u13d7\u13f1": 671,
    "\u2581\u13d3\u13a6": 672,
    "\u2581\u13e5\u13a8\u13d0": 673,
    "\u2581\u13c2\u13e5\u13a5": 674,
    "\u2581\u13cd\u13a9\u13f4": 675,
    "\u2581\u13a4\u13d3\u13c5\u13d9": 676,
    "\u2581\u13f1\u13a6": 677,
    "\u2581\u13d7\u13c4\u13ec": 678,
    "\u2581\u13eb\u13be\u13cd\u13db\u13be": 679,
    "\u2581\u13e7\u13d2\u13af\u13db": 680,
    "\u2581\u13ce\u13b5": 681,
    "\u2581\u13a4\u13c1": 682,
    "\u2581\u13e4\u13af": 683,
    "\u2581\u13d7\u13ac\u13e9": 684,
    "\u2581\u13da\u13cf\u13b3\u13db": 685,
    "\u13ac\u13a9": 686,
    "\u2581\u13a4\u13be\u13d9\u13d3\u13c6\u13cd\u13ac": 687,
    "\u2581\u13a2\u13b8\u13cd\u13a9": 688,
    "\u2581\u13a2\u13ef\u13c2": 689,
    "\u13c1\u13b8\u13af": 690,
    "\u13cd\u13d3": 691,
    "\u2581\u13d6\u13b8\u13b3\u13d7": 692,
    "\u2581\u13a6\u13b5\u13e6\u13d5": 693,
    "\u2581\u13a1\u13c9\u13c2": 694,
    "\u2581\u13be\u13c2\u13ea\u13cd\u13a8\u13a2": 695,
    "\u2581\u13d4\u13b7\u13a9\u13cd\u13a9": 696,
    "\u2581\u13a0\u13c6\u13e4\u13b5\u13a6": 697,
    "\u2581\u13a1\u13ad": 698,
    "\u2581\u13e7\u13d7\u13f1": 699,
    "\u2581\u13a0\u13cb\u13d2": 700,
    "\u2581\u13a0\u13a6": 701,
    "\u2581\u13a8\u13be\u13c2": 702,
    "\u2581\u13ad\u13eb\u13ef": 703,
    "\u2581\u13a4\u13cf\u13d9\u13b5": 704,
    "\u2581\u13a2\u13f3\u13df\u13b6\u13db": 705,
    "\u2581\u13c3\u13c8\u13cf": 706,
    "\u2581\u13c2\u13ac\u13e9\u13ea\u13ce\u13b4\u13a2": 707,
    "\u2581\u13d5\u13e3": 708,
    "\u2581\u13aa\u13f1\u13c1\u13a2": 709,
    "\u2581\u13a6\u13da\u13cf": 710,
    "\u2581\u13e4\u13cd\u13d7": 711,
    "\u2581\u13a0\u13c2\u13a6\u13d4\u13b2": 712,
    "\u13b2\u13be": 713,
    "\u2581\u13a4\u13c1\u13e4": 714,
    "\u2581\u13a2\u13be\u13a8\u13a2": 715,
    "\u13d3\u13c1\u13d7": 716,
    "\u2581\u13ed\u13d5\u13b5\u13ac": 717,
    "\u2581\u13d7\u13e8\u13cd\u13d9\u13d7": 718,
    "\u2581\u13d1\u13be\u13d3\u13e1\u13a9": 719,
    "\u2581\u13e7\u13c2\u13b8\u13eb\u13cd\u13d3\u13c1\u13af": 720,
    "\u2581\u13a2\u13be\u13db": 721,
    "\u13d2\u13be": 722,
    "\u2581\u13c5\u13d7\u13a6\u13b5\u13cd\u13d9\u13d7\u13cd\u13a8\u13cd\u13d7": 723,
    "\u2581\u13ab\u13e9": 724,
    "\u2581\u13aa": 725,
    "\u2581\u13a6\u13cd\u13a9\u13b6": 726,
    "\u2581\u13e5\u13a8\u13d0\u13a2": 727,
    "\u2581\u13a0\u13f4\u13c3": 728,
    "\u2581\u13a1\u13af\u13cd\u13d7": 729,
    "\u2581\u13d7\u13ab\u13aa\u13d9\u13d7": 730,
    "\u2581\u13a4\u13ea\u13b5\u13ce": 731,
    "\u2581\u13c4\u13be\u13cd\u13db": 732,
    "\u13db\u13be": 733,
    "\u2581\u13a4\u13c1\u13e4\u13b4": 734,
    "\u2581\u13a8\u13e5": 735,
    "\u2581\u13a3\u13ad\u13c1": 736,
    "\u13d7\u13cd\u13ac": 737,
    "\u2581\u13ac\u13c3\u13db": 738,
    "\u2581\u13d7\u13b5\u13cd\u13d3\u13f4\u13d7\u13f1": 739,
    "\u2581\u13a0\u13e5\u13b8\u13c9\u13d7\u13f3": 740,
    "\u2581\u13a4\u13d9": 741,
    "\u2581\u13a4\u13c1\u13b3\u13c5\u13af\u13cd\u13a9\u13c2": 742,
    "\u2581\u13c2\u13da": 743,
    "\u13b4\u13cd\u13d7": 744,
    "\u13af\u13f3": 745,
    "\u13af\u13a0": 746,
    "\u13d7\u13cd\u13a9": 747,
    "\u2581\u13c2\u13a6\u13ea\u13cd\u13ac": 748,
    "\u2581\u13a1\u13b6": 749,
    "\u2581\u13a4\u13b5\u13cf\u13ac": 750,
    "\u2581\u13a4\u13ea\u13b7\u13c1": 751,
    "\u2581\u13c4\u13db\u13c1\u13b4": 752,
    "\u2581\u13ac\u13c2\u13f3\u13c9\u13c3": 753,
    "\u2581\u13a0\u13c6\u13d3\u13c5\u13d9": 754,
    "\u2581\u13e5\u13cd\u13c6": 755,
    "\u2581\u13a2\u13c5": 756,
    "\u2581\u13a6\u13b5": 757,
    "\u2581\u13a4\u13c2\u13b7\u13e4": 758,
    "\u2581\u13e7\u13be\u13e4\u13b5": 759,
    "\u2581\u13c2\u13a6\u13ea\u13ad": 760,
    "\u2581\u13a5\u13de\u13cd\u13d7": 761,
    "\u2581\u13a0\u13b0\u13b5": 762,
    "\u2581\u13a0\u13b5": 763,
    "\u2581\u13a0\u13ce\u13c9\u13c9": 764,
    "\u2581\u13a3\u13a6": 765,
    "\u13b7": 766,
    "\u2581\u13a4\u13ac\u13eb\u13f3": 767,
    "\u2581\u13ae\u13be": 768,
    "\u2581\u13d7\u13ac": 769,
    "\u13d5\u13cd\u13d7": 770,
    "\u2581\u13e3\u13e5": 771,
    "\u2581\u13a1\u13b5": 772,
    "\u2581\u13a0\u13f0\u13b8\u13a2": 773,
    "\u13da": 774,
    "\u2581\u13d1\u13be\u13b4\u13a2": 775,
    "\u2581\u13a0\u13d3\u13c5\u13d6\u13cd\u13ac": 776,
    "\u13c4": 777,
    "\u2581\u13a8\u13e3": 778,
    "\u2581\u13a3\u13e5": 779,
    "\u13b0\u13a2": 780,
    "\u2581\u13a0\u13b5\u13cd\u13aa\u13b8\u13d9\u13d7": 781,
    "\u2581\u13eb\u13da": 782,
    "\u2581\u13a4\u13cd\u13aa\u13b8": 783,
    "\u2581\u13e6\u13a0\u13cd\u13aa\u13af": 784,
    "\u2581\u13e7\u13c6\u13b6\u13a6": 785,
    "\u2581\u13a9\u13a6": 786,
    "\u2581\u13a9\u13b6\u13cd\u13a9\u13c2": 787,
    "\u2581\u13d7\u13c2\u13b3\u13eb\u13a9": 788,
    "\u2581\u13a4\u13a9\u13ac": 789,
    "\u2581\u13d4": 790,
    "\u2581\u13e7\u13be\u13e4\u13b5\u13a6": 791,
    "\u2581\u13e3\u13c1\u13ad": 792,
    "\u13bb": 793,
    "\u2581\u13a9\u13a6\u13a8\u13a2": 794,
    "\u2581\u13a4\u13e9\u13d2\u13c9": 795,
    "\u13c1\u13e2\u13d4\u13c5\u13db": 796,
    "\u2581\u13cd\u13a9\u13be": 797,
    "\u2581\u13d3\u13f3": 798,
    "\u2581\u13c5\u13d7\u13a6\u13b5\u13cd\u13d9\u13d7\u13cd\u13ac": 799,
    "\u2581\u13a2\u13e3\u13b5\u13cd\u13d3\u13c1\u13d7": 800,
    "\u2581\u13e9\u13ad\u13ef": 801,
    "\u2581\u13d7\u13a7\u13b8\u13ac": 802,
    "\u2581\u13d9\u13f1\u13d7\u13e2": 803,
    "\u2581\u13e3\u13b3\u13a9": 804,
    "\u2581\u13a1\u13b6\u13d7": 805,
    "\u2581\u13a4\u13e0\u13f1\u13c9": 806,
    "\u2581\u13a0\u13d9\u13af": 807,
    "\u13ea": 808,
    "\u13d9\u13a2\u13f3\u13cd\u13d7": 809,
    "\u13af\u13cd\u13d7": 810,
    "\u2581\u13f1\u13d3": 811,
    "\u2581\u13a6\u13b6\u13af\u13cd\u13d7": 812,
    "\u2581\u13a4\u13e3\u13d8\u13c2": 813,
    "\u2581\u13a4\u13da\u13b5\u13cd\u13ac": 814,
    "\u2581\u13a4\u13be\u13d3": 815,
    "\u2581\u13a2\u13f3\u13be\u13b5\u13cd\u13d3\u13c1\u13d7": 816,
    "\u2581\u13a2\u13f3\u13be\u13db\u13c1\u13d7": 817,
    "\u13c1\u13b4": 818,
    "\u2581\u13af\u13cd\u13a6\u13cd\u13aa\u13af": 819,
    "\u2581\u13c2\u13da\u13f3\u13aa\u13db\u13be": 820,
    "\u2581\u13e7\u13ec\u13f0\u13c2": 821,
    "\u2581\u13a0\u13c2\u13f2\u13cd\u13a9": 822,
    "\u2581\u13e3\u13c1\u13e2\u13d4\u13c5\u13af": 823,
    "\u2581\u13e3\u13d9\u13d3": 824,
    "\u2581\u13a4\u13c2\u13d9\u13d3": 825,
    "\u2581\u13e9\u13cd\u13db": 826,
    "\u2581\u13f1\u13e5\u13a6\u13d4\u13ad": 827,
    "\u2581\u13ac\u13e9\u13c2": 828,
    "\u2581\u13e5\u13bb": 829,
    "\u2581\u13a4\u13cd\u13c6\u13c2\u13a9\u13d7": 830,
    "\u2581\u13b6\u13d7": 831,
    "\u2581\u13be\u13a5\u13c2\u13a8": 832,
    "\u13cd\u13d3\u13ef": 833,
    "\u2581\u13a4\u13a6\u13d4": 834,
    "\u2581\u13a4\u13b5\u13cd\u13c6\u13b8\u13d7": 835,
    "\u2581\u13a0\u13c2\u13c5": 836,
    "\u13d7\u13cd\u13a8\u13cd\u13d7": 837,
    "\u2581\u13a4\u13d0\u13f1": 838,
    "\u2581\u13a4\u13e9": 839,
    "\u2581\u13ac\u13a9": 840,
    "\u2581\u13a4\u13ea": 841,
    "\u2581\u13f1\u13e3": 842,
    "\u2581\u13a4\u13b5\u13cd\u13d3\u13f4\u13d7": 843,
    "\u2581\u13d5\u13a4": 844,
    "\u2581\u13a4\u13ea\u13d8": 845,
    "\u2581\u13f1\u13a6\u13b5\u13cd\u13d9\u13d3": 846,
    "\u2581\u13b5\u13a0": 847,
    "\u2581\u13a4\u13b5\u13cd\u13c8\u13d7": 848,
    "\u2581\u13a0\u13e5\u13c5\u13cf\u13d3\u13cd\u13d7": 849,
    "\u2581\u13c3\u13ca": 850,
    "\u2581\u13a2\u13e5\u13cd\u13a6\u13ef": 851,
    "\u13d4\u13c2": 852,
    "\u2581\u13a4\u13c1\u13a6": 853,
    "\u2581\u13ce\u13a6": 854,
    "\u2581\u13a4\u13a7\u13b5\u13e8\u13af": 855,
    "\u2581\u13e7\u13d3\u13cf": 856,
    "\u2581\u13a0\u13a6\u13d4\u13b2": 857,
    "\u2581\u13a4\u13be\u13dd\u13a2": 858,
    "\u13ca": 859,
    "\u2581\u13f2": 860,
    "\u2581\u13a4\u13cd\u13aa\u13cd": 861,
    "\u13d7\u13ad": 862,
    "\u2581\u13a2\u13e4\u13b2\u13a2": 863,
    "--": 864,
    "\u13db\u13a2": 865,
    "\u13c1\u13d7": 866,
    "\u2581\u13a2\u13e4\u13b2": 867,
    "\u2581\u13a0\u13b9\u13f1": 868,
    "\u2581\u13c4\u13ea\u13ce\u13b8": 869,
    "\u2581\u13a0\u13f4\u13cd\u13a9\u13c2": 870,
    "\u2581\u13d3\u13a9": 871,
    "\u2581\u13a4\u13b7\u13e4": 872,
    "\u2581\u13b5\u13c7\u13a9": 873,
    "\u2581\u13da\u13c5\u13d3\u13d2": 874,
    "\u2581\u13d2\u13a6\u13d4": 875,
    "\u2581\u13a4\u13a6\u13be\u13cd\u13db": 876,
    "\u2581\u13a6\u13b6\u13c7": 877,
    "\u2581\u13cf\u13cc": 878,
    "\u2581\u13da\u13be\u13d9\u13a5": 879,
    "\u2581\u13e5\u13c4\u13cd\u13d7": 880,
    "\u2581\u13ac\u13d9\u13d7": 881,
    "\u2581\u13a6\u13b8\u13b3\u13d7\u13e3": 882,
    "\u13b8\u13ad": 883,
    "\u13cd\u13d4\u13c1\u13a2": 884,
    "\u13dd": 885,
    "\u2581\u13e7\u13d3": 886,
    "\u13cd\u13d8": 887,
    "\u2581\u13a1\u13b2": 888,
    "\u2581\u13f1\u13da": 889,
    "\u2581\u13e1\u13ac": 890,
    "\u2581\u13db\u13a6": 891,
    "\u2581\u13a2\u13ef\u13db\u13c1\u13d7": 892,
    "\u13af\u13cd\u13d7\u13f1": 893,
    "\u2581\u13ce\u13d3\u13c2": 894,
    "\u2581\u13d4\u13b4\u13b2\u13a6": 895,
    "\u2581\u13e5\u13aa\u13ea\u13b3": 896,
    "\u2581\u13a0\u13c2\u13f3\u13e9\u13c1\u13a6": 897,
    "\u2581\u13e7\u13d3\u13c6\u13d9\u13a9": 898,
    "\u2581\u13a0\u13c2\u13f4\u13eb": 899,
    "\u2581\u13a2\u13ac\u13c1\u13b8\u13af": 900,
    "\u2581\u13a6\u13da\u13a2\u13e3": 901,
    "\u2581\u13d3\u13e5": 902,
    "\u2581\u13a4\u13f2\u13b1\u13ce\u13a2": 903,
    "\u2581\u13ed\u13b7\u13e4": 904,
    "\u2581\u13a2\u13f3\u13b5\u13cd\u13d3\u13c1\u13d7": 905,
    "\u2581\u13a0\u13d7\u13d4\u13cd\u13d7": 906,
    "\u2581\u13ac\u13c5\u13a2": 907,
    "\u2581\u13c4\u13be": 908,
    "\u13d6": 909,
    "\u2581\u13a8\u13b5": 910,
    "\u13cf\u13f4\u13eb\u13ad": 911,
    "\u2581\u13a4\u13ec\u13e2": 912,
    "\u2581\u13a4\u13c2\u13cd\u13a6\u13c5\u13e8": 913,
    "\u2581\u13d5\u13af": 914,
    "\u2581\u13a4\u13db\u13a6\u13c1": 915,
    "\u2581\u13c4\u13b5\u13cd\u13d4\u13c2\u13d9\u13b8": 916,
    "\u2581\u13a6\u13f0": 917,
    "\u2581\u13c8\u13b5\u13a9": 918,
    "\u2581\u13a8\u13bb\u13b5": 919,
    "\u2581\u13e7\u13b8\u13eb\u13cd\u13d3\u13c1\u13af": 920,
    "\u2581\u13c5\u13d3\u13a6\u13b5\u13cd\u13d4\u13c2": 921,
    "\u2581\u13d4\u13b3\u13cd\u13aa\u13af": 922,
    "\u2581\u13a2\u13e3\u13b5\u13c5\u13df": 923,
    "\u2581\u13a6\u13c5\u13cd\u13d9\u13d7": 924,
    "\u2581\u13d5\u13e7\u13ac": 925,
    "\u2581\u13a4\u13be\u13d3\u13e4\u13b5\u13db": 926,
    "\u2581\u13af\u13c5\u13cf\u13d3\u13cd\u13d7": 927,
    "\u2581\u13a2\u13e5\u13d9\u13d3": 928,
    "\u2581\u13e7\u13be\u13db\u13d0\u13c5\u13af": 929,
    "\u2581\u13a2\u13e3\u13db\u13c1\u13d7\u13f1": 930,
    "\u2581\u13a4\u13d5\u13ef\u13d9\u13d7": 931,
    "\u2581\u13c2\u13d7": 932,
    "\u2581\u13a6\u13da\u13a2": 933,
    "\u2581\u13d9\u13f1": 934,
    "\u2581\u13a4\u13c2\u13aa\u13b2": 935,
    "\u13d9\u13b8\u13a2": 936,
    "\u2581\u13a4\u13b6\u13a9\u13b8": 937,
    "\u2581\u13ac\u13d7\u13cd\u13ac": 938,
    "\u13a3\u13cd\u13d3": 939,
    "\u2581\u13c2\u13af\u13f0\u13c3": 940,
    "\u2581\u13a4\u13db\u13be": 941,
    "\u2581\u13d0\u13a3\u13c1\u13b3": 942,
    "\u2581\u13a0\u13c2\u13a8\u13ef": 943,
    "\u2581\u13a4\u13a9\u13e8\u13db": 944,
    "\u2581\u13e5\u13c2\u13ac\u13c5": 945,
    "\u2581\u13a2\u13ef\u13db\u13c1\u13af": 946,
    "\u2581\u13a0\u13d5\u13b3": 947,
    "\u2581\u13a2\u13e8\u13a8\u13f3\u13a2": 948,
    "\u2581\u13c2\u13a6\u13b5\u13cd\u13d7\u13ad": 949,
    "\u2581\u13a6\u13b8\u13c9\u13d9\u13d7": 950,
    "\u2581\u13a4\u13b4\u13c2\u13d9\u13b4\u13a2": 951,
    "\u2581\u13a6\u13c1\u13a6": 952,
    "\u2581\u13d3\u13be": 953,
    "\u2581\u13a2\u13ef\u13cd\u13d7": 954,
    "\u2581\u13ed\u13b6\u13ce\u13a2": 955,
    "\u2581\u13a1\u13ae\u13a2": 956,
    "\u2581\u13be\u13af\u13f3\u13c9": 957,
    "\u2581\u13a6\u13b5\u13c9\u13a9\u13c1": 958,
    "\u2581\u13a4\u13b7\u13e8\u13a9": 959,
    "\u2581\u13a4\u13aa\u13ae": 960,
    "\u2581\u13a4\u13ea\u13c5\u13ce": 961,
    "\u2581\u13c2\u13a6\u13a5\u13c9": 962,
    "\u2581\u13a4\u13c1\u13e4\u13b8": 963,
    "\u2581\u13a6\u13ec\u13c2\u13cd\u13ac": 964,
    "\u13a8\u13f3\u13af\u13f3": 965,
    "\u13a0\u13d7\u13d4\u13cd\u13d7": 966,
    "\u13d7\u13a6\u13c5\u13cc\u13d7": 967,
    "\u13e1": 968,
    "\u2581\u13d7\u13a8\u13d2": 969,
    "\u13a7\u13d4\u13ae\u13a2": 970,
    "\u2581\u13c2\u13ac\u13be\u13db\u13a2": 971,
    "\u2581\u13a4\u13b5\u13cd\u13c6\u13d7\u13cd\u13d7": 972,
    "\u2581\u13e7\u13c2\u13be\u13eb": 973,
    "\u2581\u13a0\u13c2\u13cd\u13a6\u13be": 974,
    "\u2581\u13a4\u13be\u13eb": 975,
    "\u2581\u13d3\u13c6\u13b4\u13b7": 976,
    "\u2581\u13c5\u13ac\u13e9\u13ea\u13ce\u13b8\u13a9": 977,
    "\u2581\u13a2\u13e5\u13a6\u13d4\u13ad": 978,
    "\u2581\u13cf\u13d3\u13c1\u13b8\u13af": 979,
    "\u2581\u13a0\u13c2\u13c3\u13af\u13b5\u13d9\u13af": 980,
    "\u2581\u13a0\u13d3\u13c1\u13af": 981,
    "\u2581\u13a4\u13df\u13af\u13f3": 982,
    "\u2581\u13a6\u13db\u13a6": 983,
    "\u2581\u13a0\u13e4\u13af": 984,
    "\u2581\u13e4\u13ad": 985,
    "\u2581\u13a2\u13ac\u13e9": 986,
    "\u2581\u13a2\u13a6\u13d3": 987,
    "\u2581\u13a0\u13c2\u13a6\u13d4\u13b2\u13a2": 988,
    "\u13c7": 989,
    "\u13db\u13a9": 990,
    "\u2581\u13a6\u13d3\u13c1": 991,
    "\u2581\u13a0\u13d3\u13c5\u13d3\u13d7\u13cd\u13d7": 992,
    "\u13b2\u13a6": 993,
    "\u2581\u13aa\u13ea\u13b8": 994,
    "\u2581\u13f4\u13eb\u13c9": 995,
    "\u2581\u13c5\u13e9\u13d3\u13b4\u13c3": 996,
    "\u2581\u13e5\u13d3": 997,
    "\u2581\u13a0\u13c2\u13ec\u13c2\u13cd\u13ac": 998,
    "\u2581\u13c4\u13e9\u13c1\u13b4": 999,
    "\u2581\u13c2\u13a6\u13b5\u13cd\u13d7\u13cd\u13ac": 1000,
    "\u2581\u13a0\u13e0\u13c1\u13d7": 1001,
    "\u2581\u13d3\u13bf\u13e9": 1002,
    "\u2581\u13c5\u13d3\u13f3\u13b6\u13d2\u13af": 1003,
    "\u2581\u13a7\u13c3\u13af\u13f0\u13a9": 1004,
    "\u2581\u13a1\u13c9\u13af\u13f3": 1005,
    "\u2581\u13a0\u13a6\u13d8\u13cf\u13d7\u13e2": 1006,
    "\u2581\u13e7\u13f3\u13aa\u13d7": 1007,
    "\u2581\u13d7\u13f0\u13b8\u13af": 1008,
    "\u2581\u13a4\u13d4\u13b3\u13ec\u13af\u13cd\u13d7": 1009,
    "\u2581\u13a6\u13b7\u13e8\u13ad": 1010,
    "\u2581\u13be\u13cd\u13a9\u13ef\u13c9": 1011,
    "\u2581\u13c5\u13c3\u13af": 1012,
    "\u2581\u13a0\u13b9\u13df": 1013,
    "\u2581\u13a0\u13c6\u13db\u13c5": 1014,
    "\u2581\u13a4\u13c2\u13f2": 1015,
    "\u2581\u13a4\u13be\u13b5": 1016,
    "\u2581\u13aa\u13ea\u13b8\u13a2": 1017,
    "\u2581\u13e7\u13c2\u13cd\u13d7": 1018,
    "\u2581\u13a4\u13c1\u13e8\u13a9": 1019,
    "\u2581\u13c4\u13db\u13c1\u13b8": 1020,
    "\u2581\u13a6\u13d9\u13a8": 1021,
    "---": 1022,
    "\u2581\u13c4\u13cd\u13d5": 1023,
    "\u2581\u13a4\u13d5\u13d8\u13f4\u13cc\u13d7\u13d2": 1024,
    "\u2581\u13d5\u13a4\u13d9\u13a5": 1025,
    "\u2581\u13d3\u13f3\u13d3\u13b4\u13c5": 1026,
    "\u2581\u13a0\u13cd\u13db": 1027,
    "\u2581\u13a6\u13d9\u13ac": 1028,
    "\u13c5\u13cf\u13db": 1029,
    "\u2581\u13d7\u13cf\u13d3\u13b5": 1030,
    "\u2581\u13a3\u13e3\u13b5\u13c5\u13df": 1031,
    "\u2581\u13e4\u13a9\u13cf\u13c2": 1032,
    "\u2581\u13c6\u13c2\u13c6": 1033,
    "\u2581\u13af\u13b8\u13a2\u13f4": 1034,
    "\u2581\u13a2\u13d3\u13d3\u13c5\u13df": 1035,
    "\u2581\u13a8\u13e5\u13b8\u13c9\u13d7": 1036,
    "\u2581\u13d7\u13a8\u13a6\u13c1\u13b6\u13d7": 1037,
    "\u2581\u13a0\u13c8\u13bb\u13b4\u13a9": 1038,
    "\u2581\u13d7\u13c7\u13e5": 1039,
    "\u2581\u13a4\u13a6\u13b5\u13cd\u13d7": 1040,
    "\u2581\u13e9\u13b6\u13cf": 1041,
    "\u2581\u13ac\u13e9\u13d5\u13c1\u13b4\u13a2": 1042,
    "\u2581\u13be\u13a9\u13ea\u13ce\u13b8\u13a9": 1043,
    "\u2581\u13d5\u13e3\u13d3\u13c5\u13db\u13a2": 1044,
    "\u2581\u13a0\u13d3\u13eb": 1045,
    "\u2581\u13e6\u13f0\u13c2": 1046,
    "\u2581\u13e7\u13e9": 1047,
    "\u2581\u13a0\u13c2\u13aa\u13a2": 1048,
    "\u2581\u13aa\u13cd\u13d3": 1049,
    "\u13f1\u13a9": 1050,
    "\u2581\u13e7\u13ac": 1051,
    "\u2581\u13af\u13aa": 1052,
    "\u2581\u13aa\u13ea\u13b5\u13af": 1053,
    "\u2581\u13aa\u13b3": 1054,
    "\u2581\u13a0\u13ef\u13d9": 1055,
    "\u201d": 1056,
    "\u13cd\u13aa\u13af": 1057,
    "\u13c1\u13ad": 1058,
    "\u2581\u13da\u13b4\u13c5": 1059,
    "\u13a2\u13cd\u13d7\u13f1": 1060,
    "\u2581\u13a6\u13b8": 1061,
    "\u2581\u13d5\u13e3\u13d9\u13a5": 1062,
    "\u2581\u13be\u13c3": 1063,
    "\u13d9\u13af": 1064,
    "\u2581\u13a2\u13e3\u13e4\u13b5": 1065,
    "\u2581\u13d8\u13c5\u13cf\u13d3\u13cd\u13d7": 1066,
    "\u2581\u13c4\u13c2\u13ac\u13eb\u13f3\u13cc\u13d5\u13a9": 1067,
    "\u2581\u13a5\u13d3\u13b5": 1068,
    "\u2581\u13a2\u13b3\u13ef": 1069,
    "\u2581\u13a4\u13be\u13b5\u13cd\u13d5\u13b8\u13d9\u13d7": 1070,
    "\u2581\u13d7\u13d8\u13c2\u13d9\u13af": 1071,
    "\u2581\u13d0\u13b3": 1072,
    "\u2581\u13a0\u13c1\u13d9\u13af": 1073,
    "\u2581\u13ce\u13a6\u13e8": 1074,
    "\u2581\u13a4\u13e9\u13d2\u13af\u13f3": 1075,
    "\u2581\u13d7\u13a8": 1076,
    "\u2581\u13d7\u13e3\u13e4\u13b5\u13a6": 1077,
    "\u2581\u13a4\u13d9\u13af\u13f3\u13d2": 1078,
    "\u2581\u13a4\u13d5\u13c5\u13af": 1079,
    "\u13e8\u13a9": 1080,
    "\u2581\u13a0\u13cd\u13d3\u13f1": 1081,
    "\u2581\u13ac\u13d7\u13cd\u13a9": 1082,
    "\u2581\u13a0\u13a6\u13d7": 1083,
    "\u2581\u13ed\u13c2": 1084,
    "\u2581\u13c1": 1085,
    "\u2581\u13a0\u13c2\u13d3": 1086,
    "\u13a7\u13c2": 1087,
    "\u13db\u13c1\u13d7": 1088,
    "\u2581\u13a3\u13d3\u13b8\u13a2": 1089,
    "\u13a6\u13c5\u13af\u13db": 1090,
    "\u13a2\u13f3\u13cd\u13d7": 1091,
    "e": 1092,
    "\u2581\u13a0\u13b5\u13cd\u13da\u13b6": 1093,
    "\u2581\u13a5\u13a9": 1094,
    "\u13a9\u13cd\u13d7": 1095,
    "\u13cc\u13db": 1096,
    "\u2581\u13a0\u13e5\u13b8\u13f1": 1097,
    "\u2581\u13f1\u13e5": 1098,
    "\u2581\u13c4\u13e9\u13c1\u13b8": 1099,
    "\u13c5\u13d2": 1100,
    "\u2581\u13d9\u13db": 1101,
    "\u2581\u13a4\u13b6\u13d0\u13c5": 1102,
    "\u2581\u13a0\u13a6\u13f4\u13b5": 1103,
    "\u2581\u13a0\u13a7\u13b5\u13a2": 1104,
    "\u2581\u13a0\u13f0\u13d9\u13b3\u13db\u13d7": 1105,
    "\u2581\u13e9\u13cf\u13d3\u13c2": 1106,
    "\u2581\u13d3\u13cf\u13b3\u13db": 1107,
    "\u2581\u13da\u13ec\u13e2\u13d4\u13c5\u13a9": 1108,
    "\u2581\u13d7\u13d3\u13c5\u13d9": 1109,
    "\u2581\u13a0\u13a8\u13f3\u13e3": 1110,
    "\u2581\u13f1\u13c4\u13cd\u13d7": 1111,
    "\u2581\u13d7\u13a8\u13eb": 1112,
    "\u2581\u13e7\u13c2\u13b8\u13eb\u13cd\u13d3\u13c1\u13d7\u13f1": 1113,
    "\u2581\u13a0\u13b9\u13f0\u13b5": 1114,
    "\u2581\u13a4\u13cd\u13a6\u13c3\u13b5": 1115,
    "\u2581\u13e5\u13c1\u13ac\u13a2": 1116,
    "\u2581\u13c2\u13e5": 1117,
    "\u2581\u13a0\u13e4": 1118,
    "\u2581\u13a4\u13f2\u13b1\u13d2\u13af": 1119,
    "\u2581\u13a8\u13c2": 1120,
    "\u2581\u13aa\u13a9": 1121,
    "\u2581\u13a2\u13ac": 1122,
    "\u2581\u13ab\u13e2\u13d7": 1123,
    "\u13a0\u13c2\u13b3\u13cd\u13d3\u13b8": 1124,
    "\u13cd\u13d9": 1125,
    "\u13af\u13cd\u13d9\u13d7": 1126,
    "\u13cd\u13ac\u13be": 1127,
    "\u2581\u13d7\u13a9": 1128,
    "\u2581\u13a7\u13c1\u13ac\u13a2": 1129,
    "\u2581\u13d1": 1130,
    "\u2581\u13da\u13c1\u13e4\u13b4": 1131,
    "\u2581\u13d7\u13a6\u13b8\u13c9\u13d7": 1132,
    "\u2581\u13be\u13c2\u13a5\u13c9": 1133,
    "\u2581\u13a0\u13b2\u13a2": 1134,
    "\u13c5\u13a2": 1135,
    "\u2581\u13da\u13d9\u13a5\u13a2": 1136,
    "\u13a8\u13d2": 1137,
    "\u2581\u13a0\u13e6\u13f4": 1138,
    "\u2581\u13d7\u13d3\u13b4\u13c2\u13cd\u13ac": 1139,
    "\u2581\u13a4\u13ec\u13b8": 1140,
    "t": 1141,
    "\u2581\u13a3\u13cf": 1142,
    "\u2581\u13d7\u13a6\u13ab\u13cd\u13db\u13d7": 1143,
    "\u2581\u13cd\u13c8\u13cd\u13d3": 1144,
    "\u2581\u13a0\u13cd\u13c6\u13a8\u13c2": 1145,
    "\u2581\u13b5\u13eb": 1146,
    "\u2581\u13a8\u13e5\u13c5\u13cf\u13d3\u13cd\u13d7": 1147,
    "\u2581\u13a7\u13c2\u13a9\u13d3": 1148,
    "\u2581\u13a6\u13ec\u13c2\u13cd\u13a9": 1149,
    "\u2581\u13da\u13ec\u13e2\u13c5\u13a9": 1150,
    "\u2581\u13a2\u13a9\u13d9\u13d3": 1151,
    "\u2581\u13be\u13cd\u13a6\u13c5\u13be": 1152,
    "\u2581\u13a4\u13d7\u13b4\u13a9": 1153,
    "\u2581\u13a7\u13c3\u13ae\u13cd\u13a9": 1154,
    "\u2581\u13cd\u13d4\u13ef": 1155,
    "\u2581\u13a6\u13b6\u13d9\u13d7": 1156,
    "\u2581\u13a4\u13be\u13c1\u13b3\u13a9": 1157,
    "\u2581\u13a4\u13c5\u13cc": 1158,
    "\u2581\u13a0\u13e2\u13d7\u13f1": 1159,
    "\u13ec": 1160,
    "\u2581\u13a2\u13f3\u13cd\u13d7\u13c9": 1161,
    "\u13d5\u13a2": 1162,
    "\u2581\u13a0\u13f2\u13a9": 1163,
    "\u2581\u13a4\u13d3\u13c5\u13d8\u13f3": 1164,
    "\u2581\u13a4\u13c2\u13e5": 1165,
    "\u2581\u13a4\u13c5\u13df": 1166,
    "\u2581\u13f1\u13d7\u13e5": 1167,
    "\u2581\u13c2\u13d3": 1168,
    "\u13d2\u13ad": 1169,
    "\u2581\u13a6\u13b6": 1170,
    "\u2581\u13a4\u13b5\u13cd\u13d7": 1171,
    "\u2581\u13a6\u13c5\u13af\u13db": 1172,
    "\u2581\u13d5\u13a8": 1173,
    "\u2581\u13a1\u13b2\u13a2": 1174,
    "\u2581\u13e5\u13d5": 1175,
    "\u2581\u13a4\u13d3\u13c5\u13d6": 1176,
    "\u2581\u13a0\u13cd\u13a6\u13be": 1177,
    "\u2581\u13c5\u13d3": 1178,
    "\u2581\u13f1\u13d7": 1179,
    "\u2581\u13d3\u13ac": 1180,
    "\u2581\u13a0\u13d4\u13b4\u13d2": 1181,
    "\u13a0\u13b4": 1182,
    "\u2581\u13e6\u13a9": 1183,
    "\u2581\u13eb\u13e3": 1184,
    "\u2581\u13d3\u13d3\u13bf\u13e9\u13cd\u13db": 1185,
    "\u2581\u13a4\u13c2\u13e3\u13d6": 1186,
    "\u2581\u13c2\u13da\u13a9\u13e8\u13c2\u13d2": 1187,
    "\u13da\u13b5\u13cd\u13ac\u13be": 1188,
    "\u2581\u13d3\u13c6\u13d9\u13a5": 1189,
    "\u2581\u13a2\u13a6\u13a6\u13db": 1190,
    "\u2581\u13a9": 1191,
    "\u2581\u13d7\u13a7\u13c3\u13d7": 1192,
    "\u2581\u13e7\u13b8\u13eb\u13cd\u13d3\u13c1\u13d7": 1193,
    "\u2581\u13e9\u13da\u13b5\u13cf": 1194,
    "\u2581\u13a6\u13b7\u13ef\u13cd\u13d7": 1195,
    "\u2581\u13aa\u13cd\u13da": 1196,
    "\u2581\u13e7\u13ef\u13d6\u13be": 1197,
    "\u2581\u13e7\u13c3\u13f0\u13c2": 1198,
    "\u2581\u13d3\u13a6\u13b7\u13e5": 1199,
    "\u13b4\u13af\u13d0\u13d7": 1200,
    "\u2581\u13c5\u13db\u13a9\u13c5\u13cf\u13db": 1201,
    "\u2581\u13c2\u13a6\u13ea\u13cd\u13a8\u13a2": 1202,
    "\u2581\u13e7\u13c2\u13e2\u13a9": 1203,
    "\u2581\u13d7\u13c2\u13a6\u13d9\u13b5": 1204,
    "\u2581\u13be\u13ce\u13b5\u13d7": 1205,
    "\u2581\u13a0\u13a9\u13c5\u13cf\u13d9\u13af": 1206,
    "\u2581\u13af\u13b8\u13af\u13f3": 1207,
    "\u2581\u13ac\u13c2\u13d7\u13f3": 1208,
    "\u2581\u13a0\u13c2\u13a9\u13cf": 1209,
    "\u2581\u13a4\u13cd\u13c6\u13b8\u13b2": 1210,
    "\u2581\u13d7\u13a7\u13c3\u13d7\u13f1": 1211,
    "\u2581\u13a0\u13a9\u13cf": 1212,
    "\u2581\u13a4\u13c2\u13b7\u13e8\u13a9": 1213,
    "\u2581\u13ad\u13be\u13be": 1214,
    "\u2581\u13a4\u13e5\u13b8\u13a2": 1215,
    "\u2581\u13a0\u13bc": 1216,
    "\u2581\u13a2\u13a6\u13d8": 1217,
    "\u13c1\u13af": 1218,
    "\u2581\u13ed\u13b7\u13e4\u13a2": 1219,
    "\u13e4\u13a2": 1220,
    "\u13cd\u13c9": 1221,
    "\u2581\u13a2\u13ac\u13c1\u13d7": 1222,
    "\u13a0\u13cb\u13cc": 1223,
    "\u13a6\u13d4\u13b2\u13be": 1224,
    "\u2581\u13e9\u13ef": 1225,
    "\u13cd\u13ac\u13a9": 1226,
    "\u13a1\u13b5": 1227,
    "\u13c5\u13be": 1228,
    "\u13cd\u13a6\u13c5\u13a2\u13cd\u13d7": 1229,
    "\u2581\u13ae": 1230,
    "\u13a9\u13ce": 1231,
    "\u2581\u13a4\u13f2\u13a2": 1232,
    "\u2581\u13a4\u13cd\u13a6\u13c5\u13e8": 1233,
    "\u2581\u13a2\u13e4\u13be": 1234,
    "\u13e4\u13cd\u13d7": 1235,
    "\u2581\u13a0\u13b4\u13ec": 1236,
    "\u2581\u13a6\u13db\u13ac": 1237,
    "\u2581\u13a6\u13b3\u13a8\u13f4": 1238,
    "\u2581\u13d5\u13a6\u13da\u13b2": 1239,
    "\u2581\u13d7\u13a9\u13a6\u13f4\u13b5\u13a8": 1240,
    "\u2581\u13c2\u13e3\u13db\u13c1\u13b8": 1241,
    "\u2581\u13da\u13c2\u13b8\u13eb\u13cd\u13d3\u13c1\u13b2": 1242,
    "\u13b2\u13cf": 1243,
    "\u2581\u13a6\u13d3\u13c5\u13d6\u13cd\u13ac": 1244,
    "\u2581\u13da\u13be\u13d3\u13c5\u13db": 1245,
    "\u2581\u13a4\u13d5\u13c5": 1246,
    "\u2581\u13e5\u13e3": 1247,
    "\u2581\u13a0\u13aa": 1248,
    "\u13f0\u13b5": 1249,
    "\u2581\u13a6\u13c4\u13b8": 1250,
    "\u2581\u13c7\u13c2": 1251,
    "\u2581\u13e5\u13a6": 1252,
    "\u2581\u13a4\u13be\u13b5\u13cd\u13d3\u13f4\u13d7": 1253,
    "\u2581\u13a2\u13e5\u13c8": 1254,
    "c": 1255,
    "\u2581\u13d7\u13be": 1256,
    "\u2581\u13a2\u13f3\u13e9\u13ab\u13d7": 1257,
    "\u2581\u13d2\u13a7\u13d4": 1258,
    "\u2581\u13a2\u13f3\u13d3\u13b4\u13a9": 1259,
    "\u2581\u13c4\u13c3\u13af\u13f3\u13d2\u13be": 1260,
    "\u2581\u13a2\u13e5\u13e1\u13f1": 1261,
    "\u2581\u13a6\u13b5\u13c6\u13cd\u13aa\u13af": 1262,
    "\u2581\u13da\u13d9\u13a1\u13a2": 1263,
    "\u2581\u13d9\u13b4\u13db": 1264,
    "\u2581\u13eb\u13e5\u13a2\u13a6": 1265,
    "\u2581\u13ce\u13b7": 1266,
    "\u2581\u13a0\u13c2\u13e3\u13b3\u13a9": 1267,
    "\u2581\u13a2\u13e4\u13ef\u13d4\u13ae\u13cd\u13d7": 1268,
    "\u2581\u13a4\u13cd\u13a6\u13ce\u13d7": 1269,
    "\u2581\u13a2\u13cc\u13ef": 1270,
    "\u2581\u13a2\u13d7\u13a6\u13d4\u13ad": 1271,
    "\u2581\u13c5\u13d3\u13f3\u13b5\u13cd\u13d9\u13d4\u13c5\u13a9": 1272,
    "\u2581\u13c4\u13ac\u13eb\u13f3\u13cc\u13d5\u13a9": 1273,
    "\u2581\u13a2\u13e8\u13f2\u13ce\u13ad": 1274,
    "\u2581\u13d7\u13b9\u13d7": 1275,
    "\u2581\u13a0\u13c2\u13aa\u13d5\u13cd\u13a9": 1276,
    "\u2581\u13a4\u13af\u13d0\u13d7": 1277,
    "\u2581\u13e7\u13d9\u13d3\u13c6\u13d3": 1278,
    "\u2581\u13a0\u13cf\u13be\u13cc\u13c2": 1279,
    "\u13b5\u13a6": 1280,
    "\u2581\u13be\u13c2\u13a5\u13a2": 1281,
    "\u2581\u13a0\u13ab\u13f4\u13d9\u13d7": 1282,
    "\u2581\u13d7\u13a6\u13aa\u13d7\u13f1": 1283,
    "\u2581\u13a6\u13be\u13f0\u13af\u13cd\u13d7": 1284,
    "\u2581\u13a4\u13be\u13c4\u13aa\u13eb\u13d2\u13af": 1285,
    "\u2581\u13a4\u13be\u13eb\u13f1": 1286,
    "\u13c1\u13b3\u13c5\u13af": 1287,
    "\u2581\u13a0\u13c6\u13db\u13a6\u13c5\u13a9": 1288,
    "\u2581\u13d7\u13e6\u13e2\u13d7": 1289,
    "\u2581\u13a6\u13ec\u13c2\u13af\u13cd\u13d7": 1290,
    "\u2581\u13c1\u13b3": 1291,
    "\u2581\u13ed\u13f4\u13b4\u13a2": 1292,
    "\u2581\u13e9\u13cd\u13d7": 1293,
    "\u2581\u13c9\u13b3\u13c3": 1294,
    "\u2581\u13a0\u13d7\u13ad": 1295,
    "\u2581\u13e7\u13ea": 1296,
    "\u2581\u13c2\u13d5": 1297,
    "\u2581\u13a4\u13ea\u13bf\u13a2": 1298,
    "\u2581\u13f4\u13a9": 1299,
    "\u13cd\u13c6": 1300,
    "\u2581\u13d7\u13e6": 1301,
    ",]": 1302,
    "\u2581\u13eb\u13a6": 1303,
    "\u2581\u13a2\u13e4\u13af": 1304,
    "\u2581\u13c5\u13db": 1305,
    "\u2581\u13c4\u13cd\u13db\u13a2": 1306,
    "\u2581\u13a1\u13d8": 1307,
    "\u13d7\u13cd\u13aa": 1308,
    "\u13c2\u13cf": 1309,
    "\u13a1\u13a2": 1310,
    "\u13a6\u13d8": 1311,
    "\u13d5\u13be": 1312,
    "\u2581\u13da\u13aa\u13ae": 1313,
    "\u2581\u13c5\u13d7\u13a6\u13b5\u13cd\u13d9\u13d7\u13cd\u13aa": 1314,
    "\u13a4\u13c1\u13b3\u13c5\u13af": 1315,
    "\u2581\u13a0\u13c2\u13c3\u13ae\u13cd\u13ac": 1316,
    "\u2581\u13e7\u13ea\u13c5\u13d2": 1317,
    "\u2581\u13a4\u13c3\u13f4\u13ac": 1318,
    "\u2581\u13d3\u13d3\u13c1\u13b8": 1319,
    "\u2581\u13a6\u13e5": 1320,
    "\u2581\u13af\u13ef": 1321,
    "\u13b2\u13cd\u13a9": 1322,
    "\u13be\u13dd\u13a2": 1323,
    "\u13b6\u13af": 1324,
    "\u13c1\u13b3": 1325,
    "\u13db\u13ac\u13a6": 1326,
    "\u2581\u13a1\u13c9\u13d7": 1327,
    "\u2581\u13a4\u13c2\u13ec\u13c2\u13af\u13cd\u13d7": 1328,
    "\u2581Cr": 1329,
    "\u2581\u13a2\u13f3\u13be\u13db\u13bf\u13d5\u13a9": 1330,
    "\u2581\u13cd\u13a6\u13da\u13a9": 1331,
    "\u2581\u13c2\u13e5\u13ea\u13ad": 1332,
    "\u2581\u13ce\u13a9\u13b5": 1333,
    "\u2581\u13e7\u13d3\u13d5\u13d2\u13db": 1334,
    "\u2581\u13d7\u13c2\u13ad\u13c4\u13b8\u13af": 1335,
    "\u2581\u13a1\u13c8\u13cc": 1336,
    "\u2581\u13d4\u13b7\u13e3": 1337,
    "\u2581\u13a0\u13e6\u13ad\u13f4": 1338,
    "\u2581\u13a0\u13a9\u13b5\u13ef": 1339,
    "\u2581\u13cc\u13aa\u13c2\u13a8": 1340,
    "\u2581\u13a2\u13b3\u13aa": 1341,
    "\u2581\u13cd\u13a9\u13c3\u13b2\u13cf": 1342,
    "\u2581\u13d7\u13aa\u13ea\u13b5\u13cd\u13a9": 1343,
    "\u2581\u13a4\u13e9\u13d9\u13af\u13f4\u13d3": 1344,
    "\u2581\u13a2\u13f3\u13d3\u13b4\u13c5\u13db": 1345,
    "\u2581\u13a4\u13c2\u13ac\u13eb\u13f3\u13cc\u13d5\u13a9": 1346,
    "\u2581\u13a2\u13f3\u13e9\u13c2\u13d0\u13d7\u13f1": 1347,
    "\u2581\u13a2\u13f3\u13e9\u13c1\u13d7\u13f1": 1348,
    "\u2581\u13d9\u13f0": 1349,
    "\u2581\u13a4\u13f0\u13af": 1350,
    "\u2581\u13a4\u13ec\u13d7\u13a8": 1351,
    "\u2581\u13d2\u13ae\u13f1\u13e3": 1352,
    "\u2581\u13a2\u13ac\u13c1\u13af": 1353,
    "\u2581\u13d3\u13ef\u13a2": 1354,
    ")": 1355,
    "\u13d9\u13a9": 1356,
    "\u2581\u13a7\u13b8\u13a2": 1357,
    "\u2581\u13da\u13b8\u13eb\u13cd\u13d3\u13c1\u13b2\u13a2": 1358,
    "\u2581\u13c6": 1359,
    "\u13c1\u13b4\u13a2": 1360,
    "\u2581\u13da\u13be\u13d3\u13c5\u13db\u13a2": 1361,
    "\u2581\u13be\u13cd\u13a9\u13c9": 1362,
    "\u2581\u13a4\u13be\u13b5\u13a2": 1363,
    "\u13d4\u13c5\u13ad": 1364,
    "\u13d1\u13f4\u13be": 1365,
    "\u2581\u13c4\u13db\u13c1\u13b4\u13a2": 1366,
    "\u2581\u13a6\u13b8\u13b3\u13d7\u13f3": 1367,
    "\u2581\u13a1\u13d3": 1368,
    "\u2581\u13a4\u13be\u13d3\u13e1\u13ac\u13a2": 1369,
    "\u2581\u13e3\u13e4\u13b5\u13a6": 1370,
    "\u2581\u13a8\u13a6": 1371,
    "\u2581\u13aa\u13af\u13d3": 1372,
    "\u13c1\u13b8\u13a9": 1373,
    "\u13c1\u13b2": 1374,
    "\u2581\u13c2\u13a6\u13d7": 1375,
    "\u2581\u13f4\u13a6": 1376,
    "\u2581\u13a4\u13d3\u13c5\u13d6\u13d7": 1377,
    "\u2581\u13ef\u13c6": 1378,
    "\u2581\u13d7\u13a7\u13bf\u13e9\u13db\u13cd\u13d7\u13f1": 1379,
    "\u2581\u13f1\u13c2": 1380,
    "\u2581\u13d7\u13a6\u13d3": 1381,
    "\u13a6\u13d4\u13ad": 1382,
    "\u2581\u13af\u13b8": 1383,
    "\u2581\u13be\u13cd\u13a9\u13f4": 1384,
    "\u2581\u13be\u13c2": 1385,
    "\u2581\u13a6\u13c3\u13b8\u13a5\u13cd\u13ac": 1386,
    "\u2581\u13a7\u13b3\u13e9\u13d7\u13d2": 1387,
    "\u2581\u13d7\u13a6\u13da\u13b2": 1388,
    "\u2581\u13a2\u13e6\u13af\u13f3\u13d2": 1389,
    "\u2581\u13a0\u13e4\u13b5\u13cd\u13db": 1390,
    "\u13e5\u13cc": 1391,
    "\u13a2\u13cd\u13d7": 1392,
    "\u2581\u13a8\u13b3": 1393,
    "\u2581\u13ed\u13b6\u13d2": 1394,
    "\u2581\u13a0\u13c6\u13da\u13b5": 1395,
    "\u2581\u13a0\u13c3": 1396,
    "\u2581\u13a6\u13c1\u13cc\u13a2": 1397,
    "\u13cd\u13d4\u13c2": 1398,
    "\u2581\u13a4\u13c5\u13d2\u13c9": 1399,
    "\u2581\u13a6\u13a8": 1400,
    "\u2581\u13d9\u13af": 1401,
    "\u2581\u13ed\u13be": 1402,
    "\u2581\u13cd\u13c6": 1403,
    "\u2581\u13e8\u13d7\u13d3\u13b4\u13b2\u13cd\u13a6": 1404,
    "\u2581\u13e7\u13d5\u13d8\u13f4\u13d3": 1405,
    "\u2581\u13d7\u13df\u13b6\u13cd\u13d4\u13c5\u13af": 1406,
    "\u2581\u13d7\u13d6\u13b5\u13d9": 1407,
    "\u2581\u13a4\u13aa\u13cf\u13d3": 1408,
    "\u2581\u13e6\u13d3\u13c2": 1409,
    "\u2581\u13a0\u13c2\u13eb\u13c5": 1410,
    "\u2581\u13f1\u13c5\u13d7\u13a6\u13b5\u13cd\u13d9\u13d7\u13ad": 1411,
    "\u2581\u13a2\u13f3\u13be\u13b5\u13cd\u13d9\u13d7\u13f1": 1412,
    "\u2581\u13a4\u13a6\u13be\u13cd\u13d3": 1413,
    "\u2581\u13e7\u13aa\u13b3": 1414,
    "\u2581\u13a2\u13ef\u13be\u13db\u13c1\u13af": 1415,
    "\u2581\u13ac\u13e9\u13df\u13cd\u13d7": 1416,
    "\u13c1\u13b5": 1417,
    "\u2581\u13a0\u13e5\u13cd\u13db": 1418,
    "\u2581\u13aa\u13af\u13d7\u13f3": 1419,
    "\u2581\u13a0\u13b5\u13cd\u13d5\u13b8\u13d9\u13d7": 1420,
    "\u2581\u13a4\u13da\u13b5\u13cd\u13a8\u13cd\u13d7": 1421,
    "\u2581\u13e7\u13cd\u13d7": 1422,
    "\u2581\u13e3\u13c1\u13b3": 1423,
    "\u2581\u13a4\u13da\u13b8\u13d7": 1424,
    "\u2581\u13a2\u13e3\u13e4\u13b5\u13a6": 1425,
    "\u2581\u13a2\u13a6\u13a6\u13d8": 1426,
    "\u13aa\u13af": 1427,
    "\u2581\u13d7\u13c6\u13e4\u13b5\u13a6": 1428,
    "\u2581\u13a1\u13b5\u13cd\u13d7": 1429,
    "\u2581\u13f1\u13ac": 1430,
    "\u13db\u13a6": 1431,
    "\u13c9\u13c3": 1432,
    "\u2581\u13e7\u13d3\u13c3": 1433,
    "\u13d5\u13b5": 1434,
    "\u2581\u13d9\u13d3": 1435,
    "\u2581\u13a4\u13c2\u13e3\u13d4": 1436,
    "\u2581\u13a3\u13c2\u13f1": 1437,
    "\u13aa\u13d7": 1438,
    "\u2581\u13af\u13a0\u13cd\u13a9\u13c2": 1439,
    "\u2581\u13d7\u13c6": 1440,
    "\u13c1\u13ae\u13cd\u13d7": 1441,
    "\u2581\u13c3\u13e5": 1442,
    "\u13ad\u13c2": 1443,
    "\u2581\u13f1\u13e8": 1444,
    "\u2581\u13a0\u13d3\u13c1\u13b8\u13a2": 1445,
    "\u2581\u13c4\u13ea\u13d2\u13a2": 1446,
    "\u2581\u13c4\u13b5\u13cd\u13d4\u13c5\u13a2": 1447,
    "\u2581\u13ef\u13a9": 1448,
    "\u2581\u13de\u13a6": 1449,
    "\u2581\u13be\u13be\u13db\u13c1\u13b2": 1450,
    "\u2581\u13ac\u13e9\u13be": 1451,
    "\u13b7\u13a6": 1452,
    "\u2581\u13da\u13b3\u13cd\u13ac": 1453,
    "\u2581\u13a4\u13c1\u13e8\u13a2": 1454,
    "\u2581\u13eb\u13d3": 1455,
    "\u2581\u13a4\u13a8\u13d3\u13b5\u13f4": 1456,
    "\u2581\u13a4\u13c5\u13cf\u13f4": 1457,
    "\u2581\u13ed\u13ef\u13c5\u13ae": 1458,
    "\u13a9\u13b6": 1459,
    "\u2581\u13a0\u13be\u13a2\u13d2": 1460,
    "\u2581\u13a4\u13c2\u13b7\u13e8": 1461,
    "\u2581\u13d5\u13ad\u13b7\u13a8": 1462,
    "\u2581\u13a6\u13c5\u13c5": 1463,
    "\u2581\u13d5\u13a9": 1464,
    "\u2581\u13ed\u13b7\u13e8": 1465,
    "\u2581\u13e7\u13be\u13cd\u13d7": 1466,
    "\u2581\u13d3\u13e3": 1467,
    "\u2581\u13a4\u13d2\u13a2": 1468,
    "\u2581\u13d7\u13e5\u13be\u13eb": 1469,
    "\u2581\u13d0\u13d3\u13bb": 1470,
    "\u13cc\u13b3\u13d3": 1471,
    "\u2581\u13a4\u13b7\u13af\u13cd\u13d7": 1472,
    "\u2581\u13a4\u13c2\u13f4\u13cd\u13d7": 1473,
    "\u2581\u13a0\u13a6\u13d8\u13cf": 1474,
    "\u2581Perry": 1475,
    "\u2581\u13e7\u13a6\u13be\u13ee": 1476,
    "\u13da\u13d3\u13b4\u13cd\u13d9\u13d7": 1477,
    "\u2581\u13a5\u13f3\u13a9": 1478,
    "\u2581\u13d7\u13aa": 1479,
    "\u2581\u13a0\u13b5\u13cd\u13d4\u13f4\u13d7": 1480,
    "\u2581\u13a4\u13a9\u13e8\u13d3": 1481,
    "\u2581\u13a7\u13c2\u13a9\u13db": 1482,
    "\u2581\u13d7\u13d5\u13f2\u13d7": 1483,
    "\u2581\u13a4\u13be\u13f0\u13af\u13cd\u13d7": 1484,
    "\u2581\u13a4\u13eb\u13ef": 1485,
    "\u2581\u13a4\u13c2\u13a9\u13ac": 1486,
    "\u2581\u13a4\u13ec\u13e2\u13d4\u13c5\u13a9": 1487,
    "\u2581\u13e7\u13be\u13a9\u13b8\u13d7": 1488,
    "\u2581\u13d7\u13d3\u13d8\u13c2\u13d9\u13af": 1489,
    "\u2581\u13a4\u13c1\u13ab\u13e5\u13db": 1490,
    "\u2581\u13a0\u13c6\u13c1\u13b3\u13c5\u13af": 1491,
    "\u2581\u13a0\u13b5\u13cd\u13aa\u13b8\u13d4\u13c5\u13af": 1492,
    "\u2581\u13f3\u13da\u13b5\u13cd\u13a8": 1493,
    "\u2581\u13a0\u13cd\u13da\u13d7": 1494,
    "\u2581\u13a8\u13b5\u13cd\u13ac": 1495,
    "\u2581\u13c2\u13d7\u13a5": 1496,
    "\u2581\u13da\u13d3\u13d8\u13be\u13a5\u13a2": 1497,
    "\u2581\u13a4\u13c2\u13cd\u13c6\u13c2\u13aa\u13ce\u13a2": 1498,
    "\u2581\u13a2\u13f3\u13be\u13db\u13c1\u13d7\u13f1": 1499,
    "\u2581\u13a4\u13cd\u13c6\u13c2\u13aa\u13d7\u13f3": 1500,
    "\u2581\u13d3\u13c6": 1501,
    "\u2581\u13a3\u13cf\u13c9": 1502,
    "\u2581\u13c4\u13db\u13c1\u13b8\u13a9": 1503,
    "\u2581\u13a4\u13bf": 1504,
    "\u13cd\u13d4": 1505,
    "\u2581\u13d7\u13a8\u13d2\u13a2": 1506,
    "\u2581\u13f0": 1507,
    "\u2581\u13a4\u13be\u13b5\u13aa": 1508,
    "\u2581\u13a0\u13eb\u13c5": 1509,
    "\u13cd\u13d5\u13b8\u13d7": 1510,
    "\u2581\u13c2\u13a6\u13ea\u13cd\u13ac\u13a2": 1511,
    "\u13b5\u13cd\u13d9\u13d7": 1512,
    "\u2581\u13a0\u13a9\u13cd\u13d7": 1513,
    "\u13b4\u13c2": 1514,
    "\u13a1\u13af": 1515,
    "\u2581\u13a2\u13e7": 1516,
    "\u13a1\u13d7\u13f1": 1517,
    "\u2581\u13c5\u13a9\u13c1": 1518,
    "\u13b5\u13cd\u13d7": 1519,
    "\u2581\u13c1\u13b0": 1520,
    "\u2581\u13be\u13a5\u13a2": 1521,
    "\u2581\u13f3\u13be": 1522,
    "\u2581\u13a4\u13c1\u13e8\u13af": 1523,
    "n": 1524,
    "\u2581\u13a0\u13cf\u13f4\u13eb\u13c3": 1525,
    "\u2581\u13e3\u13be": 1526,
    "\u2581\u13eb\u13ac\u13e9": 1527,
    "\u2581\u13da\u13f3\u13aa\u13db\u13a2": 1528,
    "\u2581\u13a2\u13f3\u13a2": 1529,
    "\u13d7\u13cd\u13a8\u13a2": 1530,
    "\u2581\u13a4\u13e5\u13b8": 1531,
    "\u13e0": 1532,
    "\u13b6\u13db": 1533,
    "\u2581\u13a4\u13ea\u13b5\u13af\u13cd\u13d7": 1534,
    "\u2581\u13a4\u13d5\u13c1\u13b8": 1535,
    "\u2581\u13a0\u13f0\u13d9\u13b3\u13db": 1536,
    "\u2581\u13a1\u13d9\u13b2": 1537,
    "\u2581\u13a0\u13be\u13d3": 1538,
    "\u13d7\u13f3": 1539,
    "\u2581\u13a4\u13d3\u13c2\u13b5\u13a8": 1540,
    "\u2581\u13a1\u13d7": 1541,
    "\u2581\u13a4\u13b5\u13c1\u13e8": 1542,
    "\u2581\u13d5\u13e1\u13ac": 1543,
    "\u2581\u13d3\u13c1\u13e9\u13d7\u13d2": 1544,
    "\u2581\u13d5\u13a8\u13cc\u13d7\u13d2": 1545,
    "\u2581\u13a4\u13d3\u13c5\u13d6\u13b4": 1546,
    "\u2581\u13a0\u13c6\u13da\u13b5\u13cd\u13ac": 1547,
    "\u2581\u13a4\u13d3\u13f4\u13cd\u13d7": 1548,
    "\u2581\u13b7\u13c8\u13c2": 1549,
    "\u2581\u13d7\u13c2\u13b5\u13a0\u13c5\u13af\u13db": 1550,
    "\u2581\u13a2\u13c8\u13ac\u13a2": 1551,
    "\u2581\u13b9\u13cf\u13d9\u13c2": 1552,
    "\u2581\u13de\u13a9\u13f3": 1553,
    "\u2581\u13a0\u13be\u13d3\u13c5\u13df": 1554,
    "\u2581\u13ac\u13d4\u13c2\u13d3\u13cd\u13d7": 1555,
    "\u2581\u13a0\u13aa\u13c4": 1556,
    "\u2581\u13cc\u13ba\u13b5\u13f1": 1557,
    "\u2581\u13a0\u13d9\u13b3\u13c5\u13cd\u13d7": 1558,
    "\u2581\u13a9\u13df": 1559,
    "\u2581\u13d7\u13a6\u13c5\u13d9\u13d7": 1560,
    "\u2581\u13a0\u13eb\u13c4\u13e3": 1561,
    "\u2581\u13a0\u13df\u13b6\u13cd\u13d7": 1562,
    "\u2581\u13a2\u13f3\u13ea\u13c5\u13cd\u13d7": 1563,
    "\u2581\u13a2\u13e8\u13d7\u13cd\u13a8\u13cd\u13d7": 1564,
    "\u2581\u13e7\u13cd\u13c6\u13c5\u13be": 1565,
    "\u2581\u13a1\u13cf\u13f1": 1566,
    "\u2581\u13a4\u13ec\u13da\u13af": 1567,
    "\u2581\u13a4\u13ec\u13da\u13af\u13f3": 1568,
    "\u2581\u13a0\u13e5\u13be\u13dd\u13a2": 1569,
    "\u2581\u13a4\u13b6\u13d2\u13cd\u13d7": 1570,
    "\u2581\u13e7\u13d3\u13b4\u13c5\u13d3": 1571,
    "\u2581\u13a0\u13d3\u13af": 1572,
    "\u2581\u13ce\u13b3\u13f1": 1573,
    "\u2581\u13a4\u13c2\u13f4\u13cd\u13d7\u13f1": 1574,
    "\u2581\u13d4\u13b5\u13e7\u13c8": 1575,
    "\u13a4\u13c5": 1576,
    "\u2581\u13a3\u13c1": 1577,
    "\u2581\u13da\u13ef": 1578,
    "\u13b6\u13d7": 1579,
    "\u2581\u13e4\u13ae\u13a2": 1580,
    "\u2581\u13a0\u13c1\u13ae\u13a2": 1581,
    "\u2581\u13da\u13b4\u13c1\u13a2": 1582,
    "\u2581\u13f0\u13ad": 1583,
    "\u2581\u13a0\u13c1\u13ad": 1584,
    "\u2581\u13d0\u13a2\u13f1": 1585,
    "\u2581\u13f1\u13d7\u13e3": 1586,
    "\u13e8\u13af": 1587,
    "\u2581\u13a2\u13f3\u13be": 1588,
    "\u2581\u13d3\u13e8": 1589,
    "\u2581\u13a6\u13cd\u13a9\u13b8\u13a2": 1590,
    "\u2581\u13a0\u13e5\u13b8\u13c9\u13d7": 1591,
    "\u13cd\u13ca": 1592,
    "\u2581\u13a0\u13ac": 1593,
    "\u13cd\u13d7\u13cd\u13ac": 1594,
    "\u2581\u13a4\u13a8\u13f3\u13af": 1595,
    "\u2581\u13a2\u13d3": 1596,
    "\u2581\u13d9\u13af\u13f1": 1597,
    "\u2581\u13a4\u13ec\u13b5": 1598,
    "\u2581\u13a0\u13ce\u13a9": 1599,
    "\u2581\u13a0\u13dc": 1600,
    "\u2581\u13da\u13b4\u13c1": 1601,
    "\u13db\u13d7": 1602,
    "\u2581\u13a4\u13c1\u13c5\u13ce": 1603,
    "\u2581\u13d3\u13be\u13d3": 1604,
    "a": 1605,
    "\u2581\u13a4\u13b8": 1606,
    "\u13e0\u13be\u13cd\u13d7": 1607,
    "\u2581\u13d7\u13d7": 1608,
    "\u13b8\u13c9\u13d9\u13d7": 1609,
    "\u13db\u13ad": 1610,
    "\u13b8\u13c9\u13d7\u13f3": 1611,
    "\u2581\u13c5\u13d3\u13f3": 1612,
    "\u2581\u13a0\u13c2\u13d9\u13be\u13a5": 1613,
    "\u13db\u13af": 1614,
    "\u13c5\u13d2\u13a9": 1615,
    "\u2581\u13d4\u13b5\u13ad": 1616,
    "\u2581\u13c4\u13c2": 1617,
    "\u2581\u13d7\u13e3\u13d3\u13c5\u13d9": 1618,
    "\u13a0\u13ef": 1619,
    "\u2581\u13ac\u13c6": 1620,
    "\u2581\u13d7\u13d3": 1621,
    "\u2581\u13e8\u13cd\u13a9\u13c3": 1622,
    "\u2581\u13a4\u13f0\u13e4": 1623,
    "\u2581\u13a0\u13c6\u13a7\u13db": 1624,
    "\u2581\u13d3\u13e0\u13af\u13cd\u13db": 1625,
    "\u2581\u13a0\u13c1\u13d9\u13b2": 1626,
    "\u2581\u13a0\u13be\u13db": 1627,
    "\u2581\u13ed\u13b6\u13ce": 1628,
    "\u2581\u13a4\u13d3\u13c5\u13ce": 1629,
    "\u2581\u13d5\u13a6\u13b6\u13d7": 1630,
    "\u2581\u13cf\u13a9\u13bb": 1631,
    "\u2581\u13a0\u13e5\u13a6\u13d8\u13d7\u13cd\u13d7": 1632,
    "\u2581\u13a4\u13d3\u13c5": 1633,
    "\u2581\u13a4\u13cd\u13aa\u13b5": 1634,
    "\u2581\u13aa\u13ea\u13b3": 1635,
    "\u2581\u13a4\u13d5\u13b0\u13af\u13cd\u13d7": 1636,
    "\u2581\u13a2\u13f3\u13db\u13c1\u13d7": 1637,
    "\u13be\u13cf": 1638,
    "y": 1639,
    "\u2581\u13a4\u13d3\u13b5": 1640,
    "\u2581\u13a6\u13b7\u13ef\u13cd\u13d8": 1641,
    "\u2581\u13ac\u13e9\u13cd\u13d3\u13e9\u13db\u13ce\u13a2": 1642,
    "\u2581\u13a2\u13cf\u13ba\u13b5": 1643,
    "\u2581\u13a4\u13b5\u13d7\u13e8": 1644,
    "ett": 1645,
    "\u2581\u13c5\u13d3\u13f3\u13c2\u13b6\u13d2\u13af": 1646,
    "\u2581\u13d1\u13be\u13d9\u13d3\u13c6\u13cd\u13d7": 1647,
    "\u2581\u13a2\u13ef\u13c5\u13d9": 1648,
    "\u2581\u13d7\u13ac\u13d4\u13c2\u13d3\u13cd\u13d7": 1649,
    "\u2581\u13a2\u13a6\u13ea\u13cd\u13d7": 1650,
    "\u2581\u13c2\u13ac\u13e9\u13ea\u13ce\u13b8\u13a9": 1651,
    "\u2581\u13d7\u13f0\u13d9\u13b3\u13db\u13d7": 1652,
    "\u2581\u13a0\u13d6\u13b5\u13d9": 1653,
    "\u2581\u13ad\u13e9\u13e7": 1654,
    "\u2581\u13da\u13d8\u13c5\u13ce": 1655,
    "\u2581\u13a4\u13b4\u13c2\u13d9\u13b8": 1656,
    "\u2581\u13d5\u13b9\u13cd\u13a6": 1657,
    "\u2581\u13a0\u13c2\u13a8\u13be\u13c2": 1658,
    "\u2581\u13d7\u13cd\u13d3\u13d3\u13c5\u13df": 1659,
    "\u2581\u13a0\u13eb\u13d2\u13d7\u13f1": 1660,
    "\u2581\u13a6\u13c2\u13a6\u13d4": 1661,
    "\u2581\u13e3\u13d3\u13b5\u13a2": 1662,
    "\u2581\u13a0\u13c2\u13a6\u13d3\u13ad": 1663,
    "\u2581\u13cc\u13be\u13f1": 1664,
    "\u2581\u13e5\u13da\u13d9\u13a5": 1665,
    "\u2581\u13a4\u13c1\u13b5\u13e4\u13a2": 1666,
    "\u2581\u13a4\u13be\u13c1\u13b3\u13c5\u13af": 1667,
    "\u2581\u13a0\u13aa\u13d9\u13d7": 1668,
    "\u2581\u13d9\u13f1\u13e8": 1669,
    "\u2581\u13a4\u13be\u13e0\u13be\u13cd\u13d7": 1670,
    "\u2581\u13d7\u13e6\u13e2\u13d9\u13d7": 1671,
    "\u2581\u13a4\u13be\u13f0\u13af\u13cd\u13d7\u13f3": 1672,
    "\u2581\u13ce\u13bb": 1673,
    "\u2581\u13a4\u13cf\u13e9": 1674,
    "\u2581\u13a4\u13ec\u13da\u13e8": 1675,
    "\u2581\u13c1\u13b2\u13be": 1676,
    "\u2581\u13ae\u13a6": 1677,
    "\u2581\u13c2\u13a6\u13b5\u13cd\u13d3": 1678,
    "\u2581\u13f1\u13c2\u13a6\u13b5\u13cd\u13d3": 1679,
    "\u2581\u13a0\u13a9\u13f0\u13b8\u13ad": 1680,
    "\u2581\u13eb\u13d7": 1681,
    "\u2581\u13a4\u13c2\u13af\u13cd\u13d7\u13f1": 1682,
    "\u13a2\u13f3": 1683,
    "\u13e9\u13db\u13b2": 1684,
    "\u2581\u13a0\u13cd\u13aa\u13af\u13c1": 1685,
    "\u2581\u13a4\u13df\u13cd\u13d3": 1686,
    "\u2581\u13a2\u13ac\u13d3": 1687,
    "\u2581\u13a4\u13b7\u13af\u13cd\u13d7\u13f1": 1688,
    "\u2581\u13be\u13c2\u13ea\u13cd\u13ac\u13a9": 1689,
    "\u2581\u13c8\u13b3": 1690,
    "\u2581\u13a2\u13ac\u13d2": 1691,
    "\u2581\u13d7\u13c2\u13c5\u13cc\u13d7": 1692,
    "\u2581\u13a0\u13b1\u13cd\u13d5": 1693,
    "\u2581\u13a0\u13c1\u13a9": 1694,
    "\u13a8\u13f3\u13ce\u13cd\u13d7": 1695,
    "\u2581\u13a2\u13a8": 1696,
    "\u2581\u13a2\u13be": 1697,
    "\u2581\u13c4\u13be\u13db\u13c5\u13a2": 1698,
    "\u2581\u13d3\u13c1\u13e9\u13d7\u13d2\u13a2": 1699,
    "\u2581\u13d5\u13ad\u13b7\u13a8\u13a2": 1700,
    "\u13d0\u13a2": 1701,
    "\u2581\u13d9\u13a9": 1702,
    "\u2581\u13a6\u13c2": 1703,
    "\u2581\u13e3\u13c9": 1704,
    "\u2581\u13d5\u13a6\u13db": 1705,
    "\u13c3\u13ae\u13ad": 1706,
    "\u2581\u13a8\u13f4\u13a2": 1707,
    "\u13e9\u13db\u13d7": 1708,
    "\u13a5\u13cd\u13ac": 1709,
    "\u13a5\u13a2": 1710,
    "\u13d1": 1711,
    "\u13aa\u13b5\u13f0\u13cd\u13a9": 1712,
    "\u13b3\u13c5\u13af": 1713,
    "\u2581\u13a0\u13a9\u13b5\u13f2\u13a2\u13cd\u13d7": 1714,
    "\u2581\u13a0\u13d9": 1715,
    "\u2581\u13af\u13b3": 1716,
    "\u2581\u13a4\u13c2\u13c1": 1717,
    "\u2581\u13d7\u13e4": 1718,
    "\u2581\u13a4\u13c2\u13e0\u13f1": 1719,
    ",)": 1720,
    "\u13c9\u13f0\u13c3": 1721,
    "\u2581\u13d5\u13e3\u13d3": 1722,
    "\u2581\u13a4\u13be\u13d9\u13b4\u13b0\u13d2": 1723,
    "\u2581\u13a4\u13c7\u13d3\u13b8": 1724,
    "\u13a6\u13db": 1725,
    "\u2581\u13a6\u13e5\u13ef": 1726,
    "\u13a1\u13ad": 1727,
    "\u13c5\u13df": 1728,
    "\u2581\u13e7\u13be\u13d3": 1729,
    "\u2581\u13d4\u13b5\u13c1\u13a2": 1730,
    "\u13b8\u13be": 1731,
    "\u2581\u13da\u13b8\u13eb\u13cd\u13d3\u13c1\u13b8": 1732,
    "\u2581\u13ef\u13be": 1733,
    "\u13bf": 1734,
    "\u2581\u13e7\u13c5": 1735,
    "\u2581\u13a6\u13c1\u13b2": 1736,
    "\u2581\u13a4\u13f4": 1737,
    "\u13b5\u13f1": 1738,
    "\u2581\u13c1\u13b3\u13a9": 1739,
    "\u2581\u13a4\u13da\u13b5\u13cd\u13a8": 1740,
    "\u13db\u13c5": 1741,
    "\u2581\u13d5\u13e5\u13b8\u13eb\u13cd\u13d3\u13c1\u13b2": 1742,
    "\u2581\u13ed\u13f4\u13b4": 1743,
    "\u13ef\u13d6\u13c5": 1744,
    "\u2581\u13d9\u13d3\u13b8": 1745,
    "\u13b5\u13cd\u13c6\u13d7\u13cd\u13a9": 1746,
    "\u2581\u13c4\u13be\u13db\u13c5": 1747,
    "\u2581\u13a1\u13ae": 1748,
    "\u2581\u13d7\u13c1\u13b2": 1749,
    "\u13b2\u13cd\u13ac": 1750,
    "\u2581\u13c5\u13d7\u13a6\u13b5\u13cd\u13d9\u13d7": 1751,
    "\u13b1": 1752,
    "\u2581\u13a4\u13c1\u13b8": 1753,
    "\u2581\u13a4\u13db\u13c1\u13a2": 1754,
    "\u13ef\u13c5\u13db": 1755,
    "\u2581\u13a4\u13db": 1756,
    "\u2581\u13a0\u13be\u13d3\u13be\u13cf\u13c2\u13d9\u13af": 1757,
    "\u2581\u13ef\u13a6\u13d4\u13ae": 1758,
    "\u2581\u13a0\u13b5\u13f0\u13be": 1759,
    "\u2581\u13a1\u13a9": 1760,
    "\u2581\u13a6\u13e3\u13c4\u13b3": 1761,
    "\u2581\u13a0\u13e8\u13cd\u13d9\u13d7": 1762,
    "\u2581\u13e7\u13a6\u13d2\u13cd\u13d7": 1763,
    "\u2581\u13a2\u13ac\u13e9\u13b5\u13cd\u13d9\u13d7": 1764,
    "\u2581\u13a0\u13d2\u13ac": 1765,
    "\u2581\u13a2\u13e3\u13b5\u13cd\u13d9\u13d7\u13f1": 1766,
    "\u2581\u13d7\u13e5\u13f2\u13b5": 1767,
    "\u2581\u13d7\u13c2\u13cf\u13d7": 1768,
    "\u2581\u13a0\u13e4\u13b7\u13a9": 1769,
    "\u2581\u13e5\u13c4\u13ea\u13ce\u13a2": 1770,
    "\u2581\u13a0\u13c2\u13a9\u13b7\u13eb": 1771,
    "\u2581\u13e7\u13b3\u13cf\u13d5\u13c2": 1772,
    "\u2581\u13eb\u13a6\u13b7\u13a9": 1773,
    "\u2581\u13e5\u13cd\u13da": 1774,
    "\u2581\u13a4\u13be\u13b3\u13c5\u13af": 1775,
    "\u2581\u13d7\u13c2\u13f0\u13b8": 1776,
    "\u2581\u13c4\u13be\u13d3\u13b4\u13d2": 1777,
    "\u2581\u13ab\u13ab": 1778,
    "\u13b5\u13f0\u13a2\u13b6\u13af\u13cd\u13d7": 1779,
    "\u2581\u13a4\u13f2\u13b1\u13af\u13cd\u13d7\u13f1": 1780,
    "\u2581\u13a4\u13b5\u13cd\u13a8\u13db": 1781,
    "\u2581\u13cf\u13f2": 1782,
    "\u2581\u13ad\u13eb\u13c2\u13e8": 1783,
    "\u2581\u13a7\u13c3\u13ae\u13d7": 1784,
    "\u2581\u13a2\u13f3\u13cd\u13d8": 1785,
    "\u2581\u13a0\u13be\u13d3\u13c5\u13d6\u13cd\u13ac": 1786,
    "\u2581\u13da\u13be\u13d3": 1787,
    "\u2581\u13ab\u13b4": 1788,
    "\u2581\u13a4\u13c2\u13e3\u13db\u13a9": 1789,
    "\u2581\u13ed\u13c2\u13b6\u13ce\u13a2": 1790,
    "\u2581\u13d7\u13a9\u13cf": 1791,
    "\u13a6\u13d9\u13c3": 1792,
    "\u2581\u13a0\u13c6\u13da\u13b5\u13ad": 1793,
    "\u2581\u13a0\u13aa\u13e9\u13db\u13d7": 1794,
    "\u2581\u13c2\u13aa\u13af\u13b8\u13be\u13c9": 1795,
    "\u2581\u13a4\u13f2\u13e8": 1796,
    "\u2581\u13e5\u13a8\u13f3\u13a2": 1797,
    "\u2581\u13f1\u13a8\u13d0\u13a2": 1798,
    "\u2581\u13d9\u13a6": 1799,
    "\u13f4\u13eb": 1800,
    "\u2581\u13c2\u13a6\u13b5\u13cd\u13d9\u13d7": 1801,
    "\u2581\u13a8\u13b5\u13a0": 1802,
    "\u2581\u13a1\u13ae\u13cd\u13d7": 1803,
    "\u2581\u13da\u13b8\u13eb\u13cd\u13d3\u13c1\u13b8\u13a2": 1804,
    "\u13b3\u13bb": 1805,
    "\u2581\u13a0\u13c1": 1806,
    "\u2581\u13a0\u13c1\u13d9\u13b2\u13a2": 1807,
    "\u2581\u13a2\u13a6\u13e4\u13b5\u13a6": 1808,
    "\u2581\u13a1\u13d9\u13b2\u13a2": 1809,
    "\u2581\u13aa\u13a8": 1810,
    "\u2581\u13d7\u13c1\u13b2\u13a2": 1811,
    "\u2581\u13a4\u13d3\u13c5\u13c5": 1812,
    "\u2581\u13a0\u13d3\u13c1\u13d7": 1813,
    "\u2581\u13a1\u13be": 1814,
    "\u2581\u13a0\u13d7": 1815,
    "\u2581\u13d0": 1816,
    "\u2581\u13e5\u13e5": 1817,
    "\u2581\u13c2\u13d9\u13d3\u13f3": 1818,
    "\u2581\u13c2\u13aa\u13af\u13b8\u13be": 1819,
    "\u2581\u13a4\u13c2\u13b7\u13e4\u13a2": 1820,
    "\u2581\u13c2\u13e5\u13a5\u13a2": 1821,
    "\u13a6\u13d7\u13d3": 1822,
    "\u2581\u13cd\u13a9\u13ef": 1823,
    "\u2581\u13a0\u13c2\u13d0": 1824,
    "\u2581\u13a0\u13cb\u13d2\u13c9": 1825,
    "\u2581\u13e3\u13da": 1826,
    "\u2581\u13cc": 1827,
    "\u2581\u13f4\u13ac": 1828,
    "\u2581\u13e4\u13e3": 1829,
    ";]": 1830,
    "\u13e7\u13c8\u13cd\u13d7": 1831,
    "\u13b2\u13cd\u13a8\u13cd\u13d7": 1832,
    "\u2581\u13aa\u13af\u13cd\u13a9\u13c2": 1833,
    "\u13e2\u13d9\u13d7": 1834,
    "\u13d9\u13b4\u13b0\u13af\u13cd\u13d7": 1835,
    "\u13b3\u13d7": 1836,
    "\u2581\u13d5\u13ac\u13e9": 1837,
    "\u13c2\u13b8": 1838,
    "\u2581\u13da\u13ea": 1839,
    "\u13b9": 1840,
    "\u2581\u13e7\u13be\u13c4\u13ec": 1841,
    "\u2581\u13ce": 1842,
    "\u2581\u13ce\u13b3": 1843,
    "\u13a6\u13b6\u13c1\u13db": 1844,
    "\u2581\u13a0\u13c6\u13db\u13a6\u13c5": 1845,
    "\u2581\u13a1\u13b3\u13ea": 1846,
    "\u2581\u13d3\u13eb\u13d2": 1847,
    "\u13b5\u13cd\u13a6\u13cd\u13d9\u13db": 1848,
    "\u2581\u13a2\u13f3\u13ea": 1849,
    "\u2581\u13ed\u13c2\u13b7\u13e8": 1850,
    "\u13e9\u13ac\u13d8": 1851,
    "\u2581\u13da\u13c1\u13b4": 1852,
    "\u2581\u13c4\u13db\u13c5": 1853,
    "\u2581\u13a1\u13dd\u13ea": 1854,
    "\u2581\u13d7\u13a7\u13c3\u13a9\u13cd\u13d7": 1855,
    "\u2581\u13a4\u13d3\u13c5\u13db": 1856,
    "\u2581\u13a0\u13db\u13aa\u13d7": 1857,
    "\u2581\u13a0\u13d7\u13c6\u13b8\u13d5\u13f2": 1858,
    "\u2581\u13ac\u13cd\u13a6\u13a2\u13cd\u13d3\u13a9": 1859,
    "\u2581\u13c2\u13a6\u13c5\u13af\u13ce\u13cd\u13d7": 1860,
    "\u2581\u13a0\u13c2\u13cc\u13da\u13cf": 1861,
    "\u2581\u13c4\u13dc\u13cf\u13db\u13d2\u13be": 1862,
    "\u2581\u13cc\u13ef\u13c2": 1863,
    "\u2581\u13a4\u13b5\u13aa\u13b2\u13cd\u13d7": 1864,
    "\u2581\u13d7\u13c1\u13b6\u13d9\u13d7": 1865,
    "\u2581\u13e7\u13c3\u13d1\u13b6\u13e8\u13af": 1866,
    "\u2581\u13e5\u13d4\u13a6": 1867,
    "\u2581\u13a4\u13b6\u13d2\u13cd\u13d4\u13c5\u13af": 1868,
    "\u2581\u13e7\u13be\u13e6\u13af\u13cd\u13d7": 1869,
    "\u2581\u13a2\u13e8\u13d4\u13f2\u13ce\u13ad": 1870,
    "\u2581\u13e7\u13be\u13b3\u13cf\u13d5\u13c2": 1871,
    "\u2581\u13b3\u13cf\u13b3": 1872,
    "\u2581\u13a2\u13f3\u13d3\u13a8\u13db": 1873,
    "\u2581\u13a2\u13e3\u13d3\u13d9\u13b5\u13cd\u13d7\u13cd\u13a8\u13cd\u13d7": 1874,
    "\u2581\u13be\u13db\u13c1\u13ae\u13cd\u13d7": 1875,
    "\u2581\u13a2\u13a9\u13cd\u13d5\u13b5\u13cd\u13a9": 1876,
    "\u2581\u13a4\u13da\u13eb\u13db": 1877,
    "\u2581\u13eb\u13c2\u13a6\u13b5\u13cd\u13d3": 1878,
    "\u2581\u13eb\u13c4\u13d2\u13b8": 1879,
    "\u2581\u13a3\u13a6\u13c1\u13b3\u13c5\u13af": 1880,
    "\u2581\u13a3\u13cc\u13c2": 1881,
    "\u2581\u13a4\u13f4\u13e3": 1882,
    "\u2581\u13a4\u13be\u13b4\u13c5\u13ae": 1883,
    "\u2581\u13a6\u13f0\u13cc\u13d7": 1884,
    "\u2581\u13e4\u13c8": 1885,
    "\u2581\u13a0\u13a6\u13d8\u13ef": 1886,
    "\u2581\u13a0\u13c2\u13a6\u13d4\u13bf\u13a2": 1887,
    "\u2581\u13ac\u13aa\u13e9\u13db\u13d7": 1888,
    "\u2581\u13d7\u13ef\u13d6\u13be": 1889,
    "\u2581\u13a0\u13b5\u13ae\u13b5\u13cd\u13d7": 1890,
    "\u2581\u13a2\u13a6\u13ea\u13db": 1891,
    "\u2581\u13a4\u13b5\u13d1\u13eb\u13d3": 1892,
    "\u2581\u13a4\u13a6\u13c3\u13e9": 1893,
    "\u2581\u13e7\u13be\u13d3\u13b5\u13a2": 1894,
    "\u13db\u13f3\u13a8\u13d7": 1895,
    "\u2581\u13a2\u13f3\u13c5\u13c1\u13d7\u13f1": 1896,
    "\u2581\u13a2\u13be\u13d3": 1897,
    "\u13ad\u13d7": 1898,
    "\u2581\u13aa\u13a8\u13f1": 1899,
    "\u2581\u13a4\u13ec\u13e2\u13c5\u13af": 1900,
    "\u2581\u13a4\u13b4\u13eb\u13cd\u13d4\u13c5": 1901,
    "\u13d4\u13f2\u13ce\u13b4": 1902,
    "\u2581\u13a0\u13d3\u13c5\u13d6\u13d7": 1903,
    "\u2581\u13e3\u13c1\u13ae\u13a2": 1904,
    "\u2581\u13a2\u13cd\u13d7": 1905,
    "\u2581\u13e7\u13b8\u13eb\u13cd\u13d3\u13c1\u13d7\u13f1": 1906,
    "\u2581\u13d7\u13a6\u13b5\u13a0\u13c5\u13af\u13db": 1907,
    "\u2581\u13c4\u13be\u13db\u13c1\u13b8\u13a9": 1908,
    "\u2581\u13da\u13f3\u13aa\u13d7": 1909,
    "\u2581\u13a4\u13be\u13c4\u13aa\u13eb\u13ce\u13a2": 1910,
    "\u2581\u13a0\u13e5\u13b8\u13a0\u13c1\u13b6\u13af": 1911,
    "\u2581\u13a4\u13d4\u13b7\u13a9\u13cd\u13a9": 1912,
    "\u2581\u13ac\u13e9\u13db\u13db\u13c1": 1913,
    "\u2581\u13ed\u13b6\u13d2\u13a9": 1914,
    "\u2581\u13a0\u13a6\u13d4\u13ad": 1915,
    "\u2581\u13a4\u13b5\u13cd\u13a8": 1916,
    "\u2581\u13e7\u13b5\u13a2": 1917,
    "\u2581\u13be\u13a5\u13c2\u13f3": 1918,
    "\u2581\u13a0\u13d3\u13f0\u13cd": 1919,
    "\u2581\u13d3\u13e0\u13af\u13cd\u13db\u13a2": 1920,
    "\u2581\u13d5\u13a8\u13cc\u13d7\u13d2\u13a2": 1921,
    "\u2581\u13da\u13b8\u13eb\u13cd\u13d3\u13c1\u13b2": 1922,
    "\u2581\u13a4\u13c2\u13b5": 1923,
    "\u2581\u13ad\u13d3\u13c5\u13d6\u13cd\u13ac": 1924,
    "\u2581\u13cd\u13aa\u13af": 1925,
    "\u13cc\u13d8": 1926,
    "\u13d7\u13cd\u13a8": 1927,
    "\u2581\u13a4\u13c1\u13e4\u13b8\u13a9": 1928,
    "\u2581\u13a7\u13c1\u13a2\u13cd\u13d7": 1929,
    "an": 1930,
    "\u2581\u13d1\u13d3\u13b5\u13c1": 1931,
    "\u2581\u13a4\u13e3\u13db": 1932,
    "\u2581\u13f3\u13c2": 1933,
    "\u2581\u13d9\u13f3": 1934,
    "\u13a6\u13d8\u13cd\u13d9\u13d7": 1935,
    "\u2581\u13d7\u13a8\u13e5": 1936,
    "\u2581\u13e5\u13ef": 1937,
    "\u2581\u13ac\u13d7\u13cd\u13ac\u13a2": 1938,
    "\u13b5\u13cf": 1939,
    "\u13c3\u13af\u13ce\u13b8": 1940,
    "\u2581\u13d7\u13e3\u13d3": 1941,
    "\u2581\u13a4\u13b4\u13c5": 1942,
    "\u2581\u13a0\u13f0\u13b8\u13d7": 1943,
    "\u2581\u13f3\u13e9": 1944,
    "\u2581\u13da\u13c5": 1945,
    "\u13b5\u13cd\u13d4\u13c5": 1946,
    "\u2581\u13a3\u13e3": 1947,
    "\u2581\u13a4\u13f0\u13b8\u13db\u13a2": 1948,
    "\u13cd\u13d4\u13c5\u13a9": 1949,
    "\u13e3\u13d8": 1950,
    ".]": 1951,
    "\u2581\u13a4\u13f2\u13c9": 1952,
    "\u2581\u13a4\u13d5": 1953,
    "\u13c1\u13e5": 1954,
    "\u2581\u13e4\u13a9": 1955,
    "\u13ab": 1956,
    "\u2581\u13aa\u13af\u13db": 1957,
    "\u2581\u13a0\u13d3\u13c5\u13d9\u13cd\u13a9\u13c2": 1958,
    "\u2581\u13a4\u13ec": 1959,
    "\u13af\u13ad": 1960,
    "\u13df\u13cd\u13d7": 1961,
    "\u2581\u13af\u13a6\u13d4\u13ad": 1962,
    "\u2581\u13cd\u13a9\u13c3": 1963,
    "\u2581---": 1964,
    "\u2581\u13ec": 1965,
    "\u2581\u13f1\u13a8": 1966,
    "\u13c2\u13d7\u13f3": 1967,
    "\u2581\u13d9\u13d3\u13a6": 1968,
    "\u2581\u13a4\u13ab\u13f4\u13d7": 1969,
    "\u2581\u13a2\u13c5\u13af": 1970,
    "\u2581\u13d1\u13be\u13b4\u13c3": 1971,
    "\u2581\u13e9\u13c1": 1972,
    "\u2581\u13e5\u13c5\u13cf\u13d3\u13cd\u13d7": 1973,
    "\u2581\u13c4\u13cd\u13db\u13be": 1974,
    "\u2581\u13e7\u13b5": 1975,
    "\u2581\u13a4\u13aa": 1976,
    "\u2581\u13db\u13be": 1977,
    "\u2581\u13d7\u13ac\u13e9\u13c2": 1978,
    "\u2581\u13e2": 1979,
    "\u13c1\u13b2\u13a2": 1980,
    "\u2581\u13a0\u13c1\u13d9\u13ae": 1981,
    "\u2581\u13d3\u13c5\u13c5": 1982,
    "\u2581\u13d5\u13a8\u13f4": 1983,
    "\u13aa\u13e9\u13db\u13d7": 1984,
    "\u2581\u13da\u13be\u13d3\u13e1\u13e9\u13d7\u13d2": 1985,
    "\u2581\u13be\u13d1\u13f4": 1986,
    "\u2581\u13af\u13c6": 1987,
    "\u2581\u13c5\u13c3": 1988,
    "\u2581\u13a4\u13c4\u13aa\u13e8": 1989,
    "\u2581\u13da\u13aa\u13b2": 1990,
    "\u2581\u13a6\u13c5\u13ac": 1991,
    "\u2581\u13a4\u13ea\u13d9\u13b8": 1992,
    "\u2581\u13e5\u13ac": 1993,
    "\u2581\u13a4\u13ea\u13c5\u13cd\u13d7": 1994,
    "\u2581\u13a0\u13d2\u13a8": 1995,
    "\u2581\u13a0\u13a9\u13be\u13eb": 1996,
    "\u2581\u13a4\u13f2\u13b1\u13af\u13cd\u13d7": 1997,
    "\u13c4\u13ae\u13db": 1998,
    "\u2581\u13c5\u13ec\u13d8": 1999,
    "\u2581\u13d1\u13d3\u13b4\u13a9": 2000,
    "\u2581\u13a6\u13c3\u13cd\u13a9\u13cd\u13a9": 2001,
    "\u2581\u13c0\u13be": 2002,
    "\u2581\u13cd\u13cf\u13c9\u13ef": 2003,
    "\u2581\u13d7\u13c2\u13a8\u13eb": 2004,
    "\u2581\u13d7\u13a6\u13d9\u13cc\u13d7\u13cd\u13d7\u13f1": 2005,
    "\u2581\u13cc\u13d9\u13c2": 2006,
    "\u2581\u13e7\u13be\u13e6\u13f4\u13cd\u13d7": 2007,
    "\u2581\u13ae\u13b3\u13c2": 2008,
    "\u2581\u13d7\u13aa\u13d2\u13d4\u13c5": 2009,
    "\u2581\u13be\u13a6\u13a5": 2010,
    "\u2581\u13a8\u13e3\u13cd\u13a6\u13a9": 2011,
    "\u2581\u13a0\u13c9\u13f0\u13c2": 2012,
    "\u2581\u13a6\u13da\u13a2\u13d7\u13e2": 2013,
    "\u2581\u13c7\u13cd\u13d3": 2014,
    "\u2581\u13d7\u13c2\u13b0\u13b5": 2015,
    "\u2581\u13cd\u13d7\u13eb": 2016,
    "\u2581\u13cc\u13ca": 2017,
    "\u2581\u13da\u13d1\u13ac": 2018,
    "\u2581\u13a4\u13a7\u13f2\u13db\u13af": 2019,
    "\u2581\u13c1\u13c2\u13cf": 2020,
    "\u2581\u13a8\u13a6\u13d1\u13f0\u13db": 2021,
    "\u2581\u13a0\u13c2\u13a6\u13d4\u13be\u13a2": 2022,
    "\u2581\u13da\u13a6\u13d2\u13cd\u13db": 2023,
    "\u2581\u13d7\u13cd\u13c6\u13be\u13b3\u13d7\u13cd\u13d7": 2024,
    "\u2581\u13c4\u13cd\u13d7\u13d3\u13c5": 2025,
    "\u2581\u13d7\u13b3\u13d1\u13b6": 2026,
    "\u2581\u13a2\u13f3\u13d3\u13c5\u13af\u13d3": 2027,
    "\u2581\u13a0\u13c7": 2028,
    "\u2581\u13ac\u13a9\u13cd\u13a6\u13a9": 2029,
    "\u2581\u13a3\u13e5\u13a6\u13d4\u13ad": 2030,
    "\u2581\u13a4\u13d5\u13b6\u13b0\u13ce": 2031,
    "\u2581\u13e9\u13db\u13ac\u13a6": 2032,
    "\u2581\u13a2\u13e5\u13ef\u13eb\u13cd\u13a8\u13cd\u13d7": 2033,
    "\u2581\u13a3\u13ad\u13c2": 2034,
    "\u2581\u13a0\u13c2\u13a9\u13cf\u13d9\u13af": 2035,
    "\u2581\u13a8\u13c6\u13c2": 2036,
    "\u13aa\u13e3\u13b4\u13db": 2037,
    "\u2581\u13a0\u13c2\u13a6\u13d4\u13af": 2038,
    "\u2581\u13d7\u13e5\u13b6\u13cd\u13d4\u13c5": 2039,
    "\u2581\u13a4\u13d3\u13c5\u13d6\u13b8": 2040,
    "\u2581\u13a2\u13e5\u13c5\u13df": 2041,
    "\u2581\u13a0\u13cd\u13a6\u13f0\u13ac\u13cd\u13d4": 2042,
    "\u2581\u13e5\u13ae\u13be": 2043,
    "\u2581\u13eb\u13b6\u13af": 2044,
    "\u2581\u13a4\u13d9\u13b4\u13b0\u13ce": 2045,
    "\u2581\u13a4\u13e4": 2046,
    "\u2581\u13a4\u13ea\u13b7\u13c5\u13a9": 2047,
    "\u2581\u13c4\u13d5\u13d8\u13f4\u13ae\u13a2": 2048,
    "\u2581\u13d3\u13f3\u13b6\u13d2": 2049,
    "\u2581\u13c2\u13a6\u13da": 2050,
    "\u2581\u13da\u13a7\u13be\u13c1": 2051,
    "\u2581\u13a4\u13db\u13d0\u13c5\u13af": 2052,
    "\u2581\u13a4\u13c1\u13b7\u13c1\u13a2": 2053,
    "\u2581\u13a2\u13e5\u13cd\u13a6\u13c5\u13e8\u13a2": 2054,
    "\u2581\u13aa\u13e2\u13c5\u13af": 2055,
    "\u2581\u13a4\u13b5\u13cd\u13d5\u13b8\u13d9\u13d7": 2056,
    "\u2581\u13a4\u13d3\u13c5\u13d2\u13a9": 2057,
    "\u2581\u13ef\u13c2": 2058,
    "\u2581\u13a0\u13e7\u13cf": 2059,
    "\u13a0\u13ce\u13c3": 2060,
    "\u2581\u13d5\u13a6\u13b6\u13d7\u13af": 2061,
    "\u2581\u13a0\u13a9\u13aa\u13b2\u13a9": 2062,
    "\u2581\u13a4\u13d3\u13d4\u13c5\u13af": 2063,
    "\u2581\u13d3\u13d3": 2064,
    "\u2581\u13d3\u13a7\u13c5\u13a2": 2065,
    "\u2581\u13ac\u13e9\u13b7\u13e4\u13b8\u13a9": 2066,
    "\u2581\u13aa\u13e2\u13d2\u13a2": 2067,
    "\u2581\u13a1\u13b3\u13d7\u13e3": 2068,
    "\u2581\u13a2\u13e7\u13e9\u13c1": 2069,
    "\u2581\u13a4\u13c4\u13aa\u13e4": 2070,
    "\u13d7\u13cd\u13aa\u13a2": 2071,
    "\u2581\u13a1\u13d9\u13af": 2072,
    "\u2581\u13a0\u13e5\u13b8\u13a8\u13b6\u13af": 2073,
    "\u2581\u13d3\u13ac\u13be": 2074,
    "\u2581\u13a0\u13c1\u13b3": 2075,
    "\u13b6\u13a2": 2076,
    "\u2581\u13a8\u13be\u13c2\u13f1": 2077,
    "\u2581\u13da\u13be\u13d3\u13e1\u13e9\u13d7\u13d2\u13a2": 2078,
    "\u13ee": 2079,
    "\u2581\u13a4\u13c2\u13cd\u13a6\u13c5\u13e8\u13af": 2080,
    "\u13cc\u13c2": 2081,
    "\u2581\u13a4\u13be\u13d3\u13d1\u13f4": 2082,
    "\u2581\u13aa\u13e3\u13b4\u13db": 2083,
    "\u2581\u13ae\u13d7": 2084,
    "\u2581\u13a4\u13cd\u13d8\u13f0\u13ac": 2085,
    "\u2581\u13e5\u13aa\u13a8": 2086,
    "\u2581\u13a4\u13c1\u13b3\u13c5\u13af\u13f1": 2087,
    "\u2581\u13e3\u13c2\u13c3": 2088,
    "\u13d6\u13b8\u13d7": 2089,
    "\u13d9\u13d3": 2090,
    "\u13bf\u13a8": 2091,
    "\u2581\u13da\u13c2\u13b8\u13eb\u13cd\u13d3\u13c1\u13b2\u13a2": 2092,
    "\u2581\u13a0\u13d4\u13b4\u13d2\u13a2": 2093,
    "\u13d3\u13e5": 2094,
    "\u13b8\u13d7": 2095,
    "\u2581\u13c2\u13a6\u13ea\u13cd\u13ac\u13a9": 2096,
    "\u13b5\u13d3\u13cd\u13d7": 2097,
    "\u13d5\u13a9": 2098,
    "\u2581\u13f1\u13a6\u13a9": 2099,
    "\u2581\u13a4\u13aa\u13ae\u13a2": 2100,
    "\u2581\u13e1\u13ac\u13a2": 2101,
    "\u2581\u13a4\u13b4": 2102,
    "\u2581\u13a4\u13e3": 2103,
    "\u2581\u13d9\u13d7": 2104,
    "\u2581\u13a0\u13cd\u13a6": 2105,
    "\u2581\u13a4\u13f2\u13b1\u13d2\u13a2": 2106,
    "\u2581\u13a1\u13b3": 2107,
    "\u2581\u13d3\u13f0": 2108,
    "\u2581\u13bb": 2109,
    ";)": 2110,
    "\u13f4\u13d3": 2111,
    "\u13b5\u13cd\u13aa\u13b8\u13d3\u13c1\u13b8\u13af": 2112,
    "\u2581\u13a0\u13c2\u13c2": 2113,
    "\u2581\u13e5\u13d3\u13c2": 2114,
    "\u2581\u13a4\u13e9\u13db\u13d7": 2115,
    "\u13da\u13a6": 2116,
    "\u2581\u13e5\u13f4": 2117,
    "\u13b4\u13ad": 2118,
    "\u13e3\u13d3": 2119,
    "\u13b7\u13e5\u13cf": 2120,
    "\u13d6\u13cd\u13d7": 2121,
    "\u2581\u13a4\u13c4\u13ec": 2122,
    "\u2581\u13a4\u13c2\u13c1\u13e8": 2123,
    "\u13a5\u13be": 2124,
    "\u2581\u13a6\u13be": 2125,
    "\u13d3\u13d1\u13ef": 2126,
    "\u13c5\u13ce": 2127,
    "\u13d3\u13c2\u13b8\u13e8\u13af": 2128,
    "\u2581\u13a2\u13cd": 2129,
    "\u13d7\u13e3": 2130,
    "\u2581\u13f1\u13ac\u13e9": 2131,
    "\u2581\u13a4\u13e6": 2132,
    "\u2581\u13a6\u13c1": 2133,
    "\u2581\u13cf\u13bb\u13ef\u13c2": 2134,
    "\u2581\u13aa\u13af\u13f3\u13d7\u13cd\u13a9": 2135,
    "\u13e4\u13b5": 2136,
    "\u13ce\u13b8": 2137,
    "\u2581\u13a0\u13af\u13d7": 2138,
    "\u13c1\u13b6\u13d7": 2139,
    "\u2581\u13a3\u13a6\u13e4\u13b5": 2140,
    "\u2581\u13a6\u13db": 2141,
    "\u2581\u13c2\u13ac\u13c1": 2142,
    "\u13d2\u13c5": 2143,
    "\u2581\u13a7\u13c3\u13ae\u13cd\u13ac": 2144,
    "\u2581\u13c4\u13be\u13db\u13c1\u13b8": 2145,
    "\u2581\u13a0\u13cd\u13d3": 2146,
    "\u2581\u13a0\u13c5\u13d7\u13cd\u13ac": 2147,
    "\u2581\u13a4\u13dc\u13c5\u13db": 2148,
    "\u2581\u13a4\u13bf\u13e5": 2149,
    "\u2581\u13eb\u13da\u13ef\u13c5\u13ae": 2150,
    "\u2581\u13aa\u13f1\u13c1": 2151,
    "\u2581\u13a0\u13e8\u13ef": 2152,
    "\u2581\u13a0\u13c2\u13c1\u13ac": 2153,
    "\u2581\u13a4\u13be\u13da\u13b5\u13cd\u13ac": 2154,
    "\u2581\u13a4\u13c2\u13a9\u13ce": 2155,
    "\u13a5\u13af\u13cd\u13d7": 2156,
    "\u2581\u13da\u13b8\u13cc\u13db": 2157,
    "\u2581\u13a0\u13c7\u13b5\u13d2": 2158,
    "\u2581\u13c2\u13da\u13e9\u13c1\u13b8": 2159,
    "\u2581\u13a4\u13ea\u13c5\u13d2": 2160,
    "\u13ac\u13ad\u13b7\u13f4": 2161,
    "\u2581\u13e5\u13c1\u13ac": 2162,
    "\u13b8\u13cc\u13db": 2163,
    "\u2581\u13a0\u13f4\u13eb\u13ef": 2164,
    "\u2581\u13a2\u13e8\u13ef": 2165,
    "\u2581\u13f1\u13e5\u13a6\u13d4": 2166,
    "\u13b6\u13d2": 2167,
    "\u2581\u13eb\u13ac": 2168,
    "\u2581\u13a2\u13ef\u13c6\u13db\u13c1\u13d7": 2169,
    "\u2581\u13c2\u13e8\u13c1\u13b8": 2170,
    "\u2581\u13a4\u13c1\u13d3\u13cd\u13d7": 2171,
    "\u2581\u13d7\u13a6\u13aa\u13d7": 2172,
    "\u2581\u13a0\u13c1\u13b5\u13cd\u13a8": 2173,
    "\u2581\u13a1\u13b3\u13c2\u13ac": 2174,
    "\u2581\u13a4\u13e9\u13db\u13b2": 2175,
    "\u2581\u13a4\u13b5\u13ec\u13e8": 2176,
    "\u2581\u13a0\u13c2\u13e9\u13e5\u13c2": 2177,
    "\u2581\u13a6\u13b3\u13b1\u13c2": 2178,
    "\u2581\u13d5\u13a6\u13b3\u13eb\u13a5": 2179,
    "\u2581\u13e7\u13d3\u13bf\u13e9\u13db": 2180,
    "\u2581\u13a2\u13c6\u13b6\u13c2": 2181,
    "\u2581\u13be\u13aa\u13d4\u13c5\u13be": 2182,
    "\u2581\u13da\u13be\u13a7\u13db": 2183,
    "\u2581\u13d7\u13c2\u13ec\u13c2\u13cd\u13a9": 2184,
    "\u2581\u13e3\u13d4\u13a6": 2185,
    "\u2581\u13a4\u13d9\u13b4\u13b0\u13af\u13cd\u13d7\u13f1": 2186,
    "\u2581\u13da\u13c3\u13e2\u13d4\u13c5\u13a9": 2187,
    "\u2581\u13a2\u13d5\u13af": 2188,
    "\u2581\u13c4\u13d3\u13b5\u13d3\u13cd\u13db\u13be": 2189,
    "\u2581\u13d7\u13a8\u13e5\u13a4\u13cd\u13d5\u13ce\u13b8\u13af": 2190,
    "\u2581\u13c5\u13d3\u13a6\u13b5\u13cd\u13d9\u13d3": 2191,
    "\u2581\u13d7\u13c2\u13cd\u13aa\u13b5": 2192,
    "\u2581\u13c2\u13a6\u13b5\u13cd\u13d4\u13c2\u13d9\u13b2": 2193,
    "\u2581\u13a6\u13c2\u13d3\u13db": 2194,
    "\u2581\u13cd\u13aa\u13ef": 2195,
    "\u2581\u13e7\u13c6\u13b6\u13ac": 2196,
    "\u2581\u13c2\u13e3\u13db\u13c1\u13ae\u13cd\u13d7": 2197,
    "\u2581\u13be\u13b5\u13cd\u13c6\u13d7\u13cd\u13ac\u13be": 2198,
    "\u2581\u13a2\u13e5\u13f0\u13b8\u13ce\u13cd\u13d7": 2199,
    "\u2581\u13a2\u13e3\u13c5\u13d6\u13cd\u13d7": 2200,
    "\u2581\u13a4\u13ec\u13d1\u13b6\u13e8\u13af": 2201,
    "\u2581\u13a5\u13a9\u13c5\u13cf\u13db": 2202,
    "\u2581\u13a0\u13c2\u13c3\u13cd\u13a9\u13cd\u13a9": 2203,
    "\u2581\u13d7\u13d3\u13ec\u13cd\u13a9": 2204,
    "\u2581\u13d3\u13ac\u13e9": 2205,
    "\u2581\u13a2\u13f3\u13d5\u13d8\u13f4\u13d3": 2206,
    "\u2581\u13a2\u13e7\u13b3\u13d7\u13e2": 2207,
    "\u2581\u13af\u13cd\u13a6\u13ef": 2208,
    "\u2581\u13a2\u13e5\u13a6\u13d4\u13ae\u13cd\u13d7": 2209,
    "\u2581\u13a1\u13c2\u13d7": 2210,
    "\u2581\u13c2\u13da\u13be\u13d3\u13ea\u13ce\u13b4\u13a2": 2211,
    "\u2581\u13a0\u13cc\u13c5\u13d9\u13d7": 2212,
    "\u2581\u13d7\u13d1\u13e2\u13db": 2213,
    "\u2581\u13a3\u13c2\u13d7\u13e2": 2214,
    "\u2581\u13c5\u13d3\u13a6\u13b5\u13cd\u13d9\u13d4\u13c2": 2215,
    "\u2581\u13a0\u13b5\u13e5\u13d9\u13b2\u13cd\u13a9": 2216,
    "\u2581\u13a2\u13ef\u13cd\u13d8": 2217,
    "\u2581\u13a1\u13c8\u13b5": 2218,
    "\u2581\u13a2\u13e5\u13a6\u13d9\u13a5\u13af\u13cd\u13d7\u13f1": 2219,
    "\u2581\u13e7\u13be\u13b5\u13c2\u13a9\u13db": 2220,
    "\u2581\u13a0\u13a6\u13ef\u13b7\u13d7": 2221,
    "\u2581\u13a0\u13e5\u13a4\u13cd\u13d5\u13ce\u13b8\u13af": 2222,
    "\u2581\u13aa\u13af\u13f3\u13b2\u13cd\u13a9": 2223,
    "\u2581\u13c2\u13ac\u13ea\u13ce\u13ad": 2224,
    "\u2581\u13e3\u13d3\u13c5\u13d9": 2225,
    "\u2581\u13e7\u13cd\u13aa\u13b5": 2226,
    "\u2581\u13a6\u13be\u13cd\u13d3": 2227,
    "\u2581\u13c2\u13a6\u13b5\u13cd\u13d4\u13c5\u13ad": 2228,
    "\u2581\u13c5\u13e7\u13b5\u13cd\u13d9\u13d4\u13c5": 2229,
    "\u2581\u13cd\u13a9\u13d9\u13b5\u13a9": 2230,
    "\u2581\u13a4\u13d5\u13b5\u13d2": 2231,
    "\u2581\u13a2\u13f3\u13b5\u13cd\u13d4\u13c5\u13af": 2232,
    "\u2581\u13a4\u13b5\u13cd\u13d7\u13f3": 2233,
    "\u2581\u13e7\u13c2\u13b3\u13eb\u13a2\u13cd\u13d7\u13f1": 2234,
    "\u2581\u13a2\u13d5\u13be": 2235,
    "\u2581\u13d3\u13d3\u13cf": 2236,
    "\u2581\u13a0\u13a6\u13d4\u13bf\u13a2": 2237,
    "\u2581\u13da\u13e0\u13f1\u13b4\u13a2": 2238,
    "\u2581\u13a0\u13c6\u13b5\u13cf": 2239,
    "\u2581\u13a4\u13cd\u13c6\u13db": 2240,
    "\u2581\u13a2\u13ef\u13c6\u13db\u13c1\u13d7\u13f1": 2241,
    "\u2581\u13a2\u13d3\u13b5": 2242,
    "\u2581\u13b9\u13d7": 2243,
    "\u2581\u13a4\u13ea\u13d7\u13f1": 2244,
    "\u2581\u13a8\u13a5\u13a2": 2245,
    "\u2581\u13a4\u13df\u13c2\u13a9\u13d3": 2246,
    "\u13b7\u13e4\u13d7\u13f1": 2247,
    "\u2581\u13a4\u13c2\u13a9\u13d2\u13a9": 2248,
    "\u2581\u13d8\u13b5": 2249,
    "\u2581\u13a1\u13d8\u13f4": 2250,
    "\u2581\u13a4\u13be\u13db\u13c1\u13a2": 2251,
    "\u2581\u13a4\u13e9\u13c5": 2252,
    "\u2581\u13b9\u13a9": 2253,
    "\u2581\u13c2\u13da\u13e9\u13c1\u13b8\u13a9": 2254,
    "\u2581\u13c4\u13be\u13cd\u13d7": 2255,
    "\u2581\u13e7\u13c2\u13be\u13eb\u13f1": 2256,
    "\u2581\u13eb\u13da\u13c2": 2257,
    "\u2581\u13e7\u13d3\u13c5\u13db\u13a2": 2258,
    "\u2581\u13ac\u13e9\u13aa\u13b2": 2259,
    "\u2581\u13ed\u13c2\u13b7\u13e4\u13a2": 2260,
    "\u2581\u13a8\u13d9\u13b2": 2261,
    "\u2581\u13a8\u13c2\u13d7": 2262,
    "\u2581\u13c2\u13d9": 2263,
    "\u13e2\u13d7": 2264,
    "\u13c3\u13c1\u13b8\u13a9": 2265,
    "\u13d3\u13e1\u13ac": 2266,
    "\u2581\u13a0\u13c6\u13b5": 2267,
    "\u2581\u13c2\u13eb": 2268,
    "\u2581\u13c8": 2269,
    "\u2581\u13ef\u13c6\u13da\u13b5": 2270,
    "\u2581\u13a4\u13e3\u13d6": 2271,
    "\u2581\u13ad\u13b5": 2272,
    "\u2581\u13f1\u13b0": 2273,
    "\u2581\u13af\u13b8\u13af": 2274,
    "\u2581\u13a6\u13db\u13ac\u13a2": 2275,
    "\u13c1\u13cd\u13a8": 2276,
    "\u13d3\u13c5": 2277,
    "\u2581\u13a4\u13aa\u13b2\u13af": 2278,
    "\u2581\u13a4\u13c1\u13a2\u13cd\u13d7": 2279,
    "\u2581\u13c4\u13db\u13c1\u13b8\u13a2": 2280,
    "\u13d9\u13a5": 2281,
    "\u2581\u13a4\u13ad\u13a8": 2282,
    "\u13a1\u13cd\u13d7": 2283,
    "\u2581\u13a8\u13d3\u13b5": 2284,
    "\u13c3\u13b2\u13cf": 2285,
    "\u2581\u13a4\u13e9\u13a8\u13eb": 2286,
    "\u13d9\u13b5\u13cd\u13d7": 2287,
    "\u13cd\u13c6\u13c2\u13aa\u13d7": 2288,
    "\u13ab\u13f4\u13d9\u13d7": 2289,
    "\u13ea\u13e8\u13af": 2290,
    "\u2581\u13a4\u13b4\u13c5\u13b2": 2291,
    "\u2581\u13e7\u13ea\u13d8": 2292,
    "\u2581\u13a4\u13ef": 2293,
    "\u2581\u13d7\u13ac\u13d9\u13d7": 2294,
    "\u13c5\u13ad": 2295,
    "\u2581\u13a0\u13a9\u13ad": 2296,
    "\u2581\u13af\u13be": 2297,
    "\u2581\u13a0\u13a6\u13db": 2298,
    "\u13e9\u13db\u13ae": 2299,
    "\u13d3\u13cf": 2300,
    "\u2581\u13d3\u13e5\u13ef": 2301,
    "\u2581\u13a4\u13d4\u13c5": 2302,
    "\u13a0\u13ef\u13d7": 2303,
    "\u13c2\u13d2": 2304,
    "\u2581\u13a4\u13d9\u13d3\u13c3": 2305,
    "\u13c5\u13cf\u13d9\u13af": 2306,
    "\u13cd\u13d5\u13cd\u13d7": 2307,
    "\u2581\u13a4\u13db\u13c5\u13a9": 2308,
    "\u2581\u13a8\u13b6\u13af": 2309,
    "\u2581\u13ed\u13c2\u13b7\u13e4": 2310,
    "\u13c1\u13b8\u13d4\u13c5": 2311,
    "\u2581\u13c4\u13d3": 2312,
    "\u2581\u13c2\u13e3\u13db\u13c5\u13a2": 2313,
    "\u13a4\u13d9\u13af\u13f3": 2314,
    "\u13e7\u13cf": 2315,
    "\u13d3\u13c1\u13b8": 2316,
    "\u13d9\u13b5": 2317,
    "\u13f4\u13ad": 2318,
    "\u13a5\u13dd": 2319,
    "\u13d3\u13c5\u13a6\u13b8\u13db": 2320,
    "\u13d0\u13c5": 2321,
    "\u2581\u13a0\u13c2\u13c1": 2322,
    "\u13a9\u13cd\u13a8\u13cd\u13d7": 2323,
    "\u2581\u13a0\u13cd\u13a6\u13c5\u13e8": 2324,
    "\u13d3\u13b6\u13c2\u13a8": 2325,
    "\u2581\u13be\u13c6\u13db\u13c1\u13b8": 2326,
    "\u13d4\u13b7\u13a9\u13cd\u13a9": 2327,
    "\u13a8\u13b3\u13cd\u13d7": 2328,
    "\u13da\u13b5": 2329,
    "\u2581\u13a0\u13a9\u13c1\u13e8": 2330,
    "\u2581\u13a0\u13d3\u13c5\u13d6\u13cd\u13a8": 2331,
    "\u2581\u13a1\u13b5\u13cd\u13a8": 2332,
    "\u2581\u13eb\u13a6\u13c5\u13c5": 2333,
    "\u2581\u13a0\u13c2\u13e8\u13ef": 2334,
    "\u2581\u13a4\u13a9\u13e8\u13c5": 2335,
    "\u2581\u13a0\u13d3\u13ef": 2336,
    "\u2581\u13a4\u13b5\u13c2\u13ac\u13ac": 2337,
    "\u2581\u13d5\u13a6\u13c5\u13c5": 2338,
    "\u2581\u13d7\u13e4\u13b2": 2339,
    "\u2581\u13a5\u13d3\u13b8": 2340,
    "\u13a2\u13f3\u13be\u13cd\u13d7": 2341,
    "\u2581\u13a4\u13c2\u13c3\u13ae\u13b8": 2342,
    "\u2581\u13e3\u13a7\u13db": 2343,
    "\u2581\u13a6\u13f0\u13cc\u13db": 2344,
    "\u2581\u13ac\u13e9\u13b7\u13e4\u13b4": 2345,
    "\u2581\u13d7\u13d3\u13c1\u13b8": 2346,
    "\u2581\u13c2\u13e3\u13db\u13c5": 2347,
    "\u13a9\u13af": 2348,
    "\u2581\u13a4\u13f0\u13b8\u13c1": 2349,
    "\u13ce\u13d7": 2350,
    "\u2581\u13a4\u13bf\u13a5": 2351,
    "\u2581\u13d7\u13e5\u13f0\u13b8": 2352,
    "\u2581\u13e5\u13d9\u13ac": 2353,
    "\u2581\u13eb\u13da\u13ef\u13c5\u13b2": 2354,
    "\u13cd\u13d7\u13cd\u13a8\u13cd\u13d7": 2355,
    "\u13c5\u13d3": 2356,
    "\u2581\u13a0\u13cd\u13da\u13b2": 2357,
    "\u2581\u13ac\u13e9\u13b7\u13e4\u13b8": 2358,
    "\u2581\u13c2\u13aa": 2359,
    "\u2581\u13a0\u13c2\u13c3\u13af\u13b5\u13d9": 2360,
    "\u2581\u13d7\u13c4\u13aa\u13d7\u13cd\u13a9": 2361,
    "\u2581\u13a2\u13ac\u13e9\u13c1\u13d7": 2362,
    "\u2581\u13a0\u13e5\u13a2\u13cd\u13d7": 2363,
    "\u2581\u13a0\u13c1\u13b5\u13cd\u13ac": 2364,
    "\u2581\u13da\u13c5\u13ce": 2365,
    "\u2581\u13f1\u13d9": 2366,
    "\u13d4\u13c5\u13a2": 2367,
    "\u2581\u13a0\u13f0\u13b2": 2368,
    "\u2581Chap": 2369,
    "\u2581\u13a1\u13a9\u13b5\u13c8": 2370,
    "\u2581\u13a2\u13d7\u13cd\u13d3\u13d3\u13b3": 2371,
    "\u2581\u13a2\u13ef\u13ac\u13c1\u13b8\u13af": 2372,
    "\u2581\u13c2\u13d3\u13aa\u13d4\u13c5\u13be": 2373,
    "\u2581\u13cc\u13ec\u13da": 2374,
    "\u2581\u13a0\u13c2\u13c8\u13b5\u13cd\u13d7": 2375,
    "\u2581\u13cc\u13f1\u13b3": 2376,
    "\u2581\u13a0\u13f0\u13b3\u13cd\u13d8": 2377,
    "\u2581\u13da\u13a7\u13d4\u13cd\u13d4\u13c1\u13a2": 2378,
    "\u2581\u13e3\u13a6\u13df\u13b6\u13cd\u13d4\u13c5\u13af": 2379,
    "\u2581\u13e5\u13cd\u13aa\u13f4": 2380,
    "\u2581\u13c5\u13d3\u13a6\u13e5\u13f4\u13c1\u13b5": 2381,
    "\u2581\u13e7\u13d3\u13d5\u13cd\u13d7\u13f1": 2382,
    "\u2581\u13ae\u13bc": 2383,
    "\u2581\u13a0\u13d7\u13d2\u13cd\u13d7": 2384,
    "\u2581\u13a4\u13f2\u13cd\u13db\u13c9": 2385,
    "\u2581\u13a0\u13d5\u13d2\u13b2\u13cd\u13a9": 2386,
    "\u2581\u13a2\u13c6\u13bb": 2387,
    "\u2581\u13d7\u13e5\u13a6\u13d9\u13b5": 2388,
    "\u2581\u13e7\u13be\u13d3\u13c5\u13d9": 2389,
    "\u2581\u13a4\u13c2\u13c1\u13ab\u13e5\u13db": 2390,
    "\u2581\u13e5\u13c2\u13e3\u13db\u13c5": 2391,
    "\u2581\u13a4\u13b3\u13a8\u13ef\u13db\u13e4\u13a2": 2392,
    "\u2581\u13a4\u13a9\u13d3\u13df\u13c5\u13ef": 2393,
    "\u2581\u13a2\u13f3\u13db\u13c1\u13b8\u13af": 2394,
    "\u2581\u13cc\u13da": 2395,
    "\u2581\u13a0\u13b9\u13f3\u13b8\u13d3": 2396,
    "\u2581\u13f1\u13e5\u13cd\u13a6\u13a2\u13ae\u13cd\u13d7": 2397,
    "\u2581\u13a0\u13a9\u13ac\u13eb\u13f3\u13af": 2398,
    "\u2581\u13e3\u13e4\u13b5\u13aa\u13af": 2399,
    "\u2581\u13cf\u13b5\u13f1": 2400,
    "\u2581\u13a4\u13cd\u13da\u13a2\u13d2": 2401,
    "\u2581\u13a6\u13ab\u13cd\u13db\u13d7": 2402,
    "\u2581\u13e4\u13d9\u13b2": 2403,
    "\u2581\u13a4\u13e3\u13d4": 2404,
    "\u2581\u13c7\u13d5\u13b5": 2405,
    "\u2581\u13ed\u13b7\u13e3": 2406,
    "\u2581\u13d7\u13a8\u13e5\u13be\u13cc\u13a2": 2407,
    "\u2581\u13a7\u13c1\u13cd\u13aa": 2408,
    "\u2581\u13a0\u13c2\u13c3\u13ae\u13cd\u13a9": 2409,
    "\u2581\u13e5\u13f2\u13ce\u13b8": 2410,
    "\u2581\u13a0\u13c9\u13b3": 2411,
    "\u2581\u13a0\u13a6\u13d4\u13be\u13a2": 2412,
    "\u2581\u13a4\u13be\u13d7\u13cd\u13a6\u13b6\u13d7": 2413,
    "\u2581\u13d3\u13ac\u13d4\u13c2": 2414,
    "\u2581\u13a3\u13a9\u13d9\u13d3": 2415,
    "\u2581\u13ac\u13e9\u13cd\u13d3\u13e9\u13db\u13d2\u13a9": 2416,
    "\u2581\u13d7\u13a6\u13c5\u13cd\u13a8\u13c2": 2417,
    "\u2581\u13ac\u13b5\u13cd\u13c6\u13d7\u13cd\u13a9": 2418,
    "\u2581\u13d7\u13ac\u13e9\u13b8\u13cc\u13db": 2419,
    "\u2581\u13d3\u13a8\u13cf": 2420,
    "\u2581\u13a2\u13f3\u13e9\u13c1\u13af": 2421,
    "\u2581\u13e5\u13e5\u13a6\u13d4\u13ad": 2422,
    "\u2581\u13a0\u13b5\u13cd\u13aa\u13b8\u13d3\u13c1\u13d7": 2423,
    "\u2581\u13da\u13c3\u13a1\u13a2": 2424,
    "\u2581\u13ef\u13a6\u13d4\u13ad": 2425,
    "\u2581\u13a0\u13c2\u13c5\u13a2": 2426,
    "\u2581\u13a0\u13c3\u13cd\u13db": 2427,
    "\u2581\u13be\u13e5\u13be\u13dd\u13a5\u13be": 2428,
    "\u2581\u13a4\u13c1\u13e2\u13d4\u13c5\u13af": 2429,
    "\u13ac\u13eb\u13f3\u13d2": 2430,
    "\u2581\u13e6\u13b3\u13c2": 2431,
    "\u2581\u13e7\u13c2\u13a6\u13f4\u13b5\u13a8": 2432,
    "\u2581\u13ed\u13b6\u13af\u13cd\u13d7\u13f1": 2433,
    "\u2581\u13f3\u13e9\u13c1\u13a6": 2434,
    "\u2581\u13a2\u13e3\u13e0\u13be\u13cd\u13d7": 2435,
    "\u2581\u13aa\u13ea\u13b3\u13c5\u13af": 2436,
    "\u2581\u13e6\u13c8": 2437,
    "\u2581\u13ac\u13c2\u13a8\u13d2\u13a2\u13f3": 2438,
    "\u2581\u13e6\u13b3": 2439,
    "\u2581\u13e5\u13c2\u13a6\u13ea\u13ad": 2440,
    "\u13a6\u13c5\u13af\u13d3": 2441,
    "\u2581\u13a0\u13e5\u13c3\u13ae\u13cd\u13ac\u13a2": 2442,
    "\u2581\u13be\u13a8": 2443,
    "\u2581\u13c2\u13a6\u13c5\u13af\u13d2\u13a9": 2444,
    "\u2581\u13e7\u13c1\u13ac": 2445,
    "\u2581\u13c2\u13da\u13cd\u13db": 2446,
    "\u13b8\u13c9\u13d7": 2447,
    "\u2581\u13a4\u13ec\u13e2\u13c5\u13a9": 2448,
    "\u2581\u13a4\u13e2\u13a9": 2449,
    "\u2581\u13a2\u13f3\u13e9": 2450,
    "\u2581\u13d5\u13cd\u13a9": 2451,
    "\u2581\u13a4\u13c5\u13cf\u13d9\u13af": 2452,
    "\u2581\u13a1\u13c9\u13d7\u13f1": 2453,
    "\u2581\u13a4\u13d3\u13c5\u13d6\u13b8\u13af": 2454,
    "\u2581\u13a4\u13d5\u13c1\u13b8\u13af": 2455,
    "\u13be\u13f0\u13cd\u13ac\u13be": 2456,
    "\u2581\u13a1\u13b3\u13d7\u13e2": 2457,
    "\u2581\u13d3\u13c2\u13c1\u13b8\u13a2": 2458,
    "\u2581\u13a0\u13a2\u13d2\u13a2": 2459,
    "\u13d1\u13f0\u13db": 2460,
    "\u2581\u13ac\u13c2\u13f3": 2461,
    "\u2581\u13a4\u13cd\u13a6\u13c5\u13e8\u13af": 2462,
    "\u13cf\u13d7\u13d2": 2463,
    "\u13a8\u13f3\u13d7": 2464,
    "\u2581\u13a6\u13c5\u13af\u13d3": 2465,
    "\u2581\u13e7\u13ec\u13da\u13af": 2466,
    "\u13f3\u13af": 2467,
    "\u2581\u13a4\u13bf\u13a5\u13a2": 2468,
    "\u2581\u13a0\u13a9\u13cd\u13d7\u13f1": 2469,
    "\u2581\u13a8\u13b3\u13cd\u13d7": 2470,
    "\u2581\u13a4\u13c4\u13e2": 2471,
    "\u13d3\u13b5": 2472,
    "\u2581\u13e4\u13c6": 2473,
    "\u2581\u13d5\u13e1\u13ac\u13a2": 2474,
    "\u13d7\u13cd\u13ac\u13a2": 2475,
    "\u2581\u13a4\u13be\u13db\u13a6\u13c5\u13af": 2476,
    "\u2581\u13a4\u13be\u13db": 2477,
    "\u2581\u13be\u13c6": 2478,
    "\u2581\u13e5\u13a8": 2479,
    "\u2581\u13d5\u13c2": 2480,
    "\u2581\u13eb\u13cd\u13a9": 2481,
    "\u13c1\u13c3": 2482,
    "\u13a1\u13b8\u13af": 2483,
    "\u2581\u13a0\u13a9\u13f0\u13b8": 2484,
    "\u2581\u13a0\u13c6\u13d3\u13c5\u13d9\u13a9": 2485,
    "\u2581\u13a6\u13d9\u13ac\u13a9": 2486,
    "\u13c4\u13aa\u13eb\u13d2\u13a9": 2487,
    "\u13d9\u13e2\u13c5": 2488,
    "\u13f0\u13af": 2489,
    "\u2581\u13be\u13db\u13c1\u13b2": 2490,
    "\u2581\u13c2\u13ac\u13c1\u13b2": 2491,
    "\u13d9\u13d3\u13c6\u13d3": 2492,
    "\u13d5\u13b6\u13b0\u13af\u13cd\u13d7": 2493,
    "\u2581\u13a4\u13c2\u13cd\u13a6\u13c5\u13e8\u13a2": 2494,
    "\u13d4\u13c5\u13be": 2495,
    "\u2581\u13a4\u13b7\u13e4\u13a2": 2496,
    "\u2581\u13da\u13a6": 2497,
    "\u2581\u13a4\u13da": 2498,
    "\u13c5\u13d7": 2499,
    "\u2581\u13c5\u13d7\u13a6\u13b5\u13cd\u13d9\u13d7\u13cd\u13ac\u13a2": 2500,
    "\u2581\u13d5\u13ac": 2501,
    "\u2581\u13a4\u13ef\u13c5": 2502,
    "\u13c2\u13d3\u13cd\u13d7\u13f1": 2503,
    "\u2581\u13a0\u13ad": 2504,
    "\u13b4\u13c5": 2505,
    "\u13d4\u13f2\u13cf": 2506,
    "\u2581\u13a0\u13d2\u13a9": 2507,
    "\u2581\u13a2\u13d2": 2508,
    "\u2581\u13ac\u13ef": 2509,
    "\u13e4\u13b8": 2510,
    "\u13e6\u13e2\u13d7": 2511,
    "\u2581\u13e6\u13af\u13f3\u13d2": 2512,
    "\u13c1\u13e4\u13b4": 2513,
    "id": 2514,
    "\u13a6\u13d9": 2515,
    "\u2581\u13d7\u13e8": 2516,
    "\u13cd\u13d4\u13c1": 2517,
    "\u2581\u13a0\u13a9\u13aa\u13b2": 2518,
    "\u2581\u13a4\u13c2\u13b2": 2519,
    "\u13d9\u13b4\u13b0\u13cf": 2520,
    "\u2581\u13ad\u13e9": 2521,
    "\u13b5\u13cf\u13f1": 2522,
    "\u2581\u13a6\u13f2\u13b5": 2523,
    "\u2581\u13e5\u13d9": 2524,
    "\u13cd\u13d4\u13c5\u13af": 2525,
    "\u13a9\u13b3": 2526,
    "\u13c9\u13d7": 2527,
    "l": 2528,
    "\u2581\u13a2\u13e5\u13f0\u13b8": 2529,
    "\u13a7\u13b5\u13a2": 2530,
    "\u13cc\u13c1": 2531,
    "\u13c2\u13a9\u13db": 2532,
    "\u2581\u13a0\u13c2\u13eb\u13be": 2533,
    "\u13f2\u13af\u13cd\u13d7": 2534,
    "\u2581\u13a0\u13f0": 2535,
    "\u13b5\u13cd\u13d4\u13c1": 2536,
    "\u13c5\u13d3\u13d3": 2537,
    "\u2581\u13a2\u13cf\u13b5\u13f1": 2538,
    "\u2581\u13eb\u13a9": 2539,
    "\u13c1\u13e4\u13d7": 2540,
    "\u13aa\u13b5\u13f0\u13d7": 2541,
    "\u2581\u13a0\u13be\u13b5": 2542,
    "\u13db\u13c2": 2543,
    "\u13c4\u13a6": 2544,
    "\u13b6\u13e8": 2545,
    "\u13a9\u13d3": 2546,
    "\u13d2\u13c3": 2547,
    "\u2581\u13e5\u13c4": 2548,
    "\u2581\u13af\u13cd\u13a9\u13c1": 2549,
    "\u2581\u13a0\u13a2\u13d2": 2550,
    "\u2581\u13a0\u13a6\u13d4": 2551,
    "\u2581\u13c7": 2552,
    "\u2581\u13c2\u13a8": 2553,
    "\u13c1\u13e4\u13b8\u13af": 2554,
    "\u2581\u13a0\u13cb": 2555,
    "\u13e5\u13f2\u13cf": 2556,
    "\u2581\u13da\u13be\u13b4\u13c1": 2557,
    "\u2581\u13af\u13a6\u13d8\u13cf": 2558,
    "\u2581\u13ad\u13bb": 2559,
    "\u13d5\u13c5": 2560,
    "\u13ac\u13bf": 2561,
    "\u13aa\u13e9\u13d8\u13ad": 2562,
    "\u13d7\u13e2": 2563,
    "\u13ec\u13c2\u13af\u13cd\u13d7": 2564,
    "\u2581\u13da\u13a7\u13bf\u13c5": 2565,
    "\u2581\u13a4\u13c2\u13e3\u13db": 2566,
    "\u2581\u13a3\u13a9\u13be": 2567,
    "\u2581\u13a0\u13d4\u13b4\u13a6\u13d2": 2568,
    "\u2581\u13be\u13a9": 2569,
    "\u2581\u13a4\u13c3\u13c1\u13b4": 2570,
    "\u2581\u13a4\u13c2\u13b7\u13e4\u13d7": 2571,
    "\u2581\u13d5\u13a6\u13da\u13e9\u13d7\u13d2": 2572,
    "\u13be\u13c4\u13aa\u13eb\u13cf": 2573,
    "\u2581\u13e7\u13e9\u13ab\u13d4\u13c5\u13d2": 2574,
    "\u2581\u13d3\u13d5\u13f2\u13b2\u13cd\u13ac": 2575,
    "\u2581\u13f1\u13a8\u13d0": 2576,
    "\u2581\u13da\u13ec\u13a1": 2577,
    "\u2581\u13a0\u13a6\u13cd\u13a6\u13c2": 2578,
    "\u2581\u13a0\u13da\u13a2\u13cd\u13db": 2579,
    "\u2581\u13a4\u13f0\u13b8\u13c5": 2580,
    "\u2581\u13a6\u13b8\u13c9": 2581,
    "\u2581\u13a0\u13d3\u13d9\u13b5\u13cd\u13d7": 2582,
    "\u2581\u13d3\u13c2\u13c1\u13b8": 2583,
    "\u13c3\u13ae\u13cd\u13ac\u13a2": 2584,
    "\u2581\u13a4\u13a6\u13d4\u13b2\u13d2": 2585,
    "\u2581\u13a3\u13b5\u13e9": 2586,
    "\u2581\u13a4\u13b7\u13e4\u13b4": 2587,
    "\u2581\u13a4\u13ec\u13da": 2588,
    "\u2581\u13e4\u13ae": 2589,
    "\u2581\u13d5\u13aa\u13ea\u13b8": 2590,
    "\u2581\u13a4\u13db\u13d0\u13c5": 2591,
    "\u13f2\u13af\u13cd\u13d4\u13c5": 2592,
    "\u2581\u13a6\u13b4\u13c2": 2593,
    "\u13ef\u13c5\u13b2": 2594,
    "\u2581\u13a6\u13c1\u13e5": 2595,
    "\u13d3\u13b4\u13c5\u13db": 2596,
    "\u2581\u13a4\u13c5\u13ce": 2597,
    "\u13b0\u13b2\u13cd\u13d7": 2598,
    "\u2581\u13a1\u13c2\u13be\u13ef": 2599,
    "\u2581\u13a2\u13cd\u13a6\u13b3\u13d7": 2600,
    "\u2581\u13a5\u13d8\u13a3\u13a9": 2601,
    "\u2581\u13a6\u13cc\u13c6\u13b8": 2602,
    "\u2581\u13d1\u13d3\u13b3\u13cd\u13aa\u13af": 2603,
    "\u2581\u13d7\u13ab\u13d3\u13b8\u13d7\u13f1": 2604,
    "\u2581\u13e4\u13a6\u13b3\u13ef": 2605,
    "\u2581\u13a1\u13b9\u13c2\u13d3": 2606,
    "\u2581\u13e7\u13ef\u13d6\u13c3\u13af": 2607,
    "\u2581\u13e7\u13d9\u13d3\u13cb\u13d3": 2608,
    "\u2581\u13ef\u13c3\u13a9\u13f3": 2609,
    "\u2581\u13a4\u13ef\u13d6\u13c3\u13af": 2610,
    "\u2581\u13eb\u13da\u13a7\u13bf\u13c1": 2611,
    "\u2581\u13d7\u13cd\u13c6\u13a8\u13c2": 2612,
    "\u2581\u13a2\u13e4\u13b3\u13d7\u13d9\u13ae\u13cd\u13d7": 2613,
    "\u2581\u13ac\u13c9\u13ce\u13b0": 2614,
    "\u2581\u13d5\u13a8\u13e5\u13f0\u13b8\u13d4\u13c5\u13a9": 2615,
    "\u2581\u13a4\u13be\u13e2\u13c9\u13d7": 2616,
    "\u2581\u13bb\u13be\u13cc": 2617,
    "\u2581\u13c2\u13e3\u13ea\u13d2": 2618,
    "\u2581\u13a2\u13f3\u13e9\u13c2\u13cc\u13c5\u13af": 2619,
    "\u2581\u13d1\u13be\u13d3\u13b4\u13a9": 2620,
    "\u2581\u13a6\u13b6\u13af\u13cd\u13d7\u13f3\u13b6\u13d7": 2621,
    "\u2581\u13a1\u13e5\u13b8\u13c9\u13d3": 2622,
    "\u2581\u13a4\u13c2\u13c3\u13ae\u13b4": 2623,
    "\u2581\u13c5\u13d3\u13f3\u13b5\u13cd\u13d9\u13d7\u13f1": 2624,
    "\u2581\u13a8\u13e3\u13cd\u13d3\u13e9\u13d7\u13d9\u13af": 2625,
    "\u2581\u13d7\u13a7\u13be\u13e9\u13db\u13cd\u13d7": 2626,
    "\u2581\u13a0\u13a6\u13b5\u13cd\u13ac": 2627,
    "\u2581\u13c4\u13b5\u13cd\u13d4\u13be": 2628,
    "\u2581\u13cd\u13a9\u13c4\u13cd\u13db": 2629,
    "\u2581\u13a2\u13f2\u13cd\u13db": 2630,
    "\u2581\u13a6\u13cc\u13be\u13b5": 2631,
    "\u2581\u13c5\u13d3\u13ac\u13c1\u13b5": 2632,
    "\u2581\u13f1\u13c5\u13a6\u13b5\u13cd\u13d3": 2633,
    "\u2581\u13aa\u13cc\u13c2": 2634,
    "\u2581\u13a2\u13f3\u13e9\u13c2\u13b8": 2635,
    "\u2581\u13a0\u13c2\u13c8\u13b7": 2636,
    "\u2581\u13a4\u13b5\u13cd\u13d4\u13f4\u13d7": 2637,
    "\u2581\u13a4\u13f0\u13b8\u13ae": 2638,
    "\u2581\u13d1\u13d5\u13d8\u13f4\u13db": 2639,
    "\u2581\u13c4\u13be\u13b5\u13cd\u13d4\u13c1": 2640,
    "\u2581\u13ed\u13f4\u13b8": 2641,
    "\u2581\u13d7\u13d3\u13b4\u13b2\u13cd\u13a6": 2642,
    "\u2581\u13af\u13a8\u13f4": 2643,
    "\u2581\u13a2\u13f3\u13db\u13bf\u13d5\u13a9": 2644,
    "\u2581\u13a2\u13a7\u13c1\u13e8\u13af": 2645,
    "\u2581\u13d7\u13d3\u13c2\u13d0\u13d7\u13f1": 2646,
    "\u2581\u13d3\u13d3\u13b6\u13c2": 2647,
    "\u2581\u13eb\u13e8\u13b7\u13e4\u13d7\u13f1": 2648,
    "\u13cd\u13a6\u13a2\u13b2\u13be": 2649,
    "\u13b8\u13c9\u13d5\u13cd\u13d7": 2650,
    "\u2581\u13a4\u13c2\u13b7\u13af\u13cd\u13d7\u13f1": 2651,
    "\u2581\u13a4\u13b5\u13e0\u13ef\u13cd\u13d5\u13cd\u13d7": 2652,
    "\u2581\u13a0\u13c2\u13e6\u13a2": 2653,
    "\u2581\u13db\u13cd\u13c6\u13b8\u13af": 2654,
    "\u2581\u13ad\u13b4": 2655,
    "\u2581\u13a2\u13e3\u13b5\u13cd\u13d5\u13b8\u13d9\u13d7": 2656,
    "\u2581\u13a2\u13e3\u13db\u13a6\u13c5\u13af": 2657,
    "\u2581\u13d7\u13a6\u13b4\u13c2": 2658,
    "\u2581\u13a4\u13c2\u13a9\u13cd\u13d7": 2659,
    "\u2581\u13a0\u13d9\u13b4\u13b0\u13af\u13cd\u13d9\u13d7": 2660,
    "\u2581\u13a4\u13db\u13aa\u13d7\u13f1": 2661,
    "\u2581\u13a2\u13f3\u13e9\u13c1\u13b8\u13af": 2662,
    "\u2581\u13a0\u13a9\u13c5\u13cf\u13db": 2663,
    "\u2581\u13ed\u13c2\u13b6\u13af\u13cd\u13d7\u13f1": 2664,
    "\u2581\u13a4\u13ea\u13b5\u13cd\u13d7": 2665,
    "\u2581\u13a4\u13d3\u13d9\u13b5\u13cd\u13d3\u13c1\u13b4\u13a2": 2666,
    "\u2581\u13a2\u13e3\u13d3\u13e1\u13ac": 2667,
    "\u2581\u13be\u13c2\u13a6\u13d4\u13b2\u13be": 2668,
    "\u2581\u13e9\u13a9": 2669,
    "\u2581\u13a4\u13c1\u13b7\u13c5\u13a9": 2670,
    "\u2581\u13a7\u13c3\u13ae\u13d3": 2671,
    "\u2581\u13a4\u13c1\u13cd\u13d3\u13b3": 2672,
    "\u2581\u13a4\u13d3\u13d9\u13b5\u13e3\u13d8\u13f3": 2673,
    "\u2581\u13e6\u13d3\u13b8": 2674,
    "\u2581\u13a4\u13ea\u13d9\u13b5\u13cd\u13d7": 2675,
    "\u2581\u13ac\u13e9\u13d4\u13f2\u13ce\u13b4": 2676,
    "\u2581\u13a2\u13a8\u13ac\u13c1\u13d7": 2677,
    "\u2581\u13d9\u13d3\u13f3": 2678,
    "\u2581\u13be\u13a9\u13ea\u13d2\u13a9": 2679,
    "\u2581\u13c2\u13a6\u13b5\u13cd\u13d7\u13cd\u13a8\u13cd\u13d7": 2680,
    "\u2581\u13a4\u13c2\u13c7\u13d3\u13b8\u13a2": 2681,
    "\u2581\u13aa\u13e2\u13c5": 2682,
    "\u2581\u13a0\u13a6\u13cd\u13ac": 2683,
    "\u2581\u13e5\u13cd\u13c6\u13ef": 2684,
    "\u2581\u13a4\u13c2\u13c1\u13ab": 2685,
    "\u2581\u13d7\u13a6\u13b6\u13d7": 2686,
    "\u13a6\u13f4\u13b5\u13a8": 2687,
    "\u2581\u13d9\u13a9\u13be": 2688,
    "\u2581\u13a4\u13be\u13d5\u13c5\u13af": 2689,
    "\u2581\u13a4\u13c2\u13c3\u13ae\u13b8\u13af": 2690,
    "\u2581\u13c2\u13ac\u13c1\u13ad": 2691,
    "\u2581\u13f4\u13a8\u13e5": 2692,
    "\u2581\u13a4\u13b5\u13ec\u13e8\u13af": 2693,
    "\u2581\u13a6\u13c1\u13b3": 2694,
    "\u2581\u13a0\u13c2\u13c1\u13b5": 2695,
    "\u2581\u13da\u13c2\u13c5\u13ce": 2696,
    "\u2581\u13da\u13c1\u13e4\u13b8\u13a9": 2697,
    "\u2581\u13d9\u13e7\u13be\u13d3\u13c5\u13db\u13a2": 2698,
    "\u2581\u13a2\u13f3\u13db\u13c1\u13d7\u13f1": 2699,
    "\u2581\u13a4\u13ea\u13c5\u13cd\u13d7\u13f1": 2700,
    "\u2581\u13a4\u13d3\u13b4\u13c5\u13db": 2701,
    "\u2581\u13a4\u13d3\u13d1\u13ef": 2702,
    "\u2581\u13a4\u13f0\u13b8\u13af": 2703,
    "\u2581\u13e4\u13b2\u13a9": 2704,
    "\u2581\u13a4\u13be\u13b5\u13cd\u13d3\u13f4\u13d7\u13f1": 2705,
    "\u2581\u13c4\u13be\u13db\u13c1\u13b4\u13a2": 2706,
    "\u2581\u13a0\u13c6\u13d3\u13c5\u13db": 2707,
    "\u2581\u13eb\u13da\u13ef\u13c5\u13b2\u13a9": 2708,
    "\u2581\u13a3\u13ac\u13d2": 2709,
    "\u2581\u13be\u13a6\u13d4\u13b2\u13be": 2710,
    "\u13a6\u13d4\u13af": 2711,
    "\u2581\u13a4\u13ea\u13c5\u13d2\u13a9": 2712,
    "\u2581\u13da\u13cc\u13b3\u13d3\u13c1": 2713,
    "\u2581\u13a4\u13ea\u13d9\u13b8\u13a9": 2714,
    "\u2581\u13be\u13c2\u13ea\u13cd\u13ac\u13a2": 2715,
    "\u2581\u13e9\u13be": 2716,
    "\u2581\u13a0\u13e5\u13b8\u13a8\u13b3\u13cd\u13d7\u13f1": 2717,
    "\u2581\u13d3\u13d5\u13f2\u13b2\u13cd\u13ac\u13a2": 2718,
    "\u2581\u13a8\u13a6\u13ab\u13f4\u13a1": 2719,
    "\u2581\u13e7\u13d2\u13af": 2720,
    "\u2581\u13a7\u13c5\u13d1\u13b8": 2721,
    "\u2581\u13a2\u13be\u13a9": 2722,
    "\u2581\u13a4\u13c4\u13aa\u13e8\u13a9": 2723,
    "\u13cf\u13c5\u13d3": 2724,
    "\u2581\u13a0\u13ce\u13cd\u13a9\u13c2\u13c3\u13c5": 2725,
    "\u2581\u13a4\u13f0\u13b8\u13c1\u13a2": 2726,
    "\u2581\u13a0\u13e8\u13ef\u13a2": 2727,
    "\u2581\u13a4\u13c2\u13f0": 2728,
    "\u13d3\u13c2": 2729,
    "\u2581\u13d5\u13b3": 2730,
    "\u13c4\u13aa\u13e9": 2731,
    "\u2581\u13a4\u13c2\u13f0\u13b8\u13c1": 2732,
    "\u13c5\u13c3": 2733,
    "\u2581\u13a0\u13eb\u13cd\u13a9": 2734,
    "\u2581\u13a7\u13aa": 2735,
    "\u2581\u13a0\u13e4\u13b5\u13cd\u13db\u13a2": 2736,
    "\u13a8\u13db": 2737,
    "\u2581\u13a4\u13e5\u13b8\u13d2": 2738,
    "\u2581\u13e7\u13d9": 2739,
    "\u13cd\u13db\u13be": 2740,
    "\u13c1\u13b8\u13be": 2741,
    "\u2581\u13f1\u13da\u13c2": 2742,
    "\u2581\u13c4\u13e9\u13c1\u13b4\u13a2": 2743,
    "\u13c5\u13cd\u13d7\u13f1": 2744,
    "\u2581\u13a6\u13ec\u13c2\u13cd\u13ac\u13a2": 2745,
    "\u2581\u13a4\u13b6\u13a9\u13b8\u13a2": 2746,
    "\u13d3\u13f1\u13b5": 2747,
    "\u2581\u13a3\u13ac": 2748,
    "\u13a6\u13d3\u13c1": 2749,
    "\u2581\u13be\u13cb\u13c1\u13b8": 2750,
    "\u2581\u13d7\u13a6\u13c5\u13cc\u13d7": 2751,
    "\u2581\u13d5\u13aa": 2752,
    "\u13c6\u13b5": 2753,
    "\u13f2\u13af": 2754,
    "\u2581\u13d7\u13aa\u13ea\u13b6\u13d7": 2755,
    "\u2581\u13a4\u13b4\u13c1": 2756,
    "\u2581\u13e7\u13ec": 2757,
    "\u2581\u13a0\u13c9": 2758,
    "\u2581\u13a6\u13f0\u13e5": 2759,
    "\u13c1\u13ae": 2760,
    "\u2581\u13d5\u13ad": 2761,
    "\u2581\u13f1\u13cf": 2762,
    "\u13a2\u13f4": 2763,
    "\u13c5\u13cf\u13d3\u13cd\u13d7": 2764,
    "\u2581\u13a4\u13a7\u13db\u13a2": 2765,
    "\u13b0\u13b5": 2766,
    "\u13cd\u13d3\u13f4": 2767,
    "\u13a6\u13d4\u13b0": 2768,
    "\u2581\u13a4\u13b2\u13a2": 2769,
    "\u2581\u13c2\u13d5\u13ac\u13c1": 2770,
    "\u13a1\u13b8\u13a9": 2771,
    "\u13e3\u13db\u13c1\u13af": 2772,
    "\u13cf\u13c6": 2773,
    "\u2581\u13a0\u13f2": 2774,
    "\u2581\u13a9\u13b6\u13a2": 2775,
    "\u13eb\u13cd\u13d7": 2776,
    "\u13c2\u13cc\u13c1": 2777,
    "\u13d3\u13b3": 2778,
    "\u13db\u13d9\u13d7": 2779,
    "\u13be\u13a5": 2780,
    "\u13c1\u13c6": 2781,
    "\u2581\u13a6\u13c3": 2782,
    "\u2581\u13c4\u13b5\u13cd\u13d4\u13c1\u13ae": 2783,
    "\u2581\u13f1\u13d9\u13a6": 2784,
    "\u13e4\u13b5\u13a6": 2785,
    "\u13cd\u13c6\u13d9\u13c5": 2786,
    "\u2581\u13f0\u13b5\u13cd\u13a8": 2787,
    "\u13a0\u13c8": 2788,
    "\u2581\u13a2\u13af": 2789,
    "\u2581\u13a3\u13a9\u13c2": 2790,
    "\u13e5\u13aa\u13e9\u13db": 2791,
    "\u2581\u13a2\u13e3\u13d3\u13c5\u13d8": 2792,
    "\u2581\u13a2\u13ac\u13c1": 2793,
    "\u13a6\u13d0\u13af": 2794,
    "\u13d7\u13cf": 2795,
    "\u13b5\u13ef": 2796,
    "\u13c1\u13ae\u13a2": 2797,
    "\u13d9\u13ae\u13cd\u13d7": 2798,
    "\u2581\u13a9\u13b3\u13af": 2799,
    "\u13b5\u13aa": 2800,
    "\u13b8\u13c9\u13d9\u13d7\u13f1": 2801,
    "\u13be\u13c4\u13aa\u13e8\u13af": 2802,
    "\u2581\u13a1\u13e5\u13c1\u13d7": 2803,
    "\u2581\u13a4\u13b2": 2804,
    "\u13b7\u13e3": 2805,
    "\u2581\u13a4\u13be\u13db\u13a6\u13c1": 2806,
    "\u2581\u13a6\u13c5": 2807,
    "\u13af\u13eb": 2808,
    "\u2581\u13a2\u13b3": 2809,
    "\u13cd\u13d3\u13e9\u13d7\u13d9\u13af": 2810,
    "\u13aa\u13b5\u13f0\u13a1": 2811,
    "\u13cd\u13a6\u13a9": 2812,
    "\u2581\u13ee": 2813,
    "\u2581\u13a4\u13b6\u13d2": 2814,
    "\u2581\u13a4\u13f2\u13b1\u13ce": 2815,
    "\u2581\u13b9": 2816,
    "\u2581\u13a4\u13b6": 2817,
    "\u13f0\u13c2": 2818,
    "\u13d9\u13b8": 2819,
    "\u13c5\u13d3\u13d7\u13cd\u13d9\u13d7": 2820,
    "\u2581\u13f2\u13a9": 2821,
    "\u2581\u13e5\u13be": 2822,
    "\u13d7\u13d2": 2823,
    "\u2581\u13d7\u13be\u13d3": 2824,
    "\u13a6\u13d4": 2825,
    "\u13cd\u13d4\u13f1": 2826,
    "\u2581\u13a0\u13c2\u13d0\u13a2\u13c3": 2827,
    "\u2581\u13e5\u13c2\u13a6\u13ea": 2828,
    "\u2581\u13c4\u13ea": 2829,
    "\u2581\u13a0\u13d3\u13c5\u13d6\u13b5\u13d9": 2830,
    "\u2581\u13e5\u13c2": 2831,
    "\u2581\u13be\u13bf\u13c9": 2832,
    "\u13a8\u13c2": 2833,
    "\u2581\u13eb\u13d3\u13c2": 2834,
    "\u13a9\u13a1\u13b8": 2835,
    "\u2581\u13a0\u13cd\u13aa\u13af\u13c3": 2836,
    "\u13a0\u13ce": 2837,
    "\u2581\u13c4\u13c2\u13ea\u13d2": 2838,
    "\u13cd\u13d5": 2839,
    "\u13a1\u13b4\u13a2": 2840,
    "\u2581\u13aa\u13e2\u13d2": 2841,
    "\u2581\u13f1\u13d7\u13a6": 2842,
    "\u13f0\u13ad": 2843,
    "\u2581\u13be\u13ac\u13c1\u13b8": 2844,
    "\u2581\u13be\u13c2\u13ea\u13cd\u13ac": 2845,
    "\u13e0\u13f1": 2846,
    "\u2581\u13e5\u13c1\u13b8": 2847,
    "\u2581\u13e3\u13d3": 2848,
    "\u2581\u13a0\u13d5": 2849,
    "\u2581\u13c2\u13a6\u13b5\u13cd\u13d7\u13cd\u13a8": 2850,
    "\u13ce\u13b4": 2851,
    "\u13d7\u13c2\u13c5\u13cc\u13d7": 2852,
    "\u2581\u13a3\u13d3\u13c5\u13db": 2853,
    "\u13ad\u13d5\u13ec": 2854,
    "\u2581\u13a4\u13f2\u13af\u13cd\u13d4\u13c1": 2855,
    "\u13a8\u13b5\u13a0": 2856,
    "\u13aa\u13b1\u13cd\u13d7": 2857,
    "\u13a0\u13d5\u13b8": 2858,
    "\u13a7\u13b5\u13e8\u13af": 2859,
    "\u13d7\u13a6\u13d8\u13ef": 2860,
    "\u13a0\u13a9\u13be": 2861,
    "\u2581\u13af\u13f0\u13b8": 2862,
    "\u2581\u13a1\u13d9\u13ae": 2863,
    "\u2581\u13e7\u13d3\u13c5\u13db": 2864,
    "\u2581\u13d5\u13a4\u13b4\u13d4\u13c5": 2865,
    "\u2581\u13da\u13c2\u13b8\u13eb\u13cd\u13d3\u13c1\u13b8": 2866,
    "\u2581\u13e7\u13be\u13b4\u13af\u13d0": 2867,
    "\u2581\u13a4\u13c1\u13a6\u13b8": 2868,
    "\u13e0\u13a0\u13cf": 2869,
    "\u2581\u13a0\u13d3\u13c1\u13e3\u13cd\u13da\u13b6": 2870,
    "\u13b6\u13d0\u13c5": 2871,
    "\u2581\u13a4\u13be\u13b5\u13ae\u13b5\u13e4": 2872,
    "\u2581\u13a2\u13d9\u13bb": 2873,
    "\u13b5\u13cd\u13d7\u13f1": 2874,
    "\u2581\u13cf\u13d3\u13c1\u13b8": 2875,
    "\u2581\u13c5\u13f2": 2876,
    "\u2581\u13e7\u13c2\u13b3\u13eb\u13a2\u13cd\u13d7": 2877,
    "\u2581\u13a0\u13e5\u13cd\u13d5\u13b8\u13d7": 2878,
    "\u2581\u13a0\u13f2\u13b1\u13d2": 2879,
    "\u2581\u13e3\u13be\u13eb": 2880,
    "\u2581\u13a4\u13be\u13d5\u13c5": 2881,
    "\u2581\u13f1\u13d3\u13c2": 2882,
    "\u13b6\u13af\u13cd\u13d7\u13f1": 2883,
    "\u13cd\u13d5\u13b8\u13af": 2884,
    "\u13a5\u13a9": 2885,
    "\u13f2\u13a2\u13f4": 2886,
    "\u2581\u13d7\u13aa\u13ea\u13b5": 2887,
    "\u13ad\u13c4\u13b8\u13af": 2888,
    "rs": 2889,
    "\u2581Philadelphia": 2890,
    "\u2581\u13a0\u13d3\u13ea\u13b3\u13a9\u13cd\u13a9": 2891,
    "\u2581\u13d0\u13b5\u13b9\u13c5": 2892,
    "\u2581\u13d5\u13e6\u13af\u13f3\u13ce\u13cd\u13d7": 2893,
    "\u2581\u13da\u13cd\u13c6\u13b8\u13d4\u13c1": 2894,
    "\u2581\u13f1\u13c4\u13b5\u13cd\u13d4\u13be": 2895,
    "\u2581\u13c6\u13b3\u13c6": 2896,
    "\u2581\u13d7\u13a6\u13d2\u13cd\u13d4\u13c5": 2897,
    "\u2581\u13a2\u13e6\u13af\u13f3\u13af": 2898,
    "\u2581\u13c7\u13da\u13a1\u13b5": 2899,
    "\u2581\u13a4\u13e3\u13b4\u13d3": 2900,
    "\u2581\u13d7\u13be\u13d5\u13f2\u13b2\u13cd\u13a9": 2901,
    "\u2581\u13a7\u13c2\u13b5\u13ef": 2902,
    "\u2581\u13d7\u13c7\u13c5\u13d2": 2903,
    "\u2581\u13e7\u13b4\u13af\u13cc\u13c5\u13af": 2904,
    "\u2581\u13e7\u13f4\u13e8": 2905,
    "\u2581\u13a4\u13ec\u13d3\u13b8": 2906,
    "\u2581\u13da\u13a7\u13bf\u13c1": 2907,
    "\u2581\u13d3\u13f3\u13c2\u13b6\u13d2": 2908,
    "\u2581\u13a0\u13da\u13b8\u13d7": 2909,
    "\u2581\u13a1\u13c5\u13cd\u13d7": 2910,
    "\u2581\u13a4\u13d3\u13c5\u13b5\u13f0\u13a5": 2911,
    "\u2581\u13a2\u13d7\u13c5\u13c1": 2912,
    "\u2581\u13f1\u13e3\u13d3\u13c5\u13d6\u13d7\u13cd\u13a8\u13cd\u13d7": 2913,
    "\u2581\u13a2\u13e5\u13c6\u13b5\u13cf": 2914,
    "\u2581\u13ac\u13e9\u13e0\u13ef\u13cd\u13d7": 2915,
    "\u2581\u13a2\u13e7\u13be\u13d3\u13b3": 2916,
    "\u2581\u13d7\u13e5\u13b8\u13eb\u13cd\u13d3\u13c1\u13d7\u13f1": 2917,
    "\u2581\u13d7\u13a6\u13b8\u13eb\u13cd\u13d3\u13c1\u13b8\u13af": 2918,
    "\u2581\u13a4\u13d3\u13d1\u13f1": 2919,
    "\u2581\u13da\u13db\u13db\u13c1": 2920,
    "\u2581\u13a8\u13c5\u13a2\u13cd\u13d7": 2921,
    "\u2581\u13a1\u13e3\u13c2\u13b5": 2922,
    "\u2581\u13d5\u13aa\u13ea\u13b5\u13cd\u13ac": 2923,
    "\u2581\u13d7\u13db\u13d3\u13c5\u13af": 2924,
    "\u2581\u13d7\u13a8\u13e5\u13be\u13dd\u13a2": 2925,
    "\u2581\u13a4\u13d2\u13af\u13f0\u13f1": 2926,
    "\u2581\u13a6\u13d3\u13b7\u13ef\u13db": 2927,
    "\u2581\u13a0\u13be\u13db\u13a9\u13cd\u13a9": 2928,
    "\u2581\u13d7\u13ac\u13aa\u13e9\u13db\u13d7": 2929,
    "\u2581\u13a0\u13a9\u13b7\u13e5\u13b8": 2930,
    "\u2581\u13f1\u13aa\u13b5\u13a6": 2931,
    "\u2581\u13a0\u13c2\u13b4\u13f4\u13cd\u13a9": 2932,
    "\u2581\u13a0\u13cd\u13c6\u13da\u13b8": 2933,
    "\u2581\u13a0\u13b5\u13ae\u13b5\u13ac": 2934,
    "\u2581\u13a4\u13c2\u13aa\u13ae": 2935,
    "\u2581\u13e5\u13d5\u13a6": 2936,
    "\u2581\u13e7\u13d3\u13b4\u13c5\u13b2": 2937,
    "\u2581\u13a4\u13be\u13d3\u13d3\u13cd\u13ac": 2938,
    "\u2581\u13c2\u13e3\u13db\u13a6": 2939,
    "\u2581\u13ac\u13e9\u13f2\u13b1\u13af\u13cd\u13d7": 2940,
    "\u2581\u13be\u13ef\u13db\u13a1\u13cd\u13d7": 2941,
    "\u2581\u13a0\u13c4\u13a6\u13b8": 2942,
    "\u2581\u13a6\u13e3\u13c3\u13cd": 2943,
    "\u2581\u13a7\u13f4\u13d0\u13b5": 2944,
    "\u2581\u13da\u13c3\u13e2\u13c5\u13a9": 2945,
    "\u2581\u13d7\u13aa\u13d1\u13b4\u13d7\u13f1": 2946,
    "\u2581\u13e7\u13f4\u13e2": 2947,
    "\u2581\u13a4\u13d3\u13b4\u13e8": 2948,
    "\u2581\u13e7\u13b4\u13d4\u13c5\u13af": 2949,
    "\u2581\u13a4\u13c4\u13aa\u13a2\u13cd\u13d7": 2950,
    "\u2581\u13e5\u13a3\u13b5": 2951,
    "\u2581\u13a0\u13d3\u13cd\u13d3\u13e9\u13d7\u13d9\u13af": 2952,
    "\u2581\u13ac\u13c6\u13db\u13c1\u13d7\u13f1": 2953,
    "\u2581\u13c2\u13e5\u13a6\u13d4\u13b2\u13be": 2954,
    "\u2581\u13c0\u13a2\u13f3": 2955,
    "\u2581\u13a5\u13e5\u13aa\u13a5\u13a9": 2956,
    "\u13b3\u13cf\u13d5\u13be": 2957,
    "\u2581\u13a4\u13be\u13b5\u13d7\u13a9\u13db": 2958,
    "\u2581\u13a4\u13ec\u13ea\u13b3\u13c5\u13af": 2959,
    "\u2581\u13da\u13b7\u13eb\u13cd\u13d4\u13c1\u13b2": 2960,
    "\u2581\u13a2\u13e7\u13d5\u13d8\u13f4\u13db": 2961,
    "\u2581\u13a0\u13b9\u13b4\u13a9": 2962,
    "\u2581\u13a4\u13d7\u13d4\u13b2": 2963,
    "\u2581\u13d4\u13b8\u13d7": 2964,
    "\u2581\u13a2\u13a9\u13c5\u13df": 2965,
    "\u13db\u13c5\u13a2\u13cd\u13d9\u13d7\u13f1": 2966,
    "\u2581\u13cd\u13a9\u13be\u13dd\u13a2": 2967,
    "\u2581\u13a4\u13ac\u13eb\u13f3\u13ce\u13cd\u13d7": 2968,
    "\u2581\u13a6\u13c5\u13d9\u13d7": 2969,
    "\u2581\u13e7\u13be\u13c4\u13e9\u13a2": 2970,
    "\u2581\u13c4\u13e9\u13c5": 2971,
    "\u2581\u13be\u13c1\u13b2\u13be": 2972,
    "\u2581\u13a4\u13c2\u13f0\u13b8\u13d2\u13a9": 2973,
    "\u2581\u13a4\u13d5\u13c1\u13a2": 2974,
    "\u2581\u13a2\u13f3\u13d3\u13b5\u13ad": 2975,
    "\u2581\u13a0\u13a9\u13f0\u13b8\u13b2": 2976,
    "\u2581\u13a4\u13a7\u13ad\u13db": 2977,
    "\u13cd\u13c6\u13c2\u13aa\u13d9\u13d7\u13f1": 2978,
    "\u2581\u13ed\u13c2\u13f4\u13b4\u13a2": 2979,
    "\u2581\u13e9\u13a9\u13b7\u13e8": 2980,
    "\u2581\u13a4\u13b4\u13eb\u13cd\u13d4\u13c1": 2981,
    "\u13e5\u13af\u13cd\u13d7": 2982,
    "\u2581\u13a0\u13b5\u13e5\u13d9\u13b2\u13cd\u13a8": 2983,
    "\u2581\u13a1\u13d9\u13ad": 2984,
    "\u2581\u13a4\u13be\u13d7\u13c5\u13d7": 2985,
    "\u2581\u13a4\u13ec\u13af\u13f3": 2986,
    "\u2581\u13a4\u13cc\u13b3\u13d3\u13c5": 2987,
    "\u2581\u13a8\u13e5\u13c1\u13b8\u13af": 2988,
    "\u13f2\u13af\u13ce\u13b8\u13a9": 2989,
    "\u2581\u13a5\u13a9\u13d9\u13c9": 2990,
    "\u2581\u13a0\u13df\u13cd\u13db\u13a2": 2991,
    "\u2581\u13ed\u13c2\u13b6\u13d2\u13a9": 2992,
    "\u2581\u13a4\u13ea\u13a7\u13c5\u13a9": 2993,
    "\u2581\u13c5\u13d3\u13ac": 2994,
    "\u2581\u13d7\u13c2\u13a6\u13d8\u13ef": 2995,
    "\u2581\u13a4\u13c5\u13d9\u13d7\u13f1": 2996,
    "\u2581\u13a4\u13d5\u13d7\u13f1": 2997,
    "\u2581\u13be\u13cd\u13a6\u13a2\u13b2\u13be": 2998,
    "\u2581\u13c4\u13c2\u13ea\u13ce\u13b8\u13a9": 2999,
    "\u2581\u13be\u13c2\u13a1\u13a2": 3000,
    "\u2581\u13e7\u13ec\u13b8": 3001,
    "\u2581\u13a4\u13b5\u13cf\u13c2": 3002,
    "\u2581\u13a2\u13d7\u13a6\u13ea\u13cd": 3003,
    "\u2581\u13a0\u13a7\u13b5\u13ec\u13af": 3004,
    "\u2581\u13a4\u13e8\u13c9\u13d7": 3005,
    "\u2581\u13a4\u13ea\u13c1\u13a2": 3006,
    "\u2581\u13d7\u13df\u13cd\u13d7": 3007,
    "\u2581\u13d7\u13a6\u13b5\u13cd\u13d9\u13d7\u13ad": 3008,
    "\u2581\u13a4\u13aa\u13e9\u13db\u13d7": 3009,
    "\u2581\u13a4\u13d4\u13be": 3010,
    "\u13be\u13c4\u13aa\u13a2\u13cd\u13d7": 3011,
    "\u2581\u13d0\u13d3\u13bb\u13f1": 3012,
    "\u2581\u13a2\u13a9\u13c1\u13b8\u13af": 3013,
    "\u2581\u13e7\u13c1\u13b3": 3014,
    "\u13d7\u13cd\u13aa\u13c2\u13af": 3015,
    "\u2581\u13d3\u13f3\u13d3\u13b4\u13c5\u13d3": 3016,
    "\u13cf\u13c1": 3017,
    "\u2581\u13ef\u13a9\u13ad": 3018,
    "\u13c1\u13ac": 3019,
    "\u2581\u13a2\u13a6\u13c1\u13b3\u13c5\u13af": 3020,
    "\u2581\u13a2\u13ef\u13ac\u13c1\u13d7": 3021,
    "\u2581\u13a4\u13ef\u13c5\u13af": 3022,
    "\u2581\u13a6\u13c1\u13cc\u13a2\u13af": 3023,
    "\u2581\u13da\u13c2\u13b8\u13eb\u13cd\u13d3\u13c1\u13b8\u13a2": 3024,
    "\u2581\u13d7\u13d0\u13a2": 3025,
    "\u2581\u13a1\u13d9\u13ae\u13a2": 3026,
    "\u2581\u13ad\u13be\u13c2": 3027,
    "\u2581\u13e5\u13a8\u13e5": 3028,
    "\u2581\u13a4\u13be\u13db\u13a6\u13c1\u13a2": 3029,
    "\u2581\u13d3\u13c8": 3030,
    "\u2581\u13a4\u13e9\u13db\u13ae\u13a2": 3031,
    "\u2581\u13d7\u13cd\u13a9": 3032,
    "\u2581\u13cd\u13a9\u13a8\u13f3": 3033,
    "\u2581\u13a7\u13b8": 3034,
    "\u2581\u13ed\u13b7\u13e8\u13a9": 3035,
    "\u2581\u13a4\u13ef\u13a2": 3036,
    "\u2581\u13a1\u13b5\u13cd\u13a8\u13a2": 3037,
    "\u13a1\u13d7": 3038,
    "\u2581\u13a4\u13ce\u13b5\u13d4\u13c5": 3039,
    "\u2581\u13a0\u13d2\u13ad": 3040,
    "\u2581\u13a5\u13b5": 3041,
    "\u13ad\u13f2\u13b2": 3042,
    "\u13b3\u13c1\u13a2": 3043,
    "\u2581\u13a4\u13d3\u13c5\u13d6\u13b8\u13a2": 3044,
    "on": 3045,
    "\u2581\u13d5\u13e5\u13b8\u13eb\u13cd\u13d3\u13c1\u13b2\u13a2": 3046,
    "\u2581\u13ac\u13d9\u13d7\u13f1": 3047,
    "\u13aa\u13b5\u13ef": 3048,
    "\u13d3\u13cd\u13d7": 3049,
    "\u2581\u13a4\u13c3\u13ae\u13b4": 3050,
    "\u2581\u13a4\u13d3\u13c5\u13db\u13a2": 3051,
    "\u2581\u13c7\u13b5\u13e5": 3052,
    "\u2581\u13a4\u13d3\u13c5\u13ce\u13a2": 3053,
    "\u2581\u13da\u13c1\u13b4\u13a2": 3054,
    "\u13eb\u13d2": 3055,
    "\u2581\u13be\u13be\u13db\u13c1\u13b2\u13a2": 3056,
    "\u2581\u13d7\u13ac\u13d7": 3057,
    "\u2581\u13a2\u13e6\u13af\u13f3\u13d2\u13a2": 3058,
    "\u2581\u13a6\u13d3\u13c5\u13d6\u13cd\u13ac\u13a2": 3059,
    "\u2581\u13a2\u13e6": 3060,
    "\u2581\u13a4\u13f2\u13b4": 3061,
    "\u13c1\u13b0\u13a2": 3062,
    "\u13a6\u13e8": 3063,
    "\u2581\u13e6\u13be": 3064,
    "\u2581\u13a0\u13cd\u13a6\u13be\u13a2": 3065,
    "\u2581\u13a0\u13c1\u13b0": 3066,
    "\u2581\u13da\u13c1\u13e4\u13b4\u13a2": 3067,
    "\u2581\u13a1\u13b2\u13a9": 3068,
    "\u2581\u13a4\u13e2": 3069,
    "\u2581\u13a1\u13b5\u13a9": 3070,
    "\u2581\u13cc\u13b5": 3071,
    "\u2581\u13e7\u13b4": 3072,
    "\u13bf\u13a2": 3073,
    "\u13cd\u13db\u13f1": 3074,
    "\u2581\u13a4\u13c5\u13c5": 3075,
    "\u13f2\u13b0\u13ce\u13b8": 3076,
    "\u2581\u13a4\u13ea\u13c5\u13ce\u13a2": 3077,
    "\u2581\u13e7\u13be\u13c4\u13aa\u13eb\u13ce\u13d7": 3078,
    "\u2581\u13a0\u13cd\u13db\u13a2": 3079,
    "\u2581\u13c5\u13d3\u13f3\u13be\u13b5\u13cd\u13aa\u13b8\u13d4": 3080,
    "\u2581\u13a4\u13e9\u13c2": 3081,
    "\u13cd\u13aa\u13c3": 3082,
    "\u2581\u13d7\u13ac\u13e9\u13d3\u13c2\u13b8\u13a2\u13cd": 3083,
    "\u2581\u13a9\u13b5": 3084,
    "\u2581\u13aa\u13cd\u13d4": 3085,
    "\u2581\u13a4\u13aa\u13b2\u13a9": 3086,
    "\u2581\u13a0\u13d3\u13c5\u13d6\u13cd\u13ac\u13a2": 3087,
    "\u2581\u13a4\u13be\u13c4\u13aa\u13eb\u13d2": 3088,
    "\u2581\u13d7\u13c2\u13e9\u13be\u13a6\u13b3": 3089,
    "\u2581\u13a4\u13ea\u13b7\u13c1\u13a2": 3090,
    "\u2581\u13a2\u13e3\u13d3": 3091,
    "\u13f3\u13b5": 3092,
    "\u2581\u13db\u13c2": 3093,
    "\u2581\u13a2\u13ef\u13c2\u13a2": 3094,
    "\u2581\u13a4\u13be\u13d9\u13d3\u13c6\u13cd\u13ac\u13a2": 3095,
    "\u2581\u13a6\u13e8": 3096,
    "\u2581\u13a4\u13c2\u13ac": 3097,
    "\u2581\u13d7\u13c2\u13c3": 3098,
    "\u13b4\u13c5\u13af": 3099,
    "\u2581\u13c5\u13d7\u13a6\u13b5\u13cd\u13d9\u13d7\u13cd\u13a8\u13a2": 3100,
    "\u13d9\u13a2": 3101,
    "\u2581\u13a0\u13c6\u13d3\u13c5\u13d6\u13d7": 3102,
    "\u2581\u13a6\u13da\u13f1": 3103,
    "\u13d3\u13c1\u13df\u13f4\u13db": 3104,
    "\u2581\u13a4\u13a9\u13b8": 3105,
    "\u13b1\u13cd\u13d7": 3106,
    "\u13b2\u13cd\u13a6": 3107,
    "\u13ce\u13ad": 3108,
    "\u2581\u13a4\u13c2\u13e9\u13db\u13d7": 3109,
    "\u13c2\u13eb": 3110,
    "\u2581\u13da\u13d9": 3111,
    "\u2581\u13eb\u13da\u13be": 3112,
    "\u13b3\u13cf": 3113,
    "\u2581\u13d9\u13d8": 3114,
    "\u2581\u13de": 3115,
    "\u2581\u13a0\u13eb\u13be": 3116,
    "\u13a6\u13ef": 3117,
    "\u13cd\u13c6\u13c2\u13aa\u13d5\u13cd\u13d7": 3118,
    "\u2581\u13ac\u13d7\u13ad": 3119,
    "\u13c1\u13e4\u13b5": 3120,
    "\u13c2\u13ef": 3121,
    "\u2581\u13e6\u13a6": 3122,
    "\u2581\u13e3\u13c1": 3123,
    "\u13e2\u13c5": 3124,
    "\u2581\u13a4\u13be\u13c4\u13aa\u13eb\u13ce": 3125,
    "\u2581\u13d7\u13e8\u13c2\u13d7": 3126,
    "\u13cf\u13f3": 3127,
    "\u13e5\u13e9\u13db\u13b2": 3128,
    "\u2581\u13c2\u13a6\u13b5\u13cd\u13d9\u13d7\u13cd\u13a8": 3129,
    "\u2581\u13a6\u13c5\u13a8": 3130,
    "\u2581\u13a4\u13b5\u13ae\u13b5\u13e4": 3131,
    "\u13df\u13b6\u13cd\u13d9\u13d7": 3132,
    "\u2581\u13da\u13c1\u13b8": 3133,
    "\u13b5\u13cd\u13ac": 3134,
    "\u2581\u13a0\u13a6\u13d5": 3135,
    "\u2581\u13a4\u13ac": 3136,
    "\u13be\u13c4\u13aa\u13eb\u13d2\u13af": 3137,
    "\u2581\u13d7\u13a8\u13e3": 3138,
    "\u2581\u13a7\u13c1\u13c9": 3139,
    "\u2581\u13e7\u13c2\u13b5": 3140,
    "\u13d7\u13cd\u13ac\u13be": 3141,
    "\u13b5\u13cd\u13d5\u13b8\u13d9\u13d7": 3142,
    "\u2581\u13a2\u13e5\u13a9\u13cd\u13d7": 3143,
    "\u13f4\u13b5": 3144,
    "\u2581\u13a0\u13cb\u13ad": 3145,
    "\u2581\u13a0\u13a6\u13d8\u13f0": 3146,
    "\u2581\u13a4\u13c1\u13b4": 3147,
    "\u2581\u13db\u13a9": 3148,
    "\u13a4\u13c5\u13d3\u13d5": 3149,
    "\u13cd\u13d5\u13b5\u13ad": 3150,
    "\u2581\u13a5\u13cd\u13a9": 3151,
    "\u2581\u13a1\u13e3\u13ab\u13f4": 3152,
    "\u2581\u13a4\u13e5\u13c3": 3153,
    "\u13a6\u13d9\u13a5\u13af\u13cd\u13d7\u13f1": 3154,
    "\u2581\u13be\u13a6\u13db": 3155,
    "\u13a9\u13cd\u13aa": 3156,
    "\u2581\u13bf": 3157,
    "\u13ce\u13b8\u13a9": 3158,
    "\u13ef\u13a0": 3159,
    "\u2581\u13c4\u13c5": 3160,
    "\u13a8\u13cd\u13d7\u13d7": 3161,
    "\u2581\u13a4\u13c2\u13b8\u13c9\u13d7": 3162,
    "\u2581\u13a2\u13e5\u13b2": 3163,
    "\u2581\u13a0\u13f2\u13b1\u13cd": 3164,
    "\u2581\u13c2\u13af\u13cd\u13aa": 3165,
    "\u2581\u13a1\u13b3\u13ea\u13f1": 3166,
    "\u13a2\u13cd\u13d4\u13c2": 3167,
    "\u2581\u13c2\u13ac\u13e9": 3168,
    "\u13da\u13ac": 3169,
    "\u13c1\u13cd\u13d7": 3170,
    "\u13e6\u13c5": 3171,
    "\u2581\u13f1\u13eb": 3172,
    "\u2581\u13a4\u13a7\u13d4": 3173,
    "\u2581\u13e3\u13a9": 3174,
    "\u13c2\u13ac\u13a6": 3175,
    "\u2581\u13a4\u13c2\u13d7": 3176,
    "\u2581\u13e3\u13c6": 3177,
    "\u13c1\u13df\u13f4\u13cd\u13d7": 3178,
    "\u13ac\u13eb\u13f3\u13af": 3179,
    "\u13c7\u13d3\u13b5": 3180,
    "\u13f2\u13aa": 3181,
    "\u2581\u13a6\u13d7": 3182,
    "\u2581\u13a0\u13d7\u13cd\u13ac": 3183,
    "\u13b7\u13e8": 3184,
    "\u2581\u13c1\u13b5\u13cd\u13ac": 3185,
    "\u2581\u13a3\u13cd\u13d7": 3186,
    "\u13aa\u13e9\u13db": 3187,
    "\u13ce\u13b8\u13af": 3188,
    "h": 3189,
    "\u13b4\u13c5\u13db": 3190,
    "\u13a5\u13a6": 3191,
    "\u13f0\u13cc\u13db": 3192,
    "\u2581\u13a4\u13ec\u13c2\u13d2": 3193,
    "\u2581\u13c2\u13da\u13ea\u13ce\u13b8": 3194,
    "\u2581\u13be\u13cd": 3195,
    "\u2581\u13a0\u13f2\u13df": 3196,
    "\u2581\u13d3\u13b5\u13cd\u13d7\u13b3\u13c1\u13ac": 3197,
    "\u2581\u13d7\u13a6\u13c5\u13ec": 3198,
    "r": 3199,
    "\u2581\u13a4\u13c1\u13b5\u13ce": 3200,
    "\u2581\u13a4\u13ec\u13b4": 3201,
    "\u13d4\u13be": 3202,
    "\u13e5\u13a8\u13f3\u13a2": 3203,
    "\u2581\u13a7\u13b8\u13ac": 3204,
    "\u2581\u13a2\u13d5\u13b2": 3205,
    "\u2581\u13d3\u13c2\u13b3\u13eb\u13a5": 3206,
    "\u2581\u13d7\u13e5\u13a6\u13f4\u13b5\u13a8": 3207,
    "\u2581\u13d3\u13df\u13b6\u13cd\u13db": 3208,
    "\u2581\u13a4\u13d7\u13db\u13ae": 3209,
    "\u2581\u13a4\u13da\u13a2\u13cd\u13d4\u13c5": 3210,
    "\u2581\u13a2\u13a9\u13cd\u13a6\u13c5\u13e8": 3211,
    "\u2581\u13a4\u13ec\u13ce\u13b4": 3212,
    "\u2581\u13a4\u13cd\u13d3\u13a6\u13b8": 3213,
    "\u13a0\u13b9": 3214,
    "\u2581\u13a0\u13c2\u13d9\u13be\u13a1": 3215,
    "\u2581\u13af\u13a0\u13c9": 3216,
    "\u2581\u13da\u13b4\u13af\u13cc\u13c5": 3217,
    "\u2581\u13a4\u13ea\u13a7\u13c1\u13b4": 3218,
    "\u13d8\u13f0": 3219,
    "\u2581\u13a0\u13c2\u13a6\u13f4\u13b5\u13a8": 3220,
    "\u2581\u13d3\u13c2\u13a7\u13c5": 3221,
    "\u2581\u13e7\u13a6\u13f4\u13b5\u13a8": 3222,
    "\u2581\u13a4\u13c2\u13a6\u13d9\u13a5\u13d2": 3223,
    "\u13b5\u13ec\u13e8": 3224,
    "\u13a4\u13cd\u13c6\u13c2\u13a9\u13d7": 3225,
    "\u13c2\u13a6\u13d3": 3226,
    "\u13ac\u13eb\u13f3\u13cc\u13d5\u13a9": 3227,
    ".)": 3228,
    "\u2581\u13da\u13c1\u13e4\u13b8": 3229,
    "\u13a7\u13b5\u13ec\u13af": 3230,
    "\u2581\u13a2\u13e3\u13da\u13b5": 3231,
    "\u2581\u13a4\u13c2\u13a9\u13d2": 3232,
    "\u2581\u13a4\u13c2\u13f4": 3233,
    "\u13df\u13c2\u13a9\u13d3": 3234,
    "\u2581\u13a0\u13c1\u13ae": 3235,
    "\u2581\u13a4\u13c2\u13cd\u13c6\u13c2\u13aa\u13d9\u13d7": 3236,
    "\u2581\u13aa\u13b9\u13b5": 3237,
    "\u2581\u13da\u13b7\u13eb\u13cd\u13d4\u13c1": 3238,
    "\u2581\u13a2\u13e5\u13cd\u13c6\u13c2\u13aa\u13d9\u13d7": 3239,
    "\u2581\u13a2\u13f3\u13c5\u13c1\u13d7": 3240,
    "\u2581\u13a4\u13be\u13c5\u13d7": 3241,
    "\u13d4\u13f2\u13ce\u13b8\u13a9": 3242,
    "\u13b4\u13af\u13cc\u13c5": 3243,
    "\u2581\u13a8\u13e5\u13c1\u13d7": 3244,
    "\u2581\u13e3\u13a8": 3245,
    "\u2581\u13a4\u13e9\u13db\u13ae": 3246,
    "\u2581\u13a4\u13be\u13c5\u13c5": 3247,
    "\u13a5\u13cd\u13a8\u13cd\u13d7": 3248,
    "\u13f4\u13d0\u13b5": 3249,
    "\u13be\u13d3\u13b4\u13a9": 3250,
    "\u2581\u13a2\u13a0": 3251,
    "\u2581\u13a1\u13c9\u13c4\u13b6\u13d7": 3252,
    "\u2581\u13a4\u13ad\u13b8\u13c2\u13af": 3253,
    "\u2581\u13a4\u13c2\u13da\u13ef\u13cd\u13d7": 3254,
    "\u2581\u13a4\u13d3\u13cf\u13c2\u13d5\u13be": 3255,
    "\u2581\u13a4\u13ea\u13f2\u13d3\u13db": 3256,
    "\u2581\u13c5\u13d3\u13ac\u13f4\u13c1\u13b5": 3257,
    "\u2581\u13c8\u13ef\u13cf\u13c6": 3258,
    "\u2581\u13d5\u13a8\u13a6\u13e8\u13cd\u13d7\u13cd\u13ac": 3259,
    "\u2581\u13d7\u13be\u13d9\u13c2\u13cd\u13a9": 3260,
    "\u2581\u13e6\u13a9\u13b8\u13eb\u13cd\u13d3\u13c1\u13af": 3261,
    "\u13a6\u13cc\u13ef\u13cd\u13d5\u13cd\u13d7": 3262,
    "\u2581\u13a2\u13f0\u13c6": 3263,
    "\u2581\u13a6\u13b5\u13e6\u13d9\u13d9\u13d7": 3264,
    "\u2581\u13c6\u13bb\u13c6\u13c2": 3265,
    "\u2581\u13da\u13e9\u13c2\u13a6\u13e2": 3266,
    "\u2581\u13a0\u13e3\u13ea\u13d0\u13b8\u13cd\u13d9\u13d7\u13f1": 3267,
    "\u2581\u13af\u13a7\u13c5\u13ad": 3268,
    "\u2581\u13e7\u13e3\u13f2\u13cd": 3269,
    "\u2581\u13af\u13a6\u13d9\u13b5": 3270,
    "\u2581\u13a0\u13b5\u13ae\u13b5\u13a8": 3271,
    "\u2581\u13a4\u13d3\u13db\u13db\u13c1": 3272,
    "\u2581\u13c2\u13da\u13be\u13d3\u13ea\u13ce\u13b8\u13a9": 3273,
    "\u2581\u13e7\u13a6\u13c3\u13ee": 3274,
    "\u2581\u13eb\u13c2\u13a6\u13b5\u13cd\u13d9\u13d3": 3275,
    "\u2581\u13d7\u13c9\u13f0\u13c2": 3276,
    "\u2581\u13d7\u13be\u13d3\u13c2\u13f1\u13cd\u13a9": 3277,
    "\u2581\u13be\u13c2\u13b3\u13cd\u13d3\u13b8": 3278,
    "\u2581\u13d7\u13a6\u13c3\u13e3\u13df": 3279,
    "\u2581\u13e7\u13d9\u13a2\u13d3": 3280,
    "\u2581\u13d7\u13c6\u13b3\u13cf\u13d5\u13c2": 3281,
    "\u2581\u13c4\u13ec\u13af\u13f3\u13d2\u13be": 3282,
    "\u2581\u13c5\u13d3\u13aa\u13af\u13e5": 3283,
    "\u2581\u13c5\u13c3\u13b1\u13b6\u13d7": 3284,
    "\u13cd\u13a6\u13a3\u13c5": 3285,
    "\u2581\u13c5\u13e9\u13d9\u13af": 3286,
    "\u2581\u13a4\u13ec\u13de": 3287,
    "\u2581\u13a4\u13ea\u13da\u13b2": 3288,
    "\u2581\u13e7\u13e9\u13c2\u13a6\u13dd\u13c5": 3289,
    "\u2581\u13a6\u13e3\u13c4\u13b8": 3290,
    "\u2581\u13d5\u13e5\u13f2\u13b5\u13b8\u13ad": 3291,
    "\u2581\u13ac\u13e9\u13d5\u13c1\u13b8\u13af": 3292,
    "\u2581\u13cc\u13b6\u13b5": 3293,
    "\u2581\u13a4\u13c2\u13ac\u13a5\u13cd\u13a9": 3294,
    "\u2581\u13aa\u13d2\u13d4\u13c5": 3295,
    "\u2581\u13a4\u13c2\u13b8\u13c9\u13d4\u13c1": 3296,
    "\u2581\u13f1\u13c4\u13b5\u13cd\u13d4\u13c5": 3297,
    "\u2581\u13b2\u13d7\u13cd\u13a8\u13cd\u13d7": 3298,
    "\u2581\u13b0\u13ea\u13b8\u13a6": 3299,
    "\u2581\u13e7\u13d3\u13d8\u13be\u13a2": 3300,
    "\u2581\u13d7\u13a7\u13c1\u13a2\u13cd\u13d7": 3301,
    "\u2581\u13aa\u13e2\u13d7": 3302,
    "\u2581\u13a5\u13a9\u13c5\u13df": 3303,
    "\u2581\u13a4\u13be\u13d3\u13d1\u13f0\u13db": 3304,
    "\u2581\u13a2\u13e8\u13cd\u13d7\u13f0\u13d7\u13ad": 3305,
    "\u2581\u13a6\u13ef\u13b4\u13cd\u13d7": 3306,
    "\u2581\u13a2\u13ac\u13ea\u13c5\u13db": 3307,
    "\u2581\u13a0\u13d3\u13cd\u13d3\u13f4\u13d7": 3308,
    "\u2581\u13d5\u13aa\u13e2\u13e9\u13d7\u13d2": 3309,
    "\u2581\u13e7\u13c3\u13e9": 3310,
    "\u2581\u13c5\u13d3\u13f3\u13d3\u13b4\u13c5\u13db": 3311,
    "\u2581\u13c2\u13da\u13c5\u13cf\u13f4": 3312,
    "\u2581\u13d7\u13a9\u13c5\u13d2": 3313,
    "\u2581\u13c4\u13c2\u13b2\u13be": 3314,
    "\u2581\u13d7\u13c1\u13d9\u13b2": 3315,
    "\u2581\u13a0\u13c2\u13be\u13c1\u13cd\u13ac": 3316,
    "\u2581\u13c4\u13e0\u13be\u13cd\u13db\u13be": 3317,
    "\u2581\u13a4\u13e2\u13c9\u13d7": 3318,
    "\u2581\u13cc\u13c8": 3319,
    "\u2581\u13da\u13a6\u13cc\u13db": 3320,
    "\u2581\u13a0\u13c6\u13b5\u13cd\u13d3\u13f4\u13d7": 3321,
    "\u2581\u13a0\u13d3\u13e0\u13cd\u13d7": 3322,
    "\u2581\u13a0\u13b9\u13f3\u13b6\u13d7": 3323,
    "\u2581\u13a2\u13e5\u13ea\u13cd\u13d7\u13f1": 3324,
    "\u2581\u13a4\u13c2\u13d1\u13b8\u13d3": 3325,
    "\u2581\u13a1\u13e3\u13b8\u13c9\u13d7\u13f3": 3326,
    "\u2581\u13ac\u13e9\u13d3\u13cd\u13d5\u13b8\u13d7": 3327,
    "\u2581\u13eb\u13a8\u13e5\u13f2\u13b5\u13ad": 3328,
    "\u13c5\u13aa\u13e4": 3329,
    "\u2581\u13a0\u13c2\u13d9\u13be\u13a2": 3330,
    "\u2581\u13d9\u13d7\u13e3\u13d3\u13c5\u13db\u13a2": 3331,
    "\u2581\u13a0\u13c1\u13e2\u13d4\u13c5\u13af": 3332,
    "\u2581\u13ac\u13c1\u13cd\u13d7": 3333,
    "\u2581\u13d3\u13ad\u13c3\u13eb": 3334,
    "\u2581\u13da\u13e6\u13af\u13cd\u13db": 3335,
    "\u2581\u13a4\u13d8\u13f4\u13af": 3336,
    "\u2581\u13a1\u13c3\u13f1": 3337,
    "\u2581\u13a0\u13be\u13d3\u13d9\u13b5\u13cd\u13d3\u13c1\u13af": 3338,
    "\u13bf\u13d5\u13a9": 3339,
    "\u2581\u13a0\u13ef\u13d6\u13be": 3340,
    "\u2581\u13e7\u13d9\u13d3\u13c6\u13db": 3341,
    "\u2581\u13eb\u13a6\u13b6\u13af\u13cd\u13d7": 3342,
    "\u2581\u13a0\u13c6\u13d3\u13b5\u13a2": 3343,
    "\u2581\u13a0\u13ac\u13ad\u13b8\u13db": 3344,
    "\u2581\u13a0\u13d3\u13ea\u13b3\u13a9\u13cd\u13ac": 3345,
    "\u2581\u13a4\u13b6\u13af\u13cd\u13d7": 3346,
    "\u2581\u13af\u13ec\u13c2\u13cd\u13ac": 3347,
    "\u2581\u13a2\u13a7\u13c1\u13a2\u13cd\u13d7": 3348,
    "\u2581\u13a6\u13c6\u13d8": 3349,
    "\u2581\u13a4\u13c3\u13cd\u13db": 3350,
    "\u2581\u13a4\u13cd\u13d7\u13a9\u13db": 3351,
    "\u2581\u13a4\u13c2\u13b5\u13e6\u13e9\u13db": 3352,
    "\u2581\u13a4\u13a9\u13b5\u13f2\u13e8": 3353,
    "\u2581\u13e5\u13c5\u13d7\u13a6\u13b5\u13cd\u13d9\u13d7\u13ad": 3354,
    "\u2581\u13d3\u13ac\u13c1\u13b5": 3355,
    "\u2581\u13f1\u13cd\u13a6\u13a2\u13ae\u13cd\u13d7": 3356,
    "\u2581\u13a4\u13be\u13db\u13c1\u13b8\u13d7": 3357,
    "\u2581\u13a4\u13c2\u13cd\u13c6\u13c2\u13aa\u13d2\u13a9": 3358,
    "\u13a6\u13c3\u13b1\u13a9\u13cd\u13ac": 3359,
    "\u2581\u13a4\u13f0\u13b8\u13ce": 3360,
    "\u2581\u13d7\u13d3\u13ec\u13cd\u13d7": 3361,
    "\u2581\u13ac\u13e9\u13c3\u13c1\u13b4": 3362,
    "\u2581\u13a0\u13aa\u13ce\u13ae\u13cd\u13d7": 3363,
    "\u2581\u13a6\u13b5\u13a1\u13b5\u13a6": 3364,
    "\u2581\u13b9\u13be": 3365,
    "\u13b3\u13a9\u13d2": 3366,
    "\u2581\u13a2\u13aa\u13af": 3367,
    "\u2581\u13f3\u13eb": 3368,
    "\u2581\u13a0\u13c2\u13ef\u13a2": 3369,
    "\u2581\u13d5\u13ac\u13d7\u13cd\u13ac": 3370,
    "\u2581\u13a4\u13db\u13c5\u13a2\u13cd\u13d4\u13c1": 3371,
    "\u2581\u13a2\u13e5\u13c1\u13cd\u13d7": 3372,
    "\u2581\u13ae\u13c2\u13b5": 3373,
    "\u2581\u13a0\u13d3\u13f0\u13a8\u13cd\u13d7": 3374,
    "\u2581\u13a0\u13f4\u13e4\u13c2": 3375,
    "\u2581\u13a0\u13a6\u13b8\u13d3": 3376,
    "\u2581\u13a0\u13aa\u13d4\u13c5\u13af": 3377,
    "\u2581\u13a4\u13c3\u13af\u13f3\u13d7\u13f1": 3378,
    "\u2581\u13a0\u13e5\u13c5\u13cf\u13db": 3379,
    "\u2581\u13e7\u13be\u13c4\u13aa\u13eb\u13d2\u13af": 3380,
    "\u2581\u13f3\u13da\u13b5": 3381,
    "\u2581\u13a9\u13be\u13b5\u13a2": 3382,
    "\u2581\u13ad\u13c2\u13e3": 3383,
    "\u13c3\u13b4": 3384,
    "\u2581\u13d5\u13a7\u13c1\u13e4": 3385,
    "\u2581\u13ee\u13db": 3386,
    "\u13b2\u13cd\u13ac\u13be": 3387,
    "\u13db\u13c1\u13b2": 3388,
    "\u2581\u13a0\u13c2\u13af\u13d7": 3389,
    "\u2581\u13a4\u13be\u13a6\u13d9\u13cd\u13d5\u13a2": 3390,
    "\u2581\u13ef\u13d7\u13ad": 3391,
    "\u2581\u13a7\u13c3\u13a9\u13cd\u13d7": 3392,
    "\u2581\u13c4\u13be\u13b5\u13cd\u13d3\u13c1\u13b8": 3393,
    "\u2581\u13a4\u13be\u13d5\u13d7\u13f1": 3394,
    "\u13d3\u13f4\u13b3\u13db": 3395,
    "\u2581\u13a0\u13f2\u13d9\u13d7": 3396,
    "\u2581\u13d7\u13b5\u13cd\u13aa\u13b8\u13d3\u13c1\u13b8\u13af": 3397,
    "\u2581\u13a0\u13e5\u13b3": 3398,
    "\u2581\u13a0\u13c7\u13c5\u13cd\u13d7": 3399,
    "\u2581\u13a4\u13c2\u13e9\u13db\u13ae": 3400,
    "\u2581\u13e5\u13cd\u13aa\u13b5": 3401,
    "\u13d3\u13c5\u13d6\u13d7": 3402,
    "\u13f0\u13a2\u13b5\u13d3\u13cd\u13d7": 3403,
    "\u2581\u13d5\u13e5\u13c1\u13b8": 3404,
    "\u2581\u13a4\u13c2\u13c1\u13ac": 3405,
    "\u2581\u13a4\u13c2\u13a9\u13cd\u13d7\u13f1": 3406,
    "\u2581\u13d9\u13e5": 3407,
    "\u2581\u13ec\u13a9\u13b7\u13e8\u13a9": 3408,
    "\u2581\u13a4\u13d7\u13d7\u13e2": 3409,
    "\u2581\u13a4\u13e1\u13d7\u13cd\u13a9": 3410,
    "\u2581\u13a0\u13ac\u13d7\u13cd\u13ac\u13a2": 3411,
    "\u2581\u13a1\u13ae\u13be": 3412,
    "\u2581\u13a7\u13eb": 3413,
    "\u2581\u13a0\u13d3\u13b4\u13c2\u13cd\u13ac": 3414,
    "\u13d3\u13c1\u13ae": 3415,
    "\u2581\u13a0\u13c2\u13a9\u13cd\u13ac": 3416,
    "\u2581\u13e7\u13c1\u13e4\u13a2": 3417,
    "\u2581\u13a4\u13ea\u13c5\u13a9": 3418,
    "\u13f2\u13be": 3419,
    "\u13a4\u13f2": 3420,
    "\u2581\u13a6\u13df\u13ae": 3421,
    "\u2581\u13d7\u13e5\u13be\u13eb\u13f1": 3422,
    "\u2581\u13a0\u13aa\u13b5\u13f0\u13d7": 3423,
    "\u2581\u13ea": 3424,
    "\u2581\u13a4\u13f0\u13b8\u13ad": 3425,
    "\u13ef\u13d4\u13ae\u13cd\u13d7": 3426,
    "\u2581\u13d7\u13a7\u13c2\u13a8": 3427,
    "\u2581\u13d3\u13cd\u13db\u13a2": 3428,
    "\u2581\u13a4\u13cc\u13af\u13b8\u13a2": 3429,
    "\u13ef\u13c5": 3430,
    "\u2581\u13d7\u13c1\u13af": 3431,
    "\u2581\u13d5\u13e3\u13a7": 3432,
    "\u2581\u13c4\u13db\u13c5\u13a2": 3433,
    "\u2581\u13ce\u13c9": 3434,
    "\u2581\u13a0\u13e5\u13db\u13d9\u13d7": 3435,
    "\u2581\u13be\u13c6\u13cd\u13db": 3436,
    "\u2581\u13d3\u13c6\u13a7\u13be\u13c5": 3437,
    "\u13cd\u13db\u13a2": 3438,
    "\u2581\u13a0\u13b4\u13c2\u13cd\u13a9": 3439,
    "\u2581\u13a0\u13ef\u13a5": 3440,
    "\u2581\u13a2\u13a9\u13cd\u13a6\u13c5\u13e8\u13a2": 3441,
    "\u2581\u13a4\u13c2\u13c1\u13e8\u13a9": 3442,
    "\u2581\u13a4\u13be\u13d3\u13c5\u13ce": 3443,
    "\u2581\u13a6\u13d3\u13cd\u13ac\u13a2": 3444,
    "\u2581\u13ae\u13d3": 3445,
    "\u2581\u13a4\u13b4\u13c5\u13a9": 3446,
    "\u2581\u13d3\u13e4\u13b8": 3447,
    "\u2581\u13d9\u13ef": 3448,
    "\u2581\u13a6\u13c1\u13df\u13f4\u13cd\u13d7": 3449,
    "\u2581\u13da\u13e9\u13db\u13ae": 3450,
    "\u2581\u13a6\u13c4\u13b8\u13d2": 3451,
    "\u2581\u13d7\u13aa\u13e2": 3452,
    "\u13c2\u13cd\u13d9\u13d7": 3453,
    "\u2581\u13c5\u13b5\u13cc\u13b5\u13c9": 3454,
    "\u2581\u13a4\u13c2\u13a9\u13ce\u13a2": 3455,
    "\u2581\u13a3\u13d2": 3456,
    "\u2581\u13ac\u13a8\u13f3\u13a2": 3457,
    "\u2581\u13a4\u13c2\u13aa\u13b2\u13af": 3458,
    "\u2581\u13cf\u13b3": 3459,
    "\u2581\u13e3\u13da\u13b5\u13cd\u13ac": 3460,
    "\u2581\u13ee\u13d3": 3461,
    "\u13d0\u13c9": 3462,
    "\u13a0\u13c6": 3463,
    "\u2581\u13a4\u13e9\u13d4\u13c5": 3464,
    "\u13d5\u13ef\u13d9\u13d4\u13c5\u13a9": 3465,
    "\u2581\u13a0\u13cd\u13d8": 3466,
    "\u2581\u13a4\u13cd\u13c9\u13df": 3467,
    "\u2581\u13d7\u13a6\u13c5": 3468,
    "\u2581\u13a0\u13b5\u13cd\u13c6\u13d7\u13cd": 3469,
    "\u13c3\u13ae\u13b8": 3470,
    "\u13d4\u13c2\u13d3": 3471,
    "\u13e5\u13b6\u13cf": 3472,
    "\u2581\u13a4\u13c1\u13b3": 3473,
    "\u13a5\u13cf": 3474,
    "\u2581\u13a6\u13c5\u13c5\u13a2": 3475,
    "\u2581\u13aa\u13ea\u13b8\u13a9": 3476,
    "\u2581\u13a6\u13ac\u13e9": 3477,
    "\u2581\u13a4\u13c1\u13d2": 3478,
    "\u2581\u13a4\u13a6\u13c3": 3479,
    "\u2581\u13e8\u13d7": 3480,
    "\u2581\u13d3\u13b6\u13c2\u13a8\u13a2": 3481,
    "\u2581\u13a1\u13a6": 3482,
    "\u2581\u13c4\u13d3\u13b4\u13af": 3483,
    "\u2581\u13a0\u13a6\u13d9": 3484,
    "\u2581\u13a1\u13cd\u13a6\u13c2": 3485,
    "\u2581\u13a4\u13ec\u13b8\u13a2": 3486,
    "\u13a7\u13cf": 3487,
    "\u2581\u13a0\u13c2\u13f2": 3488,
    "\u13d9\u13b3": 3489,
    "\u2581\u13a4\u13ed": 3490,
    "\u13aa\u13b2": 3491,
    "\u13e6\u13e9\u13db": 3492,
    "\u2581\u13a0\u13c2\u13cd\u13a6\u13be\u13a2": 3493,
    "\u13b8\u13c9\u13db\u13be": 3494,
    "\u2581\u13a0\u13d3\u13d9\u13b5\u13cd\u13d9\u13d7": 3495,
    "\u2581\u13c4\u13cd\u13d5\u13a2": 3496,
    "\u13af\u13f3\u13b2\u13cd\u13a6": 3497,
    "\u2581\u13ae\u13af": 3498,
    "\u13a1\u13b5\u13cd\u13d7": 3499,
    "\u2581\u13c5\u13d7": 3500,
    "\u2581\u13a4\u13c1\u13e4\u13b8\u13a2": 3501,
    "\u2581\u13c4\u13b5\u13cd\u13d4\u13c2\u13d9\u13b8\u13a2": 3502,
    "\u2581\u13a4\u13a6\u13db": 3503,
    "\u2581\u13da\u13ec": 3504,
    "\u13cd\u13a6\u13c3\u13b3": 3505,
    "\u13af\u13ef": 3506,
    "\u2581\u13c5\u13e9\u13cd\u13db": 3507,
    "\u2581\u13a5\u13e3": 3508,
    "\u2581\u13f2\u13e5": 3509,
    "\u13ac\u13be\u13a8": 3510,
    "\u2581\u13b5\u13cf": 3511,
    "\u13b5\u13b9": 3512,
    "\u2581\u13a4\u13be\u13db\u13a6\u13c5\u13a9": 3513,
    "\u13a7\u13c5": 3514,
    "\u2581\u13b2\u13a6": 3515,
    "\u13cd\u13d9\u13d7\u13f1": 3516,
    "\u2581\u13d5\u13c5": 3517,
    "\u2581\u13a4\u13cd\u13aa": 3518,
    "\u2581\u13a7\u13b5": 3519,
    "\u13a9\u13cd\u13d7\u13f1": 3520,
    "\u2581...": 3521,
    "\u2581\u13f1\u13be": 3522,
    "\u2581\u13a2\u13e5\u13a9": 3523,
    "ss": 3524,
    "\u13be\u13c9": 3525,
    "\u13e6\u13f0\u13c2": 3526,
    "\u2581\u13a4\u13e9\u13c1": 3527,
    "\u13ef\u13c5\u13b2\u13a9": 3528,
    "\u2581\u13af\u13c1\u13b8": 3529,
    "s": 3530,
    "\u13de": 3531,
    "\u2581\u13a2\u13e3\u13df\u13c2\u13ac\u13c1": 3532,
    "\u2581\u13a0\u13c2\u13d4\u13b5\u13ad": 3533,
    "\u2581\u13e5\u13aa\u13a5": 3534,
    "\u13d9\u13b5\u13e8": 3535,
    "\u2581\u13e3\u13db": 3536,
    "\u13b4\u13c3": 3537,
    "\u2581\u13ac\u13e9\u13cd\u13d3\u13e9\u13d7": 3538,
    "\u2581\u13a4\u13b5\u13cd\u13da\u13a2": 3539,
    "\u2581\u13a4\u13d7\u13d4\u13cd\u13d7": 3540,
    "\u2581\u13be\u13d5\u13d8\u13f4": 3541,
    "\u13d3\u13c5\u13d6\u13b4": 3542,
    "\u2581\u13d7\u13b2": 3543,
    "\u13ec\u13c2\u13cd\u13ac": 3544,
    "\u13e5\u13c3\u13ae\u13cd\u13a9": 3545,
    "\u13f0\u13b8\u13ad": 3546,
    "\u2581\u13d9\u13c9": 3547,
    "\u13d5\u13d7": 3548,
    "\u13e9\u13db": 3549,
    "\u2581\u13a4\u13c2\u13b7\u13e4\u13b8": 3550,
    "\u2581\u13f1\u13d5": 3551,
    "\u13d8\u13c3\u13ae\u13b8\u13a9": 3552,
    "\u2581\u13d3\u13f2": 3553,
    "\u13e6\u13e2\u13d9\u13d7": 3554,
    "\u2581\u13a0\u13cc": 3555,
    "\u13f0\u13b8\u13b2": 3556,
    "\u2581\u13a0\u13a9\u13f0\u13b8\u13c5": 3557,
    "\u13cd\u13da\u13a2\u13d2": 3558,
    "\u13f0\u13b8\u13d7": 3559,
    "\u2581\u13a8\u13a9": 3560,
    "\u13b6\u13cf": 3561,
    "\u2581\u13a2\u13e3\u13b5\u13ae\u13b5": 3562,
    "\u13cf\u13be\u13cc\u13c2": 3563,
    "\u2581\u13d1\u13be\u13b4\u13c9": 3564,
    "\u2581\u13e5\u13c1": 3565,
    "\u2581\u13d3\u13c2\u13b8": 3566,
    "\u2581\u13cd\u13a6": 3567,
    "\u2581\u13a4\u13ea\u13c5\u13ce\u13c3": 3568,
    "\u13e3\u13b5\u13cd\u13d9": 3569,
    "\u2581\u13d7\u13ab": 3570,
    "\u13a6\u13d8\u13f4": 3571,
    "\u2581\u13a4\u13c1\u13c5": 3572,
    "\u2581\u13a0\u13c1\u13b6\u13af": 3573,
    "\u2581\u13ac\u13e9\u13aa\u13e9\u13db": 3574,
    "\u2581\u13ac\u13be": 3575,
    "\u13cd\u13d4\u13c5\u13ad": 3576,
    "\u2581\u13e7\u13c4\u13ec": 3577,
    "\u2581\u13a0\u13a6\u13d4\u13ae": 3578,
    "\u2581\u13d5\u13a6\u13c5": 3579,
    "\u13af\u13d3": 3580,
    "\u2581\u13da\u13c3": 3581,
    "\u2581\u13a4\u13c2\u13c5": 3582,
    "\u13b7\u13e4\u13b8": 3583,
    "\u13c1\u13ce\u13a2": 3584,
    "\u2581\u13f1\u13c2\u13ac": 3585,
    "\u2581\u13da\u13c2\u13f2": 3586,
    "\u2581\u13d7\u13a9\u13a6": 3587,
    "\u13d5\u13ac": 3588,
    "\u13be\u13c4\u13aa\u13e9": 3589,
    "\u13c1\u13b8\u13ad": 3590,
    "\u13b3\u13d5": 3591,
    "\u13cd\u13d6": 3592,
    "\u13db\u13c1\u13b5": 3593,
    "\u2581\u13a4\u13a6": 3594,
    "\u2581\u13a4\u13c2\u13b6\u13d2": 3595,
    "\u2581\u13d7\u13a9\u13f2\u13af": 3596,
    "\u13cf\u13b3": 3597,
    "\u13a4\u13cd\u13d7": 3598,
    "\u13e3\u13b5": 3599,
    "\u13ed": 3600,
    "\u13e6": 3601,
    "\u2581\u13af\u13cd\u13a9\u13a6\u13da": 3602,
    "\u13e3\u13c5\u13a9": 3603,
    "\u13d9\u13ac": 3604,
    "\u2581\u13f1\u13cd\u13a9": 3605,
    "\u2581\u13a4\u13f0": 3606,
    "\u13c5\u13d3\u13d7\u13cd\u13d7": 3607,
    "\u13db\u13d4\u13c2": 3608,
    "\u2581\u13a4\u13cd\u13c6\u13c2\u13aa\u13d9\u13d7": 3609,
    "\u2581\u13a0\u13d3\u13c5": 3610,
    "\u2581\u13a4\u13e9\u13d2\u13cd\u13a9\u13c2": 3611,
    "\u2581\u13eb\u13e8\u13f2\u13ea\u13b3": 3612,
    "\u2581\u13a6\u13c2\u13cf": 3613,
    "\u2581\u13c4\u13ec": 3614,
    "\u2581\u13be\u13d3": 3615,
    "\u2581\u13c2\u13e8": 3616,
    "\u13f2\u13cd\u13d4\u13c2": 3617,
    "\u2581\u13d3\u13a8\u13e3": 3618,
    "\u2581\u13a4\u13be\u13d5": 3619,
    "\u13e2\u13a2": 3620,
    "\u13cb": 3621,
    "\u2581\u13c2\u13a6\u13a5\u13a9": 3622,
    "\u13be\u13c4\u13aa\u13eb\u13ce\u13b8": 3623,
    "\u2581\u13da\u13c2\u13a7\u13b5": 3624,
    "\u13a2\u13cd\u13d9\u13d7": 3625,
    "\u2581\u13cd": 3626,
    "\u13e9\u13d2": 3627,
    "\u2581\u13c8\u13b5": 3628,
    "\u2581\u13a2\u13cd\u13d3": 3629,
    "\u13c9\u13cd\u13aa": 3630,
    "\u13e0\u13cd\u13d7": 3631,
    "\u13b5\u13d9\u13b4": 3632,
    "\u2581\u13d5\u13e8": 3633,
    "\u13cd\u13d3\u13f1": 3634,
    "\u2581\u13e5\u13da\u13c2": 3635,
    "\u13d8\u13c3\u13b8": 3636,
    "\u13e5\u13aa\u13e9\u13db\u13d7\u13f1": 3637,
    "\u13c7\u13c5": 3638,
    "\u13af\u13af": 3639,
    "\u13c6\u13cf": 3640,
    "\u13f4\u13d7": 3641,
    "\u13b8\u13db": 3642,
    "\u2581\u13a4\u13ad": 3643,
    "\u13c1\u13e8": 3644,
    "\u2581\u13a4\u13be\u13a9\u13b8": 3645,
    "\u13b2\u13ce": 3646,
    "\u13e8\u13d7": 3647,
    "\u13cd\u13d7\u13cd\u13a9": 3648,
    "\u13aa\u13db": 3649,
    "\u2581\u13a4\u13cd\u13d7\u13c9": 3650,
    "\u2581\u13a2\u13e5\u13e0": 3651,
    "\u2581\u13ac\u13e9\u13d3": 3652,
    "\u13b4\u13a3": 3653,
    "\u2581\u13a4\u13c3\u13ae\u13b8": 3654,
    "\u13c2\u13d7": 3655,
    "\u13cd\u13c6\u13c2\u13aa\u13d4\u13c2": 3656,
    "\u13cd\u13da": 3657,
    "\u2581\u13a4\u13b5\u13ae\u13b5\u13e8": 3658,
    "\u13ec\u13a5": 3659,
    "\u2581\u13c2\u13e3\u13db\u13c1\u13b2": 3660,
    "\u2581\u13a4\u13c2\u13d9": 3661,
    "d": 3662,
    "\u2581\u13da\u13be\u13c4\u13aa\u13eb\u13ce\u13b4": 3663,
    "\u2581\u13a6\u13a6\u13b6": 3664,
    "\u2581\u13d3\u13c2\u13d9\u13a8": 3665,
    "\u2581\u13d9\u13d3\u13c6\u13cd\u13ac": 3666,
    "\u13e7\u13cd\u13c6\u13f4\u13cd\u13d7": 3667,
    "\u13d7\u13a6\u13b5\u13a0\u13c5\u13af\u13db": 3668,
    "\u2581\u13e4\u13b2": 3669,
    "\u2581\u13d5\u13a6\u13b6\u13a8\u13d2": 3670,
    "\u2581\u13d7\u13e7": 3671,
    "\u13d1\u13be\u13b4": 3672,
    "\u13a6\u13b8\u13b3\u13d7": 3673,
    "\u2581\u13a4\u13e6\u13f1\u13b4": 3674,
    "\u2581\u13ed\u13c2\u13b6\u13ce": 3675,
    "\u2581\u13a4\u13cc\u13af\u13b8": 3676,
    "\u2581\u13d5\u13e3\u13d3\u13c5\u13db": 3677,
    "\u2581\u13a7\u13c1\u13cc": 3678,
    "\u2581\u13a0\u13cd\u13c6\u13b5\u13cd\u13ac": 3679,
    "\u2581\u13a4\u13d3\u13d1\u13f4": 3680,
    "\u2581\u13a4\u13be\u13c4\u13aa\u13eb\u13ce\u13b4": 3681,
    "\u2581\u13d9\u13d3\u13ac": 3682,
    "\u13b3\u13c1": 3683,
    "\u2581\u13c4\u13be\u13db\u13c1\u13b4": 3684,
    "\u13a4\u13d9\u13af\u13f3\u13af": 3685,
    "\u2581\u13a0\u13c2\u13cd\u13a6\u13a2\u13b2": 3686,
    "\u13a2\u13a6": 3687,
    "\u13d4\u13f2\u13cd\u13d7": 3688,
    "\u2581\u13a4\u13c2\u13f4\u13ae": 3689,
    "\u2581\u13c2\u13a8\u13ce": 3690,
    "\u2581\u13a4\u13ea\u13f4": 3691,
    "\u2581\u13e7\u13b5\u13cf": 3692,
    "\u13d3\u13b4\u13c2\u13cd\u13ac": 3693,
    "\u13cd\u13c8\u13ef": 3694,
    "\u2581\u13a0\u13ab": 3695,
    "\u2581\u13ec\u13a9\u13b7\u13e8": 3696,
    "\u2581\u13c2\u13a6\u13c5\u13af\u13d2": 3697,
    "\u2581\u13a6\u13a2\u13d2": 3698,
    "\u2581\u13a1\u13b5\u13cd\u13ac": 3699,
    "\u2581\u13be\u13ef\u13db\u13a5": 3700,
    "\u13ac\u13c1\u13b5": 3701,
    "\u13e0\u13e8": 3702,
    "\u2581\u13d5\u13a6\u13a7\u13b2": 3703,
    "\u13d3\u13c2\u13b8\u13a2\u13cd\u13d7": 3704,
    "\u2581\u13a4\u13c1\u13dd\u13c5": 3705,
    "\u13a6\u13b8": 3706,
    "\u2581\u13d3\u13a9\u13b8\u13eb\u13cd\u13d3\u13c1\u13b2": 3707,
    "\u2581\u13da\u13e9\u13c2\u13a6\u13b8": 3708,
    "\u2581\u13a4\u13c1\u13a2\u13cd\u13d4\u13c5": 3709,
    "\u13b8\u13eb\u13cd\u13d3\u13c1\u13d7": 3710,
    "\u2581\u13e7\u13ed\u13aa\u13d9\u13d7": 3711,
    "\u2581\u13a4\u13be\u13c2\u13a9\u13d2": 3712,
    "\u13a6\u13b5\u13b7\u13a8\u13cd\u13d7": 3713,
    "\u2581\u13a5\u13de": 3714,
    "\u2581\u13c2\u13a6\u13db\u13c1\u13b2": 3715,
    "\u2581\u13aa\u13b5\u13cd\u13d7": 3716,
    "\u13f2\u13a6": 3717,
    "\u13a6\u13d8\u13d5\u13af": 3718,
    "\u2581\u13e7\u13c2\u13b8\u13eb\u13cd\u13d3\u13c1\u13d7": 3719,
    "\u2581\u13a0\u13e9\u13be\u13a6\u13b3": 3720,
    "\u2581\u13e5\u13a6\u13d8\u13cf": 3721,
    "\u2581\u13a0\u13b5\u13cf\u13be\u13af\u13cd\u13d4\u13c5\u13af": 3722,
    "\u2581\u13a0\u13c2\u13f0\u13aa\u13a9": 3723,
    "\u2581\u13a0\u13f2\u13d3\u13cc\u13b2": 3724,
    "\u2581\u13a4\u13be\u13d7\u13cd\u13a6\u13df": 3725,
    "\u2581\u13a4\u13e9\u13ad\u13c2\u13b4": 3726,
    "\u2581\u13c2\u13a9\u13ea\u13ce\u13b8\u13ad": 3727,
    "\u2581\u13c5\u13e7\u13d3\u13b4\u13c5\u13b2\u13be": 3728,
    "\u2581\u13c5\u13db\u13c6\u13d3\u13b4\u13c5\u13af": 3729,
    "\u2581\u13d7\u13e6\u13ea\u13b5\u13cd\u13a9": 3730,
    "\u2581\u13a0\u13d0\u13a5\u13cd\u13d9\u13d7": 3731,
    "\u2581\u13cf\u13b5\u13c6": 3732,
    "\u2581\u13e3\u13d3\u13f2\u13c1\u13b8\u13a9": 3733,
    "\u2581\u13a0\u13be\u13d3\u13cd\u13a6\u13b6\u13a9": 3734,
    "\u2581\u13a6\u13c5\u13c3\u13e9": 3735,
    "\u2581\u13c5\u13e5\u13ea\u13ce\u13b8\u13a9": 3736,
    "\u2581\u13a4\u13da\u13d3\u13b4\u13db": 3737,
    "\u2581\u13a0\u13d3\u13ea\u13af": 3738,
    "\u2581\u13c4\u13be\u13d3\u13a1\u13cd\u13d7": 3739,
    "\u2581\u13a4\u13ea\u13d0\u13c5\u13f4": 3740,
    "\u2581\u13e6\u13d1\u13eb": 3741,
    "\u2581\u13a4\u13db\u13b4\u13ae": 3742,
    "\u2581\u13a4\u13bf\u13b7\u13d2\u13a9": 3743,
    "\u2581\u13a2\u13e3\u13db\u13d3\u13cd\u13d3": 3744,
    "\u2581\u13a2\u13b3\u13a9\u13f3": 3745,
    "\u2581\u13a0\u13aa\u13d5\u13cd\u13a9": 3746,
    "\u2581\u13e7\u13c1\u13bf\u13a2": 3747,
    "\u2581\u13a0\u13cd\u13a9\u13d3\u13cd\u13ac": 3748,
    "\u2581\u13e4\u13c6\u13b3\u13c2": 3749,
    "\u2581\u13e7\u13c1\u13b5\u13c1": 3750,
    "\u2581\u13a4\u13b5\u13cf\u13c2\u13d5\u13c5": 3751,
    "\u2581\u13a8\u13b4\u13cf\u13f1": 3752,
    "\u2581\u13a4\u13b5\u13f2\u13d7": 3753,
    "\u2581\u13d7\u13a7\u13c3\u13a9\u13cd\u13d9\u13d7": 3754,
    "\u2581\u13a2\u13aa\u13ea\u13b3": 3755,
    "\u2581\u13d5\u13e5\u13c3\u13a9\u13cd\u13a8\u13cd\u13d7": 3756,
    "\u2581\u13be\u13a8\u13a2\u13f4": 3757,
    "\u2581\u13a0\u13be\u13d3\u13cd\u13d3\u13e9\u13d7\u13d9\u13af": 3758,
    "\u2581\u13a4\u13c2\u13a9\u13b5\u13f2\u13a2\u13cd\u13d7": 3759,
    "\u2581\u13d3\u13f2\u13e4\u13cf": 3760,
    "\u2581\u13d4\u13d8\u13c4\u13a6": 3761,
    "\u2581\u13a0\u13be\u13b5\u13cd\u13d5\u13b5\u13cd\u13a9": 3762,
    "\u2581\u13f1\u13c2\u13ac\u13c1\u13ad": 3763,
    "\u2581\u13a0\u13d3\u13c5\u13d6\u13cd\u13aa": 3764,
    "\u2581\u13c2\u13a9\u13ea\u13cf": 3765,
    "\u2581\u13da\u13a8\u13d3\u13b5\u13f4": 3766,
    "\u2581\u13a0\u13be\u13d3\u13e4\u13b5": 3767,
    "\u2581\u13a0\u13e6\u13b3\u13c5": 3768,
    "\u2581\u13d5\u13e5\u13a7\u13bf\u13e9\u13d7\u13d9\u13ae\u13cd\u13d7": 3769,
    "\u2581\u13da\u13cd\u13d3\u13a6\u13b8": 3770,
    "\u2581\u13f1\u13e4\u13b5\u13af\u13cd\u13a8\u13cd\u13d7": 3771,
    "\u2581\u13a4\u13c1\u13c9\u13e8": 3772,
    "\u2581\u13d7\u13a6\u13b6\u13d4\u13c5": 3773,
    "\u2581\u13da\u13ad\u13c4\u13ee": 3774,
    "\u2581\u13e7\u13be\u13ac\u13e9\u13b6\u13d7": 3775,
    "\u2581\u13a4\u13ed\u13e2\u13d4\u13c5\u13a9": 3776,
    "\u13d8\u13ef\u13cd\u13d3\u13c1": 3777,
    "\u2581\u13d7\u13be\u13a2\u13d2": 3778,
    "\u2581\u13d5\u13aa\u13ea\u13b4\u13cd\u13d7": 3779,
    "\u2581\u13eb\u13d7\u13b6\u13af": 3780,
    "\u2581\u13d3\u13a6\u13db\u13c1\u13b5": 3781,
    "\u2581\u13c4\u13ea\u13b2\u13be": 3782,
    "\u2581\u13a2\u13e6\u13af\u13f3\u13d7\u13f1": 3783,
    "\u2581\u13a4\u13db\u13a6\u13cd\u13d5": 3784,
    "\u2581\u13d3\u13f1\u13be": 3785,
    "\u2581\u13ae\u13b5\u13a0": 3786,
    "\u2581\u13a0\u13d3\u13f2\u13c1\u13ae\u13cd\u13d7": 3787,
    "\u2581\u13a8\u13e5\u13cd\u13d5\u13b8\u13d7": 3788,
    "\u2581\u13a1\u13e5\u13c5\u13cf\u13d3\u13cd\u13d7": 3789,
    "\u2581\u13a2\u13ac\u13db\u13c1\u13d7": 3790,
    "\u2581\u13a3\u13a6\u13da\u13b5\u13ad": 3791,
    "\u2581\u13a4\u13cd\u13c6": 3792,
    "\u2581\u13e5\u13da\u13f3\u13aa\u13d7": 3793,
    "\u2581\u13e7\u13c2\u13b6\u13b8\u13d7": 3794,
    "\u2581\u13a0\u13ab\u13e9\u13cc": 3795,
    "\u2581\u13a6\u13c2\u13a9\u13b8": 3796,
    "\u2581\u13a2\u13ef\u13e5\u13b8\u13c9\u13d7": 3797,
    "\u2581\u13a4\u13ac\u13a5\u13cd\u13a9": 3798,
    "\u2581\u13f0\u13d9\u13ad": 3799,
    "\u2581\u13a0\u13c2\u13aa\u13b2\u13ad": 3800,
    "\u2581\u13a0\u13f0\u13df": 3801,
    "\u2581\u13bf\u13db\u13a6": 3802,
    "\u2581\u13ac\u13ec\u13af\u13f3\u13c5\u13a9": 3803,
    "\u2581\u13e7\u13c2\u13c1\u13df\u13f4\u13cd\u13d7": 3804,
    "\u2581\u13e3\u13a6\u13e8\u13cd": 3805,
    "\u2581\u13a4\u13b4\u13f4\u13d2": 3806,
    "\u2581\u13a0\u13cd\u13d5\u13ef\u13d3": 3807,
    "\u2581\u13b2\u13d3": 3808,
    "\u2581\u13a2\u13f3\u13ea\u13ce\u13b8\u13af": 3809,
    "\u2581\u13cd\u13a9\u13cd\u13d3\u13e9\u13da\u13a6": 3810,
    "\u2581\u13d3\u13ad\u13cf": 3811,
    "\u2581\u13a4\u13c2\u13aa\u13e9\u13db\u13d7\u13f1": 3812,
    "\u2581\u13af\u13b8\u13c9\u13d3": 3813,
    "\u2581\u13e3\u13d9\u13b3\u13c5\u13cd\u13d7": 3814,
    "\u2581\u13a4\u13d5\u13b6\u13b0\u13d2": 3815,
    "\u2581\u13ad\u13d3\u13c5\u13be": 3816,
    "\u2581\u13d7\u13ab\u13aa\u13d7\u13cd\u13a9": 3817,
    "\u2581\u13a4\u13b6\u13d7\u13e2": 3818,
    "\u2581\u13c2\u13f4\u13c1\u13b8": 3819,
    "\u2581\u13c2\u13e3\u13db\u13bf\u13d5\u13ac\u13a2": 3820,
    "\u2581\u13d7\u13aa\u13e2\u13c5\u13af": 3821,
    "\u2581\u13d1\u13d3\u13b5\u13cd\u13aa\u13af": 3822,
    "\u2581\u13a0\u13cd\u13a9\u13d7\u13cd\u13a8\u13a2": 3823,
    "\u2581\u13a2\u13e3\u13da\u13b5\u13cd\u13a8\u13cd\u13d7": 3824,
    "\u2581\u13a2\u13a9\u13c1\u13b8": 3825,
    "\u2581\u13da\u13ef\u13ea\u13a8": 3826,
    "\u2581\u13a2\u13e5\u13ef\u13a1\u13cd\u13d7": 3827,
    "\u2581\u13cd\u13c8\u13cd\u13d4": 3828,
    "\u2581\u13d7\u13e3\u13a7\u13c5\u13a6": 3829,
    "\u2581\u13eb\u13e5\u13b7\u13e8\u13ad": 3830,
    "\u2581\u13a2\u13e3\u13b5\u13ae\u13b5\u13a8\u13cd\u13d7": 3831,
    "\u2581\u13a8\u13e5\u13c5\u13d2\u13af": 3832,
    "\u2581\u13e5\u13e3\u13db\u13a9\u13ad": 3833,
    "\u2581\u13c7\u13d7\u13c2\u13f1": 3834,
    "\u2581\u13d7\u13a9\u13b8\u13eb\u13cd\u13d3\u13c1\u13d7\u13f1": 3835,
    "\u2581\u13a1\u13e5\u13ef\u13c5\u13db": 3836,
    "\u2581\u13b6\u13bb": 3837,
    "\u2581\u13a0\u13e0\u13d7\u13f1": 3838,
    "\u2581\u13ce\u13d8": 3839,
    "\u2581\u13e7\u13b3\u13cd\u13a9": 3840,
    "\u2581\u13a4\u13be\u13db\u13c5\u13a9": 3841,
    "\u2581\u13e7\u13b7\u13eb\u13cd\u13d4\u13c1\u13d7": 3842,
    "\u2581\u13a0\u13c2\u13a6\u13f2\u13df": 3843,
    "\u2581\u13d7\u13e3\u13d3\u13b4\u13c5\u13db": 3844,
    "\u2581\u13c8\u13b5\u13cf": 3845,
    "\u2581\u13cd\u13aa\u13c1": 3846,
    "\u2581\u13a0\u13a9\u13b5\u13a8\u13c2": 3847,
    "\u2581\u13a0\u13c2\u13f4\u13a9": 3848,
    "\u2581\u13a4\u13be\u13d3\u13d9\u13b5\u13cd\u13d3\u13c1\u13b8\u13a9": 3849,
    "\u2581\u13a6\u13c3\u13d9\u13d7\u13f1": 3850,
    "\u2581\u13a4\u13c1\u13af": 3851,
    "\u2581\u13aa\u13af\u13a2\u13f4": 3852,
    "\u2581\u13a2\u13a6\u13b5\u13cd\u13d9\u13d7\u13f1": 3853,
    "\u2581\u13da\u13c3\u13b8": 3854,
    "\u2581\u13a2\u13e8\u13c3\u13ae\u13ae\u13b8": 3855,
    "\u2581\u13c2\u13e8\u13a6": 3856,
    "\u2581\u13aa\u13b0\u13cd": 3857,
    "\u2581\u13a2\u13a6\u13a6\u13d3": 3858,
    "\u2581\u13a4\u13d3\u13d9\u13b5\u13e3\u13db": 3859,
    "\u2581\u13a0\u13e8\u13cd\u13db": 3860,
    "\u2581\u13b9\u13a6": 3861,
    "\u2581\u13c4\u13e9\u13c1\u13b0": 3862,
    "\u2581\u13d3\u13be\u13d5\u13f2\u13b2\u13cd\u13ac": 3863,
    "\u2581\u13a4\u13a6\u13d4\u13d4\u13c5\u13af": 3864,
    "\u2581\u13a4\u13c3\u13af\u13f3\u13c5\u13af": 3865,
    "\u2581\u13a0\u13d3\u13c1\u13e3\u13cd\u13da\u13b6\u13a9\u13af": 3866,
    "\u13a1\u13b8": 3867,
    "\u2581\u13a0\u13cd\u13ab\u13d5\u13cd\u13d7\u13f1": 3868,
    "\u2581\u13a4\u13f0\u13e8": 3869,
    "\u2581\u13ef\u13c2\u13a6\u13d4\u13ae": 3870,
    "\u2581\u13e5\u13c1\u13a6": 3871,
    "\u2581\u13a4\u13db\u13d2\u13af": 3872,
    "\u2581\u13a2\u13cd\u13d5\u13be": 3873,
    "\u2581\u13d7\u13d8\u13f2\u13af": 3874,
    "\u2581\u13c3\u13a9\u13ea\u13ce\u13b8": 3875,
    "\u2581\u13a0\u13a6\u13d4\u13af\u13f3": 3876,
    "\u2581\u13a4\u13d3\u13f4\u13ce\u13a2": 3877,
    "\u13f0\u13b8": 3878,
    "\u2581\u13ac\u13e9\u13db\u13d7": 3879,
    "\u2581\u13e5\u13d9\u13a6": 3880,
    "\u2581\u13a4\u13be\u13d5\u13d7": 3881,
    "\u2581\u13a4\u13ea\u13a7\u13c1\u13a2": 3882,
    "\u2581\u13e7\u13d3\u13b4": 3883,
    "\u2581\u13d3\u13a7\u13c5": 3884,
    "\u2581\u13e5\u13aa\u13e9\u13d8\u13cd\u13ac": 3885,
    "\u2581\u13a4\u13c1\u13c9\u13e8\u13af": 3886,
    "\u2581\u13a4\u13be\u13c4\u13aa\u13a2\u13cd\u13d7": 3887,
    "\u2581\u13a9\u13b3\u13af\u13f3": 3888,
    "\u2581\u13aa\u13ea\u13b4": 3889,
    "\u2581\u13c7\u13b5\u13a9": 3890,
    "\u2581\u13a4\u13c3\u13af\u13f3\u13c5\u13a9": 3891,
    "\u2581\u13d3\u13e8\u13c1\u13b5": 3892,
    "\u2581\u13d7\u13a6\u13e5": 3893,
    "\u2581\u13a4\u13aa\u13e9\u13db\u13d7\u13f1": 3894,
    "\u2581\u13a8\u13b5\u13cd\u13a9": 3895,
    "\u2581\u13e5\u13ef\u13b5\u13a1\u13b5\u13e4": 3896,
    "\u13c1\u13c9\u13e5": 3897,
    "\u2581\u13a1\u13d3\u13cd\u13d7": 3898,
    "\u2581\u13a4\u13be\u13db\u13aa\u13d7\u13f1": 3899,
    "\u2581\u13a4\u13ea\u13cd\u13a9\u13b8\u13a2": 3900,
    "\u2581\u13eb\u13e5\u13a6\u13db\u13a2": 3901,
    "\u2581\u13a4\u13c2\u13be\u13eb": 3902,
    "\u2581\u13e7\u13d3\u13b5\u13a2": 3903,
    "\u2581\u13a4\u13a9\u13d2\u13a9": 3904,
    "\u2581\u13a0\u13c2\u13c3\u13ae\u13ad": 3905,
    "\u2581\u13c2\u13da\u13e9\u13c1\u13b4\u13a2": 3906,
    "\u2581\u13a4\u13cd\u13c6\u13c2\u13aa\u13db": 3907,
    "\u2581\u13bb\u13b3": 3908,
    "\u2581\u13a2\u13a6\u13b5\u13a2": 3909,
    "\u2581\u13be\u13ef\u13db\u13a5\u13a9": 3910,
    "\u2581\u13a4\u13d3\u13d9\u13b5\u13cd\u13d4\u13c1\u13a2": 3911,
    "\u2581\u13d7\u13be\u13d3\u13aa\u13be\u13d7\u13cd\u13ac\u13a2": 3912,
    "\u2581\u13a0\u13be\u13d3\u13aa\u13be\u13d7\u13cd\u13ac\u13a2": 3913,
    "\u13cd\u13a6\u13ce\u13d7": 3914,
    "\u2581\u13a4\u13be\u13c2\u13a9\u13d2\u13a9": 3915,
    "\u2581\u13a6\u13d3\u13d9\u13b5\u13cd\u13d7\u13cd\u13ac\u13a2": 3916,
    "\u2581\u13a2\u13aa": 3917,
    "\u2581\u13a2\u13f3\u13d2\u13af": 3918,
    "\u2581\u13a0\u13a6\u13cd\u13a9": 3919,
    "\u2581\u13a4\u13ec\u13e2\u13c5": 3920,
    "\u2581\u13e5\u13f0\u13b8\u13a2": 3921,
    "\u13c5\u13ec\u13d7\u13f1": 3922,
    "\u2581\u13a3\u13b5\u13e9\u13f2": 3923,
    "\u13d3\u13db\u13cd\u13a9": 3924,
    "\u2581\u13a4\u13be\u13c2\u13a9\u13ce\u13a2": 3925,
    "\u2581\u13a4\u13be\u13d3\u13c5\u13d6\u13b4": 3926,
    "\u2581\u13a4\u13e9\u13d4\u13c5\u13a9": 3927,
    "\u2581\u13a4\u13c7\u13d3\u13b5\u13c9": 3928,
    "\u2581\u13a4\u13c2\u13e3\u13d6\u13cd\u13d7": 3929,
    "\u2581\u13a0\u13c6\u13e3": 3930,
    "\u2581\u13a4\u13a9\u13ce\u13a2": 3931,
    "\u2581\u13da\u13e9\u13c2\u13a6\u13b8\u13a2": 3932,
    "\u2581\u13a4\u13e6\u13f1\u13b4\u13a2": 3933,
    "\u2581\u13a4\u13b5\u13cd\u13c6\u13db": 3934,
    "\u2581\u13a0\u13a2\u13d2\u13a9": 3935,
    "\u2581\u13a4\u13be\u13d3\u13c5\u13d6\u13b8": 3936,
    "\u2581\u13a6\u13ef\u13b8": 3937,
    "\u13d3\u13c2\u13b8\u13a9": 3938,
    "\u2581\u13e5\u13c4\u13cd\u13d5": 3939,
    "\u2581\u13e3\u13d7\u13ad": 3940,
    "\u2581\u13a4\u13cd\u13aa\u13d2": 3941,
    "\u2581\u13a4\u13d7\u13db\u13ae\u13a2": 3942,
    "\u13f0\u13db": 3943,
    "\u2581\u13a2\u13e3\u13d3\u13c5\u13d6\u13cd\u13ac": 3944,
    "\u2581\u13a4\u13f2\u13a2\u13f4": 3945,
    "\u2581\u13ed\u13c2\u13b7\u13e8\u13a9": 3946,
    "\u13d4\u13b5": 3947,
    "\u2581\u13dd\u13a8": 3948,
    "\u13d7\u13c2\u13cd\u13aa\u13c2\u13af": 3949,
    "\u2581\u13eb\u13a6\u13b7\u13ac": 3950,
    "\u2581\u13a0\u13d3\u13af\u13af": 3951,
    "\u2581\u13a4\u13c1\u13cd\u13d4": 3952,
    "\u2581\u13a0\u13a9\u13c1\u13e8\u13a2": 3953,
    "\u13da\u13a2\u13cd\u13d3\u13c1\u13b4": 3954,
    "\u2581\u13e7\u13c1\u13a6": 3955,
    "\u2581\u13cd\u13a9\u13cd\u13d5\u13b8": 3956,
    "\u2581\u13ab\u13a6": 3957,
    "\u2581\u13a2\u13d7\u13ac\u13c1": 3958,
    "\u13c3\u13af\u13ce\u13b4": 3959,
    "\u2581\u13eb\u13da\u13ef\u13c5\u13ae\u13a2": 3960,
    "\u2581\u13a2\u13e8\u13d7\u13cd\u13ac": 3961,
    "\u2581\u13a4\u13c4\u13aa\u13e4\u13a2": 3962,
    "\u2581\u13a2\u13d4": 3963,
    "\u2581\u13d7\u13d0\u13f4": 3964,
    "\u2581\u13c2\u13d5\u13ac\u13c1\u13b2": 3965,
    "\u2581\u13a4\u13c5\u13ce\u13a2": 3966,
    "\u2581\u13a0\u13c1\u13ae\u13cd\u13d7": 3967,
    "\u13ef\u13a5\u13a2": 3968,
    "\u2581\u13ea\u13e3": 3969,
    "\u2581\u13af\u13a6\u13d4\u13b2": 3970,
    "\u13d4\u13c1\u13cd\u13d7": 3971,
    "\u13db\u13c1\u13d7\u13f1": 3972,
    "\u13de\u13cd\u13d7": 3973,
    "\u2581\u13ad\u13d7": 3974,
    "\u2581\u13e7\u13c1\u13d7\u13f1": 3975,
    "\u13a6\u13db\u13a6": 3976,
    "\u2581\u13a4\u13ec\u13e8": 3977,
    "\u2581\u13a4\u13aa\u13b5\u13f0\u13a5": 3978,
    "\u2581\u13a4\u13b7\u13e4\u13b4\u13a2": 3979,
    "\u2581\u13d7\u13ac\u13e9\u13be": 3980,
    "\u2581\u13a4\u13e9\u13d4\u13c1": 3981,
    "\u2581\u13a1\u13be\u13a2": 3982,
    "\u2581\u13a4\u13c1\u13cd\u13a9\u13b8": 3983,
    "\u13d3\u13c1\u13af": 3984,
    "\u2581\u13a4\u13ec\u13c2\u13ce": 3985,
    "\u13b3\u13c5\u13a9": 3986,
    "\u2581\u13da\u13d9\u13cd\u13db": 3987,
    "\u2581\u13a4\u13be\u13db\u13c1": 3988,
    "\u2581\u13c4\u13e9\u13c1\u13b8\u13a9": 3989,
    "\u13cd\u13d7\u13cd\u13a8\u13a2": 3990,
    "\u13df\u13cc\u13c2": 3991,
    "\u13a8\u13ce\u13a2": 3992,
    "\u2581\u13a0\u13be\u13b5\u13ae\u13b5\u13a8": 3993,
    "\u2581\u13a4\u13aa\u13d7": 3994,
    "\u13b5\u13cd\u13d3\u13f4\u13b2\u13cd\u13a6": 3995,
    "\u13c5\u13a6": 3996,
    "\u13cf\u13d0\u13d7": 3997,
    "\u2581\u13d9\u13d3\u13a8": 3998,
    "\u2581\u13c2\u13e5\u13ea\u13ce\u13b8": 3999,
    "\u2581\u13e7\u13c1\u13e4\u13b4": 4000,
    "\u2581\u13a4\u13e4\u13b8": 4001,
    "\u13ab\u13e9": 4002,
    "\u2581\u13a4\u13c2\u13aa\u13b2\u13a9": 4003,
    "\u2581\u13d7\u13ac\u13a9": 4004,
    "\u2581\u13d3\u13ac\u13a9": 4005,
    "\u2581\u13d7\u13a9\u13a6\u13f4\u13b5\u13a8\u13a2": 4006,
    "\u2581\u13e5\u13d7": 4007,
    "\u13d6\u13b5": 4008,
    "\u13b5\u13cd\u13aa\u13b8\u13d3\u13c1\u13d7\u13f1": 4009,
    "\u2581\u13c2\u13da\u13a9\u13e8\u13c2\u13d2\u13a2": 4010,
    "\u13c4\u13aa\u13eb\u13cf": 4011,
    "\u2581\u13a4\u13c1\u13c5\u13cd\u13d7": 4012,
    "\u13d9\u13b2\u13a2": 4013,
    "\u13e2\u13be\u13c1\u13d7": 4014,
    "\u2581\u13e7\u13be\u13e6": 4015,
    "\u2581\u13a0\u13e6\u13f4\u13a2": 4016,
    "\u2581\u13a4\u13cd\u13a6\u13c5\u13e8\u13a2": 4017,
    "\u13c5\u13d7\u13cd\u13a8\u13cd\u13d7": 4018,
    "\u2581\u13d5\u13ac\u13e9\u13c2": 4019,
    "\u13b2\u13cd\u13aa\u13a2": 4020,
    "\u2581\u13aa\u13a6": 4021,
    "\u2581\u13c3\u13f3": 4022,
    "\u2581\u13f1\u13d3\u13a9": 4023,
    "\u2581\u13d5\u13e3\u13d9\u13a5\u13a2": 4024,
    "\u13c7\u13b5": 4025,
    "\u2581\u13a4\u13d3\u13c5\u13d9\u13a9": 4026,
    "\u13d2\u13d7": 4027,
    "\u13ea\u13ce\u13d7": 4028,
    "\u13f0\u13b2": 4029,
    "\u2581\u13d7\u13cd\u13c6": 4030,
    "\u13cf\u13b3\u13db\u13d7": 4031,
    "\u13f3\u13cd\u13d7": 4032,
    "\u2581\u13e3\u13aa": 4033,
    "\u13e3\u13d7": 4034,
    "\u13cf\u13e9": 4035,
    "\u2581\u13c3\u13a9": 4036,
    "\u2581\u13a4\u13cd\u13d3\u13f1\u13d5": 4037,
    "\u2581\u13e6\u13e5": 4038,
    "\u2581\u13a4\u13b5\u13cd\u13c6\u13d5": 4039,
    "\u13df\u13ef": 4040,
    "\u13b3\u13da": 4041,
    "\u2581\u13a4\u13a7\u13b5\u13b8": 4042,
    "\u13e8\u13be": 4043,
    "\u13a9\u13cd\u13ac": 4044,
    "\u13d3\u13c1\u13ae\u13cd\u13d7": 4045,
    "\u13ac\u13c2\u13a8": 4046,
    "\u2581\u13a4\u13d9\u13af\u13f3\u13ad": 4047,
    "\u2581\u13a0\u13c2\u13c1\u13b8": 4048,
    "\u13a7\u13c1\u13b8": 4049,
    "\u2581\u13d7\u13db": 4050,
    "\u13aa\u13c5": 4051,
    "\u13cc\u13b3\u13d3\u13c1": 4052,
    "\u2581\u13d7\u13a8\u13a6": 4053,
    "\u2581\u13c2\u13ac\u13c1\u13b8": 4054,
    "\u13a6\u13d4\u13b2": 4055,
    "\u13c2\u13cc\u13c2": 4056,
    "\u2581\u13a0\u13c9\u13e2": 4057,
    "\u2581\u13a0\u13c3\u13b5": 4058,
    "\u13c5\u13a6\u13b8\u13db": 4059,
    "\u2581\u13c4\u13ea\u13ce\u13b8\u13a2": 4060,
    "\u13aa\u13b5\u13c2\u13d7": 4061,
    "\u2581\u13a4\u13d3\u13c5\u13d2": 4062,
    "\u13cf\u13d7": 4063,
    "\u2581\u13a4\u13cd\u13c6\u13b8": 4064,
    "\u2581\u13a4\u13a7\u13b5": 4065,
    "\u13a6\u13d9\u13a5\u13ce": 4066,
    "\u2581\u13a4\u13c1\u13c5\u13ce\u13c3": 4067,
    "\u13cd\u13a6\u13a2\u13ae\u13cd\u13d7": 4068,
    "\u13e7\u13c2\u13f2\u13af\u13cd\u13d7\u13f1": 4069,
    "\u13d5\u13a6": 4070,
    "\u2581\u13a0\u13f0\u13b5\u13d2": 4071,
    "\u13af\u13b2\u13a2": 4072,
    "\u2581\u13a4\u13c3\u13f4\u13b5": 4073,
    "\u2581\u13a4\u13c1\u13e4\u13a2": 4074,
    "\u2581\u13a4\u13d9\u13af": 4075,
    "\u2581\u13c3\u13d2": 4076,
    "\u2581\u13ac\u13d2": 4077,
    "\u2581\u13f3\u13aa": 4078,
    "\u13f2\u13cf": 4079,
    "\u2581\u13da\u13b8": 4080,
    "\u13a4\u13e9\u13c2\u13a6\u13b8": 4081,
    "\u2581\u13a4\u13c1\u13e4\u13b4\u13a2": 4082,
    "\u13c2\u13d9\u13b8": 4083,
    "\u2581\u13a4\u13d9\u13f3": 4084,
    "\u2581\u13d3\u13d4\u13b4\u13d2\u13a2": 4085,
    "\u2581\u13be\u13c2\u13a5\u13a9": 4086,
    "\u2581\u13e6\u13cf": 4087,
    "\u2581\u13a0\u13c2\u13b8\u13c9\u13d7\u13cd\u13a8": 4088,
    "\u2581\u13a4\u13c5\u13c1": 4089,
    "\u2581\u13e6\u13d2": 4090,
    "\u2581\u13d9\u13d3\u13e3": 4091,
    "\u2581\u13a1\u13cd\u13d7": 4092,
    "\u13e1\u13d7\u13cd\u13a9": 4093,
    "\u2581\u13e4\u13b3\u13d7": 4094,
    "\u2581\u13a0\u13b9\u13c2": 4095,
    "\u13b5\u13cd\u13d3\u13f4\u13d7": 4096,
    "\u2581\u13a6\u13f2\u13a6": 4097,
    "\u2581\u13f2\u13a6": 4098,
    "\u13c1\u13a2\u13cd\u13d3\u13c1\u13d7": 4099,
    "\u2581\u13a4\u13b3": 4100,
    "\u2581\u13a0\u13ab\u13f4\u13d7": 4101,
    "\u13b3\u13db": 4102,
    "\u2581\u13a4\u13c2\u13cf\u13d7": 4103,
    "\u13c1\u13c5": 4104,
    "\u13e4\u13ad": 4105,
    "\u2581\u13da\u13c1\u13e4\u13b4\u13c3": 4106,
    "\u2581\u13e5\u13d5\u13e3": 4107,
    "\u2581\u13a2\u13ac\u13f1\u13f1\u13c9": 4108,
    "\u2581\u13d3\u13a6\u13e5": 4109,
    "\u13ac\u13c5": 4110,
    "\u13cd\u13d3\u13e9\u13d5\u13a9": 4111,
    "\u2581\u13a8\u13a2": 4112,
    "\u13d8\u13cd\u13d7\u13cd\u13a9": 4113,
    "\u2581\u13a0\u13a9\u13cd\u13a6\u13c5\u13e8": 4114,
    "\u2581\u13a0\u13e5\u13c1\u13b8": 4115,
    "\u13f4\u13b5\u13b8": 4116,
    "\u13a7\u13af\u13ef\u13cd\u13d7": 4117,
    "\u2581\u13f1\u13e5\u13f0\u13b8": 4118,
    "\u13a6\u13da": 4119,
    "\u2581\u13a6\u13be\u13c4\u13aa": 4120,
    "\u13e5\u13e7\u13e3": 4121,
    "\u2581\u13a4\u13c2\u13f4\u13b8": 4122,
    "\u13e2\u13c5\u13af": 4123,
    "\u13f2\u13ad": 4124,
    "\u13d7\u13cd\u13d4\u13c1": 4125,
    "\u2581\u13e5\u13f3\u13aa": 4126,
    "\u13d7\u13ef": 4127,
    "\u13cd\u13d3\u13c1": 4128,
    "\u13c2\u13c6\u13d8\u13af": 4129,
    "\u13d7\u13d4\u13cd\u13ac": 4130,
    "\u2581\u13e9\u13f4": 4131,
    "\u2581\u13d7\u13a7": 4132,
    "\u2581\u13c2\u13db": 4133,
    "\u13b5\u13a2": 4134,
    "\u13c4\u13b5": 4135,
    "\u13cd\u13c6\u13b5": 4136,
    "\u2581\u13a0\u13be\u13d7\u13cd\u13a8": 4137,
    "\u2581\u13aa\u13db": 4138,
    "\u2581\u13a4\u13c2\u13c4\u13aa\u13e8": 4139,
    "\u13c2\u13f4": 4140,
    "\u13ea\u13ce\u13b4\u13a2": 4141,
    "\u2581\u13a4\u13e3\u13c5": 4142,
    "\u2581\u13a2\u13f3\u13c2": 4143,
    "\u2581\u13e5\u13a6\u13d4": 4144,
    "...\u201d": 4145,
    "\u13eb\u13ce\u13b4\u13a2": 4146,
    "\u13b6\u13d3": 4147,
    "\u13cd\u13a6\u13f0\u13ac\u13cd\u13d3": 4148,
    "\u2581\u13a0\u13e9\u13db": 4149,
    "\u13d3\u13f1": 4150,
    "\u13cd\u13d5\u13b5\u13cd\u13ac": 4151,
    "\u13c1\u13df\u13f4": 4152,
    "\u2581\u13c2\u13a6\u13a5\u13a2": 4153,
    "\u2581\u13a2\u13a4": 4154,
    "\u2581\u13a4\u13ea\u13f0": 4155,
    "\u2581\u13a4\u13b5\u13cd\u13c6\u13b8\u13d7\u13c3": 4156,
    "\u13d3\u13ce\u13aa\u13a9\u13cd": 4157,
    "\u13b8\u13c9\u13d7\u13cd\u13a9": 4158,
    "\u13a9\u13d2": 4159,
    "\u13db\u13c3\u13af": 4160,
    "\u2581\u13da\u13f3": 4161,
    "\u2581\u13be\u13af\u13f3\u13a2": 4162,
    "\u2581\u13d5\u13a8\u13e5": 4163,
    "\u13f2\u13cd\u13d7\u13cd\u13ac": 4164,
    "\u13e1\u13d7\u13cd\u13ac\u13a2": 4165,
    "\u13eb\u13db": 4166,
    "\u2581\u13da\u13f2\u13ce": 4167,
    "\u13d8\u13be\u13eb\u13db\u13b2\u13a9": 4168,
    "\u2581\u13f1\u13a8\u13e3": 4169,
    "\u13cd\u13d7\u13cd\u13ac\u13a2": 4170,
    "\u13cd\u13d5\u13b5\u13cd\u13a9": 4171,
    "\u13f3\u13b3": 4172,
    "\u13d7\u13cd\u13d7\u13cd\u13a9": 4173,
    "\u2581\u13a0\u13a8": 4174,
    "\u2581\u13a4\u13b5\u13cd\u13c6": 4175,
    "\u13c5\u13aa\u13a2\u13cd\u13d7": 4176,
    "al": 4177,
    "\u13c2\u13d9\u13af": 4178,
    "\u13f0\u13b8\u13af": 4179,
    "\u13a6\u13b3": 4180,
    "\u2581\u13ef\u13d3\u13c5\u13d6": 4181,
    "\u13d1\u13f0\u13d2": 4182,
    "\u2581\u13a0\u13b5\u13f0\u13a2\u13b5": 4183,
    "\u2581\u13a6\u13ef": 4184,
    "\u13a1\u13b0\u13a2": 4185,
    "\u13e2\u13d7\u13f1": 4186,
    "\u13f4\u13cd\u13d7": 4187,
    "\u13b5\u13f3": 4188,
    "\u2581\u13ed\u13e9": 4189,
    "\u2581\u13d5\u13ab": 4190,
    "\u2581\u13a2\u13e8\u13f2\u13ea\u13b3": 4191,
    "\u13c2\u13a9\u13cd\u13ac": 4192,
    "\u2581\u13a9\u13ef": 4193,
    "\u13e5\u13cd\u13a6\u13ef": 4194,
    "\u2581\u13d3\u13f3\u13c2": 4195,
    "\u13c5\u13db": 4196,
    "\u2581\u13a0\u13cd\u13c6\u13c2\u13aa\u13d9\u13d7": 4197,
    "\u2581\u13c4\u13cd\u13db\u13a9": 4198,
    "\u13cd\u13a9\u13b8": 4199,
    "\u13cd\u13d3\u13e9\u13db\u13d2\u13a9": 4200,
    "\u13d3\u13d1\u13f0\u13cd\u13d7": 4201,
    "\u13db\u13c5\u13a2\u13cd\u13d3": 4202,
    "\u13cd\u13d3\u13e9\u13d7\u13d2": 4203,
    "\u2581\u13e5\u13c2\u13ac": 4204,
    "\u2581\u13d4\u13ef": 4205,
    "\u13d3\u13b5\u13d3\u13cd\u13d7": 4206,
    "\u2581\u13da\u13ed": 4207,
    "\u13a4\u13cd\u13d3\u13a6\u13f4\u13af\u13d3": 4208,
    "\u13e5\u13c1\u13b8": 4209,
    "\u2581\u13a6\u13ac": 4210,
    "\u13f2\u13d2\u13a9": 4211,
    "\u2581\u13a2\u13d7\u13a6\u13d8": 4212,
    "\u2581\u13da\u13c1": 4213,
    "\u2581\u13a8\u13cd\u13d7\u13d7": 4214,
    "\u2581\u13a2\u13f3\u13cd\u13a9\u13c2\u13c3": 4215,
    "\u13f2\u13b5": 4216,
    "\u13a6\u13c1\u13b6\u13d7": 4217,
    "\u13b3\u13d3": 4218,
    "\u13b3\u13c2": 4219,
    "\u2581\u13a5\u13a9\u13b8\u13c9": 4220,
    "\u2581\u13a4\u13b5\u13f0": 4221,
    "\u13b7\u13af\u13cd\u13d7": 4222,
    "\u13cd\u13a6\u13e8\u13af": 4223,
    "\u13a6\u13d8\u13d3": 4224,
    "\u13d3\u13d9\u13b5\u13cd\u13d7\u13cd\u13ac": 4225,
    "\u13d8\u13c3\u13af\u13cd\u13d7\u13f1": 4226,
    "\u13c2\u13aa\u13b2": 4227,
    "\u2581\u13a2\u13cd\u13db": 4228,
    "\u2581\u13ac\u13f0\u13b8": 4229,
    "\u2581\u13c5\u13d3\u13ac\u13e9": 4230,
    "\u2581\u13a0\u13e2": 4231,
    "\u13a7\u13c1": 4232,
    "\u13d9\u13ae": 4233,
    "\u2581\u13a4\u13c2\u13cd\u13c6\u13c2\u13aa\u13ce": 4234,
    "\u2581\u13d7\u13e3\u13c1\u13b6": 4235,
    "\u2581\u13a4\u13b7": 4236,
    "\u13d3\u13c2\u13b8\u13e4\u13a2": 4237,
    "\u2581\u13d7\u13cd\u13da": 4238,
    "\u2581\u13f3\u13ec\u13af\u13f3": 4239,
    "\u13c9\u13c2": 4240,
    "\u13b6\u13af\u13cd\u13d7": 4241,
    "\u13d3\u13a9\u13cd\u13a8": 4242,
    "\u13e9\u13d5\u13ac": 4243,
    "\u13bc": 4244,
    "\u13b8\u13d3": 4245,
    "\u13a6\u13c5\u13a6": 4246,
    "\u2581\u13e3\u13a6": 4247,
    "\u2581\u13a0\u13c2\u13a6": 4248,
    "\u2581\u13c4\u13c2\u13ea\u13ce": 4249,
    "\u2581\u13e7\u13c1\u13e8": 4250,
    "\u13ea\u13ce\u13b8\u13a9": 4251,
    "\u13bf\u13a5\u13a2": 4252,
    "\u2581\u13a4\u13b8\u13c9\u13d7": 4253,
    "\u13ea\u13b6\u13d7": 4254,
    "\u2581\u13a7\u13c3\u13ae": 4255,
    "\u13e2\u13db": 4256,
    "\u2581\u13a6\u13df": 4257,
    "\u13e6\u13c1": 4258,
    "\u13cd\u13d5\u13b8\u13d7\u13f1": 4259,
    "\u2581\u13a4\u13cd\u13a6": 4260,
    "\u13d3\u13ec\u13cd\u13d7": 4261,
    "\u2581\u13a4\u13c1\u13b7\u13ac": 4262,
    "\u13c1\u13b2\u13a9": 4263,
    "\u2581\u13e7\u13b3\u13d1\u13b6": 4264,
    "\u2581\u13d9\u13e7": 4265,
    "\u13af\u13cd\u13d4\u13c2": 4266,
    "\u2581\u13d5\u13a6\u13c4\u13aa\u13eb\u13cd": 4267,
    "\u13a2\u13a6\u13b8\u13c9\u13d7": 4268,
    "\u13aa\u13b5\u13f0\u13a5\u13af": 4269,
    "\u2581\u13a5\u13e5": 4270,
    "\u13cd\u13a6\u13c3\u13b5": 4271,
    "\u2581\u13ac\u13e9\u13be\u13d5": 4272,
    "\u2581\u13a2\u13a9\u13f0\u13b8": 4273,
    "\u2581\u13d5\u13a6\u13c4\u13aa\u13ac": 4274,
    "\u2581\u13d5\u13a6\u13b3\u13c5\u13db": 4275,
    "\u2581\u13a4\u13cd\u13c6\u13c2\u13aa\u13ce": 4276,
    "\u2581\u13a0\u13d0\u13f4": 4277,
    "\u13d7\u13a6\u13db\u13af": 4278,
    "\u2581\u13a3\u13a6\u13db\u13a6\u13c5": 4279,
    "\u2581\u13a0\u13d3\u13ea\u13b5\u13a9\u13cd\u13ac": 4280,
    "\u2581\u13da\u13f2": 4281,
    "\u13eb\u13b5\u13bb": 4282,
    "\u13c4\u13d3\u13b4": 4283,
    "\u2581\u13a0\u13a9\u13c7\u13d3\u13b8": 4284,
    "\u2581\u13c2\u13a6\u13b5\u13cd\u13d7\u13cd\u13aa": 4285,
    "\u2581\u13d5\u13a6\u13cd\u13a9\u13b8": 4286,
    "\u2581\u13a2\u13e3\u13d3\u13d9\u13b5\u13cd\u13d7\u13cd\u13ac": 4287,
    "\u2581\u13a4\u13b5\u13f0\u13d4\u13c1": 4288,
    "\u2581\u13f1\u13a8\u13e5": 4289,
    "\u2581\u13d9\u13e7\u13be\u13d3\u13c5\u13db": 4290,
    "\u2581\u13f1\u13e5\u13a6\u13d4\u13ae": 4291,
    "\u2581\u13e7\u13c1": 4292,
    "\u2581\u13c4\u13c2\u13ea\u13ce\u13b4": 4293,
    "\u2581\u13a2\u13e3\u13b5\u13ae\u13b5\u13ac": 4294,
    "\u2581\u13a4\u13be\u13c2\u13a9\u13ce": 4295,
    "\u2581\u13da\u13d3\u13d8\u13be\u13a5": 4296,
    "\u2581\u13a4\u13b6\u13a8\u13d2": 4297,
    "\u2581\u13ef\u13db\u13c5": 4298,
    "\u2581\u13f1\u13c4\u13cd\u13d5": 4299,
    "\u2581\u13a4\u13ec\u13af\u13f3\u13d2": 4300,
    "\u13b0\u13e9": 4301,
    "\u2581\u13a4\u13c4\u13e9\u13a5": 4302,
    "\u2581\u13c8\u13ac": 4303,
    "\u13c5\u13b5": 4304,
    "\u2581\u13d5\u13a6\u13ec\u13c1\u13d7\u13cd\u13ac": 4305,
    "\u2581\u13be\u13a9\u13ea\u13ce\u13b8": 4306,
    "\u13aa\u13b2\u13cd\u13d9\u13d7": 4307,
    "\u13a3\u13cf": 4308,
    "\u2581\u13ed\u13ef\u13c5\u13b2": 4309,
    "\u2581\u13a0\u13a9\u13e9\u13db\u13b2": 4310,
    "\u2581\u13c4\u13c5\u13c1\u13b8": 4311,
    "\u2581\u13c4\u13db\u13c1": 4312,
    "\u2581\u13a4\u13b5\u13e6\u13db": 4313,
    "\u13b5\u13d9\u13af": 4314,
    "\u2581\u13a5\u13a9\u13d9": 4315,
    "\u13f0\u13b3\u13cd\u13d7": 4316,
    "\u2581\u13a2\u13ab\u13e9": 4317,
    "\u13ec\u13d7\u13a8": 4318,
    "\u2581\u13a0\u13c2\u13aa\u13e9\u13d8\u13cd\u13ac": 4319,
    "\u2581\u13c7\u13d3\u13c1\u13b3\u13bb": 4320,
    "\u2581\u13a0\u13d3\u13a8\u13d7": 4321,
    "\u2581\u13e7\u13c2\u13a7\u13bf\u13e9\u13db\u13cd\u13d7": 4322,
    "\u13aa\u13b5\u13f0": 4323,
    "\u2581\u13a0\u13cd\u13ab\u13d5\u13cd\u13d7": 4324,
    "\u2581\u13eb\u13d7\u13a6": 4325,
    "\u13a4\u13b7\u13e8": 4326,
    "\u2581\u13a4\u13ec\u13af\u13f3\u13c5": 4327,
    "\u2581\u13c2\u13d5\u13a6\u13ea\u13ce\u13b2": 4328,
    "\u2581\u13d7\u13ab\u13cd\u13d9\u13cd\u13d7": 4329,
    "\u13d2\u13c6\u13b6\u13cd\u13d7": 4330,
    "\u2581\u13d7\u13a8\u13ab\u13aa\u13d3\u13c1\u13d7": 4331,
    "\u2581\u13a4\u13ea\u13d3\u13cd\u13d7": 4332,
    "\u13f2\u13b1\u13af\u13ce\u13b8\u13af": 4333,
    "\u2581\u13e4\u13c5\u13cd\u13d7": 4334,
    "\u2581\u13a0\u13e5\u13c1\u13d7": 4335,
    "\u2581\u13ed\u13b7\u13e4\u13b4": 4336,
    "\u2581\u13be\u13cf": 4337,
    "\u2581\u13a4\u13be\u13db\u13aa\u13d7": 4338,
    "\u2581\u13a0\u13c7\u13d3\u13cd\u13d7": 4339,
    "\u2581\u13a0\u13c2\u13be\u13f0\u13cd\u13a9": 4340,
    "\u2581\u13a0\u13c2\u13e5\u13ca\u13cf": 4341,
    "\u2581\u13a2\u13a8\u13ac\u13c1\u13b8\u13af": 4342,
    "\u2581\u13a2\u13b5\u13a1\u13cc": 4343,
    "\u2581\u13a4\u13cd\u13d4\u13f2\u13d2": 4344,
    "\u2581\u13a4\u13d6\u13b8\u13b3\u13db": 4345,
    "\u2581\u13a5\u13c6\u13b8\u13a2\u13db": 4346,
    "\u2581\u13ab\u13eb\u13cd\u13ab\u13eb": 4347,
    "\u2581\u13ac\u13ec\u13af\u13f3\u13b2\u13cd\u13a9": 4348,
    "\u2581\u13b0\u13e2\u13d4\u13c5\u13ad": 4349,
    "\u2581\u13b4\u13a3\u13d7\u13cf\u13ef": 4350,
    "\u2581\u13bb\u13da\u13cf\u13b3": 4351,
    "\u2581\u13c2\u13e6\u13b5\u13ac\u13be": 4352,
    "\u2581\u13c7\u13e3\u13b5\u13b5": 4353,
    "\u2581\u13cd\u13aa\u13c2\u13d7\u13e2": 4354,
    "\u2581\u13d3\u13c7\u13aa\u13d4\u13c5": 4355,
    "\u2581\u13d7\u13be\u13d9\u13b4\u13c6\u13cd\u13a9": 4356,
    "\u2581\u13d7\u13d3\u13b4\u13c5\u13d7\u13cd\u13a9": 4357,
    "\u2581\u13e5\u13c8\u13a3\u13c2": 4358,
    "\u2581\u13e7\u13c2\u13e6\u13ef\u13cd\u13d7": 4359,
    "\u2581\u13a4\u13c2\u13b5\u13c5\u13e8\u13af": 4360,
    "\u2581\u13d7\u13ac\u13e9\u13a9\u13e8\u13d7": 4361,
    "\u2581\u13ed\u13d5\u13b5\u13e4": 4362,
    "\u2581\u13d3\u13d7\u13b6\u13c2": 4363,
    "\u2581\u13e7\u13be\u13d7\u13a9\u13d3": 4364,
    "\u2581\u13a2\u13ef\u13db\u13c1\u13b5\u13d3\u13cd\u13d7": 4365,
    "\u2581\u13d7\u13e5\u13a8\u13eb": 4366,
    "\u2581\u13e6\u13cd\u13d3\u13d3\u13c5\u13df": 4367,
    "\u2581\u13e5\u13c2\u13e8\u13ea\u13ce\u13b8\u13a9": 4368,
    "\u2581\u13a4\u13ea\u13ef\u13b8\u13e4\u13a2": 4369,
    "\u2581\u13a0\u13b5\u13cf\u13be\u13af\u13cd\u13d9\u13d7": 4370,
    "\u2581\u13a0\u13c6\u13d7\u13d4\u13cd\u13d7": 4371,
    "\u2581\u13a0\u13be\u13b5\u13d6\u13b8\u13b2\u13cd\u13a9": 4372,
    "\u2581\u13a2\u13ac\u13c6\u13db\u13c1\u13d7": 4373,
    "\u2581\u13a4\u13b5\u13cd\u13db\u13e7\u13c1": 4374,
    "\u13eb\u13c2\u13d7\u13e2": 4375,
    "\u2581\u13c5\u13d3\u13f0": 4376,
    "\u2581\u13d7\u13a8\u13d8\u13c2\u13d3\u13cd\u13d7": 4377,
    "\u2581\u13a0\u13df\u13b6\u13a5": 4378,
    "\u2581\u13b9\u13ba\u13b5": 4379,
    "\u2581\u13a0\u13c2\u13b6\u13cd\u13a9": 4380,
    "\u2581\u13e7\u13ac\u13e9\u13b3\u13c5\u13af": 4381,
    "\u2581\u13ed\u13d5\u13b5\u13e8": 4382,
    "\u2581\u13a4\u13e6\u13a0\u13ce\u13d7": 4383,
    "\u2581\u13aa\u13af\u13f3\u13b2\u13cd\u13a8\u13cd\u13d7": 4384,
    "\u2581\u13a4\u13b5\u13c3\u13af\u13f4\u13af": 4385,
    "\u2581\u13a4\u13a6\u13db\u13be\u13e8\u13af": 4386,
    "\u2581\u13e3\u13a6\u13d1\u13b2\u13a2": 4387,
    "\u2581\u13a0\u13aa\u13b2\u13cd\u13d4\u13c5\u13af": 4388,
    "\u2581\u13c6\u13cf\u13b9": 4389,
    "\u2581\u13da\u13c4\u13aa\u13eb\u13d2": 4390,
    "\u2581\u13a2\u13e5\u13c1\u13ab": 4391,
    "\u2581\u13a2\u13aa\u13c2\u13ef": 4392,
    "\u2581\u13d3\u13f2\u13e3\u13db\u13c1\u13b5": 4393,
    "\u2581\u13d5\u13e5\u13c2\u13f4\u13ce\u13cd\u13d7": 4394,
    "\u2581\u13a0\u13c1\u13b8\u13d7\u13cd\u13a8\u13a2": 4395,
    "\u2581\u13d6\u13b9": 4396,
    "\u2581\u13ac\u13f2\u13ce\u13ad": 4397,
    "\u2581\u13c5\u13d3\u13f3\u13be\u13d3\u13b4\u13c5\u13af": 4398,
    "\u2581\u13d7\u13a9\u13f2\u13b1\u13d2\u13af": 4399,
    "\u2581\u13e7\u13c3\u13da\u13af": 4400,
    "\u2581\u13be\u13c2\u13cd\u13a6\u13c5\u13be": 4401,
    "\u2581\u13d5\u13a6\u13c5\u13d9\u13ac": 4402,
    "\u2581\u13f1\u13e5\u13aa\u13b5\u13f0\u13a3": 4403,
    "\u2581\u13a6\u13d7\u13a8\u13c2": 4404,
    "\u13d9\u13b4\u13cb": 4405,
    "\u2581\u13a0\u13c2\u13aa\u13d7\u13f3": 4406,
    "\u2581\u13be\u13c3\u13af\u13f3\u13b2\u13cd\u13ac\u13be": 4407,
    "\u2581\u13e7\u13c8\u13ef": 4408,
    "\u2581\u13e9\u13a9\u13b7\u13e3": 4409,
    "\u13a9\u13cf\u13d5\u13a9": 4410,
    "\u2581\u13ac\u13e9\u13d5\u13f1\u13db": 4411,
    "\u2581\u13a2\u13e5\u13c7\u13d3\u13b8": 4412,
    "\u2581\u13c4\u13be\u13db\u13c1\u13b5\u13d9\u13b8": 4413,
    "\u2581\u13a4\u13a6\u13c3\u13ee": 4414,
    "\u2581\u13a0\u13d9\u13b4\u13b0\u13d2\u13af": 4415,
    "\u2581\u13d3\u13d3\u13db\u13c2": 4416,
    "\u2581\u13f3\u13f2\u13b1\u13d2": 4417,
    "\u2581\u13d7\u13ac\u13e9\u13c2\u13f0\u13af": 4418,
    "\u2581\u13d7\u13c2\u13c3\u13a8\u13c2": 4419,
    "\u2581\u13a6\u13b6\u13e3\u13d7": 4420,
    "\u2581\u13a2\u13f3\u13be\u13d3\u13b3": 4421,
    "\u2581\u13d7\u13c2\u13d0\u13af": 4422,
    "\u2581\u13c1\u13c6\u13b8": 4423,
    "\u2581\u13d8\u13a6\u13d9\u13b5": 4424,
    "\u2581\u13a4\u13c6\u13db\u13a9": 4425,
    "\u2581\u13a4\u13f4\u13b5\u13b4": 4426,
    "\u2581\u13a2\u13ac\u13be\u13d5\u13c5": 4427,
    "\u2581\u13da\u13ea\u13a7\u13c5\u13a9": 4428,
    "\u2581\u13eb\u13e5\u13f2\u13b5\u13a6": 4429,
    "\u2581\u13b6\u13e9\u13c2": 4430,
    "\u2581\u13a6\u13b5\u13c6\u13da": 4431,
    "\u2581\u13a0\u13c2\u13b1\u13e3": 4432,
    "\u2581\u13da\u13ed\u13e2\u13d4\u13c5\u13a9": 4433,
    "\u2581\u13a0\u13c6\u13df\u13c2\u13ac\u13c1\u13b8": 4434,
    "\u13cc\u13b3\u13db\u13a6": 4435,
    "\u2581\u13e7\u13be\u13aa\u13c5\u13cd\u13d3\u13b5": 4436,
    "\u2581\u13a5\u13c3\u13e5": 4437,
    "\u2581\u13e7\u13ec\u13e2\u13c5\u13af": 4438,
    "\u2581\u13d7\u13a6\u13be\u13cc\u13a2": 4439,
    "\u2581\u13e7\u13b5\u13ac\u13e9\u13df": 4440,
    "\u2581\u13a2\u13ef\u13d3\u13db\u13c1\u13af": 4441,
    "\u2581\u13d3\u13a9\u13ef\u13ea\u13a6": 4442,
    "\u2581\u13d0\u13c1\u13b3": 4443,
    "\u13d0\u13ad\u13db": 4444,
    "\u2581\u13d7\u13df\u13cd\u13d9\u13d7": 4445,
    "\u2581\u13ad\u13db\u13d3\u13cd\u13d3": 4446,
    "\u2581\u13a0\u13c2\u13c3\u13ae\u13cd\u13a8": 4447,
    "\u2581\u13a4\u13be\u13da\u13b5\u13cd\u13a9": 4448,
    "\u2581\u13d7\u13e3\u13b4\u13b2\u13a6": 4449,
    "\u2581\u13d3\u13a6\u13e5\u13c1\u13b5": 4450,
    "\u2581\u13a2\u13ef\u13c6\u13b5\u13cd\u13d9\u13d7\u13f1": 4451,
    "\u2581\u13aa\u13a2\u13f3\u13b2\u13cd\u13a6": 4452,
    "\u2581\u13c5\u13c1\u13b8\u13ad": 4453,
    "\u2581\u13d7\u13a9\u13f4\u13eb": 4454,
    "\u2581\u13a6\u13e5\u13ef\u13c1\u13b3\u13c5\u13af": 4455,
    "\u2581\u13e5\u13cd\u13a6\u13a2\u13b2": 4456,
    "\u2581\u13c5\u13d3\u13f3\u13c5\u13cf\u13db": 4457,
    "\u2581\u13b1\u13b7\u13e3": 4458,
    "\u2581\u13d5\u13a6\u13f0\u13cc\u13db": 4459,
    "\u2581\u13a4\u13be\u13d9\u13b4\u13b0\u13af\u13cd\u13d9\u13d7": 4460,
    "\u2581\u13b7": 4461,
    "\u2581\u13d3\u13d3\u13c2\u13b8\u13a8\u13cd\u13d7": 4462,
    "\u2581\u13a1\u13e5\u13f2\u13b5\u13b8\u13ad": 4463,
    "\u2581\u13a0\u13ac\u13d3\u13a8\u13c2": 4464,
    "\u2581\u13c4\u13d3\u13d1\u13f4\u13be": 4465,
    "\u2581\u13a4\u13c3\u13af\u13f3\u13af": 4466,
    "\u2581\u13c5\u13d3\u13cd\u13c6": 4467,
    "\u2581\u13a0\u13be\u13d3\u13ad\u13f2\u13af": 4468,
    "\u2581\u13d5\u13c5\u13d9\u13a5": 4469,
    "\u2581\u13d7\u13e5\u13b8\u13eb\u13cd\u13d3\u13c1\u13af": 4470,
    "\u2581\u13a0\u13c2\u13a1\u13bc\u13b5": 4471,
    "\u2581\u13a4\u13c2\u13c6\u13d8\u13cd\u13d7": 4472,
    "\u2581\u13a0\u13c6\u13d5\u13b6\u13b0\u13d2": 4473,
    "\u2581\u13a2\u13e5\u13a8\u13f4": 4474,
    "\u2581\u13a4\u13b8\u13c9\u13d4\u13c1": 4475,
    "\u2581\u13a0\u13c6\u13db\u13c5\u13a2\u13cd\u13d7": 4476,
    "\u13e1\u13d4\u13c2": 4477,
    "\u2581\u13a2\u13e7\u13d6": 4478,
    "\u2581\u13d7\u13e3\u13b3\u13cf": 4479,
    "\u2581\u13d7\u13ad\u13be\u13ec": 4480,
    "\u13f2\u13b5\u13cd\u13d7\u13f1": 4481,
    "\u2581\u13ec\u13e4": 4482,
    "\u2581\u13eb\u13c2\u13ea\u13cf": 4483,
    "\u2581\u13da\u13c4\u13cc\u13db": 4484,
    "\u2581\u13d7\u13a6\u13aa\u13d9\u13d7": 4485,
    "\u2581\u13e6\u13a8\u13e5": 4486,
    "\u2581\u13a4\u13d3\u13d1\u13f0\u13db": 4487,
    "\u2581\u13af\u13cd\u13aa\u13b5": 4488,
    "\u2581\u13aa\u13d2\u13c5": 4489,
    "\u13d3\u13b4\u13d2": 4490,
    "\u2581\u13d3\u13c2\u13f4\u13ac\u13a2": 4491,
    "\u2581\u13e3\u13d3\u13b8\u13a9": 4492,
    "\u2581\u13e5\u13a6\u13da\u13ad": 4493,
    "\u2581\u13d3\u13c2\u13f4\u13a8\u13cd\u13d7": 4494,
    "\u2581\u13a4\u13a7": 4495,
    "\u2581\u13ac\u13d4\u13f2\u13ce\u13ad": 4496,
    "\u2581\u13a4\u13d9\u13b3\u13c5\u13cd\u13d7": 4497,
    "\u2581\u13d3\u13c2\u13c4\u13d9\u13ac\u13a2": 4498,
    "\u2581\u13da\u13da\u13d3\u13db\u13a2": 4499,
    "\u2581\u13a0\u13c4\u13ec\u13a9\u13af": 4500,
    "\u2581\u13a0\u13a8\u13ef": 4501,
    "\u2581\u13a4\u13ec\u13d2\u13c5": 4502,
    "\u2581\u13a2\u13e4\u13c5\u13cd\u13d7\u13f1": 4503,
    "\u2581\u13da\u13d5\u13f2\u13c1": 4504,
    "\u2581\u13d7\u13e3\u13b3\u13cf\u13d5\u13c2": 4505,
    "\u2581\u13a1\u13c8\u13b3": 4506,
    "\u2581\u13d3\u13e5\u13c1\u13b5": 4507,
    "\u2581\u13e4\u13b5\u13aa": 4508,
    "\u2581\u13ed\u13a9\u13b6\u13eb\u13ce": 4509,
    "\u2581\u13ed\u13b3\u13a9\u13d2": 4510,
    "\u2581\u13a0\u13c2\u13a9\u13be": 4511,
    "\u2581\u13d9\u13b3\u13e7\u13a6": 4512,
    "\u2581\u13da\u13ec\u13c1\u13d4\u13c5\u13a9": 4513,
    "\u2581\u13a2\u13e8\u13f2\u13ea\u13b3\u13c1\u13ad": 4514,
    "\u2581\u13e7\u13f2\u13af\u13cd\u13d7\u13f1": 4515,
    "\u2581\u13a4\u13b5\u13e6\u13af\u13db": 4516,
    "\u2581\u13e7\u13b8\u13eb\u13cd\u13d3\u13c1\u13b8\u13af": 4517,
    "\u13cd\u13a6\u13a2\u13cd\u13d7": 4518,
    "\u2581\u13c7\u13b5\u13cf": 4519,
    "\u2581\u13c5\u13db\u13db\u13c1\u13b5": 4520,
    "\u2581\u13d5\u13af\u13a7\u13c5": 4521,
    "\u2581\u13a4\u13c5\u13ea": 4522,
    "\u2581\u13d7\u13a6\u13c1\u13b2": 4523,
    "\u2581\u13e7\u13ec\u13ea\u13b3\u13c5": 4524,
    "\u2581\u13da\u13d8\u13c3\u13ae\u13b4\u13a2": 4525,
    "\u2581\u13eb\u13c4\u13ea\u13ce\u13a2": 4526,
    "\u2581\u13e3\u13d4\u13b3\u13ec\u13af\u13cd\u13d7": 4527,
    "\u2581\u13a2\u13ef\u13d3\u13c5\u13d6\u13d7": 4528,
    "\u2581\u13ac\u13ef\u13b5\u13a1\u13b5\u13e4": 4529,
    "\u2581\u13da\u13cf\u13d4\u13db": 4530,
    "\u2581\u13a0\u13c8\u13b7": 4531,
    "\u2581\u13a0\u13cc\u13b3\u13d9\u13d7": 4532,
    "\u13c2\u13b4": 4533,
    "\u2581\u13a2\u13e5\u13c1\u13e8": 4534,
    "\u2581\u13c2\u13e5\u13ea\u13cd\u13ac": 4535,
    "\u2581\u13e7\u13a7\u13ad\u13f2": 4536,
    "\u13c4\u13cd\u13d7": 4537,
    "\u2581\u13a7\u13c1\u13cd\u13ac": 4538,
    "\u2581\u13a4\u13b5\u13e8\u13d3\u13c6\u13d3": 4539,
    "\u2581\u13e3\u13cd\u13c6": 4540,
    "\u2581\u13d3\u13a7\u13c1": 4541,
    "\u2581\u13b4\u13bb\u13a9": 4542,
    "\u2581\u13a2\u13e4\u13b5\u13ad": 4543,
    "\u2581\u13e7\u13be\u13c1\u13b3\u13c5\u13af": 4544,
    "\u2581\u13a2\u13e8\u13c1\u13d7": 4545,
    "\u2581\u13a0\u13c1\u13d9\u13ad": 4546,
    "\u2581\u13a0\u13c6\u13d3\u13c5\u13d6\u13db": 4547,
    "\u2581\u13a2\u13e3\u13b5\u13cd\u13d3\u13f4\u13d7\u13f1": 4548,
    "\u2581\u13e3\u13d3\u13c5\u13db\u13a2": 4549,
    "\u2581\u13a0\u13c6\u13db\u13c1\u13d7\u13f1": 4550,
    "\u2581\u13a4\u13ec\u13ea\u13b3\u13c5\u13a9": 4551,
    "\u2581\u13a4\u13f2\u13b1\u13ce\u13ae\u13cd\u13d7": 4552,
    "\u2581\u13d1\u13d3\u13b5\u13e7\u13c8": 4553,
    "\u2581\u13a0\u13d3\u13ac\u13bf": 4554,
    "\u2581\u13a1\u13cd\u13a6\u13c2\u13f3": 4555,
    "\u2581\u13a0\u13a6\u13d9\u13b5": 4556,
    "-\u201c": 4557,
    "\u2581\u13a6\u13f0\u13b5\u13cd\u13d7": 4558,
    "\u2581\u13a0\u13c2\u13cd\u13a6\u13f0\u13ac\u13cd\u13d3": 4559,
    "\u2581\u13a0\u13c2\u13a6\u13d8\u13ef": 4560,
    "\u2581\u13a4\u13c3\u13ea\u13b3\u13c5": 4561,
    "\u2581\u13a0\u13eb\u13cc\u13c5": 4562,
    "\u2581\u13a0\u13e4\u13cd\u13d9\u13a9\u13af": 4563,
    "\u2581\u13a4\u13db\u13a6\u13be": 4564,
    "\u2581\u13a6\u13aa\u13b5\u13cd\u13d7": 4565,
    "\u2581\u13a0\u13ba": 4566,
    "\u2581\u13d7\u13e5\u13a7\u13bf\u13e9\u13db\u13cd\u13d7\u13f1": 4567,
    "\u2581\u13da\u13ed\u13aa\u13d4\u13c5": 4568,
    "\u2581\u13a4\u13ec\u13b3": 4569,
    "\u2581\u13da\u13ea\u13f4": 4570,
    "\u2581\u13a4\u13c1\u13c5\u13d2\u13a9": 4571,
    "\u2581\u13d3\u13be\u13e0\u13f1\u13b2": 4572,
    "\u2581\u13f3\u13ea\u13ad": 4573,
    "\u2581\u13a4\u13e9\u13c2\u13a6\u13b8\u13a2": 4574,
    "\u2581\u13a4\u13be\u13c4\u13aa\u13e5\u13b8": 4575,
    "\u2581\u13f1\u13e5\u13cf\u13be": 4576,
    "\u2581\u13a4\u13c2\u13be\u13a5": 4577,
    "\u2581\u13a4\u13cd\u13c6\u13c2\u13aa\u13d4\u13c1\u13a2": 4578,
    "\u2581\u13a4\u13c2\u13cd\u13a6\u13b4\u13a2": 4579,
    "\u2581\u13a0\u13cb\u13d4\u13c5\u13af": 4580,
    "\u2581\u13a4\u13ea\u13d9\u13b4\u13a2": 4581,
    "\u2581\u13a6\u13c3\u13af\u13b5\u13d9": 4582,
    "\u2581\u13a2\u13f3\u13e9\u13ac\u13d7": 4583,
    "\u2581\u13a6\u13ac\u13e9\u13d0\u13e2": 4584,
    "\u2581\u13d7\u13ab\u13cd\u13d9\u13cd\u13d7\u13f1": 4585,
    "\u2581\u13ad\u13df\u13c2\u13ac\u13c1": 4586,
    "\u2581\u13a2\u13e3\u13db\u13c1\u13d7": 4587,
    "\u2581\u13a4\u13c2\u13c1\u13c9\u13e4": 4588,
    "\u2581\u13be\u13e5\u13ea\u13ce\u13b4\u13a2": 4589,
    "\u2581\u13a2\u13f3\u13ea\u13cd\u13d7": 4590,
    "\u2581\u13a4\u13a6\u13b9": 4591,
    "\u2581\u13a4\u13c2\u13c3\u13ae\u13d7\u13f1": 4592,
    "\u2581\u13e7\u13be\u13db\u13be": 4593,
    "\u13e5\u13a4\u13cd\u13d5\u13ce\u13b8\u13be": 4594,
    "\u2581\u13ac\u13e9\u13cd\u13a6\u13a9": 4595,
    "\u2581\u13c2\u13e8\u13c1\u13b2": 4596,
    "\u2581\u13f1\u13c5\u13a6": 4597,
    "\u2581\u13be\u13e5\u13a4\u13cd\u13d5\u13ce\u13b8\u13be": 4598,
    "\u13a9\u13be\u13dd\u13a2": 4599,
    "\u2581\u13f1\u13c2\u13a6\u13a9": 4600,
    "\u2581\u13d7\u13e5\u13c1\u13df\u13f4": 4601,
    "\u2581\u13a4\u13d5\u13d4\u13c5\u13af": 4602,
    "\u2581\u13a4\u13db\u13c5\u13d7\u13a6\u13b3\u13eb\u13a2\u13cd\u13d7\u13f1": 4603,
    "\u13e9\u13db\u13b2\u13cd\u13d7\u13f1": 4604,
    "\u2581\u13a4\u13b5\u13cd\u13aa\u13b8\u13d4\u13c5\u13af": 4605,
    "\u13c1\u13c9\u13e3\u13d8": 4606,
    "\u2581\u13e4\u13e3\u13a7\u13c3\u13d7": 4607,
    "\u2581\u13d3\u13aa": 4608,
    "\u2581\u13a4\u13c2\u13da\u13b2\u13a2": 4609,
    "\u2581\u13a2\u13e8\u13d9\u13d7\u13f1": 4610,
    "\u2581\u13a0\u13a9\u13b7\u13e4\u13b8\u13a9": 4611,
    "\u2581\u13e5\u13c4\u13cd\u13db": 4612,
    "\u2581\u13e3\u13be\u13eb\u13f1": 4613,
    "\u2581\u13a4\u13be\u13c5\u13d7\u13f1": 4614,
    "\u2581\u13a2\u13e5\u13c1\u13d7": 4615,
    "\u2581\u13e5\u13ac\u13e9": 4616,
    "\u2581\u13a2\u13e3\u13c1\u13b3\u13c5\u13af": 4617,
    "\u13b5\u13d6\u13b8\u13c2\u13cd\u13d7": 4618,
    "\u2581\u13a4\u13c2\u13f0\u13b8\u13af": 4619,
    "\u2581\u13ed\u13d3\u13d2\u13cd\u13d4\u13c1": 4620,
    "\u2581\u13ed\u13d3\u13aa\u13be\u13db\u13db": 4621,
    "\u2581\u13a6\u13c1\u13e5\u13f1": 4622,
    "\u2581\u13a4\u13f4\u13b8\u13a9": 4623,
    "\u2581\u13a4\u13c1\u13dd\u13c5\u13af": 4624,
    "\u2581\u13a4\u13a6\u13d4\u13b2\u13ce": 4625,
    "\u2581\u13cd\u13a6\u13f0\u13ac\u13cd\u13d4": 4626,
    "\u2581\u13a4\u13e6\u13cd\u13d7": 4627,
    "\u2581\u13a0\u13cd\u13d5\u13b5\u13cd\u13a9": 4628,
    "\u2581\u13b1\u13c2\u13b7\u13e4": 4629,
    "\u2581\u13a1\u13e5\u13c1\u13b8\u13af": 4630,
    "\u2581\u13af\u13c4\u13aa\u13a2": 4631,
    "\u2581\u13da\u13c3\u13c1\u13b4": 4632,
    "\u2581\u13a0\u13c2\u13a9\u13a6\u13a8": 4633,
    "\u2581\u13a3\u13a8\u13c5\u13d2": 4634,
    "\u2581\u13d7\u13aa\u13e9\u13db\u13d7": 4635,
    "\u2581\u13c2\u13a8\u13e5\u13ea\u13ce\u13b8": 4636,
    "\u2581\u13e7\u13be\u13cd\u13d7\u13a6": 4637,
    "\u2581\u13e9\u13a6\u13db\u13a2": 4638,
    "\u2581\u13a4\u13be\u13c4\u13aa\u13eb\u13cd\u13d7\u13f1": 4639,
    "\u2581\u13a4\u13be\u13d3\u13df\u13cc\u13c5": 4640,
    "\u2581\u13a4\u13a9\u13b5": 4641,
    "\u2581\u13a4\u13d4\u13ea\u13d9\u13c1\u13a2": 4642,
    "\u2581\u13a4\u13cd\u13d5\u13b8\u13d7\u13f1": 4643,
    "\u2581\u13a0\u13b3\u13d1\u13b6": 4644,
    "\u2581\u13a2\u13d3\u13d9\u13b4\u13b0\u13af\u13cd\u13d7": 4645,
    "\u13c2\u13ec\u13c2\u13af\u13cd\u13d7": 4646,
    "\u2581\u13a0\u13a6\u13c5\u13a9": 4647,
    "\u13d8\u13c1\u13d2\u13ad": 4648,
    "\u2581\u13a4\u13c5\u13d9\u13d7": 4649,
    "\u2581\u13a4\u13cd\u13da\u13c1": 4650,
    "\u2581\u13cc\u13bb": 4651,
    "\u2581\u13a0\u13a9\u13aa\u13e9\u13db\u13d7\u13f1": 4652,
    "\u2581\u13a0\u13e9\u13db\u13d7": 4653,
    "\u13ec\u13c1\u13d4\u13c1": 4654,
    "\u2581\u13d5\u13a6\u13a7\u13b2\u13a9": 4655,
    "\u2581\u13a0\u13be\u13d7\u13cd\u13ac": 4656,
    "\u2581\u13e7\u13ea\u13e5\u13db\u13af": 4657,
    "\u2581\u13b9\u13b5": 4658,
    "\u2581\u13a2\u13be\u13cf": 4659,
    "\u2581\u13a4\u13c2\u13f4\u13d7": 4660,
    "\u2581\u13a4\u13cd\u13a6\u13e4": 4661,
    "\u2581\u13a4\u13ec\u13e2\u13c1\u13a2": 4662,
    "\u2581\u13e7\u13d3\u13b4\u13c1\u13a2": 4663,
    "\u13b4\u13c1\u13af": 4664,
    "\u2581\u13a6\u13c1\u13ae\u13a2": 4665,
    "\u2581\u13a4\u13cd\u13d3\u13e9\u13d7\u13d9\u13af": 4666,
    "\u2581\u13bc": 4667,
    "\u2581\u13d3\u13e5\u13c2": 4668,
    "\u2581\u13e5\u13c5\u13b5": 4669,
    "\u2581\u13d3\u13cd\u13db": 4670,
    "\u13ce\u13d7\u13f1": 4671,
    "\u2581\u13a2\u13a8\u13e3\u13db\u13c1\u13d7": 4672,
    "\u2581\u13a2\u13e3\u13b4\u13c2\u13d9\u13b2": 4673,
    "\u2581\u13d5\u13a0": 4674,
    "\u2581\u13a6\u13c6\u13b5": 4675,
    "\u2581\u13a4\u13b5\u13f0\u13d4\u13c1\u13a2": 4676,
    "\u2581\u13a0\u13a9\u13c3\u13ae\u13b8": 4677,
    "\u2581\u13a4\u13c4\u13ec\u13cd\u13d7": 4678,
    "\u13a7\u13b8": 4679,
    "\u2581\u13a4\u13c2\u13be": 4680,
    "\u13cd\u13d7\u13f0\u13d7\u13ad": 4681,
    "\u2581\u13a4\u13be\u13b4\u13c5\u13b2": 4682,
    "\u2581\u13d5\u13aa\u13ea\u13b8\u13a9": 4683,
    "\u2581\u13ed\u13f4\u13b8\u13a9": 4684,
    "\u2581\u13c2\u13e3\u13db\u13c1\u13b2\u13a2": 4685,
    "\u2581\u13a3\u13a9\u13be\u13b5\u13aa": 4686,
    "\u2581\u13d7\u13a6\u13ab\u13cd\u13db\u13d7\u13f1": 4687,
    "\u2581\u13a4\u13b6\u13a8\u13d2\u13a2": 4688,
    "\u2581\u13e7\u13a6": 4689,
    "\u2581\u13a0\u13eb\u13d2\u13af": 4690,
    "\u2581\u13a4\u13f0\u13ac": 4691,
    "\u2581\u13a4\u13ec\u13e2\u13c5\u13a2": 4692,
    "\u2581\u13ed\u13b7\u13e4\u13b4\u13a2": 4693,
    "\u2581\u13e7\u13c3\u13b8": 4694,
    "\u2581\u13e9\u13a9\u13a6": 4695,
    "\u13e5\u13c1\u13a2\u13cd\u13d7\u13ad": 4696,
    "\u2581\u13a4\u13cd\u13d3\u13a6\u13b8\u13a2": 4697,
    "\u2581\u13d3\u13df\u13b6\u13cd\u13db\u13a2": 4698,
    "\u2581\u13a6\u13b5\u13b7\u13a8\u13cd\u13d7": 4699,
    "\u2581\u13a0\u13c7\u13b5\u13d2\u13a9": 4700,
    "\u13d5\u13aa\u13a2": 4701,
    "\u2581\u13a7\u13c3\u13ae\u13cd\u13ac\u13a9": 4702,
    "ill": 4703,
    "\u2581\u13c2\u13d7\u13a8": 4704,
    "\u2581\u13af\u13f4": 4705,
    "\u2581\u13e5\u13c2\u13a8\u13ac\u13c1": 4706,
    "\u2581\u13f1\u13cd\u13db": 4707,
    "\u2581\u13a4\u13ec\u13ad": 4708,
    "\u2581\u13a4\u13c2\u13f4\u13ae\u13a2": 4709,
    "\u2581\u13a4\u13ec\u13ce\u13b4\u13a2": 4710,
    "\u2581\u13e6\u13a8": 4711,
    "\u2581\u13a4\u13c4\u13b8": 4712,
    "\u13b5\u13d3\u13cd\u13d4\u13c5": 4713,
    "\u13e9\u13d4": 4714,
    "\u13e2\u13c2": 4715,
    "\u2581\u13ce\u13b3\u13a9": 4716,
    "\u2581\u13a6\u13f2\u13df\u13a8": 4717,
    "\u13d5\u13b6\u13b0\u13cc": 4718,
    "\u2581\u13e7\u13e9\u13ab\u13d4\u13c5\u13d2\u13a2": 4719,
    "\u13b6\u13b8\u13d7": 4720,
    "\u13d3\u13c5\u13a1\u13ae\u13cd\u13d7": 4721,
    "\u2581\u13a4\u13be\u13d9\u13b4\u13b0\u13d2\u13a9": 4722,
    "\u13a0\u13a9\u13cf\u13d9\u13af": 4723,
    "\u2581\u13ad\u13d5\u13ec": 4724,
    "\u2581\u13ac\u13e9\u13a6": 4725,
    "\u2581\u13af\u13cc": 4726,
    "\u13ef\u13ea\u13a2\u13cd\u13d7": 4727,
    "\u13d8\u13f1": 4728,
    "\u2581\u13e3\u13a7\u13db\u13a2": 4729,
    "\u2581\u13da\u13c2\u13aa\u13b2": 4730,
    "\u2581\u13be\u13c6\u13db\u13c1\u13b8\u13a2": 4731,
    "\u13b5\u13ce\u13b2": 4732,
    "\u13db\u13db\u13be": 4733,
    "\u2581\u13ac\u13e9\u13b7\u13e4\u13b4\u13a2": 4734,
    "\u2581\u13a1\u13d9\u13b2\u13a9": 4735,
    "\u2581\u13a0\u13e5\u13be": 4736,
    "\u2581\u13a8\u13d9\u13b2\u13a2": 4737,
    "\u13a6\u13b6\u13a8\u13d2": 4738,
    "\u2581\u13a0\u13c2\u13c1\u13ac\u13a2": 4739,
    "\u2581\u13be\u13db\u13c1\u13b2\u13a2": 4740,
    "\u2581\u13a6\u13b5\u13e6\u13d9\u13d7": 4741,
    "\u2581\u13e4\u13cf": 4742,
    "\u2581\u13a6\u13c1\u13af": 4743,
    "\u13b3\u13d7\u13cd\u13ac": 4744,
    "\u13da\u13b5\u13cd\u13aa": 4745,
    "\u2581\u13cf\u13a6": 4746,
    "\u2581\u13a2\u13cc": 4747,
    "\u13da\u13d3\u13b4\u13cd\u13d7\u13f1": 4748,
    "\u2581\u13ef\u13a9\u13f0\u13b8": 4749,
    "\u2581\u13a4\u13ea\u13ad": 4750,
    "\u2581\u13be\u13db\u13a6": 4751,
    "\u2581\u13a2\u13e5\u13b2\u13a2": 4752,
    "\u2581\u13d3\u13eb\u13d2\u13a2": 4753,
    "\u2581\u13e7\u13be\u13d7\u13d4\u13cd\u13d7": 4754,
    "\u13b5\u13cd\u13aa\u13b8\u13d9\u13d7": 4755,
    "\u2581\u13a2\u13e2": 4756,
    "\u2581\u13e3\u13cd\u13a6\u13c5\u13e8": 4757,
    "\u2581\u13a0\u13a9\u13b2": 4758,
    "\u2581\u13a0\u13a2\u13ce": 4759,
    "\u13d9\u13a1\u13cd\u13d7": 4760,
    "\u2581\u13a1\u13b3\u13c2\u13ac\u13a2": 4761,
    "\u13cd\u13da\u13df\u13cd\u13d7": 4762,
    "\u2581\u13a4\u13c2\u13af": 4763,
    "\u2581\u13da\u13b7\u13ac": 4764,
    "\u13a9\u13f3\u13cd\u13c8\u13db": 4765,
    "\u2581\u13d9\u13d3\u13b8\u13a2": 4766,
    "ha": 4767,
    "\u2581\u13a4\u13c4\u13ea": 4768,
    "\u2581\u13d5\u13a8\u13d2": 4769,
    "\u2581\u13d5\u13af\u13c1\u13b8": 4770,
    "\u2581\u13e5\u13a9\u13b5\u13f2\u13ac": 4771,
    "\u2581\u13a4\u13da\u13b8\u13b2": 4772,
    "\u2581\u13a0\u13be\u13a2\u13d2\u13a2": 4773,
    "\u2581\u13a0\u13a6\u13b5\u13cd\u13aa\u13b8\u13d3\u13c1\u13b8": 4774,
    "\u2581\u13c1\u13e3": 4775,
    "\u2581\u13c4\u13b3": 4776,
    "\u13cc\u13db\u13d7": 4777,
    "\u2581\u13d7\u13cd\u13a9\u13a7\u13c1": 4778,
    "\u2581\u13a4\u13c1\u13b3\u13c5": 4779,
[...]
